<unk>	0
<s>	0
</s>	0
▁di	-3.46882
,	-3.53692
▁e	-3.7077
.	-3.80519
▁che	-3.94046
▁la	-4.04986
▁il	-4.18198
'	-4.26081
▁in	-4.29064
▁a	-4.32736
▁per	-4.51859
▁un	-4.58835
▁non	-4.63445
▁è	-4.82332
▁del	-4.84077
▁le	-4.90991
▁i	-4.92334
▁si	-4.92489
▁della	-5.00852
▁una	-5.05004
▁l	-5.07524
▁con	-5.17311
▁da	-5.35648
▁al	-5.45995
▁ma	-5.55255
▁dei	-5.59297
:	-5.65501
▁come	-5.66391
▁più	-5.67563
▁gli	-5.71919
▁sono	-5.71934
▁alla	-5.74407
▁dell	-5.7858
▁nel	-5.79489
▁delle	-5.79669
▁questo	-5.79873
▁se	-5.8061
▁ha	-5.9428
▁o	-5.99827
▁anche	-6.0189
▁lo	-6.04685
re	-6.11107
▁ad	-6.16012
▁mi	-6.18321
no	-6.19356
▁ed	-6.19771
▁ci	-6.27993
▁nella	-6.29516
i	-6.31241
▁.	-6.31577
▁questa	-6.34467
▁*	-6.34486
▁commissione	-6.35809
to	-6.39921
▁dal	-6.41409
o	-6.44131
▁era	-6.44527
▁essere	-6.45393
’	-6.45465
ta	-6.45508
▁all	-6.45611
a	-6.46429
▁cui	-6.46985
e	-6.48685
▁loro	-6.48688
te	-6.49841
▁-	-6.51686
ti	-6.52293
▁tutti	-6.54716
▁sua	-6.54816
▁suo	-6.59639
▁su	-6.60796
va	-6.61114
▁alle	-6.61258
?	-6.6145
▁ai	-6.62498
▁degli	-6.63543
▁d	-6.70805
▁sia	-6.71093
▁tra	-6.71995
▁stato	-6.72721
▁presidente	-6.72865
▁(	-6.73485
▁io	-6.75094
s	-6.75769
▁ne	-6.76299
▁dalla	-6.76318
▁vi	-6.76545
▁de	-6.79118
▁due	-6.80163
▁così	-6.80647
▁tutto	-6.80892
▁parte	-6.81654
▁stati	-6.81737
▁quanto	-6.81989
▁sul	-6.83501
▁quando	-6.86466
▁fatto	-6.86602
▁europea	-6.86716
▁signor	-6.87109
▁ho	-6.87733
▁cosa	-6.89313
▁solo	-6.90814
▁sulla	-6.91362
▁molto	-6.91468
▁prima	-6.93342
▁"	-6.94225
▁hanno	-6.94789
ndo	-6.9561
▁modo	-6.96212
▁parlamento	-6.96287
▁senza	-6.97007
▁quale	-6.97155
r	-6.97414
▁	-6.99027
▁ancora	-6.99074
▁ciò	-6.99236
chi	-6.99404
▁quella	-7.0268
▁ogni	-7.03073
▁poi	-7.03464
▁consiglio	-7.04434
▁può	-7.04536
▁noi	-7.04593
▁perché	-7.05015
;	-7.06071
▁mio	-7.06533
▁abbiamo	-7.0684
▁uno	-7.08984
▁c	-7.091
▁relazione	-7.09266
▁sempre	-7.09297
▁altri	-7.09813
▁dopo	-7.10024
▁tempo	-7.11696
▁fare	-7.12601
▁già	-7.13122
▁fu	-7.13413
▁quello	-7.13642
mot	-7.13728
▁me	-7.13769
unione	-7.14968
▁fa	-7.15525
▁questi	-7.16399
▁nei	-7.18781
▁anni	-7.19282
▁politica	-7.20351
▁nell	-7.21599
▁qui	-7.22297
-	-7.2253
)	-7.23045
▁ora	-7.23196
▁quindi	-7.23262
si	-7.23663
▁tale	-7.24193
▁chi	-7.26128
▁aveva	-7.27168
▁nelle	-7.27427
▁paesi	-7.27843
▁quali	-7.28265
▁quel	-7.28665
▁fra	-7.31695
▁egli	-7.33367
rsi	-7.33948
!	-7.35323
▁lavoro	-7.3551
▁vita	-7.35767
▁mia	-7.36593
▁?	-7.38351
vano	-7.38441
▁tutte	-7.40079
▁dove	-7.40519
▁contro	-7.4075
▁lui	-7.41429
▁europeo	-7.41658
ni	-7.41758
▁volta	-7.42975
▁suoi	-7.43703
ne	-7.44984
▁membri	-7.45231
è	-7.45511
sse	-7.45612
▁altro	-7.46121
▁deve	-7.46598
▁punto	-7.46604
▁secondo	-7.46768
▁,	-7.47593
▁dall	-7.48289
▁nostro	-7.48936
▁perchè	-7.492
▁re	-7.50035
mente	-7.50172
le	-7.50173
▁ti	-7.5049
▁queste	-7.50512
▁proprio	-7.51409
▁mai	-7.51832
▁grande	-7.53148
▁bene	-7.54936
▁oggi	-7.55111
▁lei	-7.55386
▁dire	-7.56004
▁tanto	-7.56612
▁siamo	-7.57185
▁col	-7.57691
li	-7.58444
▁sotto	-7.5944
▁giorno	-7.60325
▁no	-7.60667
▁nostra	-7.6067
na	-7.60761
▁li	-7.60886
▁primo	-7.61293
▁tre	-7.6166
▁stesso	-7.61663
▁mondo	-7.61741
▁allora	-7.62045
▁sarà	-7.62789
▁qualche	-7.62972
ri	-7.63111
t	-7.63415
"	-7.64563
▁tu	-7.65054
▁agli	-7.65285
▁alcuni	-7.65317
▁dai	-7.65554
▁fine	-7.65657
▁via	-7.66314
▁sarebbe	-7.66476
▁detto	-7.67849
▁proposta	-7.68597
▁stata	-7.68916
▁vorrei	-7.6951
▁però	-7.69726
n	-7.69765
▁caso	-7.7105
nte	-7.711
▁cose	-7.71635
ro	-7.71663
▁far	-7.71666
▁erano	-7.72866
▁sue	-7.73849
▁dalle	-7.73897
▁sta	-7.74028
▁dobbiamo	-7.74556
▁nome	-7.749
▁s	-7.75048
▁voi	-7.75312
▁problema	-7.75468
▁meno	-7.75583
▁forse	-7.75679
▁va	-7.76988
la	-7.77166
...	-7.77317
▁sì	-7.78757
▁po	-7.79089
▁casa	-7.79158
▁altre	-7.79541
▁tuttavia	-7.7973
▁paese	-7.79731
▁commissario	-7.80276
▁poco	-7.80441
m	-7.80856
▁momento	-7.80865
rono	-7.81008
▁importante	-7.81117
▁persone	-7.8137
▁tratta	-7.82743
l	-7.82826
▁verso	-7.82964
▁nuovo	-7.83036
▁fosse	-7.83153
▁sulle	-7.83527
▁diritti	-7.83837
▁onorevole	-7.8398
▁tutta	-7.84498
▁possibile	-7.84842
▁gruppo	-7.8487
▁signora	-7.85061
nti	-7.8539
▁te	-7.85427
ò	-7.85712
▁molti	-7.86938
▁questione	-7.87471
▁sviluppo	-7.88742
▁quelle	-7.89262
ci	-7.89346
▁avere	-7.89741
▁comune	-7.8988
onorevole	-7.90156
▁città	-7.90356
▁particolare	-7.91643
▁mentre	-7.92101
▁nostri	-7.92157
zione	-7.92211
▁so	-7.92656
▁ben	-7.92773
▁gran	-7.93336
▁situazione	-7.93969
▁certo	-7.94004
▁dello	-7.94016
▁luogo	-7.94489
▁“	-7.94695
▁cittadini	-7.94911
▁esempio	-7.94918
▁sui	-7.95229
▁quasi	-7.95406
mo	-7.95565
▁invece	-7.95902
vi	-7.96523
▁livello	-7.96534
▁diritto	-7.96614
▁governo	-7.969
rlo	-7.96992
▁rispetto	-7.97215
▁sicurezza	-7.97617
▁vero	-7.98663
▁sistema	-7.99541
▁sull	-7.9985
lo	-8.00287
▁inoltre	-8.01136
▁fino	-8.01302
▁viene	-8.01399
▁possono	-8.03061
▁nè	-8.03401
▁materia	-8.04708
mi	-8.04978
se	-8.0513
▁tali	-8.05477
▁credo	-8.05539
vo	-8.0565
▁base	-8.0595
▁settore	-8.06433
▁mercato	-8.06577
▁troppo	-8.06957
▁sa	-8.07016
▁aver	-8.09071
▁sopra	-8.09804
▁roma	-8.09909
▁mano	-8.10044
▁guerra	-8.11712
rà	-8.11759
▁parole	-8.11789
▁allo	-8.1232
▁volte	-8.12383
▁negli	-8.12637
▁n	-8.12676
▁problemi	-8.13676
▁siano	-8.14697
▁soltanto	-8.15726
▁stessa	-8.16114
▁programma	-8.16238
▁generale	-8.16576
▁dio	-8.16641
▁pertanto	-8.16789
▁quelli	-8.17117
▁processo	-8.17824
▁unione	-8.18066
▁et	-8.18083
▁favore	-8.18703
▁riguarda	-8.18794
▁nuova	-8.18932
▁anno	-8.1897
▁oltre	-8.19067
▁colleghi	-8.19478
co	-8.19517
▁sei	-8.19536
▁possiamo	-8.19583
▁terra	-8.20499
▁meglio	-8.20635
▁discussione	-8.2082
▁dunque	-8.20993
▁dice	-8.21097
▁dato	-8.21355
europa	-8.21371
▁uomini	-8.21817
▁occhi	-8.21867
ca	-8.22539
▁conto	-8.22898
▁necessario	-8.23103
▁grandi	-8.23262
▁donne	-8.23746
rla	-8.23844
▁numero	-8.24414
▁nulla	-8.24644
▁sociale	-8.24776
rmi	-8.25229
▁soprattutto	-8.25399
▁vista	-8.25497
▁direttiva	-8.25657
▁alcune	-8.26257
▁mezzo	-8.2666
sa	-8.26714
di	-8.26822
▁vedere	-8.2692
▁morte	-8.27445
▁insieme	-8.27538
▁possa	-8.27543
▁avrebbe	-8.27692
c	-8.27828
▁senso	-8.27941
▁donna	-8.28059
▁bilancio	-8.28642
▁lungo	-8.28736
so	-8.28877
▁futuro	-8.28886
▁europa	-8.29121
▁maggiore	-8.29477
▁«	-8.29593
▁emendamenti	-8.29842
▁storia	-8.30158
▁popolo	-8.3019
▁essa	-8.30216
▁essi	-8.30226
▁infatti	-8.30322
▁porta	-8.30385
mento	-8.30413
▁ri	-8.30675
▁quest	-8.30874
▁onorevoli	-8.31097
▁posizione	-8.31225
▁giorni	-8.31583
▁dare	-8.3195
rci	-8.31967
▁disse	-8.32325
▁devono	-8.32358
▁società	-8.32773
▁bisogno	-8.32814
▁campo	-8.33122
▁possibilità	-8.33741
▁libertà	-8.33933
▁potrebbe	-8.34367
▁uomo	-8.34415
▁né	-8.34837
▁fuori	-8.35491
▁parti	-8.35821
▁trattato	-8.35829
▁!	-8.35857
▁sembra	-8.36131
sti	-8.36282
▁cuore	-8.36369
▁forza	-8.36772
▁legge	-8.37296
de	-8.37472
▁abbia	-8.37719
▁proposte	-8.37744
▁corso	-8.37993
d	-8.38096
▁grazie	-8.38198
▁ricerca	-8.38299
▁pace	-8.386
▁presente	-8.38735
x	-8.38891
amo	-8.38928
▁posto	-8.39028
ra	-8.39057
▁forma	-8.40065
ssero	-8.40183
▁capo	-8.40292
▁risposta	-8.40338
▁cioè	-8.40444
▁nostre	-8.40484
▁propria	-8.40535
▁tal	-8.40874
tta	-8.40971
▁co	-8.40991
▁ce	-8.41317
▁spesso	-8.41972
▁principio	-8.42031
ma	-8.42164
▁dovrebbe	-8.42206
▁grado	-8.42262
▁buona	-8.42795
▁ragione	-8.42913
▁misure	-8.42929
▁fronte	-8.42971
▁causa	-8.43186
▁visto	-8.43215
▁ecco	-8.43418
▁necessità	-8.43693
sta	-8.43798
tti	-8.43853
▁pure	-8.43892
▁durante	-8.43959
▁posso	-8.44124
▁state	-8.44406
anno	-8.44837
▁passo	-8.44991
▁presso	-8.44997
▁molte	-8.45363
▁ella	-8.45789
▁appena	-8.46046
altro	-8.46341
▁parola	-8.46394
▁condizioni	-8.46558
▁poter	-8.46573
▁merito	-8.46703
▁fece	-8.4693
▁seconda	-8.47015
▁buon	-8.47546
▁dagli	-8.47636
▁realtà	-8.47946
ve	-8.48069
▁controllo	-8.48417
▁là	-8.49067
▁quei	-8.49274
▁circa	-8.49288
▁avuto	-8.495
▁davvero	-8.49763
▁adesso	-8.50097
▁padre	-8.50169
▁quadro	-8.50251
”	-8.50633
zioni	-8.50739
▁domanda	-8.50889
rne	-8.50988
in	-8.51065
▁pur	-8.51243
▁qualità	-8.51268
▁attività	-8.5136
▁piano	-8.51371
▁mani	-8.51468
▁servizi	-8.51489
▁voglio	-8.51509
▁voce	-8.52112
ssi	-8.52214
▁internazionale	-8.52413
▁desidero	-8.52806
).	-8.52821
▁italia	-8.52842
▁accordo	-8.53512
▁gente	-8.53518
▁occorre	-8.53665
▁cooperazione	-8.53724
▁tempi	-8.53768
▁quattro	-8.53839
ndosi	-8.54211
▁europei	-8.54578
▁tipo	-8.5486
/	-8.55106
▁2	-8.55303
▁nuove	-8.55486
▁nuovi	-8.55486
▁hai	-8.55679
▁tuo	-8.55752
▁comunque	-8.56081
▁subito	-8.56146
tà	-8.56251
▁diversi	-8.56498
▁vengono	-8.56622
▁politiche	-8.5668
▁regolamento	-8.57254
▁saranno	-8.57349
▁qualcosa	-8.57755
▁miei	-8.57813
▁prodotti	-8.57833
▁strada	-8.5793
▁risoluzione	-8.58248
▁san	-8.58776
▁forte	-8.58912
▁comunità	-8.59862
▁regno	-8.59954
▁progetto	-8.60114
▁esso	-8.60199
che	-8.60225
▁andare	-8.6023
▁presidenza	-8.60472
▁fondo	-8.60832
▁attraverso	-8.60986
▁1	-8.61021
▁male	-8.61037
y	-8.61069
▁luce	-8.61214
▁ruolo	-8.61289
▁nazionale	-8.61396
tto	-8.62102
▁milioni	-8.62102
▁avevano	-8.62481
▁seguito	-8.62676
▁nessuno	-8.6303
▁termine	-8.63106
▁informazioni	-8.63157
▁nazionali	-8.63218
tte	-8.63437
▁decisione	-8.63505
▁fatti	-8.63812
b	-8.6394
▁qual	-8.63974
ce	-8.64026
▁persona	-8.64163
ranno	-8.64177
me	-8.6432
▁infine	-8.64331
▁natura	-8.6448
accordo	-8.64512
ʼ	-8.64799
da	-8.65194
▁maggior	-8.653
▁riguardo	-8.65472
▁bisogna	-8.65498
▁pubblica	-8.65732
▁pare	-8.66111
▁furono	-8.66229
rli	-8.66296
bile	-8.66831
▁imprese	-8.66905
▁ritengo	-8.66933
▁ii	-8.67308
gli	-8.67397
▁francia	-8.67475
ssimo	-8.67545
▁responsabilità	-8.67678
▁coloro	-8.68288
▁pubblico	-8.6855
▁oh	-8.68794
▁parlare	-8.6905
▁libro	-8.69051
▁bella	-8.6939
▁famiglia	-8.69421
▁prendere	-8.69571
▁potuto	-8.69893
▁punti	-8.69948
▁parere	-8.70015
▁anzi	-8.70035
▁3	-8.70084
▁almeno	-8.70092
▁piú	-8.7037
▁avanti	-8.70397
▁papa	-8.70476
rle	-8.70483
▁=	-8.70847
▁aiuti	-8.7104
▁dati	-8.71117
p	-8.71149
io	-8.71363
".	-8.71407
▁fin	-8.71513
▁lotta	-8.71528
▁sede	-8.71553
▁autorità	-8.71609
▁mesi	-8.71882
▁diverse	-8.7203
▁relatore	-8.7232
▁relazioni	-8.72361
▁proposito	-8.72416
▁garantire	-8.72632
▁chiesa	-8.72878
▁colla	-8.72916
▁vuole	-8.73082
▁son	-8.73175
▁altra	-8.73372
zza	-8.73423
▁politico	-8.73551
▁trovare	-8.73632
▁ore	-8.73859
▁tua	-8.73958
▁fondi	-8.73966
▁testa	-8.744
▁fanno	-8.74627
▁poteva	-8.74636
▁signore	-8.74782
▁poiché	-8.74911
▁intorno	-8.75487
▁uniti	-8.75506
altra	-8.75585
▁qua	-8.75974
▁corpo	-8.76054
▁corte	-8.76067
▁periodo	-8.76114
▁difficile	-8.76668
▁faccia	-8.76743
▁motivo	-8.76917
azione	-8.7731
g	-8.77596
rvi	-8.77627
▁assai	-8.7763
▁significa	-8.77687
rò	-8.78058
▁breve	-8.78653
▁sapere	-8.78659
▁veramente	-8.78854
▁dibattito	-8.78961
▁giustizia	-8.79122
▁norme	-8.79249
▁mare	-8.79283
▁soluzione	-8.79292
▁pro	-8.79553
▁alcun	-8.80241
▁euro	-8.8046
▁notte	-8.8047
▁umani	-8.80605
u	-8.8062
▁procedura	-8.80728
▁testo	-8.80838
▁prova	-8.80869
▁giovani	-8.80979
▁vogliamo	-8.81105
▁sola	-8.81366
▁sostegno	-8.81413
▁tema	-8.81533
▁casi	-8.81619
▁sera	-8.81793
▁deputati	-8.81974
▁economica	-8.82001
▁pari	-8.82076
▁effetti	-8.82168
▁stiamo	-8.82192
▁mettere	-8.82335
▁v	-8.82394
ria	-8.82432
▁affinché	-8.82549
▁nello	-8.82566
▁salute	-8.82934
▁obiettivi	-8.83034
ste	-8.83121
▁questioni	-8.83143
▁pochi	-8.83146
▁ultimi	-8.83556
▁terzo	-8.83785
▁5	-8.83846
▁cinque	-8.83952
▁pesca	-8.8398
▁serie	-8.84094
▁successo	-8.84266
do	-8.84273
▁attenzione	-8.84319
▁risorse	-8.84322
▁potere	-8.8449
▁istituzioni	-8.84828
▁avesse	-8.84908
▁dietro	-8.85094
▁ve	-8.8514
▁misura	-8.85374
▁passato	-8.85384
lla	-8.85411
▁spirito	-8.85414
▁nonché	-8.85439
▁principi	-8.85456
▁penso	-8.85483
▁piuttosto	-8.85589
▁bambini	-8.85625
▁linea	-8.85709
▁madre	-8.85715
▁vostra	-8.85724
▁migliore	-8.85845
▁servizio	-8.86003
▁rappresenta	-8.86222
▁lettera	-8.86337
f	-8.86508
▁sè	-8.8668
▁spero	-8.86929
▁aspetti	-8.87003
▁valore	-8.87125
interno	-8.87133
ga	-8.87274
▁data	-8.87275
▁resto	-8.87601
tori	-8.87883
▁sole	-8.87902
▁regioni	-8.88143
▁dentro	-8.88264
era	-8.88453
▁studio	-8.88492
▁4	-8.88709
▁primi	-8.88857
▁avete	-8.89103
▁importanti	-8.89151
il	-8.89157
mmo	-8.89335
▁guarda	-8.89389
▁sociali	-8.89407
bili	-8.89413
▁chiaro	-8.89626
menti	-8.89635
▁alcuna	-8.89882
▁stessi	-8.90828
us	-8.90954
▁occasione	-8.91429
v	-8.91472
▁qualsiasi	-8.91533
▁tanti	-8.91716
▁partito	-8.91843
▁confronti	-8.91999
▁creare	-8.92002
▁spazio	-8.92392
▁maniera	-8.92409
▁atto	-8.92891
▁naturalmente	-8.93057
▁presto	-8.93149
▁trova	-8.93467
▁centro	-8.93558
uomo	-8.93587
▁richiesta	-8.93671
▁innanzi	-8.93722
ambiente	-8.93775
▁termini	-8.93803
▁vostro	-8.93843
▁sangue	-8.93886
▁protezione	-8.94359
▁riforma	-8.94436
▁amici	-8.94569
▁risultati	-8.94577
▁armi	-8.94611
▁importanza	-8.94929
▁parla	-8.95054
go	-8.95059
▁fatta	-8.95062
▁ah	-8.95131
▁facendo	-8.95184
▁piedi	-8.95447
▁x	-8.95494
▁fede	-8.95542
▁difficoltà	-8.95747
▁titolo	-8.95938
▁contrario	-8.96063
),	-8.9626
▁amore	-8.96313
▁finalmente	-8.9641
▁vale	-8.9661
▁conte	-8.96685
▁niente	-8.96757
&	-8.96776
nza	-8.96807
▁programmi	-8.96816
▁produzione	-8.97007
▁perciò	-8.97426
▁consumatori	-8.97542
▁posti	-8.97833
um	-8.98003
▁repubblica	-8.98052
▁semplice	-8.98212
»	-8.98342
ambito	-8.98492
▁preso	-8.9852
▁regione	-8.98581
▁b	-8.98633
▁ordine	-8.98636
▁interno	-8.99189
▁giusto	-8.99357
h	-8.99387
▁dovuto	-8.99614
▁tutela	-8.99957
▁pensiero	-8.99977
▁gestione	-9.00167
▁volontà	-9.00625
▁stanno	-9.00767
▁cento	-9.00828
▁opera	-9.00838
▁milano	-9.00856
▁domani	-9.00885
▁do	-9.01158
▁lì	-9.01249
▁difesa	-9.01264
▁ottenere	-9.01343
▁eh	-9.01471
▁10	-9.01585
▁mente	-9.01783
▁carlo	-9.01974
▁figlio	-9.0198
▁politici	-9.02091
▁personale	-9.02141
▁mondiale	-9.02349
▁commercio	-9.02541
▁comunicazione	-9.02546
articolo	-9.02848
▁ringrazio	-9.03028
▁formazione	-9.03081
▁devo	-9.03216
▁aspetto	-9.03444
tore	-9.03638
▁sappiamo	-9.03745
▁mie	-9.03786
▁specie	-9.04102
▁venne	-9.04321
▁cura	-9.04336
▁entro	-9.04361
▁ormai	-9.04809
▁secolo	-9.0497
▁presentato	-9.0499
▁popolazione	-9.0534
▁venga	-9.05632
▁esiste	-9.05651
▁ministro	-9.05679
▁affrontare	-9.05898
▁collega	-9.06141
▁onde	-9.06233
▁pel	-9.06496
▁dieci	-9.06555
▁ebbe	-9.066
▁azioni	-9.06601
▁interessi	-9.06667
▁scuola	-9.06668
▁musica	-9.07083
▁animali	-9.07203
▁assolutamente	-9.07264
▁essendo	-9.07275
▁crisi	-9.07436
▁debba	-9.07463
▁potrà	-9.07615
▁esser	-9.07731
▁fondamentale	-9.07739
▁moglie	-9.07783
▁risultato	-9.078
▁votazione	-9.07937
▁continua	-9.08072
▁piccolo	-9.08193
▁economico	-9.08346
▁coi	-9.08362
▁pi	-9.08382
▁scopo	-9.08502
▁genere	-9.08512
▁ove	-9.08549
▁fossero	-9.08604
▁letto	-9.08632
▁or	-9.08659
▁alto	-9.08705
▁dovrà	-9.08752
▁seno	-9.08951
▁gruppi	-9.08971
▁proprie	-9.09054
▁articolo	-9.09131
▁bel	-9.09156
▁que	-9.09299
▁unico	-9.09305
▁vari	-9.09363
▁davanti	-9.0937
▁giovane	-9.09512
▁vede	-9.09525
▁verità	-9.09563
▁duca	-9.09569
.)	-9.09576
▁mese	-9.09727
rti	-9.09847
▁rischio	-9.09914
▁vera	-9.0992
▁presenza	-9.0997
▁grave	-9.10066
▁an	-9.10138
(	-9.10253
▁mezzi	-9.10323
▁–	-9.10612
▁pensare	-9.10723
▁sugli	-9.10743
▁lavoratori	-9.10785
▁tratto	-9.11279
▁decisioni	-9.11458
▁pratica	-9.11679
▁nazioni	-9.11708
▁possano	-9.11816
▁accordi	-9.11963
▁democrazia	-9.1201
▁progetti	-9.12169
▁conferenza	-9.12184
▁forze	-9.12375
▁doveva	-9.12675
que	-9.12761
▁dubbio	-9.12844
▁carattere	-9.12932
▁rende	-9.12953
nt	-9.13086
▁faceva	-9.13159
on	-9.13341
▁settori	-9.13351
▁riferimento	-9.13382
▁tante	-9.13483
▁cielo	-9.13753
▁concorrenza	-9.13895
▁prese	-9.13981
▁attualmente	-9.14169
▁farlo	-9.14234
▁basta	-9.1437
▁obiettivo	-9.14517
ordine	-9.14553
fi	-9.14567
▁certamente	-9.14572
▁intende	-9.14668
▁avea	-9.14686
▁centrale	-9.14871
▁presenti	-9.15047
▁capacità	-9.15197
▁interesse	-9.15237
▁presentata	-9.15351
▁rispose	-9.1559
▁vecchio	-9.1576
▁rendere	-9.15762
sca	-9.15781
▁convenzione	-9.15902
▁comuni	-9.1598
▁purtroppo	-9.16112
lli	-9.16498
▁direzione	-9.16577
▁spese	-9.16703
▁lavori	-9.16773
▁mal	-9.16778
▁popoli	-9.16833
▁avendo	-9.16891
▁strumenti	-9.16891
▁15	-9.1694
▁dì	-9.171
▁lunga	-9.17142
▁settimana	-9.17242
▁disposizione	-9.17273
▁fondamentali	-9.17301
▁vanno	-9.17313
▁voto	-9.17423
▁crescita	-9.17642
▁lato	-9.17821
▁libera	-9.17836
▁dialogo	-9.17876
▁scorso	-9.17881
ssa	-9.17996
▁principe	-9.18003
rebbe	-9.18037
▁francese	-9.18044
▁leggi	-9.18046
▁prossimo	-9.18051
▁europee	-9.18164
▁napoli	-9.18262
▁evitare	-9.18653
ssima	-9.18655
▁speranza	-9.18721
▁colle	-9.18738
▁oggetto	-9.18813
▁sistemi	-9.1882
▁don	-9.18858
▁ca	-9.18899
un	-9.18972
▁gioco	-9.19097
▁6	-9.19165
▁mamma	-9.19284
sco	-9.19288
▁vicino	-9.19347
▁to	-9.19463
emendamento	-9.19697
▁passi	-9.19767
▁affari	-9.20042
rio	-9.20081
▁el	-9.20289
▁20	-9.20306
▁giovanni	-9.20517
▁creazione	-9.20549
▁ovviamente	-9.20651
▁...	-9.20782
▁esse	-9.20799
▁qualcuno	-9.20868
▁vivere	-9.21063
▁conseguenze	-9.21115
▁maggioranza	-9.21134
▁chiedere	-9.21156
ato	-9.21192
▁nota	-9.21329
▁voleva	-9.21494
▁voluto	-9.21524
▁elementi	-9.21621
▁considerazione	-9.21703
▁maggio	-9.21943
▁facile	-9.22003
▁strumento	-9.22127
▁valutazione	-9.22134
▁scritto	-9.2223
▁sostenere	-9.22423
▁stava	-9.22477
▁camera	-9.22598
▁varie	-9.22637
▁messo	-9.22801
▁fase	-9.22835
▁negoziati	-9.22869
▁simile	-9.22895
rie	-9.22933
▁paura	-9.22955
▁carta	-9.22961
j	-9.23019
▁francesco	-9.23095
llo	-9.23242
▁amico	-9.2333
▁pena	-9.23582
▁contesto	-9.2362
▁venire	-9.23643
▁giudizio	-9.23741
▁qualunque	-9.23857
▁capire	-9.24019
▁ra	-9.24051
▁disposizioni	-9.24179
▁propri	-9.2425
▁19	-9.24397
▁avevo	-9.24416
▁intervento	-9.24461
▁cultura	-9.24463
▁mostra	-9.2453
02	-9.24637
▁comunitario	-9.2464
▁trasporto	-9.24787
▁pre	-9.24913
▁vuoi	-9.24967
▁territorio	-9.25096
▁tenere	-9.25099
▁membro	-9.25156
▁canto	-9.25293
▁patria	-9.25431
▁poichè	-9.25513
▁figli	-9.2561
▁raggiungere	-9.25637
▁abbastanza	-9.25654
▁lingua	-9.25698
▁carica	-9.25706
▁conseguenza	-9.25745
▁sé	-9.25769
▁costi	-9.25857
occupazione	-9.25986
▁maria	-9.26117
rgli	-9.2619
▁naturale	-9.26252
▁migliorare	-9.26268
▁resta	-9.26334
▁settembre	-9.26474
▁siete	-9.26728
smo	-9.26755
▁rispondere	-9.27052
▁dichiarazione	-9.27185
▁vertice	-9.27189
▁fiducia	-9.27299
▁ragioni	-9.27592
▁iii	-9.27609
▁avviso	-9.27642
▁tanta	-9.27672
z	-9.27686
▁capi	-9.27862
sce	-9.27872
▁civile	-9.28025
▁firenze	-9.28077
▁regole	-9.281
▁mille	-9.28113
▁positivo	-9.28207
▁semplicemente	-9.28226
▁diceva	-9.2846
▁principali	-9.28623
▁ambito	-9.28628
▁piccoli	-9.28694
▁progressi	-9.28708
ge	-9.28828
▁nonostante	-9.2886
▁emendamento	-9.28869
▁quanti	-9.29112
pa	-9.29177
▁migliori	-9.29213
▁sito	-9.29218
ano	-9.2923
▁compito	-9.29264
▁esprimere	-9.29272
▁ricordare	-9.29333
▁partire	-9.29421
ha	-9.29584
▁m	-9.29584
▁portare	-9.29819
ora	-9.29997
▁chiaramente	-9.30014
▁idea	-9.30063
▁pe	-9.30132
▁dovrebbero	-9.30271
▁nemmeno	-9.30317
▁scelta	-9.3037
▁strategia	-9.30484
▁impegno	-9.30719
▁gravi	-9.30782
▁ossia	-9.3081
▁viaggio	-9.30889
▁chiama	-9.3089
eri	-9.30891
▁sicuro	-9.3114
▁atti	-9.31262
▁18	-9.31274
▁dico	-9.31288
▁soldati	-9.31293
are	-9.31352
is	-9.31415
▁prodotto	-9.31423
▁dicembre	-9.31462
ue	-9.31574
▁priorità	-9.31693
▁pericolo	-9.31768
▁giuridica	-9.31789
▁legislazione	-9.31845
▁chiedo	-9.31859
▁chiede	-9.31862
▁comitato	-9.31922
▁dà	-9.31959
▁vigore	-9.32003
▁mo	-9.32009
▁sto	-9.32027
▁mette	-9.32114
▁piccola	-9.32139
gi	-9.32301
▁par	-9.32336
▁cos	-9.32355
▁nord	-9.32375
▁fuoco	-9.32447
▁destra	-9.32617
▁seguente	-9.32621
▁probabilmente	-9.32756
▁ricordo	-9.32854
▁maggiori	-9.32883
▁giugno	-9.32894
▁piccole	-9.32962
▁certa	-9.33001
▁pieno	-9.33173
▁marzo	-9.33265
▁documento	-9.33361
▁passare	-9.33387
",	-9.33444
▁verrà	-9.33531
▁nessun	-9.33553
▁continuare	-9.337
pi	-9.33934
▁modello	-9.34109
▁motivi	-9.34115
▁piena	-9.34249
▁ieri	-9.34338
▁estremamente	-9.34682
▁partecipazione	-9.34731
▁opere	-9.34766
▁sinistra	-9.34904
inizio	-9.35003
▁idee	-9.35004
▁collaborazione	-9.35006
▁forme	-9.35034
▁candidati	-9.35119
▁chiesto	-9.3512
▁danno	-9.35135
▁verde	-9.35371
▁seduta	-9.35501
▁intanto	-9.35561
idea	-9.35581
▁attuale	-9.35587
▁bianco	-9.35703
▁oppure	-9.3572
▁governi	-9.35787
▁svolto	-9.35849
▁:	-9.35938
fa	-9.35995
▁visita	-9.35996
▁principale	-9.36027
▁particolarmente	-9.36069
▁medesimo	-9.36324
▁ultimo	-9.36424
▁necessaria	-9.36597
».	-9.36643
ho	-9.36988
▁percento	-9.37082
▁cerca	-9.3716
▁cercare	-9.37387
▁aiuto	-9.3742
▁reale	-9.37473
▁sai	-9.37495
▁fortuna	-9.37633
▁bensì	-9.37714
ale	-9.3782
▁7	-9.37827
▁+	-9.37834
▁deciso	-9.3789
▁uso	-9.38028
▁media	-9.38144
pe	-9.3815
▁sottolineare	-9.38274
▁piacere	-9.38363
▁riduzione	-9.38424
▁ancor	-9.38501
▁lettura	-9.38531
▁sufficiente	-9.38548
obiettivo	-9.3858
▁ministri	-9.3861
▁azione	-9.3864
▁libero	-9.38646
▁dovremmo	-9.38693
”.	-9.38822
▁italiano	-9.38885
▁italiana	-9.38912
▁bocca	-9.38965
▁gennaio	-9.39086
po	-9.39337
▁presentare	-9.39384
▁trasporti	-9.394
▁p	-9.39595
industria	-9.39597
▁trovato	-9.39626
▁esame	-9.39639
be	-9.39788
▁iniziative	-9.39838
▁volto	-9.39856
▁com	-9.39858
▁affatto	-9.39859
▁concetto	-9.40003
▁efficace	-9.40141
▁condizione	-9.40234
▁avrà	-9.40297
▁reca	-9.40323
▁ringraziare	-9.40373
▁bello	-9.40549
▁conoscenza	-9.40684
▁turchia	-9.40701
▁silenzio	-9.40738
▁contributo	-9.40823
▁studi	-9.40946
▁tardi	-9.41108
▁vuol	-9.41259
tá	-9.41331
tura	-9.4142
▁sicuramente	-9.41522
▁potrebbero	-9.41589
▁pareva	-9.41721
▁parlato	-9.41775
▁vedi	-9.4178
▁en	-9.41925
▁internazionali	-9.42013
▁libri	-9.42257
▁sebbene	-9.42328
▁santa	-9.42419
▁desiderio	-9.4255
▁rete	-9.42565
▁quegli	-9.427
▁pubblici	-9.42778
er	-9.42865
▁anch	-9.42937
▁rapporto	-9.42956
▁coscienza	-9.43087
▁fini	-9.43144
▁dimostra	-9.43179
zzazione	-9.43179
▁appunto	-9.43218
▁violenza	-9.4326
▁umana	-9.43261
▁lettere	-9.43285
▁virtù	-9.43323
▁lavorare	-9.4349
uso	-9.43511
▁dolore	-9.43523
▁porre	-9.43554
▁monte	-9.43572
▁12	-9.43595
▁sforzi	-9.43627
▁sarebbero	-9.4369
▁ovvero	-9.43697
▁guida	-9.43705
▁luglio	-9.43846
▁relativa	-9.4405
▁mandato	-9.44051
▁sette	-9.44068
▁conti	-9.44094
▁opportunità	-9.4463
▁ba	-9.44761
▁marito	-9.44811
trice	-9.44919
en	-9.44919
▁nessuna	-9.45026
glia	-9.45112
▁germania	-9.45131
▁prezzo	-9.4521
tu	-9.45347
▁zona	-9.45356
▁ero	-9.45407
▁bi	-9.45414
▁militare	-9.4551
▁facciamo	-9.45514
▁mattina	-9.45541
▁economici	-9.45559
▁caro	-9.4562
k	-9.4567
▁g	-9.45756
▁morto	-9.45785
▁acqua	-9.45855
▁banca	-9.45965
lle	-9.46109
▁costituisce	-9.46111
▁bo	-9.46164
▁simili	-9.46206
▁tom	-9.46224
ere	-9.46231
▁venezia	-9.46269
▁30	-9.46313
▁mantenere	-9.46318
▁sentire	-9.46481
▁regime	-9.46511
per	-9.46534
▁stampa	-9.46534
▁massima	-9.46535
▁fratello	-9.4657
▁lontano	-9.46713
inv	-9.46748
▁stesse	-9.46773
▁seguire	-9.46801
▁risulta	-9.46884
▁piace	-9.46942
▁accettare	-9.47227
ia	-9.47294
▁altresì	-9.47375
es	-9.47466
▁battaglia	-9.47523
▁valori	-9.47687
▁novembre	-9.47726
▁utile	-9.47748
▁vogliono	-9.47758
▁stabilità	-9.47842
ba	-9.47846
▁vediamo	-9.4803
▁memoria	-9.48091
▁campagna	-9.48112
▁trasparenza	-9.48134
▁case	-9.48151
gna	-9.48159
▁direttamente	-9.48208
▁sensi	-9.4832
▁denaro	-9.48453
▁metà	-9.48518
▁ridurre	-9.4863
zze	-9.48749
▁dicendo	-9.4887
ate	-9.48876
▁relative	-9.48909
▁posta	-9.48954
▁entrare	-9.49001
w	-9.49139
▁voglia	-9.49286
▁lor	-9.4929
it	-9.49406
▁abbiano	-9.49413
▁sinistro	-9.49575
▁proposto	-9.496
▁minuti	-9.49714
▁presenta	-9.49765
▁regionale	-9.49784
▁promuovere	-9.49939
▁vengano	-9.49959
ultimo	-9.49988
▁esperienza	-9.50146
▁ambientale	-9.50271
▁discorso	-9.50338
▁certi	-9.50627
▁conclusione	-9.50757
▁felice	-9.50866
▁rimane	-9.51028
▁applicazione	-9.51059
▁cristo	-9.51122
▁opportuno	-9.5113
▁cosí	-9.51182
bo	-9.512
▁italiani	-9.51206
erà	-9.51303
▁struttura	-9.51312
▁essenziale	-9.51323
▁credere	-9.51332
economia	-9.5139
▁carne	-9.51418
▁locali	-9.51474
nda	-9.51569
▁definizione	-9.51605
▁risolvere	-9.51622
▁umano	-9.51652
▁nato	-9.51685
▁pietro	-9.51741
▁avrebbero	-9.51801
▁adottare	-9.51847
▁fiori	-9.51985
▁terzi	-9.52075
▁conoscere	-9.5224
▁francesi	-9.52265
▁propone	-9.52302
gt	-9.52315
rai	-9.52402
▁lascia	-9.52453
▁parlamentari	-9.5252
bc	-9.52533
▁molta	-9.52624
▁prende	-9.52724
▁mancanza	-9.5284
▁domande	-9.52901
▁indietro	-9.52927
▁ambiente	-9.52975
▁coraggio	-9.52994
▁alta	-9.5304
▁prime	-9.53103
▁piazza	-9.5311
▁documenti	-9.53139
▁soli	-9.53181
▁auto	-9.53209
▁effetto	-9.53308
▁destro	-9.53361
▁pensa	-9.53423
▁passa	-9.53487
bi	-9.5352
▁figura	-9.53566
▁fe	-9.53674
▁procedure	-9.53762
▁riteniamo	-9.53906
ata	-9.53915
▁procedere	-9.53958
▁solamente	-9.54191
acqua	-9.54258
▁organizzazioni	-9.54416
ssimi	-9.54461
nze	-9.54488
▁prevede	-9.54507
▁puoi	-9.54619
▁unite	-9.54693
▁venuto	-9.54928
▁criteri	-9.54931
▁dovere	-9.55083
▁prezzi	-9.55125
▁precedente	-9.55143
▁sala	-9.55145
ì	-9.55175
▁totale	-9.55296
▁internet	-9.55407
▁fornire	-9.55443
▁funzione	-9.55477
▁paragrafo	-9.55507
▁parlamentare	-9.55532
▁necessarie	-9.55554
▁chiara	-9.55642
▁nemico	-9.55645
▁modifica	-9.55745
▁sud	-9.55772
▁8	-9.55793
▁capitolo	-9.55799
euro	-9.55821
▁14	-9.55887
▁segno	-9.55891
▁favorevole	-9.5591
▁signori	-9.55927
▁strutturali	-9.55953
▁sapete	-9.55973
▁moneta	-9.55976
▁modi	-9.56043
▁tenuto	-9.56221
▁giù	-9.56221
ultima	-9.5623
▁palazzo	-9.56368
▁ni	-9.56391
▁--	-9.56497
▁u	-9.56531
tra	-9.56684
▁grazia	-9.56719
▁veniva	-9.56757
▁portato	-9.5681
▁massimo	-9.56915
▁votato	-9.56945
▁generali	-9.57267
▁giusta	-9.57292
▁faccio	-9.57397
▁ex	-9.57462
▁braccia	-9.57631
▁incontro	-9.57654
▁aprile	-9.57783
▁ricevuto	-9.57932
▁temi	-9.57967
▁quell	-9.58007
▁iv	-9.58086
▁avrei	-9.5811
▁poveri	-9.58172
▁informazione	-9.5824
▁argomento	-9.58248
▁giornata	-9.58384
ndi	-9.58487
▁aziende	-9.5856
▁differenza	-9.5856
▁ta	-9.58693
▁luoghi	-9.58711
ck	-9.5873
▁à	-9.58733
▁tramite	-9.58737
▁dinanzi	-9.58864
▁castello	-9.58875
▁basso	-9.589
▁competenze	-9.58939
▁medio	-9.58947
▁inter	-9.58958
informazione	-9.59229
▁presa	-9.59484
nta	-9.59562
▁energia	-9.59575
▁stare	-9.59614
▁commerciali	-9.59655
▁voler	-9.59732
▁messa	-9.59752
▁maestro	-9.59905
▁be	-9.59955
▁potesse	-9.59963
▁santo	-9.60034
▁aggiungere	-9.60037
▁anima	-9.60041
▁9	-9.60058
▁spagna	-9.60063
▁2000	-9.60153
▁completamente	-9.60174
▁capitale	-9.60414
▁evidente	-9.60419
▁zone	-9.60445
con	-9.60556
▁opinione	-9.60775
▁relatrice	-9.60777
▁diventa	-9.60921
▁scrivere	-9.60964
cco	-9.60981
lt	-9.60996
▁the	-9.61131
▁siccome	-9.61139
▁investimenti	-9.6114
▁innanzitutto	-9.61141
▁superiore	-9.61145
▁contenuto	-9.61242
▁terza	-9.61404
▁diverso	-9.61509
▁r	-9.61584
oni	-9.61637
▁regola	-9.61676
▁polizia	-9.61712
▁vive	-9.61712
▁febbraio	-9.61735
▁aperto	-9.61824
▁iniziativa	-9.61852
▁poche	-9.61947
▁povero	-9.61984
▁16	-9.62087
#	-9.62112
2	-9.62258
▁somma	-9.62267
▁t	-9.62325
▁fo	-9.62334
importanza	-9.62374
▁interventi	-9.62389
▁ottobre	-9.62476
▁potete	-9.62599
▁giro	-9.62659
▁ulteriori	-9.62755
▁costo	-9.62756
▁est	-9.62766
▁[	-9.6294
▁dallo	-9.62949
▁accesso	-9.62972
▁assicurare	-9.62972
ur	-9.63082
▁comunitaria	-9.63118
▁numerosi	-9.63258
▁detta	-9.63362
▁sentito	-9.63444
▁scienza	-9.63686
an	-9.6369
▁trattamento	-9.63697
▁neppure	-9.63701
▁vantaggio	-9.63747
▁necessari	-9.63782
▁relativi	-9.63786
▁contra	-9.63795
▁forti	-9.63801
▁bambino	-9.63813
ati	-9.63927
▁ragazzi	-9.6398
▁usa	-9.63987
▁acque	-9.64357
▁codice	-9.6451
▁costruzione	-9.64532
▁diventare	-9.64635
▁sguardo	-9.64719
▁vittime	-9.64746
▁rapporti	-9.648
5-0	-9.64801
▁colore	-9.64887
▁tri	-9.65042
▁impossibile	-9.65044
nto	-9.65094
▁amsterdam	-9.65257
▁mercati	-9.65259
▁farsi	-9.65327
▁addirittura	-9.65338
▁go	-9.65343
▁romani	-9.65447
applicazione	-9.65545
zzi	-9.65614
▁recente	-9.65677
▁nemici	-9.65734
▁unica	-9.65895
▁chiamato	-9.65931
▁famiglie	-9.66048
zzo	-9.6626
▁chiese	-9.66349
▁scala	-9.66404
al	-9.66427
▁globale	-9.66455
agricoltura	-9.66467
▁serve	-9.66557
▁vino	-9.66616
▁scrive	-9.66636
▁spalle	-9.66648
▁scena	-9.66792
▁sí	-9.66832
▁otto	-9.66838
com	-9.66853
▁previsto	-9.66888
▁peso	-9.66924
▁metodo	-9.67064
▁nero	-9.67084
attività	-9.6719
▁17	-9.67218
▁finora	-9.6733
▁elemento	-9.67401
▁vittoria	-9.67411
▁occupazione	-9.67459
▁movimento	-9.67602
▁capitano	-9.67618
remo	-9.67629
▁elezioni	-9.67661
▁chiusa	-9.6768
▁troviamo	-9.6775
▁tener	-9.67763
▁intervenire	-9.67823
▁finale	-9.67986
▁osservazioni	-9.67999
▁religione	-9.6802
▁esistono	-9.68072
▁crede	-9.68075
▁porto	-9.68174
▁pa	-9.68274
▁trattati	-9.68287
▁ritorno	-9.68331
▁morire	-9.68362
▁finanziari	-9.68395
▁potenza	-9.68406
▁belle	-9.68439
▁ch	-9.68597
ch	-9.68623
ccio	-9.6872
▁finanziario	-9.68988
▁25	-9.69053
▁fatte	-9.69159
▁coordinamento	-9.69191
▁figlia	-9.69195
▁aumento	-9.692
▁economiche	-9.69271
▁esigenze	-9.69273
▁morti	-9.69406
▁affermato	-9.69431
▁farà	-9.6946
▁fai	-9.69767
▁usare	-9.69788
▁dovranno	-9.69818
▁comincia	-9.69827
▁consenso	-9.69918
▁ultima	-9.69969
▁stanza	-9.7015
▁paolo	-9.70402
▁riconoscimento	-9.70543
▁ro	-9.70702
▁fi	-9.70884
▁altrimenti	-9.70956
▁manca	-9.71099
▁navi	-9.71101
▁russia	-9.71122
nsi	-9.71139
▁approvato	-9.71186
▁vide	-9.7119
▁anti	-9.71248
▁ritiene	-9.71283
cci	-9.71347
▁dar	-9.71491
▁dicono	-9.71509
▁pienamente	-9.7165
▁raggiunto	-9.71656
cca	-9.718
▁afferma	-9.71833
rum	-9.71906
▁teatro	-9.72088
▁discutere	-9.72157
▁on	-9.72248
▁svolgere	-9.72264
▁unito	-9.7232
▁vedo	-9.72347
▁quantità	-9.72348
▁terrorismo	-9.72379
▁braccio	-9.7245
▁talvolta	-9.72496
iamo	-9.72511
▁parigi	-9.72562
▁buono	-9.72573
▁condotta	-9.72667
ar	-9.72701
sso	-9.72958
▁concerne	-9.72975
ccia	-9.72997
non	-9.73044
▁rappresentanti	-9.73048
▁vecchia	-9.73138
▁limiti	-9.73161
▁realizzare	-9.73163
iniziativa	-9.73186
▁effettivamente	-9.73375
assemblea	-9.7339
▁definire	-9.73394
ng	-9.73493
▁leggere	-9.73497
▁na	-9.73554
▁compromesso	-9.73805
▁ru	-9.73818
▁soldi	-9.73908
▁inglese	-9.73933
ali	-9.73948
one	-9.7401
▁sullo	-9.74135
▁età	-9.74251
▁richieste	-9.74276
▁richiede	-9.74366
▁sforzo	-9.74424
▁vostri	-9.74574
▁trovano	-9.74577
fo	-9.7461
ing	-9.74672
▁rischi	-9.74683
▁sapeva	-9.74689
▁ciascuno	-9.7469
▁altrettanto	-9.7473
▁campi	-9.74744
▁andò	-9.74751
zio	-9.7476
▁sino	-9.74902
cu	-9.74954
00	-9.74972
nd	-9.75107
▁preoccupazione	-9.75165
▁combattere	-9.75165
▁compagnia	-9.75173
▁prove	-9.75289
ter	-9.75323
▁cavallo	-9.75327
ns	-9.7535
▁nazione	-9.7552
▁bilanci	-9.75555
▁permette	-9.7556
▁beni	-9.75585
▁entrambi	-9.75614
▁buoni	-9.75782
▁porte	-9.7579
▁parlando	-9.75799
▁bellezza	-9.76079
sto	-9.76193
▁riforme	-9.76291
ggio	-9.76322
energia	-9.7639
▁aria	-9.76416
▁ricorda	-9.76421
▁vie	-9.76552
▁linee	-9.76571
▁potranno	-9.76726
▁errore	-9.76766
▁volle	-9.7682
▁agire	-9.7693
▁solito	-9.77057
▁culturale	-9.77058
▁reti	-9.77075
▁dimostrato	-9.7721
▁realizzazione	-9.77255
▁aspetta	-9.77327
▁speciale	-9.77375
▁prossima	-9.77424
attuale	-9.77452
organizzazione	-9.77461
▁diversa	-9.7752
▁vento	-9.77526
▁colpa	-9.77686
▁riconoscere	-9.7769
▁competenza	-9.77697
▁ama	-9.77705
▁diede	-9.77722
st	-9.77884
▁arriva	-9.77994
▁f	-9.78012
▁massa	-9.78072
▁arrivare	-9.78097
essere	-9.78162
▁responsabile	-9.78341
▁espresso	-9.78401
▁origine	-9.785
▁morale	-9.78632
▁costa	-9.787
4-0	-9.7876
▁miglioramento	-9.78776
▁cercando	-9.78799
▁patto	-9.78902
▁conosce	-9.78914
▁finanziamento	-9.78961
▁considerare	-9.79011
▁regina	-9.79034
▁perdere	-9.79082
ero	-9.79139
▁sostenibile	-9.79142
▁concludere	-9.7925
▁buone	-9.7933
▁lasciato	-9.79339
qui	-9.79354
▁andava	-9.79376
▁locale	-9.79424
▁controlli	-9.79514
▁materiale	-9.79548
▁proprietà	-9.79558
▁miliardi	-9.79576
▁aperta	-9.79585
▁provvedimenti	-9.79606
▁solidarietà	-9.79669
▁dolce	-9.79692
▁soluzioni	-9.79731
▁gloria	-9.79762
▁rivoluzione	-9.79857
▁gioia	-9.79887
▁interessante	-9.79946
▁ognuno	-9.80117
▁contribuire	-9.80166
▁popolare	-9.8017
▁za	-9.80239
▁figliuolo	-9.80277
▁cambiamento	-9.80528
▁esattamente	-9.80552
▁modalità	-9.80576
▁portata	-9.80673
▁video	-9.80707
▁13	-9.80718
▁tornare	-9.80738
▁risponde	-9.80785
▁viso	-9.80787
▁guardare	-9.80879
▁collo	-9.80882
ghi	-9.80889
▁agricola	-9.81048
▁50	-9.81151
▁utilizzare	-9.81161
▁distanza	-9.81215
at	-9.81303
▁appoggio	-9.81345
▁aree	-9.81445
▁carico	-9.8149
▁sostanze	-9.81493
▁pone	-9.81508
▁livelli	-9.81528
▁finanziaria	-9.81692
▁alimentare	-9.81702
▁parve	-9.81778
▁offre	-9.81795
▁tratti	-9.81873
▁partecipare	-9.82025
▁migliaia	-9.82034
ver	-9.82107
▁analisi	-9.82116
▁chiave	-9.82172
▁colpo	-9.82173
▁11	-9.82178
nde	-9.82211
▁van	-9.82217
▁bar	-9.82255
▁antichi	-9.82316
▁noto	-9.82412
gno	-9.82419
▁mediante	-9.8242
▁capelli	-9.82451
▁lasciare	-9.82521
cchi	-9.82537
▁arte	-9.82577
▁giungere	-9.82578
am	-9.82624
ndolo	-9.82647
▁indispensabile	-9.82899
▁luigi	-9.83025
▁vivo	-9.83067
▁č	-9.83144
▁passione	-9.83176
."	-9.83183
▁pubbliche	-9.83217
▁festa	-9.83222
▁ga	-9.83265
▁impegni	-9.83283
▁accanto	-9.83319
▁disponibili	-9.83327
▁rispettare	-9.83345
▁fratelli	-9.83357
▁dover	-9.83419
▁cavalli	-9.83442
▁relativo	-9.83443
▁viva	-9.83694
▁terreno	-9.83726
▁certe	-9.83773
▁note	-9.83937
▁danni	-9.83994
▁venti	-9.84015
▁devi	-9.8402
opinione	-9.84097
]	-9.84115
▁conflitto	-9.8419
▁particolari	-9.84293
▁quarto	-9.84323
attenzione	-9.84522
▁marchese	-9.84556
à	-9.84558
▁circolazione	-9.84585
▁normativa	-9.84649
▁riunione	-9.84651
▁costituzione	-9.84746
▁fiscale	-9.84843
▁classe	-9.8495
▁peccato	-9.84956
▁tuoi	-9.84963
▁settimane	-9.8498
▁medico	-9.85002
▁provincia	-9.85049
▁1999	-9.85065
▁cittadino	-9.85204
▁storico	-9.85312
▁decidere	-9.85344
tica	-9.85378
▁disoccupazione	-9.85441
▁importa	-9.85454
▁torna	-9.85524
▁spetta	-9.85786
▁volete	-9.85829
▁critica	-9.85884
▁guardia	-9.85911
▁marco	-9.85945
▁fecero	-9.85984
▁ampio	-9.85999
▁militari	-9.86015
▁auguro	-9.86135
gne	-9.86224
▁rapidamente	-9.86232
▁uscire	-9.863
▁domenica	-9.86462
▁secoli	-9.86483
▁nuovamente	-9.86491
▁sin	-9.86528
▁cap	-9.86544
▁gesù	-9.86562
▁traffico	-9.86596
▁filippo	-9.86599
▁poeta	-9.86731
▁senti	-9.86789
▁approccio	-9.86808
5	-9.8698
▁tecnologia	-9.87032
▁revisione	-9.87064
▁dante	-9.87139
▁dimensione	-9.87371
▁facilmente	-9.874
▁complesso	-9.874
▁stabilire	-9.87431
▁coesione	-9.87568
▁strade	-9.87579
▁funzionamento	-9.87688
▁progresso	-9.87703
▁ambientali	-9.87741
▁padrone	-9.87744
▁percorso	-9.87782
▁visione	-9.8779
▁votare	-9.87833
▁antonio	-9.87879
”,	-9.87951
▁sento	-9.87964
▁spiega	-9.87983
▁aumentare	-9.88036
fe	-9.88044
▁cammino	-9.88058
▁novità	-9.88084
zi	-9.88105
▁povera	-9.88182
▁cambiare	-9.88221
▁sfida	-9.88304
▁commerciale	-9.8835
▁eppure	-9.88384
▁scuole	-9.88414
▁dura	-9.88441
▁salva	-9.88476
▁genova	-9.88618
▁possibili	-9.88635
▁persino	-9.88651
▁bologna	-9.8872
▁creato	-9.88918
▁produttori	-9.8896
tico	-9.89129
▁sentiva	-9.89246
▁limite	-9.89252
ture	-9.89305
▁notizia	-9.89474
ampliamento	-9.89483
▁ricevere	-9.89487
▁rafforzare	-9.8949
▁fiume	-9.89611
▁conclusioni	-9.89611
man	-9.89637
stra	-9.89748
▁punta	-9.8984
sci	-9.89844
▁serio	-9.8988
▁sorta	-9.89913
▁precedenti	-9.89931
▁pagare	-9.8995
▁povertà	-9.89955
▁partiti	-9.90043
▁anco	-9.90046
▁du	-9.90088
▁ricorso	-9.90094
▁enorme	-9.90201
▁cause	-9.90208
▁pensato	-9.9021
▁mira	-9.90241
▁quindici	-9.90509
▁prossimi	-9.9058
▁immediatamente	-9.90593
tri	-9.90609
▁facoltà	-9.90612
▁kosovo	-9.90681
▁passaggio	-9.90684
▁partenza	-9.90716
▁responsabili	-9.90732
▁dichiarazioni	-9.90869
▁sogno	-9.91208
▁assistenza	-9.91221
ssime	-9.91247
▁rosso	-9.9126
▁messaggio	-9.91409
▁cara	-9.91428
▁finanziarie	-9.91434
▁caccia	-9.91497
▁romano	-9.91505
▁tavola	-9.91556
▁colori	-9.91624
▁petto	-9.91626
▁sanità	-9.91634
▁verranno	-9.91672
▁mura	-9.91687
▁singoli	-9.91695
▁democratico	-9.91765
▁applicare	-9.91842
▁succede	-9.91994
▁sentimento	-9.92005
▁farai	-9.92012
tivo	-9.92057
▁ferma	-9.92129
▁sicilia	-9.92407
▁orientale	-9.92448
▁car	-9.92457
▁studenti	-9.9247
▁consentire	-9.92518
▁peraltro	-9.92541
lu	-9.92561
occasione	-9.9259
ss	-9.92626
▁spesa	-9.9263
▁ricordato	-9.9263
▁foto	-9.92675
▁eventi	-9.92712
▁comporta	-9.92717
▁terre	-9.92741
▁andrea	-9.92758
▁utili	-9.92783
▁ottenuto	-9.92895
ant	-9.92901
▁porti	-9.92958
3	-9.93071
▁insomma	-9.93144
gni	-9.93161
du	-9.93231
▁contiene	-9.93254
▁film	-9.93303
▁strutture	-9.93358
▁crea	-9.93375
art	-9.93378
▁capito	-9.93393
▁assemblea	-9.93435
▁medici	-9.93452
▁affermare	-9.93453
▁stile	-9.93461
▁y	-9.93481
▁esistenti	-9.93593
▁pu	-9.93613
za	-9.93666
▁cari	-9.93683
▁rifiuti	-9.93699
▁moto	-9.93708
▁vostre	-9.93719
▁peggio	-9.93746
▁attuali	-9.93785
▁monetaria	-9.94022
▁é	-9.94061
▁24	-9.94095
▁comprendere	-9.94129
ana	-9.94271
▁tribunale	-9.94301
▁tecnologie	-9.94326
▁giustamente	-9.94624
▁compiere	-9.9465
▁seguenti	-9.94721
▁dignità	-9.95014
é	-9.95017
▁tocca	-9.95079
zia	-9.95134
▁notevole	-9.95162
▁minaccia	-9.95235
▁costruire	-9.95286
▁zi	-9.95351
▁cervello	-9.95377
▁medesima	-9.95414
tur	-9.95414
▁macchina	-9.9544
▁gas	-9.95589
▁consigli	-9.95592
▁errori	-9.9567
▁voci	-9.95765
▁permesso	-9.9589
▁web	-9.95932
▁pagina	-9.95964
▁offrire	-9.96043
▁notizie	-9.96073
▁alcuno	-9.96079
▁genitori	-9.96187
unica	-9.96208
▁volume	-9.96248
▁inizio	-9.96298
▁agosto	-9.96408
▁completa	-9.96412
▁valle	-9.96453
▁lu	-9.96507
italia	-9.96589
▁scambio	-9.96688
rebbero	-9.96731
▁chiarezza	-9.96744
▁compagni	-9.96795
▁naturali	-9.96847
▁bu	-9.96881
▁monti	-9.969
▁versione	-9.96902
▁aula	-9.9693
▁sanno	-9.96931
▁ordini	-9.96996
▁vendita	-9.97058
area	-9.97062
▁mu	-9.97067
▁attuazione	-9.97124
▁giuridico	-9.97178
▁estera	-9.97204
▁comunitarie	-9.97238
▁dovesse	-9.97245
▁toscana	-9.97364
▁civili	-9.97379
▁agricoltori	-9.97438
▁giunto	-9.97454
▁pezzo	-9.97489
▁contenuti	-9.9755
▁vecchi	-9.97641
▁tosto	-9.97674
▁chiunque	-9.9774
▁andiamo	-9.97862
▁diciamo	-9.97871
▁21	-9.97947
▁immagini	-9.98043
▁adottato	-9.98077
▁nobili	-9.9825
▁posizioni	-9.98263
▁funzioni	-9.98297
ie	-9.98317
▁profondo	-9.98335
▁%	-9.98397
▁conferma	-9.98599
▁onore	-9.98629
▁sale	-9.98657
▁tecnica	-9.98658
▁rimanere	-9.98695
▁situazioni	-9.98712
▁debito	-9.98731
▁grecia	-9.98765
▁specialmente	-9.9883
▁ital	-9.98847
ggi	-9.98923
▁cor	-9.98933
▁pelle	-9.99024
▁modifiche	-9.99051
▁bassi	-9.99059
▁andato	-9.99066
▁significato	-9.99111
aula	-9.99179
▁nomi	-9.9918
▁vescovo	-9.99201
▁stima	-9.99241
ru	-9.99331
▁100	-9.99415
▁pane	-9.99439
▁vol	-9.99494
▁chiari	-9.99558
▁labbra	-9.99577
▁mar	-9.99577
▁avviene	-9.99657
▁lega	-9.99678
▁contempo	-9.99702
▁standard	-9.9974
bus	-9.99751
introduzione	-9.99907
▁sviluppare	-9.99909
adesione	-10.0001
▁minimo	-10.0005
▁sco	-10.0005
▁veduto	-10.0012
▁pronto	-10.0017
▁poesia	-10.0019
▁promozione	-10.003
▁prego	-10.0031
▁neanche	-10.0034
_	-10.0042
intera	-10.0042
▁discussioni	-10.005
▁trovo	-10.0055
▁circostanze	-10.0065
bu	-10.0068
▁spa	-10.0071
▁lieto	-10.0085
▁entra	-10.0086
ente	-10.0087
?"	-10.0088
▁sorriso	-10.0088
▁sforza	-10.0088
▁ponte	-10.0089
▁aiutare	-10.0094
▁esperti	-10.0108
nia	-10.0114
▁mila	-10.0121
▁consente	-10.0124
▁disciplina	-10.0125
▁universale	-10.0138
stica	-10.014
▁segreto	-10.0146
▁preoccupazioni	-10.0147
▁democratica	-10.0158
▁voti	-10.0161
▁prospettiva	-10.0166
▁malattia	-10.0169
▁corona	-10.0171
▁villa	-10.0175
1	-10.0177
▁fame	-10.018
▁metodi	-10.0182
▁animo	-10.0183
▁soggetti	-10.0185
▁deputato	-10.0189
▁tecniche	-10.0189
▁potevano	-10.0191
▁partner	-10.0192
▁disegno	-10.0193
▁od	-10.0195
▁quante	-10.0199
▁consiste	-10.0207
▁colui	-10.0207
▁numerose	-10.0207
▁intenzione	-10.0211
▁rosa	-10.0214
chè	-10.0215
▁rappresentano	-10.0222
▁bianca	-10.0231
▁rer	-10.0235
gia	-10.0239
esperienza	-10.0239
▁ue	-10.0241
▁scegliere	-10.0243
4	-10.0248
ry	-10.0248
ja	-10.0249
gra	-10.0251
▁croce	-10.026
▁ultime	-10.0263
▁contatto	-10.0264
▁economia	-10.0266
▁gi	-10.0267
▁turismo	-10.0267
▁asilo	-10.0275
th	-10.0286
tro	-10.029
▁svolgerà	-10.0296
▁men	-10.0312
▁avessero	-10.0317
▁tentativo	-10.0318
▁invito	-10.0329
▁soddisfazione	-10.0331
▁prevenzione	-10.0345
▁pressione	-10.0346
▁alquanto	-10.0348
▁ferro	-10.0352
▁liberalizzazion	-10.0353
▁piani	-10.0358
▁dev	-10.0361
▁fonte	-10.0362
schi	-10.0362
▁perfettamente	-10.0364
accesso	-10.0364
attuazione	-10.0372
▁appare	-10.0383
▁equilibrio	-10.0386
▁saputo	-10.0389
▁pratiche	-10.0393
▁sol	-10.0395
▁profonda	-10.0399
bbe	-10.0403
▁presentazione	-10.0411
▁cina	-10.0415
▁chiediamo	-10.0421
tt	-10.0423
▁finito	-10.0423
▁uguale	-10.0429
▁ufficiale	-10.0433
▁regionali	-10.0437
▁nn	-10.0448
▁articoli	-10.0449
▁attorno	-10.0449
▁beh	-10.0455
▁vedete	-10.0456
▁missione	-10.0456
▁presentati	-10.0457
▁debbano	-10.0462
▁des	-10.0463
▁malgrado	-10.0464
▁corre	-10.0486
▁raccolta	-10.0488
▁considerato	-10.0491
impegno	-10.0499
risate	-10.05
▁metri	-10.0502
aria	-10.0502
7	-10.0511
gio	-10.0517
▁pensieri	-10.0523
▁and	-10.0536
▁malattie	-10.0537
▁vicini	-10.0539
▁sorte	-10.0543
▁introdurre	-10.0544
▁guerre	-10.0546
▁basi	-10.0549
▁dimostrare	-10.0553
▁nucleare	-10.0557
▁impresa	-10.056
interesse	-10.0568
▁americani	-10.0574
▁sottolineato	-10.0576
▁legno	-10.0581
▁vai	-10.0581
▁desidera	-10.0586
▁1998	-10.0589
▁fianco	-10.0593
obs	-10.0595
▁manda	-10.0597
▁impedire	-10.0601
▁dipende	-10.0602
▁adesione	-10.0607
▁finestra	-10.0608
▁magari	-10.0629
▁ufficio	-10.063
▁interni	-10.0631
▁condanna	-10.0637
▁momenti	-10.0638
▁confini	-10.0644
▁appello	-10.0644
▁carte	-10.0645
▁servi	-10.0652
▁maggiormente	-10.0656
▁unità	-10.0661
▁triste	-10.0665
▁terribile	-10.0667
▁ge	-10.0667
▁aprire	-10.0668
▁rimase	-10.0668
▁materiali	-10.067
▁fate	-10.068
▁specifico	-10.0687
▁facevano	-10.0691
▁merita	-10.0699
▁pei	-10.0705
▁pagine	-10.0728
▁sostanza	-10.0728
▁cibo	-10.0732
▁&	-10.074
▁grosso	-10.0744
▁dov	-10.0748
▁ministero	-10.0748
ghe	-10.0751
▁potremmo	-10.0756
▁ulteriore	-10.0773
▁professionale	-10.0778
▁sport	-10.078
▁nove	-10.0784
▁opinioni	-10.0786
▁paio	-10.0788
▁autore	-10.0793
▁esteri	-10.0795
▁val	-10.0796
▁divieto	-10.0806
▁difendere	-10.0806
▁segue	-10.0809
▁rimasto	-10.081
▁espressione	-10.081
cche	-10.0814
▁intendo	-10.0816
glio	-10.0819
ino	-10.0821
lia	-10.0823
▁direttive	-10.0832
▁fenomeno	-10.0835
▁arti	-10.0836
▁esercito	-10.0839
zzare	-10.084
▁primavera	-10.0841
▁tiene	-10.0844
▁cane	-10.0845
▁cosi	-10.0848
▁pietra	-10.0852
▁operazioni	-10.0857
▁vantaggi	-10.0858
▁valutare	-10.0861
▁interessati	-10.0862
▁lingue	-10.0869
▁comma	-10.0871
istruzione	-10.0872
der	-10.0873
▁riesce	-10.0876
▁argomenti	-10.0893
▁tradizione	-10.0894
▁40	-10.0894
▁versi	-10.0897
▁sanzioni	-10.0898
ire	-10.0904
▁sente	-10.0906
▁reso	-10.0907
ll	-10.0919
▁mangiare	-10.0921
▁racconta	-10.0922
▁emissioni	-10.0922
▁frontiere	-10.0922
▁dodici	-10.0923
▁indi	-10.0927
▁interna	-10.0928
▁finire	-10.0929
▁monete	-10.0931
▁poteri	-10.0937
▁attesa	-10.0946
▁nasce	-10.0953
▁capace	-10.0956
▁spettacolo	-10.0956
una	-10.0966
▁volevo	-10.0969
▁vada	-10.0973
nga	-10.0975
▁bruxelles	-10.0977
▁durata	-10.0984
▁quantunque	-10.0985
▁giuseppe	-10.0989
▁ragazza	-10.0989
▁rumore	-10.1002
▁personalmente	-10.1008
anni	-10.101
▁requisiti	-10.1023
▁tecnico	-10.1028
▁condurre	-10.1038
▁piu	-10.1045
▁comunitari	-10.1082
▁compiti	-10.1085
▁super	-10.1086
don	-10.1099
▁abitanti	-10.1105
▁atteggiamento	-10.1107
°	-10.1109
▁stra	-10.111
▁dimenticare	-10.1115
▁orientamenti	-10.1117
▁sposa	-10.1117
▁potente	-10.1134
▁risposte	-10.1142
▁dimensioni	-10.1143
▁consumo	-10.1151
▁reali	-10.1155
su	-10.1156
▁continuo	-10.1172
▁clima	-10.1176
▁sub	-10.1177
▁lire	-10.1181
nu	-10.1182
▁torino	-10.1186
tion	-10.1187
▁testi	-10.119
▁penale	-10.119
▁comprende	-10.1197
▁industriale	-10.1203
▁verifica	-10.1218
opera	-10.1224
applausi	-10.1228
▁cesare	-10.1229
ed	-10.123
fat	-10.1233
▁gara	-10.1237
▁preparazione	-10.1243
▁fatica	-10.1253
▁venuta	-10.1264
▁tasso	-10.1271
▁dominio	-10.1278
▁disponibilità	-10.1291
▁caratteristiche	-10.1298
▁ricordi	-10.1309
▁garanzia	-10.1315
▁tira	-10.1318
▁riceve	-10.1319
▁oriente	-10.132
▁matrimonio	-10.1322
▁je	-10.1339
▁esclamò	-10.1341
▁miglior	-10.1344
▁israele	-10.1347
▁sentenza	-10.1355
▁categoria	-10.1358
6	-10.1367
▁freddo	-10.1367
▁gio	-10.1371
▁segnale	-10.1374
▁dovremo	-10.1377
▁scarpe	-10.1381
▁sorella	-10.1381
▁potremo	-10.1394
integrazione	-10.1398
▁piede	-10.1412
uti	-10.1414
▁altrove	-10.1428
▁taluni	-10.1434
▁semplici	-10.1438
▁linguaggio	-10.144
▁stai	-10.1443
▁test	-10.1446
▁funziona	-10.1449
▁avremo	-10.1451
▁vedeva	-10.1451
»,	-10.1464
▁diretta	-10.147
▁congratularmi	-10.1477
nna	-10.1479
▁esempi	-10.148
▁veri	-10.1489
▁consumatore	-10.1494
▁statuto	-10.1504
▁conquista	-10.1507
▁dichiarato	-10.151
▁poli	-10.1518
trici	-10.1521
unico	-10.1522
▁fonti	-10.1523
▁fermo	-10.1523
▁eccellente	-10.1525
▁prodi	-10.1528
▁accogliere	-10.153
▁accade	-10.1531
▁norma	-10.1541
▁stia	-10.1549
▁pagamento	-10.155
▁1,	-10.1561
▁inutile	-10.1562
▁»	-10.1566
▁cambio	-10.1567
ggia	-10.157
▁specifiche	-10.157
▁lib	-10.158
▁attiva	-10.1581
▁constatare	-10.159
▁favorire	-10.1591
▁merci	-10.1594
▁diretto	-10.1596
▁&-	-10.1601
amore	-10.1612
▁22	-10.1612
bilità	-10.162
▁cristiani	-10.1623
▁protocollo	-10.1624
▁cu	-10.1626
▁luna	-10.1634
▁quota	-10.1645
cia	-10.1652
▁scusa	-10.1652
▁vieni	-10.1654
▁torre	-10.1657
ù	-10.1659
▁verbale	-10.166
▁decreto	-10.1661
▁perdita	-10.1661
tici	-10.1663
▁vergogna	-10.1669
▁para	-10.167
▁gusto	-10.1674
▁operatori	-10.1676
▁unicamente	-10.1683
▁cambiamenti	-10.1693
▁occupa	-10.1695
et	-10.17
▁k	-10.1701
▁esperienze	-10.1705
▁for	-10.1708
▁parità	-10.1708
▁positiva	-10.1709
▁notare	-10.1712
▁destinati	-10.1713
▁lorenzo	-10.1716
▁lista	-10.1716
▁quivi	-10.1717
▁tue	-10.1721
▁tabacco	-10.1728
▁trovò	-10.1728
▁numeri	-10.1728
▁processi	-10.1732
▁direttore	-10.1732
▁avviare	-10.1739
▁sonno	-10.1741
▁23	-10.1743
▁ufficiali	-10.1746
eranno	-10.1755
▁popolazioni	-10.1755
▁considera	-10.1756
▁umane	-10.1759
▁of	-10.176
▁flessibilità	-10.176
▁prospettive	-10.1764
▁sembrano	-10.1779
▁strano	-10.1781
▁convinto	-10.1782
▁frutto	-10.1783
▁esseri	-10.1785
▁tipi	-10.1788
▁giunta	-10.1789
▁considerando	-10.1792
▁iniziare	-10.1794
▁computer	-10.1796
▁cominciò	-10.1802
▁autori	-10.1803
▁vennero	-10.1803
▁gradi	-10.181
30	-10.1811
▁vo	-10.1813
▁modificare	-10.1814
sh	-10.1817
▁teneva	-10.1819
▁specifica	-10.1824
▁successivamente	-10.1835
▁greci	-10.1837
▁interrogazioni	-10.1847
▁personali	-10.1849
▁intero	-10.185
▁condotto	-10.1851
0	-10.1857
▁tenendo	-10.1857
▁contratto	-10.1859
arte	-10.186
▁spada	-10.1862
▁costituiscono	-10.1865
▁file	-10.1867
▁morta	-10.1868
▁messi	-10.1871
▁ver	-10.1873
▁cercato	-10.1876
▁sospetto	-10.1886
▁verificare	-10.1893
▁lasciò	-10.1895
▁permettere	-10.1896
▁differenze	-10.1897
▁timore	-10.1897
▁esercitare	-10.1899
▁greco	-10.1899
▁corsi	-10.1901
▁nobile	-10.1904
▁tedesco	-10.1906
▁dava	-10.1906
▁avevamo	-10.1906
▁delegazione	-10.1921
sia	-10.1925
▁potè	-10.1926
▁alimentari	-10.1929
▁ebbene	-10.193
▁medie	-10.1938
▁ritardo	-10.1939
▁ostacoli	-10.1943
esercizio	-10.1943
▁organi	-10.1946
▁speriamo	-10.1948
▁senz	-10.1956
▁squadra	-10.1961
▁compiuto	-10.1967
cce	-10.1971
▁premio	-10.1972
as	-10.1972
▁filo	-10.1975
pro	-10.1979
▁paga	-10.1979
▁intergovernativ	-10.1985
▁riconosce	-10.1992
▁benessere	-10.1995
▁lavora	-10.1996
▁associazione	-10.1998
▁aiuta	-10.2008
▁ampliamento	-10.2012
▁riuscire	-10.2014
▁cavaliere	-10.2015
▁alessandro	-10.2019
▁riusciti	-10.2021
▁ulteriormente	-10.2022
▁giardino	-10.2028
▁riflessione	-10.2032
scono	-10.2032
el	-10.2039
▁montagna	-10.2042
▁logica	-10.2043
▁legato	-10.2044
▁nondimeno	-10.2046
▁presi	-10.2049
▁copia	-10.2053
▁ché	-10.2059
▁prevista	-10.206
▁romana	-10.2062
▁evidentemente	-10.207
▁art	-10.207
▁mise	-10.2073
tevi	-10.2075
▁riconosciuto	-10.2078
▁rappresentante	-10.2086
▁minori	-10.2088
▁positivi	-10.2094
▁pan	-10.2094
▁minore	-10.2095
▁leone	-10.2096
ad	-10.2099
tiva	-10.2101
▁ragazzo	-10.2102
nce	-10.2104
▁storie	-10.2105
stico	-10.2118
intero	-10.2119
ndola	-10.2121
ndomi	-10.2123
▁tende	-10.2124
est	-10.2136
▁esclusivamente	-10.2136
▁funzionari	-10.2141
▁ampia	-10.2142
▁condivido	-10.2143
8	-10.2148
▁pietà	-10.216
▁corretto	-10.2161
▁muta	-10.2162
▁stretta	-10.2163
▁produrre	-10.2171
glie	-10.2176
▁inizia	-10.2184
▁vedendo	-10.2184
▁esprime	-10.2189
▁integrazione	-10.2193
▁rientra	-10.2196
▁vado	-10.2199
▁fanciulla	-10.2206
▁he	-10.2212
▁antico	-10.222
▁chiamata	-10.2221
ita	-10.2221
▁comportamento	-10.2224
▁professore	-10.2226
▁stagione	-10.2226
▁sembrava	-10.2229
▁fila	-10.2229
▁influenza	-10.223
▁riguardano	-10.2232
▁osservazione	-10.2246
▁organizzazione	-10.2246
▁lasciando	-10.2257
▁2,	-10.2266
▁parco	-10.2271
▁vivono	-10.2275
▁man	-10.2275
▁relativamente	-10.2275
▁parecchi	-10.2278
▁centrali	-10.228
▁sci	-10.2281
▁qualora	-10.2282
▁considerazioni	-10.2323
▁fiore	-10.2324
vasi	-10.2327
▁pacchetto	-10.2335
▁veste	-10.2339
▁entrambe	-10.234
▁scritta	-10.2346
▁iniziato	-10.2352
▁narra	-10.2353
▁cucina	-10.2356
ster	-10.2356
▁avranno	-10.2369
▁vivi	-10.237
▁benissimo	-10.2372
▁speranze	-10.2375
▁inferiore	-10.2379
▁operare	-10.238
▁proporre	-10.2385
▁ottimo	-10.2386
▁cagione	-10.2387
▁bassa	-10.2388
▁pensi	-10.2392
▁avremmo	-10.2393
▁legati	-10.2395
▁resistenza	-10.2399
▁pontefice	-10.2403
▁sarei	-10.2405
▁industria	-10.2408
▁ka	-10.2409
▁consultazione	-10.241
ufficio	-10.2418
▁disponibile	-10.2422
opportunità	-10.2433
▁mon	-10.2436
▁trovava	-10.2437
▁minuto	-10.2447
▁finchè	-10.2449
▁dispone	-10.2455
ani	-10.2457
▁privato	-10.2457
▁comando	-10.2459
▁approvazione	-10.2467
▁giornale	-10.2468
▁avvenire	-10.2472
▁vesti	-10.2482
▁difficili	-10.2486
tò	-10.2496
▁cardinale	-10.2504
▁cadere	-10.2506
▁costui	-10.251
▁sabato	-10.2522
▁amministrazione	-10.2524
▁pio	-10.2527
rsene	-10.2528
▁aspettare	-10.2531
▁conciliazione	-10.2531
ven	-10.2532
▁previsti	-10.2535
▁dichiara	-10.2544
▁h	-10.2548
▁fama	-10.2549
ppo	-10.256
▁originale	-10.2561
eremo	-10.2562
adozione	-10.2565
▁riflettere	-10.2566
▁venisse	-10.257
▁ricchi	-10.2577
or	-10.2581
ngo	-10.2585
▁esaminare	-10.2587
rra	-10.2591
▁dollari	-10.2609
▁lunghi	-10.2609
▁giacomo	-10.261
▁banche	-10.262
▁centinaia	-10.2624
▁chiuso	-10.263
▁assumere	-10.263
▁ricco	-10.2638
▁frase	-10.2642
▁sostenuto	-10.2644
▁sostiene	-10.2644
▁pranzo	-10.2649
▁stabilito	-10.2654
▁leader	-10.2659
▁recenti	-10.2671
▁elevato	-10.2672
intervento	-10.2674
▁imporre	-10.2676
▁costante	-10.2681
▁speciali	-10.2682
▁patrimonio	-10.2684
▁annuale	-10.2694
▁inteso	-10.2695
▁ab	-10.2695
▁raccomandazione	-10.2701
▁mangia	-10.2702
▁trattare	-10.2706
▁corrente	-10.2709
▁sca	-10.2719
▁eravamo	-10.2724
▁principalmente	-10.2739
▁spe	-10.2745
▁farò	-10.2748
▁filosofia	-10.2748
▁aggiunto	-10.2759
▁prete	-10.2759
auto	-10.2765
▁approva	-10.277
hi	-10.2775
▁istituzione	-10.2776
▁nomina	-10.2784
▁vii	-10.2787
▁riferisco	-10.2789
nne	-10.2793
▁sviluppi	-10.2794
▁riserva	-10.2794
dio	-10.2795
▁enormi	-10.2798
ff	-10.2803
▁indipendente	-10.2804
▁venerdì	-10.2804
▁turchi	-10.2808
▁stranieri	-10.2824
▁sacco	-10.2826
▁cominciare	-10.2828
zzato	-10.2833
▁richiesto	-10.2834
▁compiuti	-10.2834
▁istruzione	-10.284
▁servire	-10.2843
▁conflitti	-10.2849
▁brevi	-10.2859
▁senato	-10.2869
▁distribuzione	-10.2871
▁pronti	-10.2882
▁capitali	-10.2884
▁cambia	-10.2891
▁criminalità	-10.2896
▁ivi	-10.2897
▁consentito	-10.29
▁rurale	-10.29
▁possesso	-10.2901
▁sentimenti	-10.2902
▁gambe	-10.2906
▁svolta	-10.2925
▁roberto	-10.2931
▁por	-10.2931
▁tecnici	-10.2931
▁zio	-10.2935
▁lancia	-10.2936
▁segretario	-10.2943
▁ragionevole	-10.2953
▁spi	-10.2957
▁rapida	-10.2957
▁velocità	-10.2957
▁previste	-10.2967
▁parlamenti	-10.2967
ke	-10.2974
stri	-10.2978
▁dette	-10.2983
▁muro	-10.2984
▁divina	-10.2996
▁venivano	-10.2997
▁pose	-10.2998
▁gra	-10.3
mma	-10.3003
▁indicato	-10.3006
pre	-10.3008
▁partita	-10.3011
▁27	-10.3017
▁felici	-10.3036
▁latte	-10.3039
allargamento	-10.304
▁svezia	-10.3044
▁legislativo	-10.3049
▁accolto	-10.3049
▁deriva	-10.3053
▁osservare	-10.3053
▁profughi	-10.307
▁privati	-10.307
▁scoprire	-10.3071
▁riso	-10.3075
▁scelto	-10.3075
▁eliminare	-10.3075
stro	-10.3083
▁felicità	-10.3087
▁giornali	-10.3089
▁jo	-10.3093
▁riserve	-10.3096
nato	-10.3097
via	-10.3099
▁fuga	-10.31
▁profilo	-10.3101
▁serra	-10.3114
▁eventuali	-10.3115
▁perduto	-10.3115
▁passò	-10.3123
▁superare	-10.3125
ito	-10.3133
▁grido	-10.3149
▁perde	-10.3152
▁odio	-10.3161
▁londra	-10.3164
▁corsa	-10.3165
▁trarre	-10.3172
▁giovine	-10.3172
▁animale	-10.3184
▁provenienti	-10.319
▁competitività	-10.319
▁garibaldi	-10.3195
▁oggetti	-10.3205
▁verdi	-10.3205
▁attuare	-10.3208
▁antica	-10.3208
▁realmente	-10.3215
▁professione	-10.3216
os	-10.322
▁date	-10.3221
▁truppe	-10.3222
▁vidi	-10.3225
▁istituzionale	-10.3232
▁presta	-10.3233
zo	-10.3233
▁denti	-10.3234
▁riprese	-10.3245
tum	-10.3246
▁liberi	-10.3251
tus	-10.3251
▁oro	-10.3254
▁vite	-10.3261
▁posa	-10.3262
▁lume	-10.3263
▁riuscito	-10.3267
▁impianti	-10.3269
tre	-10.3271
cio	-10.3272
▁recentemente	-10.3274
▁fattori	-10.3279
▁napoleone	-10.328
▁profondamente	-10.3282
▁crescente	-10.3283
▁futura	-10.3284
▁realizzato	-10.329
▁confronto	-10.3295
nzi	-10.3316
ura	-10.3319
▁inserire	-10.3321
▁raccogliere	-10.3323
utilizzo	-10.3326
ina	-10.3332
▁pla	-10.3334
uri	-10.3336
tive	-10.3339
▁toglie	-10.334
▁mezza	-10.3347
rá	-10.3348
▁altrui	-10.3349
▁ciascun	-10.3354
▁conta	-10.3356
▁determinato	-10.3357
▁capisco	-10.3363
▁poca	-10.3375
▁imparare	-10.3377
▁assieme	-10.3381
▁concrete	-10.3384
▁risposto	-10.3386
▁tutt	-10.339
▁larga	-10.3392
jo	-10.3394
▁credito	-10.3399
▁statua	-10.3402
▁occasioni	-10.3404
▁dubbi	-10.341
▁sc	-10.3417
▁viii	-10.3417
▁pianta	-10.3417
▁fretta	-10.3425
▁radio	-10.3426
▁destino	-10.343
▁parlava	-10.3431
▁assunto	-10.3434
▁♫	-10.3436
▁semi	-10.3436
▁insegna	-10.3436
▁comunale	-10.345
▁definitiva	-10.3452
▁adottate	-10.3456
▁approvare	-10.3458
▁soggetto	-10.3468
▁normale	-10.3469
▁new	-10.3469
▁controllare	-10.3472
▁volere	-10.3476
▁ascoltare	-10.3477
▁potrei	-10.3477
▁j	-10.3479
▁venir	-10.348
▁storica	-10.3483
▁dovevano	-10.3486
▁volesse	-10.3486
▁prevedere	-10.3488
▁saremo	-10.3489
▁guisa	-10.349
▁anna	-10.3492
▁genti	-10.3506
▁chiarire	-10.3507
▁disposto	-10.3516
11	-10.3518
▁tengo	-10.3523
▁dettagli	-10.3524
▁aggiunge	-10.3527
▁culturali	-10.3528
▁andar	-10.3529
▁debole	-10.3529
▁correre	-10.3536
▁utenti	-10.3543
▁rivolta	-10.3543
10	-10.3551
▁calma	-10.3553
▁conosciuto	-10.3553
▁detti	-10.3564
▁pomeriggio	-10.357
▁ascolta	-10.3573
erò	-10.3574
á	-10.3575
▁muove	-10.3578
▁andando	-10.3578
▁stavano	-10.3581
interrogazione	-10.3582
▁intendere	-10.3587
▁disporre	-10.3588
▁colpi	-10.359
▁edizione	-10.3595
rgi	-10.3595
▁grida	-10.3598
▁pezzi	-10.3599
▁rovina	-10.36
▁aereo	-10.3604
ando	-10.3607
▁chiamare	-10.3608
▁volentieri	-10.3613
▁avvenuto	-10.3619
▁inaccettabile	-10.3619
▁lisbona	-10.3624
▁sezione	-10.3634
▁vicenda	-10.3636
▁appresso	-10.3641
autorità	-10.3643
▁ja	-10.3643
▁costituire	-10.3647
▁santi	-10.3653
▁mala	-10.3656
▁efficacia	-10.3657
▁soggiunse	-10.3657
▁compreso	-10.3658
▁adatta	-10.3664
ka	-10.3666
▁quinto	-10.3667
stre	-10.3669
america	-10.367
▁segni	-10.3672
▁cani	-10.3679
▁lunghe	-10.3682
▁60	-10.3689
▁immagine	-10.3696
vol	-10.3701
▁volo	-10.3703
▁viola	-10.3705
▁anzitutto	-10.3707
▁associazioni	-10.3708
anti	-10.3711
epoca	-10.3714
▁piè	-10.3717
▁natale	-10.3717
▁favorevoli	-10.3721
▁perfino	-10.3723
▁adottata	-10.3724
▁discusso	-10.3729
▁compagnie	-10.3736
▁presentate	-10.3738
▁passati	-10.3739
▁svolge	-10.374
▁interrogazione	-10.374
immagine	-10.3742
▁28	-10.3744
colo	-10.375
▁arrivato	-10.3759
▁critiche	-10.3762
▁nave	-10.3767
▁pianeta	-10.3768
▁sicura	-10.377
mbi	-10.3771
▁certezza	-10.3776
▁commissari	-10.3777
▁pensando	-10.3781
▁cavalieri	-10.3783
▁scrisse	-10.3783
▁contessa	-10.3783
analisi	-10.3787
ndogli	-10.379
▁ricchezza	-10.3791
▁giochi	-10.3797
▁suono	-10.3798
▁accetta	-10.3801
▁totalmente	-10.3807
▁palla	-10.3811
▁stanziamenti	-10.3813
▁dedicato	-10.3814
▁caldo	-10.3816
▁interessa	-10.3817
▁pubblicità	-10.3817
▁addosso	-10.3818
ico	-10.3818
▁tedeschi	-10.3824
▁reazione	-10.3824
▁specifici	-10.3827
▁democratici	-10.3836
▁impatto	-10.3838
▁giunti	-10.384
▁restare	-10.3846
▁traccia	-10.3848
▁generazione	-10.3848
▁intendiamo	-10.385
ment	-10.3853
▁gentile	-10.3858
▁efficaci	-10.3863
▁stelle	-10.3865
tamente	-10.3865
▁caffè	-10.3868
▁carcere	-10.3869
▁26	-10.387
▁vendetta	-10.387
▁scientifica	-10.3874
▁proseguire	-10.388
▁stretto	-10.388
ppi	-10.3885
▁spiegare	-10.3888
menta	-10.3888
▁1996	-10.389
▁mediterraneo	-10.3897
▁precisa	-10.3899
▁can	-10.3902
9	-10.3908
▁incontra	-10.3911
aiuto	-10.3913
▁caduta	-10.3925
▁campanella	-10.3925
▁contrasto	-10.3926
▁manifesta	-10.3934
▁tenuta	-10.3936
▁africa	-10.3939
▁alimenti	-10.3942
▁eletto	-10.3947
▁appoggia	-10.3948
▁riposo	-10.3953
mpo	-10.3959
▁pubblicato	-10.3959
▁rossa	-10.3964
▁moderna	-10.3965
▁pressioni	-10.397
▁raccomandazioni	-10.3971
▁approvata	-10.3976
▁diavolo	-10.3984
▁composto	-10.3987
▁estrema	-10.3989
▁letteratura	-10.3991
▁cogli	-10.3992
▁vincere	-10.3992
▁usato	-10.4
▁adeguato	-10.4
▁ricerche	-10.401
▁madonna	-10.4015
▁osserva	-10.4017
▁cena	-10.4024
▁scoperto	-10.4027
▁mattino	-10.4031
▁31	-10.4036
tiche	-10.4039
ul	-10.404
▁tuttora	-10.4046
argomento	-10.4047
▁provare	-10.4048
▁gioventù	-10.405
▁concreti	-10.4051
▁miseria	-10.4061
▁ok	-10.407
▁chè	-10.4073
spi	-10.4074
▁messer	-10.4074
▁pò	-10.4091
▁guardando	-10.4093
▁giorgio	-10.4096
▁facesse	-10.41
uto	-10.4105
▁sussidiarietà	-10.4107
▁reddito	-10.4107
▁ideale	-10.4108
▁indica	-10.4111
▁babbo	-10.4114
▁parliamo	-10.4116
ché	-10.4121
▁contento	-10.4127
▁tor	-10.4132
▁seguita	-10.4133
vole	-10.4141
▁vince	-10.4141
▁2001	-10.4141
▁barba	-10.4144
▁vicina	-10.4147
▁mosse	-10.4151
▁nu	-10.4151
▁rivela	-10.4152
▁volendo	-10.4153
▁andata	-10.4155
▁neri	-10.4156
▁figliuoli	-10.4163
▁continente	-10.4165
▁discorsi	-10.4171
▁composizione	-10.4171
iva	-10.4172
▁elaborare	-10.4174
▁futuri	-10.4174
▁tavolo	-10.4177
▁sfide	-10.4177
▁modelli	-10.4177
▁tornò	-10.4178
▁apertura	-10.4178
▁accaduto	-10.4189
bra	-10.4189
▁rafforzamento	-10.4189
▁star	-10.4204
▁finanziamenti	-10.4206
▁perso	-10.4209
▁italiane	-10.4209
▁contare	-10.4212
▁dottore	-10.4216
▁torto	-10.4216
▁infrastrutture	-10.4217
▁intera	-10.422
mina	-10.422
▁ciascuna	-10.4222
▁determinazione	-10.4227
▁fornito	-10.4231
▁bisogni	-10.4234
▁bis	-10.4236
▁vinto	-10.4239
▁ste	-10.4239
▁giá	-10.4241
▁costretto	-10.4246
ser	-10.4252
▁congresso	-10.4258
▁essenziali	-10.4258
▁commissioni	-10.4264
▁firma	-10.4264
▁mandò	-10.4276
enti	-10.428
▁dissi	-10.428
▁giudice	-10.4283
▁fiscali	-10.4285
▁sottolinea	-10.4288
▁amor	-10.4289
▁neve	-10.4289
amministrazione	-10.4296
▁chiare	-10.4297
▁doppio	-10.43
▁civiltà	-10.4305
▁bra	-10.4305
sche	-10.4305
▁discriminazione	-10.4306
▁lavorato	-10.4311
▁dottrina	-10.4317
▁area	-10.4317
ex	-10.4319
▁ut	-10.432
▁nera	-10.4331
▁competente	-10.4341
mmi	-10.4347
▁bravo	-10.4349
▁corretta	-10.4355
▁consenta	-10.4357
▁vorrebbe	-10.4359
▁scambi	-10.4362
▁scorsa	-10.4366
▁blu	-10.4367
istituzione	-10.4369
▁distruzione	-10.4369
▁concreto	-10.4369
rri	-10.437
▁rilievo	-10.4375
▁esecuzione	-10.4381
▁confusione	-10.4385
▁entrò	-10.4387
▁colà	-10.4391
▁folla	-10.4393
▁farne	-10.4396
▁cima	-10.4396
▁meccanismi	-10.4411
▁fuor	-10.4411
▁accusa	-10.4417
▁definito	-10.442
▁vuoto	-10.4423
▁imposte	-10.4423
▁is	-10.4426
▁bianchi	-10.4429
▁concessione	-10.4429
▁decide	-10.4432
▁permanente	-10.4435
▁alberi	-10.4439
ini	-10.4439
▁dipendenti	-10.444
voli	-10.445
ose	-10.4452
î	-10.4453
▁promessa	-10.4453
▁destinato	-10.4455
▁cre	-10.4462
▁scrittore	-10.4463
▁perch	-10.4466
▁istante	-10.4468
▁diversità	-10.4471
▁beneficio	-10.4475
▁largo	-10.4476
▁pensiamo	-10.448
▁papà	-10.4482
▁concilio	-10.4484
▁ppe	-10.4491
▁proteggere	-10.4495
▁gestire	-10.4495
▁solleva	-10.4496
▁studiare	-10.4497
▁ripresa	-10.45
erebbe	-10.4503
uno	-10.4507
▁anziani	-10.4508
▁oratori	-10.4511
▁riprende	-10.4513
▁straordinaria	-10.4515
▁fantasia	-10.4518
▁ecc	-10.4522
▁alti	-10.4525
▁occhio	-10.4526
▁post	-10.4526
▁benché	-10.4528
▁rappresentato	-10.4531
▁spera	-10.4531
▁prega	-10.4542
▁utilizzato	-10.4548
▁contributi	-10.4548
▁racconto	-10.4556
▁sufficienti	-10.456
▁ebbero	-10.4562
▁necessariamente	-10.4565
▁università	-10.4569
▁giova	-10.457
▁debbono	-10.4575
▁lago	-10.4576
▁soddisfare	-10.4577
▁chiusura	-10.4578
▁ovunque	-10.4578
▁clienti	-10.4579
▁getta	-10.458
▁diventato	-10.458
▁famoso	-10.4584
▁seguendo	-10.4586
▁piante	-10.4586
▁proposti	-10.459
▁ecu	-10.4593
▁sovra	-10.4595
▁ciclo	-10.4599
▁bei	-10.4603
▁pericoli	-10.4609
▁pac	-10.4617
▁poscia	-10.4617
▁dando	-10.4617
▁ragazze	-10.4621
▁nascita	-10.4621
nge	-10.4621
▁nucleari	-10.4621
▁superiori	-10.4626
▁obblighi	-10.4627
▁cominciato	-10.4628
▁avessi	-10.463
▁violazione	-10.463
▁poste	-10.4633
mini	-10.4636
▁vasta	-10.4637
▁pesce	-10.4638
▁crescere	-10.4644
▁bordo	-10.4646
q	-10.4649
▁ricca	-10.465
▁nipote	-10.4651
▁urgente	-10.4652
▁effettuare	-10.4653
▁concedere	-10.4657
aspetto	-10.4662
ze	-10.4662
▁2003	-10.4662
▁pensava	-10.4662
▁calcio	-10.4665
▁meccanismo	-10.4675
▁esercizio	-10.4676
omc	-10.4679
▁passando	-10.4679
▁utilizzo	-10.4681
▁partenariato	-10.4687
van	-10.4693
▁superficie	-10.4704
▁ridotto	-10.4706
▁perdono	-10.4706
▁sostituire	-10.4706
▁fri	-10.4707
▁ritorna	-10.4717
▁latina	-10.4721
▁benchè	-10.4724
gu	-10.4734
▁29	-10.4735
▁sorpresa	-10.4736
▁tendenza	-10.4738
▁personaggi	-10.4742
▁belli	-10.4743
▁assoluta	-10.4744
▁plenaria	-10.4748
▁preghiera	-10.4749
▁materie	-10.4749
▁sti	-10.475
▁meraviglia	-10.4754
▁bandiera	-10.4755
▁veder	-10.4757
associazione	-10.4758
▁fonda	-10.476
▁rappresentare	-10.4771
▁sperare	-10.4771
▁esterne	-10.4773
▁anime	-10.4775
▁ucciso	-10.4779
▁chiamati	-10.4782
▁organismi	-10.4786
▁lentamente	-10.4787
qua	-10.4789
▁<	-10.4792
▁produce	-10.4797
▁scoperta	-10.4798
▁ribadire	-10.4798
▁marchesa	-10.4805
età	-10.4806
▁occidentale	-10.4811
▁trasferimento	-10.4817
▁legale	-10.4819
▁nizza	-10.482
▁gira	-10.4821
▁completo	-10.4824
▁catena	-10.483
▁trono	-10.483
▁ricorrere	-10.4831
▁mantenimento	-10.4835
▁pazienti	-10.4835
▁centri	-10.4838
▁collegio	-10.4845
▁scelte	-10.4853
▁soccorso	-10.4853
▁fiorentini	-10.4853
▁enrico	-10.486
20	-10.4862
lino	-10.4863
▁calendario	-10.4867
▁finché	-10.4867
azienda	-10.4869
▁conosco	-10.4871
▁scienze	-10.4878
▁gu	-10.488
▁immaginare	-10.488
lmente	-10.4883
▁coerente	-10.4885
▁vecchie	-10.4887
▁apre	-10.4893
▁america	-10.4895
▁comunica	-10.4896
▁sovranità	-10.4897
▁volti	-10.4902
▁risoluzioni	-10.4903
▁britannico	-10.4909
▁costumi	-10.4909
▁terrore	-10.4909
▁rive	-10.4911
▁utilizza	-10.4914
▁rin	-10.4916
obbligo	-10.4926
ppa	-10.4927
▁organizzata	-10.4928
▁tempio	-10.493
▁utilizzati	-10.4937
▁bal	-10.4948
▁giudici	-10.4966
▁sicuri	-10.4968
▁relatori	-10.4978
▁accettato	-10.4981
▁padri	-10.4982
▁lontani	-10.4984
▁continuano	-10.4986
▁isole	-10.4994
etto	-10.4994
▁mostrare	-10.4998
▁fumo	-10.5
▁morì	-10.5
▁andate	-10.5005
▁pescatori	-10.5011
▁iniziale	-10.5017
▁fattore	-10.5018
▁fissa	-10.502
esistenza	-10.5023
▁pazienza	-10.5023
▁salvo	-10.5031
ber	-10.5031
í	-10.5036
▁tedesca	-10.5047
▁agricoltura	-10.505
▁offerte	-10.5054
nata	-10.5061
▁imperatore	-10.5062
▁movimenti	-10.5073
osa	-10.5073
▁fisica	-10.5075
▁cum	-10.5077
▁sarò	-10.5086
▁notevoli	-10.5092
▁esistenza	-10.5094
▁emerge	-10.5094
▁taglia	-10.5096
bat	-10.5098
▁partecipato	-10.5099
approvazione	-10.5101
▁accoglie	-10.5102
ava	-10.5103
▁fortemente	-10.5104
▁fossi	-10.5108
▁ju	-10.5109
▁valida	-10.5111
▁ingegno	-10.5111
▁pagamenti	-10.5113
▁leva	-10.5118
▁colonna	-10.5123
▁disegni	-10.5124
▁romanzo	-10.5126
▁limitare	-10.5134
▁salire	-10.5141
▁scrittori	-10.5147
ly	-10.5152
dia	-10.5153
▁pas	-10.5154
▁online	-10.5156
▁concesso	-10.5164
▁piglia	-10.5168
autore	-10.5175
▁scritti	-10.5176
▁soglia	-10.5177
▁differenti	-10.5181
▁adeguata	-10.5181
▁grandezza	-10.5182
▁saper	-10.5184
▁genio	-10.5191
nse	-10.5193
▁villaggio	-10.5195
▁alberto	-10.5196
▁uffici	-10.5198
rdi	-10.5198
▁discarico	-10.52
▁diffusione	-10.52
▁ricostruzione	-10.5201
mus	-10.5202
▁pia	-10.5209
▁trenta	-10.5216
università	-10.5217
▁legislativa	-10.5219
▁nata	-10.5225
▁ix	-10.5236
▁eran	-10.5241
▁/	-10.5242
▁2002	-10.5242
▁saluto	-10.5242
▁benefici	-10.5243
▁soggiorno	-10.5245
alto	-10.5247
▁michele	-10.5248
▁contenta	-10.5251
▁femminile	-10.5252
▁naso	-10.5252
▁frate	-10.5252
mba	-10.5254
▁cattiva	-10.5261
▁praticamente	-10.5261
▁continuamente	-10.5262
▁mor	-10.5265
▁pronta	-10.5276
▁antiche	-10.5277
▁ratifica	-10.528
▁vedremo	-10.5284
▁straordinario	-10.5288
▁berlino	-10.5293
▁industriali	-10.5296
▁veicoli	-10.5297
▁quanta	-10.5302
▁salvare	-10.5306
▁costituito	-10.5306
▁scientifico	-10.5316
▁assume	-10.5317
▁sà	-10.5318
▁tutelare	-10.5319
▁figliuola	-10.5321
▁contribuito	-10.5326
▁frattempo	-10.5329
▁prigione	-10.5329
▁prassi	-10.5337
▁sessione	-10.5341
▁ovvio	-10.5342
▁acp	-10.5344
▁dispiace	-10.5345
▁lontana	-10.5348
▁ritornare	-10.5353
▁singolo	-10.5355
▁colpito	-10.5369
▁tornata	-10.5373
▁immagina	-10.5374
udi	-10.5383
ki	-10.5384
▁potenziale	-10.5389
▁latino	-10.539
hai	-10.5394
▁faremo	-10.5395
mpi	-10.5395
▁storici	-10.5395
▁promesse	-10.5401
▁flotta	-10.5402
▁pretesto	-10.5402
ttu	-10.5403
▁butta	-10.5406
▁monta	-10.5409
▁compagno	-10.541
>	-10.5411
▁richiama	-10.5415
▁riuscita	-10.5419
▁gode	-10.5435
son	-10.544
▁province	-10.5441
▁trasformazione	-10.5443
▁pubblicazione	-10.5444
▁museo	-10.5444
stru	-10.5445
▁canta	-10.5448
▁marcia	-10.5449
evoluzione	-10.5451
▁artisti	-10.5452
▁portogallo	-10.5454
▁dirò	-10.5454
▁cattivo	-10.5455
impatto	-10.5459
▁venuti	-10.546
▁ebrei	-10.5461
▁tragedia	-10.5467
▁tenta	-10.5468
▁significativo	-10.547
▁mali	-10.547
▁sostanzialmente	-10.5473
▁basa	-10.5474
ffi	-10.5474
▁ciao	-10.5475
▁concernente	-10.5477
▁implica	-10.5478
▁acco	-10.548
▁disposti	-10.5482
▁domandò	-10.5486
txt	-10.5487
▁arrivati	-10.5492
▁liberali	-10.5492
▁corse	-10.5498
tz	-10.5499
▁offerta	-10.55
▁intenzioni	-10.55
▁prigionieri	-10.55
▁assoluto	-10.55
▁incidenti	-10.5507
ron	-10.5509
50	-10.551
▁assenza	-10.5513
▁delitto	-10.5514
▁visitare	-10.5518
nus	-10.5519
▁rimedio	-10.5524
▁costoro	-10.5538
▁parenti	-10.554
ica	-10.5544
gge	-10.5546
!"	-10.5547
▁prescindere	-10.5553
assistenza	-10.5557
▁volevano	-10.5559
▁bagno	-10.5564
▁agricolo	-10.5566
rda	-10.5571
▁invita	-10.5571
▁cade	-10.5573
▁assicura	-10.5577
▁frutti	-10.5581
▁crediamo	-10.5581
▁trovi	-10.5588
▁termina	-10.5592
▁turco	-10.5593
▁inghilterra	-10.5595
▁consegna	-10.5602
bri	-10.5602
zie	-10.5605
▁conserva	-10.5606
lio	-10.5607
▁giocare	-10.561
immigrazione	-10.561
ppe	-10.5613
line	-10.5613
▁soldato	-10.5615
▁teoria	-10.5619
▁conservazione	-10.5623
▁garanzie	-10.5626
▁interessanti	-10.5628
▁scrittura	-10.5633
▁provvedimento	-10.564
▁tentare	-10.5643
▁conduce	-10.5646
▁1995	-10.5648
▁0	-10.5651
▁votazioni	-10.5654
▁preparare	-10.5658
▁privata	-10.566
oso	-10.5665
▁procede	-10.5675
▁chiude	-10.5686
▁congratulo	-10.5687
▁incontri	-10.5687
▁scopri	-10.5691
▁contratti	-10.5699
▁ze	-10.5702
▁cresce	-10.5705
▁rilevare	-10.5712
▁successivo	-10.5716
▁avvenimenti	-10.5727
ine	-10.5739
▁bri	-10.574
▁fabbrica	-10.5741
▁scia	-10.5745
▁figure	-10.5747
▁rifiuto	-10.5748
▁terrà	-10.5756
▁fissare	-10.5757
▁rossi	-10.5762
▁portava	-10.5765
▁miglia	-10.5767
▁applica	-10.5775
▁volontari	-10.5775
▁affetto	-10.5775
nzia	-10.5776
▁gregorio	-10.5776
▁km	-10.578
mu	-10.5783
▁tornato	-10.5787
▁biblioteca	-10.5787
▁deboli	-10.5788
▁coerenza	-10.5788
▁dovete	-10.5792
▁valuta	-10.5795
▁pisa	-10.5795
▁organizzato	-10.5799
▁indipendenza	-10.58
▁titoli	-10.5804
▁giusti	-10.5805
▁mettendo	-10.5814
▁mostrato	-10.5817
▁rivolto	-10.5822
▁costantinopoli	-10.5822
40	-10.5822
▁preciso	-10.5837
▁regolamentazion	-10.584
▁cava	-10.5843
▁quarta	-10.5844
▁chiudere	-10.5844
▁degno	-10.5846
▁chiuse	-10.5847
▁rapido	-10.585
sque	-10.5851
▁signoria	-10.5857
ut	-10.5859
mila	-10.586
▁cappello	-10.5866
▁sali	-10.5869
▁arrivo	-10.587
▁sorti	-10.5874
endo	-10.5876
▁formula	-10.5876
tivi	-10.5877
▁individui	-10.5877
▁carità	-10.5881
▁mobili	-10.5882
▁avviato	-10.5886
▁tesi	-10.5889
▁percentuale	-10.5891
▁indipendenti	-10.5891
▁elettorale	-10.5891
▁negativo	-10.5891
▁future	-10.59
▁veneziani	-10.5902
▁americano	-10.5914
▁pensate	-10.5915
▁vestito	-10.5915
▁dimenticato	-10.5918
▁consapevole	-10.5924
▁laddove	-10.5925
▁corrisponde	-10.5926
▁sacro	-10.5927
▁considerata	-10.593
▁seriamente	-10.593
▁dimora	-10.5934
▁conoscenze	-10.5941
▁abbraccia	-10.5942
▁giunge	-10.5943
▁categorie	-10.5946
▁congiunta	-10.5947
▁accettabile	-10.5948
▁giulio	-10.5948
▁tradizionale	-10.5953
▁zero	-10.5956
sio	-10.5957
▁evento	-10.5961
▁obbligo	-10.5963
▁protesta	-10.5963
▁familiare	-10.5967
ris	-10.5969
▁ginevra	-10.5974
ai	-10.5977
▁cure	-10.5977
▁bambina	-10.5981
▁gri	-10.5983
▁scriveva	-10.5984
▁eccetera	-10.5988
come	-10.5989
▁fui	-10.5992
▁pianto	-10.5993
▁aveano	-10.5996
▁gesto	-10.6005
erano	-10.601
▁bere	-10.601
▁adunque	-10.6011
▁metti	-10.6011
▁sorge	-10.6013
▁vedono	-10.6023
▁gua	-10.604
▁cha	-10.6041
▁franchi	-10.6043
ndoli	-10.6044
▁gridò	-10.605
▁alza	-10.6051
▁rimasta	-10.6051
▁solenne	-10.6054
▁ripetere	-10.6054
▁giudica	-10.6054
▁sensazione	-10.6057
▁impone	-10.6057
▁amato	-10.606
cchia	-10.6061
▁cipro	-10.6062
ty	-10.6062
▁vittima	-10.6064
▁creatura	-10.6066
rico	-10.6072
▁marina	-10.6075
▁rotta	-10.608
▁1997	-10.6081
▁concluso	-10.6085
▁potenti	-10.6091
▁saluta	-10.6091
▁svedese	-10.6092
▁montagne	-10.61
▁citato	-10.61
▁abbandona	-10.61
▁servono	-10.6102
▁corea	-10.6109
▁batte	-10.6112
▁interne	-10.6112
▁cinquanta	-10.6115
▁regolare	-10.6116
▁mobilità	-10.6117
▁vien	-10.6124
▁suona	-10.6126
▁concede	-10.6133
▁guardava	-10.6133
▁transfrontalier	-10.6134
▁mancano	-10.6135
▁sentì	-10.6138
▁classi	-10.6147
▁bosco	-10.6148
▁promesso	-10.6149
▁socialista	-10.6154
olo	-10.6156
▁rischia	-10.6157
nio	-10.6157
▁navigazione	-10.6158
▁schiera	-10.6167
▁cad	-10.6175
men	-10.6176
▁presidenti	-10.6177
▁agenda	-10.6178
▁corpi	-10.618
▁appoggiare	-10.6183
▁finestre	-10.619
▁alternative	-10.6191
ello	-10.6194
iti	-10.6196
▁indicazioni	-10.62
▁capaci	-10.6202
▁resi	-10.6203
▁curiosità	-10.6206
▁medesimi	-10.6219
▁farci	-10.6225
▁vissuto	-10.6226
rt	-10.623
▁riva	-10.6234
▁lombardia	-10.6239
▁lagrime	-10.6241
▁sindaco	-10.6241
▁cifre	-10.6241
▁messe	-10.6243
▁tasse	-10.6243
▁riprendere	-10.6255
▁corruzione	-10.6255
▁lussemburgo	-10.6255
▁entrata	-10.6255
▁ripeto	-10.6256
▁droga	-10.6262
nico	-10.6264
apertura	-10.6265
▁temo	-10.6267
▁status	-10.6268
▁attende	-10.6269
▁creduto	-10.6269
▁bio	-10.628
▁1.	-10.6281
▁formato	-10.6289
etta	-10.6292
▁essersi	-10.6298
▁cliente	-10.6303
▁cogliere	-10.6303
nzo	-10.6306
▁angelo	-10.6307
▁donde	-10.631
▁medicina	-10.6312
cri	-10.6313
▁compra	-10.6313
▁tiro	-10.6317
▁avvicina	-10.632
▁guardò	-10.632
agenzia	-10.6324
▁angolo	-10.6324
▁attendere	-10.6332
▁liberale	-10.6332
▁traduzione	-10.6334
mar	-10.6337
▁rimasti	-10.6337
▁minima	-10.6338
▁perfetto	-10.634
▁poeti	-10.6346
▁istituzionali	-10.6349
▁simbolo	-10.6349
lità	-10.635
▁xii	-10.6355
▁frodi	-10.6356
▁lezione	-10.636
▁condividere	-10.6362
▁bando	-10.6367
▁consapevoli	-10.637
▁‘	-10.6378
▁condannato	-10.6381
▁pilastro	-10.6384
▁schi	-10.6389
▁agricole	-10.6391
▁calabria	-10.6391
▁software	-10.6391
unanimità	-10.6396
▁restano	-10.6399
▁amare	-10.6403
▁affrontato	-10.6406
▁pesante	-10.641
▁manifestazione	-10.641
▁seco	-10.6412
▁attivo	-10.6413
▁conseguire	-10.6417
▁valido	-10.642
▁campagne	-10.642
▁sapendo	-10.642
▁hu	-10.6421
▁comprensione	-10.6427
▁tradizioni	-10.643
▁3,	-10.643
▁finita	-10.6433
▁ridere	-10.6437
▁asse	-10.6439
▁diversamente	-10.6441
▁bisognava	-10.6445
▁ascoltato	-10.6445
▁indicare	-10.6448
▁duro	-10.6448
ndole	-10.6448
ndone	-10.6454
▁prof	-10.6455
▁formulare	-10.6458
mbo	-10.646
▁eletti	-10.646
ante	-10.6461
rdo	-10.6465
▁dormire	-10.6465
▁lieta	-10.6466
▁barbari	-10.6468
rino	-10.6483
▁trasparente	-10.6486
▁esistente	-10.6487
▁provato	-10.6494
▁piemonte	-10.6497
▁ambiti	-10.6497
▁dono	-10.65
▁essenzialmente	-10.65
▁componenti	-10.6509
▁andati	-10.651
▁cookie	-10.651
▁culto	-10.6514
▁istituire	-10.6514
▁doppia	-10.6515
▁competenti	-10.6516
▁raggiunge	-10.6522
onu	-10.6523
▁stella	-10.6527
▁liberamente	-10.6532
▁meta	-10.6534
▁concreta	-10.6539
▁amo	-10.6539
mm	-10.654
▁verona	-10.6545
▁sogni	-10.6545
▁stazione	-10.6551
▁decisamente	-10.6555
▁riguardanti	-10.656
▁resa	-10.6566
▁parlo	-10.6566
isce	-10.6567
▁entrate	-10.6568
▁entrato	-10.6568
▁negoziato	-10.6569
▁pericoloso	-10.6576
▁divenne	-10.6583
▁somme	-10.6589
▁basata	-10.6591
ori	-10.6591
▁codecisione	-10.6596
▁continui	-10.6601
▁interamente	-10.6603
▁stor	-10.6604
▁veloce	-10.6606
▁ombra	-10.6612
▁scende	-10.6613
▁xi	-10.6623
▁ampiamente	-10.6627
▁cristiano	-10.6627
▁papi	-10.6629
▁allontana	-10.6631
▁costretti	-10.6633
▁estero	-10.6635
▁determinati	-10.6637
▁disco	-10.6637
▁violazioni	-10.6643
▁imparato	-10.6643
▁dovette	-10.6644
▁contatti	-10.6644
▁quote	-10.6647
▁nega	-10.665
▁vasto	-10.6651
origine	-10.6653
vamo	-10.6658
mme	-10.6658
▁sventura	-10.6663
he	-10.6669
▁polvere	-10.6682
▁mettiamo	-10.6683
▁ritrova	-10.6684
poli	-10.6686
▁scadenza	-10.6692
▁religiosa	-10.6699
▁turba	-10.67
▁gioca	-10.6705
▁treno	-10.6709
▁potendo	-10.6714
▁sfruttamento	-10.6715
▁seppe	-10.6716
▁arabi	-10.6726
▁cala	-10.6728
▁2004	-10.6729
▁seria	-10.6731
▁banda	-10.674
▁capita	-10.6741
▁pmi	-10.6742
▁divisione	-10.6745
▁feci	-10.6751
▁scale	-10.6755
▁penna	-10.6759
▁concordo	-10.6759
▁sbagliato	-10.6766
▁strasburgo	-10.6767
▁ko	-10.6773
▁vescovi	-10.6774
ux	-10.6775
pu	-10.6779
▁individuare	-10.6782
▁probabilità	-10.6782
▁concorso	-10.6783
▁generazioni	-10.6784
▁stando	-10.6784
▁ong	-10.6788
esame	-10.679
▁mena	-10.6799
▁lasci	-10.6802
oli	-10.6812
▁macchine	-10.6812
▁conformità	-10.6813
▁cerchio	-10.6813
▁bellissima	-10.6813
▁tesoro	-10.6814
▁citare	-10.682
▁territori	-10.6825
▁tro	-10.6825
▁preoccupa	-10.6828
▁roba	-10.6829
em	-10.6835
▁vienna	-10.6836
▁profitto	-10.6837
▁noti	-10.684
impresa	-10.6841
▁piega	-10.6841
▁passioni	-10.6841
▁comunicazioni	-10.6845
▁portano	-10.6849
▁uscì	-10.6857
▁irlanda	-10.6859
rete	-10.6861
▁dramma	-10.6863
▁accompagna	-10.6864
▁lasciate	-10.6868
▁evoluzione	-10.6868
▁spinge	-10.6874
▁sesso	-10.6874
▁borsa	-10.6882
▁priva	-10.6886
▁consigliere	-10.6892
▁brevemente	-10.6894
▁supporto	-10.6895
▁balcani	-10.6895
▁rinnovabili	-10.69
▁lord	-10.6908
▁viaggi	-10.6911
lini	-10.6915
▁suolo	-10.6917
▁governatore	-10.6923
▁decisionale	-10.6926
▁aperte	-10.6926
ari	-10.6928
▁immigrazione	-10.6936
▁prevenire	-10.6936
oro	-10.6937
▁wi	-10.6939
▁complessiva	-10.6941
▁grossa	-10.6941
▁lasciava	-10.6944
▁partecipanti	-10.6945
▁regolamenti	-10.6945
▁rileva	-10.695
▁attentamente	-10.6952
▁andavano	-10.6953
▁arma	-10.6958
▁efficiente	-10.6965
13	-10.6966
▁giu	-10.6971
▁guido	-10.6976
dra	-10.6976
▁cammina	-10.6977
▁vorremmo	-10.6979
▁rivedere	-10.6982
▁interessate	-10.6984
▁energie	-10.6987
▁canzone	-10.6987
▁sacra	-10.6988
▁cassa	-10.6988
▁virgilio	-10.6994
▁descrizione	-10.6996
▁generalmente	-10.6996
▁impegnati	-10.6997
▁cardinali	-10.6998
ens	-10.6998
▁amicizia	-10.7
▁inglesi	-10.7002
▁dovuta	-10.7003
▁tetto	-10.7003
▁credeva	-10.7004
▁digitale	-10.7005
▁camere	-10.7008
▁richiamare	-10.7012
▁transizione	-10.7018
▁---	-10.702
▁mediatore	-10.7022
▁lavorando	-10.7025
▁york	-10.7025
▁precedenza	-10.7026
▁commesso	-10.7026
▁lettori	-10.7027
▁potessero	-10.7031
▁lasciar	-10.7031
▁credibilità	-10.7034
▁partecipa	-10.7035
▁scendere	-10.7035
temi	-10.7036
▁monarchia	-10.7036
▁opposizione	-10.7039
fica	-10.704
▁vende	-10.704
▁convinzione	-10.7041
▁preti	-10.7043
▁scarsa	-10.7045
▁stasera	-10.7048
▁gian	-10.7049
cto	-10.705
▁addio	-10.705
▁dolci	-10.705
▁contrari	-10.7051
▁zo	-10.706
vit	-10.7061
▁fortezza	-10.7062
▁austria	-10.7065
▁incoraggiare	-10.7071
▁2018	-10.7078
▁difetto	-10.7084
ssu	-10.7087
▁esterna	-10.7094
▁4,	-10.7094
▁canti	-10.7096
▁frode	-10.7096
▁ò	-10.7101
irlanda	-10.7102
▁aumenta	-10.7103
▁costantemente	-10.7103
▁chiamava	-10.7105
▁guardate	-10.711
▁frutta	-10.7114
▁tentato	-10.7114
▁difende	-10.7115
▁feste	-10.7117
▁strana	-10.7123
▁inde	-10.7126
▁lucia	-10.713
▁caratteri	-10.713
▁desideri	-10.7133
▁costume	-10.7134
▁nasconde	-10.7137
▁prudenza	-10.7141
▁esterno	-10.7142
▁raggio	-10.7144
▁cerchi	-10.7147
▁quo	-10.7148
▁razza	-10.7156
▁espresse	-10.7157
▁ottima	-10.7162
▁accosta	-10.7164
▁direi	-10.7165
▁schengen	-10.7165
▁signorina	-10.7165
▁straniero	-10.7165
▁abusi	-10.7167
▁acquista	-10.7177
▁moderni	-10.7177
▁novella	-10.7178
▁organizzare	-10.7184
▁riunioni	-10.7189
▁degna	-10.7192
▁sesto	-10.7198
ya	-10.7198
▁limitato	-10.7201
▁barcellona	-10.7204
▁spirituale	-10.7204
▁incredibile	-10.7205
▁brescia	-10.7212
aumento	-10.7213
▁prendiamo	-10.7217
▁raggi	-10.7218
nò	-10.722
▁giovedì	-10.722
▁giunse	-10.7224
▁consiglia	-10.7226
▁azienda	-10.7228
▁rigore	-10.7231
▁precisione	-10.7236
▁falsa	-10.7243
cola	-10.7244
▁grossi	-10.7244
nca	-10.7246
je	-10.7246
14	-10.7246
inter	-10.7248
▁w	-10.725
▁bru	-10.7259
cla	-10.7264
▁vent	-10.7272
▁fedeli	-10.7272
tate	-10.728
▁ammettere	-10.7285
▁sal	-10.7289
armonizzazione	-10.7289
▁apri	-10.729
▁agricoli	-10.7291
cò	-10.7291
▁vorrà	-10.7292
▁gola	-10.7299
▁ducati	-10.731
▁udito	-10.7311
▁insistere	-10.7318
▁diretti	-10.7323
▁secondi	-10.7323
▁cerchiamo	-10.7326
▁castel	-10.7328
▁siena	-10.733
ts	-10.733
▁limita	-10.733
▁giacchè	-10.733
▁cittadinanza	-10.7331
▁loco	-10.7331
▁basti	-10.7338
▁200	-10.7339
▁pensione	-10.7339
▁accedere	-10.7344
▁indubbiamente	-10.7346
▁esserci	-10.7348
▁debolezza	-10.7348
ute	-10.7351
▁globalizzazione	-10.7355
▁rendono	-10.7356
etti	-10.7357
▁mancato	-10.7362
▁ritenuto	-10.7362
▁pensò	-10.7362
▁ugo	-10.7364
▁farmi	-10.7366
▁comunicare	-10.7366
▁coda	-10.7369
▁operato	-10.7369
stiche	-10.7373
▁concerto	-10.7374
▁ride	-10.7376
▁core	-10.7378
ger	-10.7379
▁retro	-10.7381
rei	-10.7381
▁grosse	-10.7381
▁tradizionali	-10.7394
▁nati	-10.7401
▁milione	-10.7405
▁uscita	-10.7406
▁guadagna	-10.7407
▁costituzionale	-10.741
▁elettronica	-10.7412
▁guai	-10.7412
▁pura	-10.7414
▁accompagnato	-10.7421
▁vere	-10.7422
▁rabbia	-10.7424
▁deserto	-10.7426
▁calo	-10.7426
▁parma	-10.7429
agenda	-10.7434
▁sovente	-10.7434
▁spagnolo	-10.7434
iraq	-10.744
▁dica	-10.7441
▁tenuti	-10.7442
▁90	-10.7446
▁perfetta	-10.7449
▁padova	-10.7452
▁chiedono	-10.7454
▁suscita	-10.7456
▁strettamente	-10.7459
▁spazi	-10.746
æ	-10.7461
▁tentativi	-10.7466
▁recita	-10.747
incontro	-10.7474
▁entusiasmo	-10.7476
rro	-10.7478
▁vitale	-10.7482
▁paradiso	-10.7482
▁sovvenzioni	-10.7483
▁cenno	-10.7483
ula	-10.7486
▁preme	-10.7489
▁lunedì	-10.749
▁avventura	-10.7493
▁introdotto	-10.7506
▁finanziare	-10.7506
▁esportazioni	-10.7507
▁bari	-10.7511
▁pene	-10.7521
▁prender	-10.7521
▁maestà	-10.7523
land	-10.7524
rini	-10.7527
▁candidato	-10.7531
▁gia	-10.7533
▁inviato	-10.7534
▁dedicata	-10.7535
▁monetari	-10.7536
▁brucia	-10.7539
▁carriera	-10.754
▁tele	-10.7541
▁varietà	-10.7541
▁versa	-10.7542
▁raccomanda	-10.7544
▁cambiato	-10.7554
▁blocco	-10.7555
mp	-10.7556
zzata	-10.7561
▁inserito	-10.7562
▁procura	-10.7564
▁raccolto	-10.7571
▁gravità	-10.7571
▁ristrutturazion	-10.7571
▁condivide	-10.7572
▁serva	-10.7572
▁carrozza	-10.7573
▁giulia	-10.7574
▁lettore	-10.7575
▁ferdinando	-10.758
▁scudi	-10.7581
▁confine	-10.7586
▁piangere	-10.7588
▁esterni	-10.7588
▁rifugiati	-10.759
▁0,	-10.7591
nica	-10.7592
zzati	-10.7595
▁prepara	-10.7596
▁cristiana	-10.7598
▁taglio	-10.76
▁musicale	-10.7601
▁contenute	-10.7604
▁rassegna	-10.7607
▁mori	-10.7609
▁destinata	-10.7614
▁premi	-10.7617
▁ria	-10.762
▁trattava	-10.7621
▁anziché	-10.7623
▁sostituito	-10.7624
▁2000,	-10.7625
▁andrà	-10.7626
▁2005	-10.7627
▁scar	-10.7629
▁convergenza	-10.7629
▁elenco	-10.7637
▁eccezione	-10.7642
▁fondazione	-10.7649
▁sicchè	-10.765
▁bontà	-10.7655
▁35	-10.7659
temporaneamente	-10.766
▁strategie	-10.7661
▁margine	-10.7661
num	-10.7662
▁abbandonare	-10.7662
▁tempesta	-10.7662
▁ferrara	-10.7662
▁marmo	-10.7664
▁informato	-10.7665
▁averlo	-10.7671
▁cur	-10.7676
▁programmazione	-10.7676
▁luca	-10.7684
▁inutili	-10.7684
▁dettaglio	-10.7687
▁consapevolezza	-10.7688
▁improvvisamente	-10.769
▁ipotesi	-10.769
▁conosciamo	-10.7696
▁passata	-10.7698
▁mario	-10.7702
▁accolgo	-10.7702
▁armata	-10.7704
▁bro	-10.7706
▁sappia	-10.7708
▁palestinesi	-10.7711
▁vergine	-10.7711
▁moda	-10.7711
▁lungi	-10.7719
uta	-10.7725
▁celebre	-10.773
▁coste	-10.7731
▁sara	-10.7735
▁derivanti	-10.7741
▁teme	-10.7742
▁banco	-10.7745
▁mettono	-10.7745
▁timor	-10.7747
oggi	-10.7753
▁federico	-10.7753
▁commenti	-10.7756
▁fiamma	-10.7769
br	-10.7774
▁miracolo	-10.7775
▁capitoli	-10.7779
▁oramai	-10.778
▁incontrato	-10.7787
▁rifiuta	-10.779
▁compresi	-10.779
▁mari	-10.779
▁lezioni	-10.7795
▁esce	-10.7797
▁legate	-10.78
▁razzismo	-10.7802
▁talmente	-10.7804
▁fondamento	-10.7805
▁barca	-10.7805
ure	-10.7809
▁finanze	-10.781
▁70	-10.7811
gua	-10.7812
▁collegamento	-10.7815
▁farla	-10.7816
▁assistere	-10.7816
▁giudicare	-10.7818
▁fedele	-10.7819
▁conservare	-10.782
▁undici	-10.7826
▁risparmio	-10.7827
▁testimonianza	-10.7827
rd	-10.7831
fu	-10.7832
op	-10.7833
▁potrai	-10.7835
▁soddisfatto	-10.7836
▁cosiddett	-10.7837
▁lavorano	-10.7838
▁guglielmo	-10.7843
▁ravenna	-10.7843
▁offerto	-10.7843
▁funzionare	-10.7851
tezza	-10.7852
▁passeggeri	-10.7852
▁spiaggia	-10.7852
▁dona	-10.7856
▁criminali	-10.7858
▁sentiero	-10.7862
▁stadio	-10.7864
res	-10.7868
▁uscito	-10.7869
ud	-10.7871
▁rose	-10.7875
▁calore	-10.7875
▁farmaci	-10.7876
▁coinvolti	-10.7877
▁energetica	-10.7885
▁determinate	-10.7886
▁negozio	-10.789
▁trionfo	-10.7895
▁imposta	-10.7897
25	-10.7901
▁bimbo	-10.7903
▁conseguente	-10.7903
▁belgio	-10.7907
▁sollevato	-10.7908
▁app	-10.7908
mia	-10.7909
impressione	-10.791
▁dimostrano	-10.7913
▁benedetto	-10.7921
▁sveglia	-10.7925
▁imp	-10.7926
▁impressione	-10.7928
▁rivolge	-10.7929
▁sedere	-10.793
▁passava	-10.7931
▁acquistare	-10.7934
15	-10.7936
▁tassa	-10.794
▁cer	-10.7948
▁uccide	-10.795
▁concetti	-10.7953
▁prestare	-10.7956
▁marca	-10.7957
▁tenga	-10.7958
ct	-10.796
▁cellule	-10.7961
▁sostanziale	-10.7961
▁danaro	-10.7962
▁multi	-10.7962
▁fallimento	-10.7962
▁periodi	-10.7964
▁prendendo	-10.7965
rica	-10.7965
▁bretagna	-10.797
▁distinzione	-10.797
nci	-10.7971
africa	-10.7973
▁appieno	-10.7978
▁espressa	-10.7981
▁finisce	-10.7983
▁sommo	-10.7984
▁tristi	-10.7985
▁calcolo	-10.7987
▁dimentica	-10.7988
▁affronta	-10.7993
▁eserciti	-10.7995
▁selezione	-10.7997
▁svolgimento	-10.8004
▁ritmo	-10.8004
▁strutturale	-10.8006
▁mistero	-10.8006
▁criterio	-10.8009
▁marino	-10.8012
▁design	-10.8012
rre	-10.8013
▁continuerà	-10.8014
ffer	-10.8018
▁giuridici	-10.802
nare	-10.8021
▁visti	-10.8023
▁lottare	-10.803
▁aspettative	-10.803
▁tolto	-10.8035
▁preda	-10.8037
▁perduta	-10.8039
▁ripete	-10.8039
ite	-10.804
▁statistiche	-10.8041
▁coinvolgimento	-10.8046
rato	-10.8046
▁perche	-10.8047
ir	-10.8047
▁darà	-10.805
▁buio	-10.8052
▁probabile	-10.8055
ld	-10.8055
uro	-10.8057
▁abbandonato	-10.8058
▁povere	-10.8061
ono	-10.8065
▁sig	-10.8069
▁tranquillo	-10.8072
▁elegante	-10.8072
▁misericordia	-10.8073
▁cio	-10.8074
▁limitata	-10.8079
▁intellettuale	-10.808
▁manfredi	-10.808
▁riferisce	-10.8081
▁sensibilità	-10.8083
▁dottor	-10.8087
enza	-10.8088
▁atte	-10.8092
▁elevati	-10.8092
▁professionali	-10.8097
smi	-10.8102
▁vini	-10.8111
lato	-10.8114
▁personaggio	-10.8116
▁prendo	-10.8122
▁genera	-10.8123
▁imperiale	-10.8123
8.	-10.8123
dis	-10.8123
▁dimostrazione	-10.8128
▁denuncia	-10.8134
▁licenza	-10.814
▁pesanti	-10.8143
▁tagli	-10.8152
▁sur	-10.8153
▁orale	-10.8158
anima	-10.8162
▁tassi	-10.8165
▁censura	-10.8166
▁raccoglie	-10.8169
▁volse	-10.817
▁servo	-10.8175
▁richiamo	-10.8176
▁mandare	-10.818
▁resistere	-10.8181
▁quadri	-10.8184
ore	-10.8185
▁paziente	-10.8186
▁trovarsi	-10.8187
▁vivamente	-10.819
▁́	-10.8192
▁stavo	-10.8196
▁puro	-10.8199
▁capitani	-10.8202
▁sovrano	-10.8204
▁greca	-10.8205
▁obbliga	-10.8207
ffo	-10.8209
▁godere	-10.8213
▁forni	-10.8213
▁rimangono	-10.8213
cre	-10.8214
▁applicato	-10.8214
▁soddisfacente	-10.8218
07	-10.822
mpa	-10.822
▁vendere	-10.8223
▁chiamano	-10.8223
feri	-10.8225
▁ridotta	-10.8227
▁individuale	-10.8229
ola	-10.8231
▁les	-10.8231
▁rammenta	-10.8232
nella	-10.8236
rse	-10.8236
col	-10.8238
▁orientamento	-10.824
▁stefano	-10.8247
▁salta	-10.8251
▁benvenuto	-10.8254
▁fornisce	-10.8254
▁introduzione	-10.8265
▁baroni	-10.8267
effetto	-10.827
ottima	-10.8271
▁fissato	-10.8276
▁precipita	-10.8276
▁mozione	-10.8277
▁ospiti	-10.8279
▁attiene	-10.828
xi	-10.8283
▁fiera	-10.8287
isola	-10.8288
▁religioso	-10.8288
▁critico	-10.8288
▁talun	-10.8288
▁conforme	-10.8294
▁danza	-10.8295
importante	-10.8296
19	-10.8297
▁gl	-10.8297
▁sfruttare	-10.8302
▁combatte	-10.8309
):	-10.8311
▁giappone	-10.8311
▁motore	-10.8312
▁mettersi	-10.8313
▁evidenza	-10.8315
▁giove	-10.8319
▁vigilanza	-10.8323
elo	-10.8324
▁usando	-10.8327
▁fredda	-10.8327
esigenza	-10.8331
▁moderno	-10.8332
▁aperti	-10.8333
▁sosta	-10.8337
tor	-10.8337
▁identità	-10.8337
▁serba	-10.8346
▁correttamente	-10.8348
▁americana	-10.8349
up	-10.8355
▁pioggia	-10.8359
den	-10.8359
efficacia	-10.8361
cha	-10.8366
▁organo	-10.8371
▁rese	-10.8372
▁laboratorio	-10.8375
▁fan	-10.8377
gri	-10.8379
sì	-10.8381
ko	-10.8382
ffe	-10.8383
▁lacrime	-10.8384
21	-10.8391
▁segnalare	-10.8393
▁vene	-10.8394
abbiamo	-10.8396
▁dicevano	-10.84
▁minacce	-10.8402
-0	-10.8409
▁irlandese	-10.8411
▁han	-10.8412
▁bada	-10.8412
▁raccontare	-10.8412
▁utilizzando	-10.8413
▁trans	-10.8419
▁salvaguardia	-10.842
▁petrolio	-10.842
▁serata	-10.8425
▁rivolte	-10.8428
▁palestinese	-10.8429
▁padroni	-10.8431
▁epoca	-10.8436
▁riflette	-10.8436
▁divide	-10.8437
▁ritardi	-10.8437
▁quaranta	-10.8438
▁00	-10.8441
ario	-10.8441
▁ritiro	-10.8444
▁urgenza	-10.8445
▁respiro	-10.8446
▁rappresentanza	-10.8446
▁adeguate	-10.8447
▁aerei	-10.8447
▁contraria	-10.8448
▁preparato	-10.8451
▁conviene	-10.8451
▁credi	-10.8455
0.000	-10.8455
▁armati	-10.8455
▁cro	-10.8455
▁respinto	-10.8455
▁giallo	-10.8455
▁normative	-10.8456
▁iscritto	-10.846
▁debbo	-10.8461
esecuzione	-10.8464
▁intesa	-10.8464
▁composta	-10.8464
▁patti	-10.8466
im	-10.8469
▁cappella	-10.8471
elaborazione	-10.8472
▁chiedendo	-10.8472
▁domina	-10.8477
▁umanitari	-10.8486
cchio	-10.8488
▁prezioso	-10.8491
▁impedi	-10.8491
▁giovanna	-10.8493
▁spia	-10.8496
▁determinare	-10.8499
▁alfonso	-10.85
▁circolo	-10.8501
▁quartiere	-10.8503
giu	-10.8508
▁pen	-10.8514
▁parli	-10.8516
zion	-10.8518
▁convinti	-10.8518
▁falso	-10.8519
▁2017	-10.8519
▁problematica	-10.852
▁rami	-10.8524
▁inviare	-10.8524
▁ber	-10.8525
▁meridionale	-10.8526
▁consulta	-10.8527
▁basato	-10.8531
▁affi	-10.8533
▁cercano	-10.8535
▁attacchi	-10.8536
▁infelice	-10.8537
umanità	-10.8537
▁fenomeni	-10.8544
▁esposto	-10.8544
▁formulazione	-10.8549
▁singolare	-10.8549
▁indagini	-10.8553
▁bacia	-10.8553
▁ritira	-10.8556
▁manifestazioni	-10.8556
▁specchio	-10.8559
▁comanda	-10.8563
▁stu	-10.8568
▁giuridiche	-10.8571
▁unita	-10.8577
▁iddio	-10.858
▁odierna	-10.8582
▁ghe	-10.8584
▁pensioni	-10.859
▁disperazione	-10.8591
▁metteva	-10.8605
▁tv	-10.8605
ner	-10.8609
▁den	-10.8611
▁scor	-10.8613
▁stanze	-10.8615
regolamentazione	-10.8618
▁op	-10.862
16	-10.8623
▁industrie	-10.8625
▁contraddizione	-10.8626
▁parlano	-10.8626
▁danari	-10.8628
▁foglie	-10.8629
▁lucca	-10.8635
▁delicato	-10.8635
▁notato	-10.8636
▁brutto	-10.8636
▁ki	-10.8638
▁testimoni	-10.8638
▁isola	-10.8642
▁radicale	-10.8645
▁cruciale	-10.8652
▁frontiera	-10.8653
▁diventata	-10.8653
entrata	-10.8655
▁francesca	-10.8655
▁farebbe	-10.8656
▁trasforma	-10.8661
▁muore	-10.8662
▁conforta	-10.8662
▁2016	-10.8664
▁carni	-10.8679
▁supera	-10.8682
▁portò	-10.869
▁collaborare	-10.8692
▁registrato	-10.8695
▁accento	-10.8695
▁classifica	-10.8696
▁occupato	-10.8698
▁tono	-10.8701
▁importo	-10.8701
▁maestra	-10.8703
▁cinema	-10.8709
▁foglio	-10.871
▁avanzata	-10.8712
▁divisa	-10.8713
▁forum	-10.8721
▁popolari	-10.8726
▁darsi	-10.873
▁educazione	-10.8733
espressione	-10.8734
▁ricchezze	-10.8735
▁cadde	-10.8736
▁scappa	-10.8738
12	-10.874
▁fida	-10.8744
▁coro	-10.8744
▁interroga	-10.875
▁elettori	-10.8751
▁canale	-10.8752
▁confessa	-10.8753
▁legata	-10.8756
▁vela	-10.8757
▁auspica	-10.8759
mò	-10.876
▁impero	-10.8762
▁saggio	-10.8762
ude	-10.8763
▁segnatamente	-10.8763
▁modena	-10.8763
▁familiari	-10.8764
▁vizio	-10.8765
▁piero	-10.8772
tis	-10.8772
sono	-10.8775
▁ghi	-10.8776
spe	-10.8778
▁tortura	-10.8781
▁attacca	-10.8782
▁presentano	-10.8787
▁furia	-10.8789
inquinamento	-10.8789
▁kyoto	-10.8789
▁amica	-10.8791
stici	-10.8792
▁stabile	-10.8795
▁informa	-10.8796
▁matteo	-10.88
▁complessa	-10.8808
▁nascere	-10.8808
▁500	-10.8815
▁chilometri	-10.8817
▁minoranze	-10.8817
▁alpi	-10.8818
▁ripartizione	-10.8819
▁catastrofe	-10.8826
▁vengo	-10.8828
scio	-10.8833
▁segreti	-10.8835
▁sed	-10.8836
▁spedizione	-10.8838
tine	-10.8839
▁capisce	-10.8841
▁attimo	-10.8844
▁morali	-10.8851
▁pesci	-10.8853
▁maschera	-10.8854
▁pieni	-10.8854
bre	-10.8856
▁2000.	-10.8859
▁rilevante	-10.8859
teristituzionale	-10.8863
esterno	-10.8873
▁brutta	-10.8876
▁geneticamente	-10.8876
▁conclude	-10.888
▁gar	-10.8887
au	-10.889
▁tenne	-10.8891
▁metto	-10.8892
▁faranno	-10.8895
▁continuò	-10.89
▁schiavi	-10.89
▁tranne	-10.8913
letto	-10.8913
▁disgrazia	-10.8914
▁crudele	-10.8914
▁hi	-10.8915
lecomunicazioni	-10.8919
▁leggermente	-10.8919
▁massime	-10.892
▁stringe	-10.8922
isti	-10.8923
▁--&	-10.8924
▁permetta	-10.8927
▁danimarca	-10.8928
▁domenico	-10.8928
▁sessuale	-10.8928
▁finlandia	-10.8928
▁fondata	-10.893
▁team	-10.893
pri	-10.8931
▁nominato	-10.8931
rs	-10.8933
▁sintesi	-10.8938
elenco	-10.8939
▁reati	-10.894
▁legame	-10.8944
▁nido	-10.8944
▁cosiddetto	-10.8946
▁democratiche	-10.8947
▁raccolti	-10.8947
▁ferito	-10.8947
insieme	-10.8947
▁complessivo	-10.8949
▁quod	-10.8951
▁bon	-10.8952
▁vittorio	-10.8956
▁lieve	-10.896
▁provvedere	-10.896
▁bur	-10.8961
▁sapevo	-10.8965
▁armonizzazione	-10.8968
▁tarda	-10.8969
▁comunicato	-10.897
▁intraprendere	-10.8975
▁elaborato	-10.8976
▁cancro	-10.8976
▁franco	-10.8981
▁adozione	-10.8984
ulteriore	-10.8984
▁fasi	-10.8988
▁impa	-10.8989
▁invidia	-10.8995
▁successi	-10.8999
▁esercita	-10.9
▁seduto	-10.9001
▁maraviglia	-10.9003
▁applausi	-10.9004
▁recupero	-10.9004
▁personalità	-10.9009
▁merc	-10.9011
gnano	-10.9012
▁gratitudine	-10.9012
▁precisamente	-10.9022
▁imposto	-10.9022
rj	-10.9025
▁considerati	-10.9026
arco	-10.9027
▁cifra	-10.9029
▁riporta	-10.9031
▁sottile	-10.9031
▁rivolgere	-10.9033
▁uguali	-10.9033
▁agenti	-10.9033
▁oneri	-10.9035
wa	-10.9038
▁miglioramenti	-10.9041
▁private	-10.9044
▁giornalisti	-10.9046
▁ripercussioni	-10.905
▁ved	-10.905
ismo	-10.9052
gg	-10.9058
▁monitoraggio	-10.9059
▁contadini	-10.906
▁sieno	-10.9063
▁pil	-10.9066
▁pittore	-10.9068
▁supremo	-10.9069
▁clemente	-10.9069
▁diminuzione	-10.9069
▁miss	-10.907
▁pratico	-10.9071
gre	-10.9072
▁eseguire	-10.9073
▁gerusalemme	-10.9078
▁battaglie	-10.9078
▁alternativa	-10.9082
▁ingresso	-10.9087
▁menti	-10.9091
▁segnali	-10.9091
▁tasca	-10.9092
ol	-10.9101
▁zu	-10.9106
▁sanitaria	-10.9107
▁segna	-10.911
ele	-10.9118
▁attacco	-10.912
▁esito	-10.9122
fer	-10.9128
▁vola	-10.9134
▁spagnola	-10.9135
▁tradimento	-10.914
▁deficit	-10.914
unità	-10.9142
▁ugualmente	-10.9145
▁maestri	-10.9148
▁rallegra	-10.9151
▁riguardante	-10.9155
▁visite	-10.9157
amente	-10.9157
▁destinate	-10.9159
▁omc	-10.9159
▁gre	-10.9161
mb	-10.9165
▁piange	-10.9174
▁nozze	-10.9175
cta	-10.9175
atto	-10.9178
pra	-10.9178
ista	-10.9182
▁governa	-10.9185
▁tranquilla	-10.9187
▁color	-10.9189
tino	-10.9189
▁affetti	-10.9193
▁colonnello	-10.9193
▁2015	-10.9194
▁definita	-10.9196
▁espressi	-10.9199
▁scorre	-10.9202
▁trascina	-10.9203
▁profonde	-10.9212
▁esige	-10.9212
▁compresa	-10.9213
▁saluti	-10.9213
▁lusso	-10.9213
▁federale	-10.9214
▁parecchie	-10.9214
▁retta	-10.9215
▁fuggire	-10.9217
▁bacio	-10.9218
▁attivi	-10.922
▁we	-10.9224
▁volumi	-10.9226
▁macchia	-10.9228
▁ambedue	-10.9231
▁estendere	-10.9232
ah	-10.9232
▁varia	-10.9236
▁sdegno	-10.9239
▁micro	-10.924
▁osservato	-10.9241
▁move	-10.9243
▁spiriti	-10.9251
ndoci	-10.9255
▁minimi	-10.9256
▁xiii	-10.9256
▁nutri	-10.9257
▁ordina	-10.9258
▁stradale	-10.9259
▁peggiore	-10.9269
▁rinvio	-10.9279
gola	-10.9282
▁rompe	-10.9284
▁cela	-10.9286
▁energetico	-10.9289
▁telefono	-10.9289
▁ringraziamento	-10.929
▁lungamente	-10.9292
offerta	-10.9295
▁espressamente	-10.9295
▁mantova	-10.9296
ucci	-10.9297
▁ostacolo	-10.9299
▁fiamme	-10.9302
09	-10.9305
▁grato	-10.9306
▁riusciremo	-10.9306
▁ricordiamo	-10.9312
▁colonne	-10.9317
▁sospesa	-10.9318
▁coppia	-10.9318
▁corrispondenza	-10.9319
▁istituti	-10.932
▁frequenti	-10.9321
▁togliere	-10.9326
▁sudditi	-10.9328
ps	-10.9332
▁colonia	-10.9335
▁fili	-10.9336
▁britannica	-10.9337
▁immigrati	-10.9337
▁comp	-10.9337
▁scienziati	-10.9338
▁aspettiamo	-10.9341
▁siti	-10.9343
▁facili	-10.9345
▁palermo	-10.9347
▁assistito	-10.9347
▁interessato	-10.9347
▁piacevole	-10.9348
▁legislative	-10.9356
▁svizzera	-10.9356
▁intelligente	-10.9356
▁giornate	-10.9356
▁meriti	-10.9357
▁confermato	-10.9364
▁portando	-10.9367
▁club	-10.9367
▁pacifica	-10.9368
▁usi	-10.937
▁lieti	-10.937
ac	-10.937
asse	-10.9371
▁comme	-10.9375
▁affinchè	-10.9376
▁spiegazione	-10.9376
istituto	-10.9376
▁edifici	-10.9379
▁amava	-10.938
01	-10.9384
▁riesco	-10.9385
▁circostanza	-10.9386
▁attraversa	-10.9389
▁soffrire	-10.9392
nelli	-10.9394
▁tecnologico	-10.9395
▁clausola	-10.9395
▁disponiamo	-10.9395
▁disputa	-10.9395
▁virtú	-10.9396
▁gesti	-10.9397
▁fisico	-10.9398
▁stabili	-10.9402
▁orgoglio	-10.9403
▁diviso	-10.9404
▁prendi	-10.9404
cioché	-10.9405
▁trasporta	-10.9407
lina	-10.9407
▁uh	-10.9413
▁+/	-10.9414
▁perseguire	-10.9416
▁)	-10.942
rone	-10.9423
▁ballo	-10.9424
▁cinquecento	-10.9424
▁olandese	-10.9425
▁am	-10.9425
▁cessa	-10.943
nni	-10.9432
les	-10.9433
estate	-10.9433
ngi	-10.9433
▁ispira	-10.9434
spo	-10.9435
▁messaggi	-10.9438
▁piatto	-10.9438
▁giudiziaria	-10.944
▁vederlo	-10.9442
▁trovata	-10.9442
▁avrete	-10.9444
▁avvi	-10.9447
▁brava	-10.9448
▁bre	-10.9449
▁decine	-10.945
▁mica	-10.9451
▁dibattiti	-10.9454
▁comprese	-10.9456
▁soddisfatti	-10.9456
▁cedere	-10.9457
▁memorie	-10.9464
▁solitudine	-10.9464
▁rurali	-10.9464
▁eccellenza	-10.9465
▁valere	-10.9465
▁pericolosa	-10.9467
▁intento	-10.9469
ziona	-10.947
▁sollecita	-10.9473
▁tonnellate	-10.9474
06	-10.9474
▁impulso	-10.9475
▁efficienza	-10.9482
▁altamente	-10.9482
▁colloqui	-10.9489
▁temporale	-10.949
▁zucchero	-10.9494
▁motivazione	-10.9494
ggiare	-10.9496
▁bellissimo	-10.9496
▁turno	-10.9497
▁elena	-10.9498
▁#	-10.9499
▁rocca	-10.9499
▁contempla	-10.9501
▁bce	-10.9506
▁allorchè	-10.9508
▁fia	-10.9509
▁grandissima	-10.9511
05	-10.9517
▁gui	-10.9518
▁dovessero	-10.9524
gue	-10.9525
▁prossime	-10.9527
▁guardie	-10.9534
estero	-10.9537
▁5,	-10.9538
ese	-10.9538
▁disabili	-10.9541
▁laggiù	-10.9543
▁veduta	-10.9543
▁sospetti	-10.9544
▁pubblicata	-10.9548
▁affermazioni	-10.955
▁eccita	-10.9552
▁pietre	-10.9553
▁intendono	-10.9559
▁interpretazione	-10.9562
▁economie	-10.9563
▁richiedono	-10.9563
▁marocco	-10.9563
▁superato	-10.9563
▁stabilisce	-10.9564
▁applicata	-10.9566
▁incontrare	-10.9571
ffa	-10.9574
97	-10.9574
▁liberazione	-10.9574
▁regimi	-10.9575
ten	-10.9579
▁bla	-10.9582
▁studente	-10.9583
▁fargli	-10.9592
scia	-10.9593
▁misero	-10.9598
▁nacque	-10.9599
▁rotto	-10.9602
uda	-10.9603
▁legittima	-10.9604
▁vendite	-10.9608
▁evita	-10.9609
▁costruito	-10.9611
▁incidente	-10.9617
▁tar	-10.9617
▁consola	-10.9618
▁spendere	-10.9622
▁portoghese	-10.9622
▁au	-10.9623
ran	-10.9623
▁indirizzo	-10.9626
▁firmato	-10.963
▁rico	-10.9632
▁fresco	-10.9633
▁mono	-10.9635
▁settentrionale	-10.9642
▁tommaso	-10.9642
▁formare	-10.9643
ide	-10.9644
▁puglia	-10.9645
▁accenna	-10.9645
tter	-10.9648
▁omaggio	-10.9651
▁sce	-10.9651
▁attento	-10.9653
▁divino	-10.9655
▁beve	-10.9664
▁osa	-10.9666
▁negativi	-10.9672
impiego	-10.9673
hanno	-10.9674
▁applicazioni	-10.9675
nati	-10.9679
▁abita	-10.9681
▁polonia	-10.9683
▁attivamente	-10.9685
▁racconti	-10.9687
▁ossa	-10.9688
▁gatto	-10.9691
▁prosegue	-10.9691
▁1994	-10.9692
▁trasformare	-10.9697
▁lamenta	-10.9701
▁uniforme	-10.9703
▁carenze	-10.9703
▁lunghezza	-10.9705
▁commento	-10.9708
▁affretta	-10.971
▁2010	-10.9716
▁vanta	-10.972
té	-10.9722
▁raggiungimento	-10.9723
▁alzò	-10.9723
▁riflessioni	-10.9723
▁alte	-10.9723
▁emozioni	-10.9724
▁frati	-10.9724
▁attribuire	-10.9726
▁rispondeva	-10.9728
gh	-10.9731
▁colazione	-10.9731
▁dolori	-10.9733
17	-10.9734
▁plus	-10.9737
▁rinunciare	-10.9738
▁temere	-10.974
▁saggi	-10.9745
fini	-10.9747
▁cosiddetta	-10.9752
▁riveste	-10.9755
▁trasmettere	-10.976
▁terribili	-10.9762
▁inferiori	-10.9763
▁riescono	-10.9764
bilmente	-10.9764
▁corda	-10.9769
▁feriti	-10.9772
▁scarica	-10.9773
▁sessanta	-10.9785
▁uccidere	-10.9786
▁prestazioni	-10.9787
▁creando	-10.979
▁foreste	-10.9794
▁lanciare	-10.9796
▁negozi	-10.9799
▁sana	-10.9802
▁sorveglianza	-10.9804
▁dinamica	-10.9805
▁pericolose	-10.981
▁adopera	-10.9811
▁45	-10.9811
▁sar	-10.9812
▁separa	-10.9814
▁formale	-10.9815
▁dipendenza	-10.9817
▁individuali	-10.9819
▁pericolosi	-10.982
▁stette	-10.9824
▁cotesto	-10.9824
▁pareti	-10.9826
▁lasciamo	-10.9828
▁concernenti	-10.9833
ó	-10.9833
▁distruggere	-10.9834
▁profeta	-10.9834
▁belga	-10.9834
▁invano	-10.9836
▁includere	-10.9836
▁farvi	-10.9837
▁pra	-10.9841
▁annunciato	-10.9842
▁laurea	-10.9842
▁wa	-10.9847
sc	-10.9847
▁membra	-10.985
▁conosceva	-10.9854
▁cavalleria	-10.9855
▁soci	-10.9855
▁decisivo	-10.9857
▁facciano	-10.9857
▁animi	-10.9857
del	-10.9857
▁minor	-10.9858
▁legali	-10.9866
▁resti	-10.9866
▁feroce	-10.987
▁quinta	-10.9874
▁precisare	-10.9874
▁concezione	-10.9875
▁80	-10.9877
▁rilevanza	-10.9877
▁convento	-10.9878
▁auguriamo	-10.9879
▁russa	-10.988
▁maastricht	-10.9885
▁vicerè	-10.9885
▁ritratto	-10.9886
▁guardi	-10.9888
▁scandalo	-10.9892
▁seguì	-10.9896
▁regolarmente	-10.9896
▁andarono	-10.9896
▁consideriamo	-10.9897
▁creature	-10.9897
cro	-10.9898
▁diventi	-10.99
▁scritte	-10.9905
▁amante	-10.9907
▁sp	-10.9908
%	-10.9908
▁inf	-10.9913
▁agenzie	-10.9916
▁pie	-10.9922
▁congiura	-10.9922
▁volge	-10.9923
▁enti	-10.9923
mine	-10.9924
rbi	-10.9925
▁impiego	-10.9926
▁z	-10.9926
▁colpevole	-10.9927
ingresso	-10.9928
▁avvenne	-10.9928
▁assi	-10.9932
▁disposta	-10.9933
▁confermare	-10.9934
▁cal	-10.9935
▁fre	-10.994
▁organismo	-10.9943
▁ami	-10.9943
▁eventualmente	-10.9947
flu	-10.9949
▁ospita	-10.995
▁gitta	-10.9952
▁chiusi	-10.9953
▁tour	-10.9957
▁arresta	-10.9958
▁trascura	-10.9959
▁pensavo	-10.9961
▁coinvolgere	-10.9961
▁trattative	-10.9962
▁adulti	-10.9968
▁respingere	-10.997
▁reputa	-10.997
▁cri	-10.9971
▁operazione	-10.9971
▁informare	-10.9972
▁pagato	-10.9973
▁colloquio	-10.9974
▁apertamente	-10.9976
▁vestiti	-10.9979
▁sviluppato	-10.9981
▁velocemente	-10.9986
▁sedia	-10.9986
▁distingue	-10.9987
nes	-10.9988
▁amministrative	-10.9989
▁parziale	-10.9989
▁costringe	-10.9989
▁dedica	-10.9989
▁medica	-10.9992
▁avuta	-10.9999
lare	-11
▁compassione	-11
▁intelligenza	-11.0001
▁radice	-11.0001
▁suoni	-11.0006
99	-11.0008
▁vicende	-11.001
▁cittá	-11.001
▁illegale	-11.002
▁disprezzo	-11.0021
letti	-11.0022
sione	-11.003
▁fanciullo	-11.003
▁positive	-11.003
ìo	-11.0032
▁ordinato	-11.0034
▁tomo	-11.0036
cle	-11.0046
▁negare	-11.0048
▁pareri	-11.0051
▁amministrazioni	-11.0052
▁dotazione	-11.0052
▁padrona	-11.0057
▁bottega	-11.0062
▁segui	-11.0063
▁cera	-11.0064
▁avanza	-11.0065
comp	-11.0066
▁luci	-11.0068
▁sensibile	-11.0069
▁avvocato	-11.0073
dere	-11.0077
▁aggiunse	-11.0078
▁modificato	-11.0078
bro	-11.008
▁trasmissione	-11.0082
▁annuncio	-11.0082
▁cortesia	-11.0083
▁2013	-11.0083
▁ritenere	-11.0084
vir	-11.0085
▁occuparsi	-11.0087
▁colloca	-11.0088
▁fior	-11.009
▁dirige	-11.0092
▁elettrica	-11.0093
▁danese	-11.0095
▁consuma	-11.01
▁peccati	-11.0101
▁connessi	-11.0102
▁ke	-11.0102
▁appartiene	-11.0103
▁amministrativa	-11.0103
▁rito	-11.0104
mer	-11.0107
ble	-11.0108
▁cinese	-11.011
▁calda	-11.0112
▁avverti	-11.0113
▁cancelliere	-11.0114
ton	-11.0115
▁evidenzia	-11.0117
ler	-11.012
▁spicca	-11.0121
▁baci	-11.0127
▁bor	-11.0128
▁registra	-11.013
▁im	-11.0132
▁mezzogiorno	-11.0135
esi	-11.0136
▁cuori	-11.014
asilo	-11.014
▁rinnova	-11.0143
▁stri	-11.0144
▁attori	-11.0144
▁oscura	-11.0145
▁avvenga	-11.0145
▁catastrofi	-11.0145
▁bimbi	-11.0146
▁distinguere	-11.0147
▁appuntamento	-11.0148
rat	-11.015
▁ebbi	-11.015
tano	-11.0153
equilibrio	-11.0154
▁riuscì	-11.0156
▁gamba	-11.0156
▁sembrare	-11.0157
▁descrive	-11.0158
▁religiosi	-11.0166
▁vincenzo	-11.0167
cc	-11.0173
▁veni	-11.0178
▁abiti	-11.0183
▁esistere	-11.0186
▁diventano	-11.0186
▁comodo	-11.0189
▁prosperità	-11.0198
▁scorta	-11.02
▁2019	-11.0201
▁sasso	-11.0203
▁definiti	-11.0205
▁convegno	-11.0208
▁elettronico	-11.0209
▁pri	-11.0209
vansi	-11.021
▁nascosto	-11.0211
▁more	-11.0212
segui	-11.0212
▁ripro	-11.0214
▁dolcezza	-11.0214
▁livorno	-11.0219
▁bosnia	-11.0219
▁stanca	-11.022
lis	-11.0222
▁tribunali	-11.0222
▁penetra	-11.0231
▁studia	-11.0232
nale	-11.0234
▁farle	-11.0234
▁comprare	-11.0236
▁incomincia	-11.0238
▁auspicabile	-11.0242
▁aspettava	-11.0243
tare	-11.0244
▁protegge	-11.0249
▁approvati	-11.0254
▁domando	-11.0257
▁umanità	-11.0258
▁fantastico	-11.0261
▁coperto	-11.0261
eccellente	-11.0263
▁curva	-11.0264
fra	-11.0265
▁sistematica	-11.0265
▁dichiarare	-11.0266
▁aspettando	-11.0268
▁risolve	-11.027
▁concittadini	-11.0272
▁risolto	-11.0272
▁striscia	-11.0272
▁erasi	-11.0274
▁uccelli	-11.0277
▁delibera	-11.0277
▁comandante	-11.0277
▁potersi	-11.028
▁successiva	-11.0282
▁gamma	-11.0284
▁opposto	-11.0285
▁offrono	-11.0287
coli	-11.029
▁doveri	-11.0291
▁asso	-11.0291
nis	-11.0299
▁olio	-11.03
▁fer	-11.03
▁insegnanti	-11.0301
▁potevo	-11.0304
▁registrazione	-11.0308
▁sor	-11.0309
▁rilevato	-11.0314
▁biglietto	-11.0315
▁cattolica	-11.0315
▁troppi	-11.0315
▁circonda	-11.0319
ella	-11.032
▁2008	-11.0322
▁rom	-11.0326
▁territoriale	-11.0327
rge	-11.0331
▁sollevare	-11.0332
innovazione	-11.0337
▁caduto	-11.0337
▁fermezza	-11.0337
▁radici	-11.0339
▁toccare	-11.0346
▁associati	-11.0346
net	-11.0347
▁como	-11.0348
ità	-11.0352
▁mobile	-11.0356
▁desta	-11.0359
anzi	-11.0359
▁arrivano	-11.0359
bil	-11.036
▁positivamente	-11.036
▁conoscono	-11.0361
▁lode	-11.0361
▁timori	-11.0365
▁condotti	-11.0367
▁marchio	-11.0368
▁mosca	-11.0369
rgo	-11.0369
ona	-11.0371
sp	-11.0372
▁accorge	-11.0373
▁alleati	-11.0373
▁preferito	-11.0374
spa	-11.0374
▁celebra	-11.0376
cer	-11.0381
▁segnala	-11.0382
▁salita	-11.0382
▁austriaci	-11.0384
▁ac	-11.0387
ic	-11.0388
▁john	-11.039
▁biglietti	-11.039
▁ribadito	-11.039
▁condividiamo	-11.039
nghi	-11.0404
▁rifugio	-11.0404
▁velo	-11.0405
'11	-11.0406
▁importazioni	-11.0407
▁300	-11.041
▁veneto	-11.041
▁costituzionali	-11.0412
▁referendum	-11.0412
▁tengono	-11.0412
▁richiedere	-11.0414
mor	-11.0415
cula	-11.0416
▁china	-11.042
▁cercava	-11.0421
▁pretende	-11.0423
▁convenzioni	-11.0424
▁copertura	-11.0433
▁bestia	-11.0433
▁bona	-11.0436
▁angeli	-11.0437
▁annunzia	-11.0439
▁temperatura	-11.0445
▁insufficiente	-11.0445
▁2014	-11.0445
▁uolta	-11.0446
▁niun	-11.0447
▁passano	-11.0449
▁accuse	-11.0455
universo	-11.0457
04	-11.0459
▁logico	-11.046
▁grandissimo	-11.0462
▁accennato	-11.0462
▁pat	-11.0464
▁costruttivo	-11.0466
▁scientifici	-11.0466
▁televisione	-11.0466
▁bovina	-11.0466
▁aggrava	-11.0467
sch	-11.0468
▁plu	-11.0471
▁boschi	-11.0471
▁compiace	-11.0472
▁investire	-11.0472
▁utilizzate	-11.0472
▁corti	-11.0474
▁avanzate	-11.0475
▁adeguatamente	-11.0475
cente	-11.0477
▁evidenziato	-11.0477
▁lanciato	-11.0485
▁potenze	-11.0488
▁ruota	-11.0488
approccio	-11.0489
▁spiegato	-11.0492
▁persia	-11.0499
▁canzoni	-11.0499
▁incremento	-11.0501
▁provocato	-11.0502
▁invitato	-11.0506
▁leggenda	-11.0509
ley	-11.0514
▁presero	-11.0518
▁distinti	-11.0519
▁splendida	-11.052
▁matematica	-11.052
▁suprema	-11.0521
esempio	-11.0522
▁spoglia	-11.0524
▁dispetto	-11.0526
▁artista	-11.053
▁dapprima	-11.0531
▁complimenti	-11.0542
▁orecchie	-11.0544
08	-11.0544
▁tela	-11.0545
▁averne	-11.0546
samente	-11.0549
24	-11.0549
▁mondiali	-11.0554
▁talora	-11.0555
▁xiv	-11.056
can	-11.0561
▁prato	-11.0563
▁rammarico	-11.0564
▁religiose	-11.0564
▁petizioni	-11.0564
▁realizzati	-11.0566
▁contenti	-11.0567
▁armate	-11.0567
▁classico	-11.0568
sioni	-11.0569
▁ribelli	-11.0575
▁legittimo	-11.0575
▁quae	-11.0575
ara	-11.0576
▁rivolgo	-11.0577
▁stretti	-11.0577
▁venite	-11.0578
▁definitivo	-11.0579
▁2007	-11.058
tina	-11.0584
▁redditi	-11.0585
▁riguardi	-11.0586
▁tristezza	-11.059
▁severi	-11.0593
▁denari	-11.0593
▁visibile	-11.0597
▁arca	-11.0599
▁lasciano	-11.0605
▁addietro	-11.0608
▁finalità	-11.0609
▁borgo	-11.0611
torio	-11.0613
▁fol	-11.0619
▁rivista	-11.062
gro	-11.0628
assenza	-11.063
▁riduce	-11.0633
▁equivale	-11.0633
▁12.00.	-11.0638
▁secca	-11.0642
▁operai	-11.0648
▁elevata	-11.065
▁rispetta	-11.0651
▁giustificare	-11.0652
rit	-11.0652
▁genovesi	-11.0652
▁reciproco	-11.0652
▁mescola	-11.0655
▁dargli	-11.066
▁convincere	-11.0661
▁nascondere	-11.0661
▁disastro	-11.0661
▁estremo	-11.0668
▁guasta	-11.0668
iche	-11.0669
▁bianche	-11.0672
the	-11.0674
▁tendenze	-11.0676
▁sentiamo	-11.0676
▁lodi	-11.0678
▁bagna	-11.0678
▁pensano	-11.0679
▁precise	-11.0687
▁realizza	-11.0692
▁giustifica	-11.0697
▁privilegi	-11.0699
▁sensibili	-11.07
▁trovate	-11.0701
▁improvvisa	-11.0703
▁argento	-11.0704
▁inanzi	-11.0708
▁concludo	-11.0708
▁informati	-11.0709
▁rapidità	-11.0709
▁frasi	-11.0714
▁lasciata	-11.0717
▁integrare	-11.0722
80	-11.0726
▁indu	-11.0728
▁chiamò	-11.073
▁proponiamo	-11.073
▁pugno	-11.0732
▁motori	-11.0735
gano	-11.0735
▁diedero	-11.0735
▁sussidi	-11.0736
▁prendono	-11.0745
car	-11.0747
▁nol	-11.0748
▁ammira	-11.0748
▁gentili	-11.0749
▁filosofo	-11.0752
▁tenebre	-11.0752
▁generi	-11.0753
▁divertente	-11.0753
▁insiste	-11.0754
▁ser	-11.0755
▁viviamo	-11.0758
▁quotidiana	-11.0758
▁compi	-11.0759
▁regna	-11.0759
▁cattura	-11.076
▁muovere	-11.0761
▁immobile	-11.0765
▁gravemente	-11.077
▁rientrare	-11.077
▁esclusi	-11.0771
▁at	-11.0772
▁interrompe	-11.0774
▁vacanza	-11.0775
cina	-11.0783
▁copenaghen	-11.0786
usa	-11.0786
▁dama	-11.0791
pie	-11.0791
▁inizi	-11.0792
▁rimette	-11.0792
▁considerate	-11.0793
▁torri	-11.0793
▁crimini	-11.0798
▁modificati	-11.0801
▁originali	-11.0809
▁tace	-11.0809
▁altezza	-11.0809
▁generoso	-11.081
▁pazzo	-11.0825
▁eterna	-11.0827
▁regni	-11.0832
▁aderire	-11.0833
utf	-11.0833
▁agenzia	-11.0834
▁adora	-11.0837
▁tomba	-11.084
▁presupposto	-11.0842
onda	-11.0844
▁nonna	-11.0845
▁cortese	-11.0846
▁rio	-11.0848
▁annuncia	-11.085
▁mortale	-11.0852
▁credono	-11.0853
▁ribadisco	-11.0854
▁alleanza	-11.0857
▁separazione	-11.0857
▁terreni	-11.0861
ard	-11.0862
▁provinciale	-11.0863
▁vel	-11.0863
▁conversazione	-11.0866
▁egualmente	-11.0866
cella	-11.0867
san	-11.0869
▁severo	-11.0872
cino	-11.0873
▁auspichiamo	-11.0876
▁ordinò	-11.0876
▁considerevole	-11.0876
▁famosa	-11.0876
▁troppe	-11.0877
▁profondità	-11.0877
▁colpisce	-11.0878
▁epi	-11.0878
▁campione	-11.0878
▁registro	-11.0879
nate	-11.0879
▁dicevo	-11.088
cum	-11.0883
ama	-11.0883
▁determina	-11.0883
▁incoraggia	-11.0885
▁camminare	-11.0886
▁custodi	-11.0889
▁contenere	-11.089
▁archi	-11.0895
▁paesaggio	-11.0895
bio	-11.0896
▁spavento	-11.0896
▁attesta	-11.0896
▁preliminare	-11.0899
▁fiumi	-11.0899
▁patten	-11.0899
▁abito	-11.0899
bb	-11.09
stu	-11.0903
▁costanza	-11.0903
▁chiedeva	-11.0904
▁decenni	-11.0905
▁occidentali	-11.091
dice	-11.0912
▁macedonia	-11.0912
▁dimanda	-11.0912
▁rientrano	-11.0913
▁salto	-11.0916
▁sha	-11.0918
▁medicinali	-11.0918
▁ragiona	-11.092
▁1992	-11.0922
▁progressiva	-11.0923
efficienza	-11.0924
▁spinta	-11.0928
▁doc	-11.0931
▁consentono	-11.0933
▁desiderano	-11.0933
▁nobiltà	-11.0934
▁operano	-11.0936
olio	-11.0941
anche	-11.0943
nese	-11.0944
▁stacca	-11.0947
▁austriaca	-11.0948
ampia	-11.0957
▁mancare	-11.0957
▁quam	-11.0959
▁martino	-11.0961
▁fatale	-11.0961
▁hoc	-11.0963
tosi	-11.0963
▁legami	-11.0966
18	-11.0966
▁residenza	-11.0967
▁tessuto	-11.0967
▁muoversi	-11.0969
▁somministra	-11.097
sen	-11.097
▁europol	-11.0973
ule	-11.0975
▁magnifico	-11.0979
▁sottoposto	-11.0982
▁emergenza	-11.0986
	-11.099
▁svolgono	-11.099
unt	-11.099
▁urbano	-11.0995
▁us	-11.1001
▁sfera	-11.1003
▁occupati	-11.1004
▁discute	-11.1004
▁rappresentata	-11.1008
▁rimaneva	-11.1009
▁sostituzione	-11.1014
▁fortunatamente	-11.1016
▁tornando	-11.1017
▁canali	-11.1019
▁villani	-11.1023
▁moltitudine	-11.1026
▁professionisti	-11.1034
▁nec	-11.1035
▁singole	-11.1036
▁2012	-11.1037
▁ottenuti	-11.1047
▁ottiene	-11.1047
▁1993	-11.1048
bbi	-11.1048
▁occorrono	-11.105
▁sorprendente	-11.1051
▁conforto	-11.1059
▁crimine	-11.1059
▁soffermarmi	-11.106
▁mestiere	-11.1062
▁doria	-11.1066
nco	-11.1067
lone	-11.1067
▁estremi	-11.107
▁pittura	-11.1071
▁offri	-11.1071
▁confida	-11.1071
▁ridotti	-11.1072
▁veleno	-11.1073
▁strappa	-11.1078
▁tappa	-11.1084
▁concentrazione	-11.1085
geni	-11.1085
elli	-11.1091
mpe	-11.1093
▁sardegna	-11.1093
▁definitivamente	-11.1094
pp	-11.1097
gen	-11.1097
▁eroi	-11.1099
venti	-11.11
▁ombre	-11.1102
▁trovavano	-11.1104
nici	-11.1104
▁ribellione	-11.1106
▁garantisce	-11.1106
▁bimba	-11.1106
▁tenore	-11.1106
▁pour	-11.1107
▁autonomia	-11.1109
▁accelerare	-11.111
▁determinata	-11.1111
▁autorizzazione	-11.1116
▁federazione	-11.1117
▁inevitabile	-11.1117
▁goti	-11.1118
▁analizzare	-11.1121
▁semplicità	-11.1122
▁investimento	-11.1122
ngu	-11.1123
▁chron	-11.1127
▁salotto	-11.1128
lin	-11.1131
mica	-11.1131
60	-11.1137
stanti	-11.1139
▁illustra	-11.1142
▁provoca	-11.1143
▁causato	-11.1145
▁menzionato	-11.1145
chino	-11.1146
▁bravi	-11.1147
▁equilibrata	-11.1151
▁scientifiche	-11.1151
▁congratulazioni	-11.1152
▁dici	-11.1152
ane	-11.1153
rba	-11.1153
▁extra	-11.1155
shi	-11.1155
▁istruzioni	-11.116
▁predica	-11.1167
dro	-11.1167
▁transito	-11.1167
▁adatto	-11.1167
▁ter	-11.1169
▁2.	-11.1169
▁arco	-11.1171
▁ottenne	-11.1175
▁qualificata	-11.1176
▁somiglia	-11.1176
▁conosci	-11.1177
▁considero	-11.1179
ap	-11.1179
dor	-11.118
boli	-11.1183
▁spinto	-11.1184
ui	-11.1184
▁andrebbe	-11.1185
▁fermò	-11.1187
uni	-11.1195
▁contrastare	-11.1195
▁vincitore	-11.1199
▁rei	-11.1199
▁lento	-11.1199
▁lascio	-11.12
▁fuma	-11.1202
cor	-11.1205
▁divenuto	-11.1206
▁problematiche	-11.1207
▁federigo	-11.121
▁ascolto	-11.1212
vvi	-11.1214
▁febbre	-11.1221
23	-11.1222
▁recarsi	-11.1222
▁naviga	-11.1225
▁selva	-11.1228
▁vadano	-11.1231
▁respinge	-11.1233
▁possiede	-11.1233
▁privo	-11.1237
▁care	-11.1239
▁impegnarsi	-11.1239
▁ammoni	-11.1244
▁rapidi	-11.1247
▁ideali	-11.1247
urgenza	-11.1248
▁altera	-11.1253
45	-11.1256
▁assiste	-11.1257
▁cavalca	-11.1257
▁esposti	-11.1257
▁dovrei	-11.1257
bbo	-11.1258
▁carro	-11.1264
amp	-11.1269
▁pausa	-11.127
▁consentirà	-11.127
▁senno	-11.1273
▁passate	-11.1273
▁levò	-11.1277
▁sguardi	-11.128
▁attenta	-11.1281
▁cominciava	-11.1283
ung	-11.1284
operazione	-11.129
▁sentono	-11.1292
▁sottoscritto	-11.1295
▁veda	-11.1297
▁spalla	-11.1297
▁mancata	-11.1297
▁ruba	-11.1301
pol	-11.1302
eh	-11.1302
▁coperta	-11.1304
▁ferrovie	-11.1304
nali	-11.1305
tato	-11.1305
▁arrivò	-11.1306
gono	-11.1309
mbe	-11.131
▁conformemente	-11.1311
▁superbia	-11.1314
gga	-11.1314
▁preghiere	-11.1316
▁vous	-11.1319
sal	-11.1322
▁ceca	-11.1323
▁raccolte	-11.1327
▁balla	-11.1328
▁mostrava	-11.1331
llino	-11.1333
▁volontario	-11.1334
zzate	-11.1336
por	-11.1337
▁6,	-11.1341
▁avanzare	-11.1343
▁regolari	-11.1344
▁monetario	-11.1344
▁aut	-11.1346
▁castelli	-11.1346
▁xvi	-11.1347
▁contribuenti	-11.1351
▁obbligatoria	-11.1351
▁riciclaggio	-11.1351
▁codici	-11.1353
▁approfondire	-11.1354
▁metta	-11.1357
▁esalta	-11.1358
▁cortile	-11.1359
▁piatti	-11.1359
▁von	-11.1362
▁soldo	-11.1363
otto	-11.1367
▁successivi	-11.1367
dico	-11.137
▁decise	-11.1371
▁zia	-11.1374
▁eugenio	-11.1375
▁lodovico	-11.1375
▁assunta	-11.1375
▁escludere	-11.138
▁bruno	-11.1384
cee	-11.1386
▁prae	-11.1386
▁britannici	-11.1387
▁geo	-11.1388
▁importi	-11.139
osservazione	-11.139
▁iraq	-11.1397
▁mercoledì	-11.1399
▁portati	-11.14
▁impegnata	-11.1402
▁usati	-11.1402
▁sorridendo	-11.141
▁dispositivo	-11.1411
▁fischler	-11.1411
▁droghe	-11.1411
▁parete	-11.1411
▁elaborazione	-11.1412
▁applicate	-11.1413
▁fascia	-11.1415
▁sostengono	-11.1416
▁sostitui	-11.1416
▁rondini	-11.1417
▁squadre	-11.1418
▁scal	-11.1422
logo	-11.1423
▁foresta	-11.1424
▁face	-11.1424
+	-11.1426
▁austriaco	-11.1427
▁dé	-11.1431
▁porterà	-11.1435
▁vota	-11.1437
▁sinceramente	-11.1439
▁frequenta	-11.1439
alba	-11.1446
▁flessibile	-11.1447
▁fresca	-11.1448
▁cuba	-11.1453
▁muri	-11.1457
▁sconfitta	-11.1459
▁bisognerebbe	-11.1459
cus	-11.1461
messo	-11.1461
▁libere	-11.1463
▁dott	-11.1464
▁risa	-11.1466
▁mostrò	-11.1471
▁sostenuta	-11.1471
▁notevolmente	-11.1471
ker	-11.1473
▁pati	-11.1479
▁piene	-11.1481
▁intra	-11.1481
ab	-11.1481
▁spagnuoli	-11.1483
▁sudafrica	-11.1484
▁deroga	-11.1484
▁urgenti	-11.1484
opposizione	-11.1485
▁you	-11.1489
▁accoglienza	-11.1489
▁creata	-11.149
▁discutendo	-11.1491
▁verrebbe	-11.1493
▁udire	-11.1493
▁sentivo	-11.1495
▁comitati	-11.1495
▁medesime	-11.1495
▁preceduto	-11.1495
▁dovuti	-11.1496
▁venissero	-11.1496
▁gelosia	-11.1497
▁replica	-11.1498
▁desideriamo	-11.1498
▁impegnato	-11.1499
▁continue	-11.15
▁dimmi	-11.1504
▁revoca	-11.1505
▁inalbor	-11.1505
gene	-11.1506
▁milizie	-11.1507
▁sapienza	-11.1507
▁clero	-11.1507
▁intima	-11.1509
esercito	-11.151
▁sedi	-11.1515
▁concordato	-11.1518
▁rame	-11.1519
▁difese	-11.1521
▁persuade	-11.1522
▁seguono	-11.1522
▁giovinezza	-11.1522
▁bus	-11.1527
▁sacrificio	-11.1528
▁chiamate	-11.1531
▁utilizzata	-11.1537
▁erra	-11.1539
▁abbassa	-11.1539
▁classica	-11.1541
▁ambienti	-11.1543
▁scambia	-11.1546
▁santità	-11.1547
▁illustrato	-11.1549
▁sentirsi	-11.1549
▁concretamente	-11.1552
▁salvezza	-11.1556
ls	-11.1557
▁precede	-11.1558
ü	-11.1561
vis	-11.1561
▁continuava	-11.1564
▁metter	-11.1571
▁costituita	-11.1571
▁correggere	-11.1573
▁vedova	-11.1575
▁sceglie	-11.1578
▁simpatia	-11.1579
▁compie	-11.158
▁adeguati	-11.1583
iscono	-11.1586
▁equo	-11.1587
▁immediata	-11.1588
▁dubita	-11.159
▁vicepresidente	-11.1591
▁sostenibilità	-11.1592
▁vieta	-11.1593
▁russo	-11.1594
▁esaminato	-11.1595
dy	-11.1596
▁illustre	-11.1596
▁gett	-11.1596
▁disegna	-11.1597
rici	-11.1598
rta	-11.1598
tene	-11.1603
▁rosse	-11.1606
▁vanità	-11.1606
inchiesta	-11.1607
▁ferita	-11.1608
26	-11.1609
▁perdite	-11.1609
▁zelo	-11.161
▁mossa	-11.1611
▁cito	-11.1612
▁ducato	-11.1613
▁sacri	-11.1613
▁reato	-11.1613
▁dacchè	-11.1616
▁multinazionali	-11.1616
▁regge	-11.1622
▁integrato	-11.1622
▁musulmani	-11.1628
▁minoranza	-11.1628
▁troppa	-11.1629
▁esorta	-11.163
rina	-11.163
ny	-11.163
▁esami	-11.1635
lata	-11.1635
bor	-11.1638
▁india	-11.1639
▁indispensabili	-11.164
▁assunti	-11.164
▁immenso	-11.1641
▁trecento	-11.1643
▁componente	-11.1644
03	-11.1647
atteggiamento	-11.1651
▁pensionati	-11.1652
▁quotidiano	-11.1652
▁mappamondo	-11.1652
▁tacere	-11.1654
▁minime	-11.1654
▁calcola	-11.1661
▁partendo	-11.1662
▁sano	-11.1667
▁bicchiere	-11.1668
gò	-11.167
acco	-11.1671
▁commessi	-11.1671
▁guari	-11.1671
▁località	-11.1675
▁oppone	-11.1675
▁riferito	-11.1677
▁giuoco	-11.1677
▁collegati	-11.1678
▁proroga	-11.168
▁determinante	-11.1682
▁1°	-11.1682
▁elezione	-11.1685
▁spari	-11.1686
▁sic	-11.1689
▁washington	-11.1689
▁accolta	-11.1689
▁saremmo	-11.1692
▁leonardo	-11.1693
▁fermamente	-11.1696
▁puo	-11.1701
▁deplorevole	-11.1701
▁sublime	-11.1701
▁potrete	-11.1702
▁commedia	-11.1702
▁inizialmente	-11.1702
▁impostazione	-11.1702
▁comportamenti	-11.1706
pul	-11.1709
▁sorpreso	-11.1714
▁parlò	-11.1715
essi	-11.1715
▁rispettivi	-11.1717
▁afferra	-11.1718
esb	-11.172
▁rapi	-11.1721
▁privilegio	-11.1721
▁traverso	-11.1725
▁contribuisce	-11.1726
▁regia	-11.1729
▁mostrano	-11.1729
nello	-11.173
▁sentite	-11.173
▁apparire	-11.1731
▁albero	-11.1732
▁tiranno	-11.1734
▁vicine	-11.1734
dipendentemente	-11.1734
▁stabiliti	-11.1735
▁socialisti	-11.1736
▁critici	-11.1737
▁venticinque	-11.1739
▁veritá	-11.1741
▁fondato	-11.1749
▁molteplici	-11.1749
▁sorelle	-11.1752
▁mostro	-11.1753
fr	-11.1755
▁teste	-11.1762
▁sacerdote	-11.1763
▁scolastico	-11.1763
▁documentazione	-11.1765
▁salvatore	-11.1769
▁predi	-11.1771
▁ricercatori	-11.1773
▁coprire	-11.178
azioni	-11.1781
▁diffusa	-11.1782
▁serietà	-11.1783
▁imperciocchè	-11.1788
▁milosevic	-11.1788
▁niccolò	-11.1788
▁abitudini	-11.1788
▁banane	-11.1788
▁tribù	-11.1788
▁innocenti	-11.1788
▁rimasero	-11.1789
▁permettono	-11.1789
altezza	-11.1792
▁socio	-11.1793
▁impiegati	-11.1798
▁magistrati	-11.18
▁sacerdoti	-11.18
▁saddam	-11.18
▁agita	-11.1801
▁espressioni	-11.1801
▁evidenziare	-11.1801
▁percorsi	-11.1802
▁vincolante	-11.1803
▁impegna	-11.1803
▁individuo	-11.1803
90	-11.1807
▁intese	-11.1811
▁innovazione	-11.1813
▁intervenuti	-11.1813
▁ridicolo	-11.1813
▁mancava	-11.1814
▁significativa	-11.1815
▁continuità	-11.1816
nzio	-11.1817
▁vetro	-11.1817
▁soddisfa	-11.1819
▁passiamo	-11.182
ncia	-11.1821
▁equilibrato	-11.1825
▁giura	-11.1827
▁pavia	-11.1827
č	-11.1828
dri	-11.1829
▁bolla	-11.1831
▁malta	-11.1833
22	-11.1834
▁credete	-11.1836
▁accadere	-11.1842
▁giornalista	-11.1843
▁furore	-11.1843
▁balza	-11.1846
▁talento	-11.1847
▁meco	-11.185
▁gonzaga	-11.185
▁cosimo	-11.185
▁salerno	-11.1851
▁destinazione	-11.1852
▁manovra	-11.1852
▁semplificazione	-11.1852
▁32	-11.1852
rna	-11.1854
▁ragion	-11.1856
ges	-11.1858
▁schema	-11.1859
▁iscritti	-11.186
▁ger	-11.1861
▁normali	-11.1863
▁ponti	-11.1875
▁impedisce	-11.1876
▁edificio	-11.1876
▁dovea	-11.1877
▁nicola	-11.1878
cato	-11.1881
▁affermazione	-11.1885
▁ospite	-11.1889
▁gustavo	-11.189
▁sospeso	-11.19
▁risultano	-11.19
▁affaccia	-11.1902
▁rima	-11.1906
▁potea	-11.1908
ete	-11.1908
▁riconosciuta	-11.1913
▁contrasta	-11.1915
▁2011	-11.1915
▁matura	-11.1916
▁rallegro	-11.1916
▁perpetua	-11.192
▁apportare	-11.1921
▁concentra	-11.1923
▁sospensione	-11.1925
▁occupazionale	-11.1925
▁000	-11.1927
▁illustri	-11.193
▁colombia	-11.193
ent	-11.1932
▁estate	-11.1935
▁meritano	-11.1937
▁argomentazioni	-11.1938
▁tollera	-11.194
appoggio	-11.1941
▁silvio	-11.195
▁suddetto	-11.1951
nk	-11.1952
▁palco	-11.1953
▁auspico	-11.1953
▁riservato	-11.1953
▁augusto	-11.1954
▁guardiamo	-11.1955
▁archivio	-11.1957
sina	-11.1957
▁2009	-11.1963
dini	-11.1971
▁massimi	-11.1972
▁quadrato	-11.1973
▁ira	-11.1975
▁restrizioni	-11.1976
▁tariffe	-11.1976
▁risiede	-11.1976
▁culture	-11.1976
▁disparità	-11.1976
mani	-11.1977
enorme	-11.1979
▁cambiate	-11.198
▁operativo	-11.198
▁veloci	-11.1982
▁pian	-11.1982
▁delicata	-11.1983
▁negativa	-11.1983
ottica	-11.1984
▁studiato	-11.1989
▁ritengono	-11.1989
▁chiamiamo	-11.199
▁asia	-11.1992
▁ambizione	-11.1993
goni	-11.1993
▁propongo	-11.1993
▁ignora	-11.1994
▁mostri	-11.1994
▁attenti	-11.1995
▁raggiunti	-11.2001
▁vieusseux	-11.2001
▁difetti	-11.2001
stor	-11.2003
▁profitti	-11.2006
▁bandi	-11.2008
▁pubblicamente	-11.2008
▁link	-11.201
▁precisi	-11.2011
▁colpiti	-11.2011
▁allunga	-11.2012
▁davano	-11.2013
▁frequenza	-11.2014
▁contengono	-11.2015
▁compensazione	-11.2016
▁letteraria	-11.2016
denti	-11.2019
▁rime	-11.2021
▁decisa	-11.2021
▁intendeva	-11.2022
▁guarino	-11.2022
▁conferenze	-11.2026
▁amministrativo	-11.2027
▁effettuato	-11.2027
▁geni	-11.2029
cos	-11.203
▁eterno	-11.203
val	-11.2031
▁abilità	-11.2032
▁stanco	-11.2032
▁castella	-11.2032
▁illumina	-11.2033
ua	-11.2035
▁riga	-11.2036
verso	-11.2037
▁accolti	-11.2039
▁apprezzamento	-11.2042
▁barone	-11.2043
▁capite	-11.2044
▁rilevanti	-11.2045
▁magnifica	-11.2046
▁aribert	-11.2051
▁previsioni	-11.2052
▁battere	-11.2055
▁accorda	-11.2056
accento	-11.2056
▁solida	-11.206
▁cantare	-11.2061
▁spo	-11.2061
ira	-11.2062
▁impeto	-11.2064
▁vangelo	-11.2065
▁bandiere	-11.2065
▁tornava	-11.2067
▁descritto	-11.2071
▁voli	-11.2072
wi	-11.2074
▁onori	-11.2075
▁maddalena	-11.2077
▁facilità	-11.208
▁reazioni	-11.2083
▁stock	-11.2085
▁arme	-11.2086
▁manifestare	-11.2088
▁cata	-11.2089
▁dormi	-11.2089
▁pilota	-11.209
▁ricevuta	-11.209
▁convinta	-11.209
affari	-11.2092
▁scopi	-11.2095
acquisto	-11.2097
▁cd	-11.21
▁istituito	-11.2103
▁uova	-11.2103
35	-11.2106
celli	-11.2108
▁siate	-11.2109
essa	-11.211
▁schiaccia	-11.2111
▁fanciulli	-11.2116
▁ripreso	-11.2116
uli	-11.2119
▁apprezza	-11.2121
▁galere	-11.2122
rati	-11.2123
▁risparmia	-11.2123
▁vizi	-11.2124
▁manifesto	-11.2128
pia	-11.2134
▁simboli	-11.2136
▁circolare	-11.2139
▁ambasciatori	-11.2141
indipendenza	-11.2145
interpretazione	-11.2145
▁vedrà	-11.2145
▁impara	-11.2146
▁verte	-11.2148
▁diploma	-11.2152
bis	-11.2152
▁perdona	-11.2153
▁integrata	-11.2153
▁lassù	-11.2154
▁vuota	-11.2154
▁suggerimenti	-11.2155
▁diana	-11.2155
▁accrescere	-11.2158
▁battista	-11.2158
▁colpe	-11.2159
▁rendersi	-11.2162
▁condusse	-11.2163
rì	-11.2164
▁incentivi	-11.2167
▁fedeltà	-11.2168
rali	-11.2171
we	-11.2184
▁plebe	-11.2185
▁immobili	-11.219
▁energetiche	-11.2193
▁ogm	-11.2193
▁avvisa	-11.2193
tera	-11.2196
▁vice	-11.2198
▁portate	-11.2199
▁amanti	-11.22
96	-11.2202
▁david	-11.2202
▁curato	-11.221
▁tiranni	-11.2214
ling	-11.2215
▁brilla	-11.2216
▁percorrere	-11.2217
ene	-11.2218
▁consulenza	-11.2219
▁motto	-11.2219
▁panni	-11.2224
av	-11.2231
▁esb	-11.2231
▁sentir	-11.2231
▁innocente	-11.2232
▁agi	-11.2232
▁arrivata	-11.2233
▁complessità	-11.2233
▁esplicitamente	-11.2235
▁afghanistan	-11.2237
▁ricordate	-11.2238
▁vano	-11.2242
▁intenda	-11.2246
▁principessa	-11.2252
▁riferire	-11.2255
▁madri	-11.2256
▁it	-11.2257
▁infra	-11.2257
▁provincie	-11.2257
▁cadavere	-11.2258
rale	-11.2259
od	-11.226
▁dirigenti	-11.2262
lico	-11.2269
▁novelle	-11.2271
▁tieni	-11.2272
▁assurdo	-11.2272
▁sarai	-11.228
▁mostrando	-11.2281
▁ida	-11.2281
▁ferite	-11.2283
ö	-11.2284
▁definisce	-11.2284
▁governative	-11.2284
▁eccessivo	-11.2286
▁delitti	-11.2287
▁ghiaccio	-11.2288
▁pasqua	-11.2289
▁istituto	-11.2292
/01	-11.2295
▁soffre	-11.2297
▁raimondo	-11.2297
▁ridendo	-11.2298
▁cra	-11.2298
▁auguri	-11.2304
▁martin	-11.2306
▁procedimento	-11.231
▁caratteristica	-11.231
)]	-11.2314
▁alimenta	-11.2315
▁archivi	-11.232
▁empi	-11.2321
▁allargamento	-11.2322
▁burocrazia	-11.2323
▁istanze	-11.2323
▁serena	-11.2326
▁marchi	-11.2333
▁scene	-11.2336
alta	-11.2336
▁pag	-11.2336
▁torno	-11.2337
▁eccezioni	-11.2337
▁cecenia	-11.2338
lica	-11.234
▁sabbia	-11.234
▁osservatori	-11.2342
▁innamorato	-11.2345
▁ramo	-11.2348
▁cede	-11.2348
▁freno	-11.2349
▁aeree	-11.235
▁trovarono	-11.235
▁gen	-11.2353
70	-11.2356
acquis	-11.2356
▁ris	-11.2358
tati	-11.2359
nz	-11.2362
▁confuso	-11.2362
▁geografo	-11.2362
▁tavole	-11.2364
ttò	-11.2364
▁esporre	-11.2365
▁abbi	-11.2365
▁debiti	-11.2365
▁repubblicani	-11.2368
▁toccato	-11.2368
usi	-11.2375
▁cotesta	-11.2375
▁chiamo	-11.2375
▁discesa	-11.2376
▁azzurro	-11.2376
▁avvio	-11.2376
▁immediato	-11.2378
▁leggendo	-11.2381
▁consultare	-11.2381
▁servito	-11.2381
▁fotografia	-11.2384
▁fiato	-11.2388
die	-11.2388
▁cerimonia	-11.2388
▁scomparsa	-11.2388
▁sopravvivenza	-11.2389
▁legittimità	-11.239
▁cominciarono	-11.2396
▁eventuale	-11.2397
▁usano	-11.2398
▁pregio	-11.2399
▁avanzato	-11.2401
▁carceri	-11.2401
▁nucleo	-11.2401
▁barriere	-11.2401
▁vittorie	-11.2402
relli	-11.2402
▁xv	-11.2403
parti	-11.2404
▁sviluppa	-11.2404
▁pier	-11.2405
▁provvede	-11.2406
▁galli	-11.2407
▁doge	-11.2409
▁tolse	-11.2412
▁piacerebbe	-11.2413
▁loda	-11.242
▁tranquillamente	-11.2422
▁sofferenza	-11.2428
▁unanime	-11.2431
▁abba	-11.2433
▁indicati	-11.2435
use	-11.2438
▁dans	-11.2439
▁riposa	-11.2439
grafia	-11.2439
▁masse	-11.2441
▁adottati	-11.2441
▁tensione	-11.2441
▁q	-11.2443
▁rovine	-11.2445
▁averla	-11.245
▁prestito	-11.2453
▁business	-11.2454
▁interruppe	-11.2454
▁pavimento	-11.2454
▁scatola	-11.2455
▁modesto	-11.2455
▁sorgere	-11.2455
▁incaricato	-11.246
▁regalo	-11.2463
▁ringrazia	-11.2464
▁google	-11.2468
▁quattordici	-11.2468
▁savoia	-11.2468
▁giuste	-11.247
educazione	-11.2472
▁inclusi	-11.248
▁evidenti	-11.2481
▁sanitario	-11.2482
▁solita	-11.2488
simo	-11.2488
▁puni	-11.2496
gui	-11.2496
▁pasto	-11.2497
▁correva	-11.2502
▁descrivere	-11.2503
▁spaventa	-11.2504
▁render	-11.2505
▁usate	-11.2505
▁doni	-11.2507
▁girolamo	-11.2508
▁rubrica	-11.2508
scano	-11.2509
▁rendendo	-11.2512
▁rispetti	-11.2517
▁36	-11.2517
▁successore	-11.252
▁permetterà	-11.2521
▁disoccupati	-11.2521
▁esperimenti	-11.2521
▁tradurre	-11.2522
evento	-11.2523
▁valutazioni	-11.2525
▁cig	-11.2531
▁tampere	-11.2534
▁emerso	-11.2535
▁violenta	-11.2535
tissimo	-11.254
▁giace	-11.2542
▁capua	-11.2543
▁riportato	-11.2545
▁veglia	-11.2546
▁qu	-11.2547
▁eziandio	-11.2548
▁emilio	-11.2548
▁redazione	-11.2549
▁beneficiari	-11.2551
▁rovescia	-11.2551
▁cuor	-11.2554
oh	-11.2555
▁tracce	-11.2555
▁reciproca	-11.2555
▁distrutto	-11.2557
dò	-11.256
▁diffuso	-11.2561
▁penisola	-11.2561
▁pretendere	-11.2563
▁sentenze	-11.2563
▁risale	-11.2564
▁modificata	-11.2565
▁implicazioni	-11.2565
▁sposta	-11.2567
▁dotato	-11.2571
▁acquisto	-11.2571
▁decimo	-11.2574
▁vaga	-11.2578
▁catene	-11.2581
▁lupo	-11.2582
▁trasse	-11.2582
▁cm	-11.2587
▁helsinki	-11.2588
▁colpevoli	-11.2588
▁abbandonata	-11.2588
▁bara	-11.2588
▁invia	-11.259
▁insegnato	-11.259
▁bande	-11.2591
▁tormento	-11.2593
▁occupano	-11.2594
▁giudiziario	-11.2595
▁appartenenti	-11.2595
cte	-11.2595
▁giovanile	-11.2597
▁gro	-11.2599
▁completare	-11.26
▁assegnato	-11.26
▁sosteniamo	-11.2601
▁concessa	-11.2601
versi	-11.2602
▁fornite	-11.2603
▁lecito	-11.2605
▁testamento	-11.2605
etichettatura	-11.2606
▁lasciati	-11.2608
▁alba	-11.2608
▁presenterà	-11.2613
▁conquiste	-11.2615
▁progredire	-11.2618
▁registrati	-11.2619
▁150	-11.262
roni	-11.262
erei	-11.2628
▁poema	-11.2628
▁automaticamente	-11.263
▁giardini	-11.2632
▁fissati	-11.2632
▁realizzata	-11.2634
▁severe	-11.2636
▁estensione	-11.2637
▁mosso	-11.2641
▁ciononostante	-11.2642
▁sorprende	-11.2651
▁santer	-11.2652
▁longobardi	-11.2655
▁estende	-11.2656
▁abbiate	-11.2657
▁promette	-11.2658
▁xx	-11.2658
gie	-11.2659
alimentazione	-11.2659
▁prigioni	-11.2663
▁chimica	-11.2663
iano	-11.2664
▁entità	-11.2665
▁validi	-11.2667
▁aloise	-11.2669
▁frattanto	-11.2669
▁xxi	-11.2676
▁girare	-11.2676
▁assente	-11.2679
▁tormenta	-11.2679
remmo	-11.268
▁usata	-11.2682
▁scan	-11.2683
▁fossa	-11.2688
▁arri	-11.2689
▁efficacemente	-11.2691
▁videro	-11.2693
ena	-11.2693
▁monastero	-11.2696
▁potresti	-11.2696
▁saprà	-11.2698
▁peste	-11.2707
▁mantenuto	-11.2709
▁pse	-11.2711
▁parto	-11.2711
▁opzioni	-11.2712
▁prosa	-11.2714
▁rompere	-11.2716
dica	-11.2718
▁virus	-11.2718
▁strinse	-11.2719
▁folle	-11.2721
▁complessi	-11.2721
▁prenda	-11.2722
▁difficilmente	-11.2723
▁origini	-11.2723
▁sofferenze	-11.2723
▁giuramento	-11.2726
nsa	-11.2726
▁aggiunta	-11.2727
sin	-11.2729
▁poc	-11.2729
▁vivente	-11.2734
▁coinvolte	-11.2737
▁contenuta	-11.2737
▁sottoposti	-11.2737
▁ap	-11.2738
▁dimostrata	-11.2739
▁terroristi	-11.2741
▁fermi	-11.2743
▁notifica	-11.2743
eu	-11.2744
▁fatiche	-11.2744
▁impedito	-11.2748
▁impiegato	-11.2749
▁menzione	-11.2749
▁cristianesimo	-11.275
▁scapito	-11.275
▁mentale	-11.2754
▁golfo	-11.2756
▁fla	-11.2758
▁guidare	-11.276
▁profumo	-11.2764
▁protagonista	-11.2764
▁risposi	-11.2764
▁vincoli	-11.2764
▁cautela	-11.2764
▁crudeltà	-11.2765
▁intenso	-11.2765
▁riusciamo	-11.2765
angolo	-11.2765
▁soave	-11.2767
dono	-11.2775
▁beatrice	-11.2778
▁motivazioni	-11.2778
▁malati	-11.2779
▁borse	-11.2781
▁sogna	-11.2784
avvio	-11.2786
▁quiete	-11.2787
▁vigilia	-11.2787
stato	-11.279
utente	-11.2791
▁riusciva	-11.2792
▁inquinamento	-11.2793
▁salve	-11.2798
▁compare	-11.2799
▁digitali	-11.2799
▁convince	-11.28
▁domini	-11.2801
▁carabinieri	-11.2805
▁cru	-11.2806
▁infinito	-11.2809
▁flussi	-11.2814
▁prestiti	-11.2816
▁donato	-11.2818
▁perfezione	-11.2819
▁violenze	-11.2819
▁amata	-11.2819
▁fiorentino	-11.2819
▁spira	-11.2819
▁essendosi	-11.282
27	-11.2824
▁limitazione	-11.2826
▁rispettato	-11.2826
▁condannati	-11.2827
▁controlla	-11.2836
asia	-11.2836
▁terapia	-11.2836
eventuale	-11.2837
▁rivelato	-11.2837
▁frequente	-11.284
▁irrita	-11.2841
dire	-11.2842
▁ignorare	-11.2842
▁sapevano	-11.2844
ag	-11.2845
▁assicurato	-11.2846
▁parametri	-11.2846
▁repressione	-11.2847
tione	-11.2847
▁negative	-11.2847
▁festival	-11.2847
▁professor	-11.2847
▁romagna	-11.2847
▁divario	-11.285
▁piattaforma	-11.286
▁storiche	-11.2861
▁caterina	-11.2862
▁francamente	-11.2863
▁pala	-11.2864
▁formulate	-11.2864
telo	-11.2867
▁tregua	-11.2868
▁salvaguardare	-11.2869
▁pregare	-11.2869
▁suonare	-11.2872
▁fusione	-11.2872
▁perseguita	-11.2873
▁scozia	-11.2876
▁fermare	-11.2876
▁accomoda	-11.2876
mare	-11.2877
arrivo	-11.2879
▁verificato	-11.288
▁professori	-11.2882
▁viste	-11.2884
â	-11.2888
▁strategica	-11.2888
▁ambizioso	-11.2889
lò	-11.2893
▁cattolici	-11.2901
rga	-11.2901
▁schiavo	-11.2902
▁mormorò	-11.2902
logia	-11.2902
▁appartamento	-11.2904
ngono	-11.2905
▁istanza	-11.2905
▁sospetta	-11.2906
▁spedi	-11.2911
ada	-11.2912
▁aeroporti	-11.2915
▁compenso	-11.2915
▁attribuisce	-11.2916
▁geografica	-11.2916
▁straniera	-11.2917
dem	-11.2919
▁sereno	-11.2926
meri	-11.2927
arma	-11.2927
▁famosi	-11.293
▁residenti	-11.293
bia	-11.2931
▁dispongono	-11.2933
▁raccomando	-11.2933
▁esita	-11.2935
▁hotel	-11.2936
cra	-11.2937
uccio	-11.294
▁palle	-11.2942
▁producono	-11.2943
▁appoggiato	-11.2943
▁martedì	-11.2943
▁capriola	-11.2943
▁lacune	-11.2944
▁eccezionale	-11.2944
▁sant	-11.2947
▁venendo	-11.2947
▁respira	-11.2948
▁grano	-11.2954
ndu	-11.2954
▁dossier	-11.2957
▁potestà	-11.2957
▁bronzo	-11.2958
rella	-11.296
▁pesa	-11.2962
▁pompa	-11.2964
▁armato	-11.2967
▁porge	-11.2968
▁utilità	-11.297
▁infantile	-11.2971
▁sch	-11.2972
▁cieco	-11.2972
▁proprietario	-11.2973
autorizzazione	-11.2976
▁staff	-11.2979
▁appoggiamo	-11.2981
loni	-11.2981
mino	-11.2985
▁discutiamo	-11.2985
▁riscontro	-11.2985
almente	-11.2986
▁maschi	-11.2986
▁obbligato	-11.2989
▁carbone	-11.2994
rde	-11.2995
bbia	-11.2998
▁psico	-11.2999
▁acquisti	-11.2999
▁garantito	-11.3
▁consiglieri	-11.3003
des	-11.3004
▁volgare	-11.3004
▁33	-11.3005
▁7,	-11.3006
erai	-11.3009
▁alfredo	-11.3009
▁esamina	-11.301
▁viveva	-11.3011
▁tirare	-11.3012
▁stre	-11.3013
▁lontane	-11.3013
▁controversie	-11.3017
▁pronunzia	-11.3018
▁incarico	-11.3019
▁mine	-11.302
▁ferroviario	-11.3021
▁politicamente	-11.3024
▁ville	-11.3025
▁ampliare	-11.3027
▁fantastica	-11.3027
▁migliora	-11.3028
▁orribile	-11.3028
▁splendore	-11.3029
▁esecutivo	-11.3031
ju	-11.3032
▁sarete	-11.3034
▁socialismo	-11.3038
▁ammette	-11.304
▁stupore	-11.3041
▁onesto	-11.3041
▁voteremo	-11.3041
▁imprenditori	-11.3045
▁ten	-11.3045
▁fallo	-11.3045
nie	-11.3046
orario	-11.3049
impostazione	-11.3049
▁contamina	-11.3053
▁riti	-11.3055
▁eccellenti	-11.3055
▁giurisdizione	-11.3055
▁protagonisti	-11.3055
▁prigioniero	-11.3056
▁dovute	-11.3056
▁ventura	-11.3057
▁armonia	-11.3057
▁big	-11.3057
▁singola	-11.3058
▁consultazioni	-11.3058
▁sfuggire	-11.306
▁desiderare	-11.306
▁tassazione	-11.3061
▁mais	-11.3062
▁moltissimi	-11.3063
▁disagio	-11.3067
▁puramente	-11.3068
▁fattispecie	-11.3069
▁svolte	-11.3069
▁avrai	-11.307
▁distanze	-11.307
▁apparentemente	-11.3072
cosa	-11.3078
▁risultare	-11.3079
▁davide	-11.3083
▁troverà	-11.3083
▁produzioni	-11.3084
▁1999.	-11.3084
▁ple	-11.3086
=	-11.3088
▁reagire	-11.3088
ller	-11.309
▁mm	-11.3092
▁mazzini	-11.3098
▁furon	-11.3098
▁collezione	-11.3099
▁degni	-11.3099
▁pp	-11.31
▁creati	-11.31
▁invoca	-11.3103
▁stro	-11.3109
▁moltiplica	-11.3111
▁vinci	-11.3114
▁fammi	-11.3116
▁riempi	-11.3119
uem	-11.3123
▁assumersi	-11.3126
▁sussistono	-11.3126
▁claudio	-11.3126
▁dionisio	-11.3126
▁conosciuta	-11.3126
▁fornitura	-11.3127
rk	-11.3128
28	-11.3128
▁lumi	-11.313
▁attirare	-11.313
ft	-11.3131
▁manifestato	-11.3131
▁fanti	-11.3134
▁sostengo	-11.3134
▁seta	-11.3136
▁notti	-11.3138
▁approfondita	-11.3142
▁continuiamo	-11.3144
▁ripara	-11.3146
▁vigenti	-11.315
▁globali	-11.315
▁rise	-11.3151
ô	-11.3154
▁avvenuta	-11.3154
▁femmine	-11.3154
▁schermo	-11.3154
▁pacifico	-11.3154
▁valide	-11.3155
▁75	-11.3155
nesi	-11.3155
▁toni	-11.3156
▁tirannide	-11.3157
▁finali	-11.3161
▁parente	-11.3161
▁tappeto	-11.3166
▁accorto	-11.3169
▁bibbia	-11.3169
▁tolleranza	-11.317
▁pugna	-11.3171
▁appariva	-11.3171
▁egitto	-11.3174
▁vederla	-11.3174
▁adeguamento	-11.3174
▁divenire	-11.3176
▁rimettere	-11.3177
▁cerco	-11.318
▁giurisprudenza	-11.3183
▁flusso	-11.3183
▁progettazione	-11.3185
▁vivendo	-11.3185
▁trento	-11.3187
▁forniti	-11.3192
▁collaboratori	-11.3201
intenzione	-11.3202
▁diminuire	-11.3204
▁rafforza	-11.3207
▁tavolino	-11.3208
▁mini	-11.3208
ddi	-11.321
▁profondi	-11.321
▁trovati	-11.321
▁principato	-11.3211
▁dettagliata	-11.3214
infanzia	-11.3216
▁brillante	-11.3216
▁vile	-11.3219
▁augura	-11.3221
▁usciti	-11.3223
▁lione	-11.3225
rî	-11.3226
▁appella	-11.3227
▁invitare	-11.323
▁nino	-11.323
ìa	-11.3233
▁cambi	-11.3237
▁manutenzione	-11.324
nder	-11.3244
atmosfera	-11.3245
▁chimiche	-11.3246
▁colpite	-11.3246
▁manzoni	-11.325
ami	-11.325
▁andasse	-11.3251
▁combattimento	-11.3254
▁dispositivi	-11.3254
▁mosè	-11.3258
▁duri	-11.3261
▁coglie	-11.3263
▁compone	-11.3263
▁pol	-11.3264
▁disperato	-11.3266
▁trent	-11.3267
uscita	-11.3269
▁discriminazioni	-11.327
▁ristorante	-11.3271
▁adotta	-11.3271
gn	-11.3272
▁stabilimento	-11.3272
centi	-11.3273
▁comunista	-11.3273
llu	-11.3282
▁emanuele	-11.3284
lì	-11.3288
▁tenerezza	-11.3296
▁cercò	-11.3298
▁ultra	-11.3298
▁lalla	-11.3301
▁restò	-11.3301
esportazione	-11.3303
▁penali	-11.3303
▁approfondito	-11.3304
▁genetica	-11.3307
pote	-11.3313
▁salutare	-11.3314
▁prevedono	-11.3315
▁preoccupante	-11.332
▁temporanea	-11.3321
▁farina	-11.3323
▁reggio	-11.3324
▁continuato	-11.3325
▁tenda	-11.3325
scu	-11.3326
▁leggero	-11.3326
cità	-11.3326
▁teresa	-11.3327
▁avversari	-11.3327
▁allegato	-11.333
▁tematiche	-11.3332
▁esercizi	-11.3341
▁lacera	-11.3341
▁vincitori	-11.3342
▁caratterizzato	-11.3343
ici	-11.3345
▁ginocchia	-11.3345
▁grava	-11.3348
▁calci	-11.335
▁pasta	-11.3361
▁formulato	-11.3362
▁molle	-11.3364
▁metalli	-11.3368
▁curioso	-11.337
▁sindacati	-11.337
▁strategico	-11.337
▁dovunque	-11.337
▁avrò	-11.337
▁usciva	-11.3371
▁dovevo	-11.3371
▁include	-11.3374
▁corrispondente	-11.3379
ficazione	-11.3381
▁lasciarono	-11.3381
▁ladro	-11.3383
▁elementare	-11.3384
▁previsione	-11.3384
▁serenità	-11.3385
▁monaco	-11.3387
▁tese	-11.3389
▁fisso	-11.3389
▁ricusa	-11.3391
▁accende	-11.3391
▁piacenza	-11.3392
▁sanitari	-11.3397
▁assedia	-11.3397
mbri	-11.3397
▁chissà	-11.3399
▁pianura	-11.3399
▁distrugge	-11.3399
imposta	-11.3401
▁emilia	-11.3402
▁guadagno	-11.3406
▁bastava	-11.3407
▁guadagnare	-11.3407
▁figlie	-11.3408
logica	-11.3411
▁urbani	-11.3411
▁barche	-11.3414
tani	-11.3416
▁scheda	-11.3417
29	-11.3421
ldo	-11.3423
▁sche	-11.3423
▁contemporanea	-11.3427
▁camicia	-11.3428
▁vacanze	-11.3428
▁maometto	-11.3428
▁meraviglioso	-11.3428
estensione	-11.3433
occhio	-11.3434
▁accorse	-11.3436
▁indole	-11.3437
▁batti	-11.3439
▁creano	-11.344
▁her	-11.3441
▁medita	-11.3443
indagine	-11.3448
sità	-11.3456
▁rinuncia	-11.3459
▁strette	-11.346
diti	-11.3461
identità	-11.3463
▁vollero	-11.3464
▁esposizione	-11.3466
▁cancella	-11.3466
▁etichettatura	-11.3468
▁metro	-11.3468
▁infinita	-11.3468
▁radicali	-11.3468
▁recuperare	-11.347
▁trovar	-11.3471
▁conveniente	-11.3472
▁mestieri	-11.3477
▁seppur	-11.3479
▁messico	-11.3481
▁vani	-11.3486
▁constatato	-11.3487
mbra	-11.3489
▁disordine	-11.349
adeguata	-11.3492
▁autunno	-11.3492
▁colli	-11.3492
▁mela	-11.3496
▁vece	-11.3498
▁artistica	-11.3498
▁dirlo	-11.3498
▁episodi	-11.35
▁buco	-11.35
▁scrivo	-11.3501
▁ospedali	-11.3501
▁compiaccio	-11.3502
▁meravigliosa	-11.3502
▁crediti	-11.3505
▁madrid	-11.3506
▁soffoca	-11.3506
▁grigio	-11.3507
▁subire	-11.3508
▁riscontra	-11.3509
▁2006	-11.3509
▁ritirata	-11.3514
▁doti	-11.3514
38	-11.3515
▁nazionalità	-11.3515
▁insegnamento	-11.3516
▁ragionamento	-11.3519
▁eccolo	-11.352
▁scontro	-11.3522
▁giuliano	-11.3524
▁oratore	-11.3526
▁ricava	-11.3531
▁maurizio	-11.3531
▁scadenze	-11.3531
oggetto	-11.3534
ette	-11.3534
▁gue	-11.3535
dici	-11.3536
▁collera	-11.3537
▁manco	-11.3543
▁divora	-11.3543
▁scenario	-11.3544
▁complementare	-11.3546
▁lotte	-11.3546
▁compensare	-11.3548
▁tratte	-11.3552
▁immensa	-11.3556
▁fango	-11.3557
▁giacché	-11.3561
▁faccenda	-11.3561
▁milanese	-11.3561
▁ordinaria	-11.3562
▁conversione	-11.3562
ye	-11.3564
▁caratterizza	-11.3571
▁pronuncia	-11.3572
▁latini	-11.3574
▁mirano	-11.3575
▁sofferto	-11.3575
▁campionato	-11.3575
▁statunitense	-11.3575
▁trascorso	-11.3575
ortensia	-11.3575
▁partì	-11.3576
▁sfondo	-11.3576
▁by	-11.3577
▁esigenza	-11.3578
▁metallo	-11.3578
▁arre	-11.358
▁campa	-11.3581
▁favella	-11.3583
▁soffia	-11.3584
rata	-11.3586
▁risparmiare	-11.3586
missione	-11.3587
▁vicario	-11.359
▁picchia	-11.359
▁bisognerà	-11.359
▁tan	-11.3591
▁proclama	-11.3591
▁proprietari	-11.3592
▁sperando	-11.3592
▁scudo	-11.3593
enne	-11.3593
▁vedersi	-11.3596
▁fastidio	-11.3598
▁colto	-11.3598
▁qualifica	-11.3602
▁tempera	-11.3602
▁stomaco	-11.3605
▁statue	-11.3605
altronde	-11.3605
▁divertimento	-11.3607
▁ottimi	-11.3608
▁cadenza	-11.3609
▁subi	-11.3609
▁richiedenti	-11.3609
-20	-11.361
austria	-11.3611
▁solare	-11.3611
▁cattivi	-11.3611
▁righe	-11.3611
▁collettiva	-11.3614
▁lancio	-11.3617
▁dritto	-11.362
▁connessione	-11.3621
▁moderne	-11.3621
▁1990	-11.3621
▁sottoposta	-11.3623
sma	-11.3624
abolizione	-11.3625
▁significativi	-11.3632
▁hussein	-11.3635
▁episodio	-11.3638
▁scon	-11.3639
▁confronta	-11.3642
▁gatti	-11.3643
▁prudente	-11.3644
diamo	-11.3645
▁rappresenti	-11.3645
▁polo	-11.3645
▁gare	-11.3646
▁insegnare	-11.3648
▁basse	-11.3651
▁sapore	-11.3651
▁rimessa	-11.3653
▁sedici	-11.3655
▁avvia	-11.3655
▁stupi	-11.3656
▁st	-11.3656
toria	-11.366
lari	-11.3662
ot	-11.3664
▁poesie	-11.3665
mann	-11.3666
▁fissi	-11.3666
▁doganale	-11.3666
▁formano	-11.3667
mato	-11.3667
sul	-11.3667
ré	-11.3668
▁giudizi	-11.3677
▁fanciulle	-11.3678
▁scoppia	-11.3679
▁ingredienti	-11.368
▁reputo	-11.368
▁irregolarità	-11.368
▁allarga	-11.3681
▁consumi	-11.3682
▁sposo	-11.3683
▁facea	-11.3683
▁esigere	-11.3685
▁seggio	-11.3685
▁pelo	-11.3685
▁partecipano	-11.3689
▁cau	-11.3692
▁miele	-11.3695
▁(1	-11.3695
▁normalmente	-11.3695
▁differenzia	-11.3698
▁piombo	-11.3698
▁erba	-11.3699
▁ricevono	-11.3701
esito	-11.3702
▁purchè	-11.3702
▁premia	-11.3702
llare	-11.3702
mail	-11.3703
▁invitati	-11.3704
▁venera	-11.3708
▁tam	-11.371
▁mont	-11.371
▁leggera	-11.371
▁cavour	-11.371
▁consentitemi	-11.3711
▁consolidamento	-11.3711
▁coltivazione	-11.3712
▁letteralmente	-11.3713
/&	-11.3713
▁musicali	-11.3714
▁diventando	-11.3714
onore	-11.3716
▁ricche	-11.3716
▁occupare	-11.3721
▁concepi	-11.3724
▁detenuti	-11.3725
▁requisito	-11.3725
▁dichiarò	-11.3725
▁tesori	-11.3728
▁compiuta	-11.3734
▁spingere	-11.3735
▁cardinal	-11.3737
▁graduale	-11.3741
▁rimanda	-11.3749
▁completamento	-11.375
▁savi	-11.3752
▁odia	-11.3753
▁falli	-11.3753
▁ur	-11.3755
▁avvocati	-11.3755
▁preziosi	-11.3755
▁doloroso	-11.3755
▁semina	-11.3756
▁generosità	-11.3756
▁ambizioni	-11.3756
▁innalza	-11.3758
▁statali	-11.3764
▁pazza	-11.3764
▁atque	-11.3765
▁ritirarsi	-11.3766
▁brevetti	-11.3768
▁michelangelo	-11.377
▁anticipo	-11.3771
lazione	-11.3772
▁mucca	-11.3772
▁agevolare	-11.3774
▁aggiornamento	-11.3775
▁campana	-11.3779
▁pregi	-11.3779
▁coltura	-11.3781
▁stimola	-11.3781
▁provocare	-11.3783
▁calde	-11.3784
▁sopporta	-11.3784
▁noia	-11.3784
▁criminale	-11.3785
▁visitatori	-11.3786
▁successione	-11.3786
duci	-11.3786
▁fuggi	-11.3788
▁verbo	-11.379
▁regio	-11.3791
ombra	-11.3791
▁scorsi	-11.3792
▁intere	-11.3793
▁parlar	-11.3797
▁effettuati	-11.3798
▁dr	-11.3799
▁pianificazione	-11.3802
▁russi	-11.3806
▁fiorini	-11.3809
▁creda	-11.381
▁siria	-11.3813
▁garanti	-11.3814
▁esemplare	-11.3815
▁coppie	-11.3815
▁settimo	-11.3816
▁porgo	-11.3819
cod	-11.3827
rno	-11.3828
▁intesi	-11.383
▁eroe	-11.3831
▁fazioni	-11.3831
▁mandava	-11.3834
▁successive	-11.3834
▁provvisorio	-11.3834
rc	-11.3837
▁conven	-11.3841
▁apparecchia	-11.3842
▁gliene	-11.3842
▁commette	-11.3842
▁consolidare	-11.3845
▁marittima	-11.3846
▁milanesi	-11.3846
▁inferno	-11.3847
▁riportare	-11.3851
▁pompeo	-11.3851
▁analizza	-11.3852
▁mortali	-11.3852
▁ob	-11.3854
dito	-11.3855
▁savio	-11.3858
▁visconti	-11.3861
▁cita	-11.3863
▁preparativi	-11.3865
vola	-11.3866
▁contegno	-11.3867
▁corri	-11.3868
▁evitando	-11.3868
▁trista	-11.3868
▁negoziare	-11.3868
▁spende	-11.3871
▁vinta	-11.3874
▁ginocchio	-11.3875
ago	-11.3876
▁ricompensa	-11.3876
▁splendido	-11.3876
▁confessione	-11.3876
lan	-11.3879
▁entrano	-11.388
▁onora	-11.3881
▁4.	-11.3882
▁eccessivamente	-11.3882
ggine	-11.3885
▁defini	-11.3886
▁innumerevoli	-11.3891
▁incluso	-11.3892
▁rimorso	-11.3892
▁potreste	-11.3892
▁faccende	-11.3892
▁sedute	-11.3892
▁abilitante	-11.3894
▁comparire	-11.3896
▁condannare	-11.3897
▁bilancia	-11.3899
▁applicati	-11.3901
▁fascino	-11.3903
▁legislazioni	-11.3907
▁monumento	-11.3907
▁scritture	-11.3907
▁gentiluomo	-11.3907
▁my	-11.391
▁hist	-11.3911
▁netto	-11.3919
▁acceso	-11.3922
▁eldr	-11.3923
▁indossa	-11.3925
▁facilitare	-11.3925
▁attentati	-11.3926
eliminazione	-11.3928
▁rinnovo	-11.3929
▁mandati	-11.3931
▁seminario	-11.3931
▁vedevano	-11.3932
▁acciò	-11.3932
▁riscalda	-11.3935
▁agevole	-11.3938
▁amministrativi	-11.3938
▁bastone	-11.394
36	-11.3942
▁carbonio	-11.3945
tutto	-11.3946
▁quand	-11.3947
▁libra	-11.3949
imp	-11.395
▁buonarroti	-11.3952
retto	-11.3952
▁sussiste	-11.3952
▁gravidanza	-11.3953
▁perlomeno	-11.3953
▁creatività	-11.3954
▁udienza	-11.3955
▁gallo	-11.3955
▁carri	-11.3958
▁ammirazione	-11.3958
mone	-11.3959
*	-11.3959
▁sviluppati	-11.3959
▁donatori	-11.3961
▁nigeria	-11.3968
▁fle	-11.3969
▁validità	-11.397
▁comprendo	-11.3971
▁eccessiva	-11.3974
ep	-11.3975
▁bush	-11.3975
▁(19	-11.3976
▁pastore	-11.3977
▁esprimo	-11.3979
▁citati	-11.3979
▁bir	-11.3979
▁coinvolto	-11.3984
▁dipendono	-11.3984
▁occorra	-11.3984
▁previdenza	-11.3984
▁affidato	-11.3984
▁straniere	-11.3984
▁potrò	-11.3985
▁ricordava	-11.3987
▁ven	-11.3987
bal	-11.3989
▁diamo	-11.3989
▁accumula	-11.399
▁durò	-11.399
▁squa	-11.3994
▁aziendale	-11.3994
telli	-11.3995
▁nere	-11.3998
for	-11.3998
▁nuvole	-11.4
▁proporzioni	-11.4001
▁scusi	-11.4002
▁mangiato	-11.4002
▁stress	-11.4003
▁cop	-11.4008
▁moltissimo	-11.4011
rm	-11.4012
▁preoccupati	-11.4012
▁uccisi	-11.4013
▁severa	-11.4014
emocratizzazione	-11.4015
▁paragrafi	-11.4015
▁appreso	-11.4015
▁reggimento	-11.4015
▁succedere	-11.4015
tello	-11.4015
nghe	-11.4017
▁tumulto	-11.4018
▁primaria	-11.402
arsi	-11.402
ttero	-11.4022
▁promuove	-11.4026
lici	-11.4027
▁paul	-11.4029
▁inutilmente	-11.403
▁battuta	-11.403
▁schiena	-11.4031
▁1991	-11.4031
uo	-11.4031
▁band	-11.4032
▁esservi	-11.4039
vidi	-11.4039
▁delinea	-11.4044
▁confonde	-11.4047
▁permettetemi	-11.4048
ak	-11.405
▁significare	-11.4052
▁acca	-11.4052
amoci	-11.4053
▁ritirare	-11.4053
▁appartengono	-11.4054
▁riesca	-11.4057
▁ampie	-11.4057
dit	-11.406
fondamentalmente	-11.4062
▁miracoli	-11.4062
▁vedrai	-11.4062
pina	-11.4063
▁esperto	-11.4063
▁consistente	-11.4063
▁sperimentazione	-11.4064
/20	-11.4065
▁pochino	-11.4068
retti	-11.4069
▁48	-11.4072
gan	-11.4074
▁pop	-11.4075
▁supplica	-11.4076
erebbero	-11.4076
▁duplice	-11.4077
▁marketing	-11.4077
▁rivoluzioni	-11.4077
▁servitù	-11.4077
▁edifica	-11.4077
▁seg	-11.4078
▁identifica	-11.4079
▁aspira	-11.408
▁robot	-11.4081
zionale	-11.4082
▁statale	-11.4086
▁ferri	-11.4088
▁diletto	-11.4092
▁dappertutto	-11.4092
▁stamattina	-11.4092
▁deroghe	-11.4092
▁seri	-11.4093
▁soppressione	-11.4093
▁impe	-11.4095
▁th	-11.4096
erete	-11.4097
▁interi	-11.4101
▁precauzione	-11.4108
▁paragone	-11.4108
▁garantita	-11.4109
▁romania	-11.4109
▁villaggi	-11.4109
▁xviii	-11.411
▁dirette	-11.4111
▁proporzione	-11.4111
▁malato	-11.4112
▁unanimità	-11.4113
▁3.	-11.4113
▁esatto	-11.4113
▁tredici	-11.4113
▁rado	-11.4114
▁nudo	-11.4115
tio	-11.4118
▁continuando	-11.4119
▁comportano	-11.4119
′	-11.4124
▁viceversa	-11.4124
▁tullio	-11.4124
▁dipartimento	-11.4124
▁pal	-11.4124
▁connesse	-11.4125
▁42	-11.4128
▁indice	-11.4129
▁simone	-11.4132
ï	-11.4134
▁rimprovera	-11.4136
▁richiesti	-11.4139
▁sorrise	-11.4139
▁grasso	-11.4141
▁torniamo	-11.4143
▁ram	-11.4143
▁favori	-11.4146
▁saperlo	-11.4148
▁vorrebbero	-11.4152
▁entrati	-11.4153
ttico	-11.4154
▁inevitabilmente	-11.4155
▁ecclesiastici	-11.4155
là	-11.4158
▁mensa	-11.4159
▁telefonare	-11.4161
influenza	-11.4162
▁decisi	-11.4166
▁affa	-11.4167
▁effettivo	-11.4168
▁have	-11.4169
▁accusato	-11.4169
▁orario	-11.417
▁angoli	-11.4172
▁normanni	-11.4174
lismo	-11.4174
▁piaceri	-11.4174
cchè	-11.4176
▁condotte	-11.4179
▁organizza	-11.4179
39	-11.418
▁stabilite	-11.4181
▁intervengo	-11.4182
tella	-11.4183
▁indurre	-11.4183
▁repentaglio	-11.4187
▁sepolcro	-11.4187
▁aspirazioni	-11.4189
▁dí	-11.4189
▁ricordando	-11.4192
mette	-11.4193
▁pesc	-11.4195
▁dolorosa	-11.4197
▁attualità	-11.4198
▁ruote	-11.4202
▁drammatica	-11.4203
▁vigilare	-11.4204
▁34	-11.4205
due	-11.4209
▁romanzi	-11.421
▁attua	-11.421
▁tagliare	-11.4211
om	-11.4217
▁candida	-11.4217
ntino	-11.4218
▁appalti	-11.4218
▁cile	-11.4218
ndovi	-11.4218
▁confesso	-11.4222
▁cel	-11.4223
▁privi	-11.4223
000	-11.4224
▁aspettano	-11.4228
▁ardente	-11.4232
▁particolar	-11.4233
▁comprensibile	-11.4234
▁repubbliche	-11.4234
ight	-11.4239
▁dirvi	-11.4242
▁rassicura	-11.4244
▁restava	-11.4245
▁console	-11.4246
▁avv	-11.4247
▁cittadina	-11.4249
▁pescherecci	-11.425
▁stesura	-11.425
▁ecologica	-11.425
▁trasmette	-11.4253
▁segg	-11.4255
ace	-11.4255
▁falco	-11.4258
gare	-11.4258
▁trovai	-11.4264
▁concerti	-11.4266
▁alterna	-11.4267
▁misera	-11.4268
▁pale	-11.4268
▁svela	-11.4269
▁settanta	-11.427
▁obbedi	-11.4271
▁nervi	-11.4271
▁occorrerà	-11.4271
▁ripiglia	-11.4275
▁generosa	-11.4278
▁esclama	-11.4278
▁cresciuto	-11.4282
▁gratuito	-11.4282
▁celeste	-11.4282
▁ammesso	-11.4282
questo	-11.4283
▁affermando	-11.4284
▁400	-11.4284
55	-11.4287
▁strage	-11.4287
▁armonizzare	-11.429
off	-11.4295
▁tabella	-11.4298
▁traversa	-11.4298
^2	-11.4302
▁€	-11.4302
▁ciel	-11.4302
▁aiutato	-11.4303
▁inverno	-11.4306
31	-11.4306
lly	-11.4306
otti	-11.4309
▁romane	-11.4309
▁illustrare	-11.4311
▁vigente	-11.4312
▁duchessa	-11.4313
▁pallido	-11.4313
▁panorama	-11.4313
▁sintomi	-11.4314
mbro	-11.4318
▁scrivi	-11.4322
sum	-11.4323
▁beneficiare	-11.4323
▁arrigo	-11.4325
▁amori	-11.4325
esa	-11.4326
▁decisionali	-11.4329
▁femmina	-11.4329
▁poltrona	-11.4329
▁sottolineo	-11.4329
▁violento	-11.433
▁torni	-11.4331
▁unici	-11.4331
▁cotone	-11.4332
48	-11.4333
dino	-11.4333
▁parimente	-11.4341
▁finì	-11.4342
▁fathma	-11.4345
mis	-11.4346
▁cereali	-11.4346
▁delegazioni	-11.4347
pola	-11.4348
▁conciliare	-11.435
india	-11.4351
▁filosofi	-11.4353
▁fortifica	-11.4356
▁inquina	-11.4359
▁americane	-11.436
▁sott	-11.4361
▁combattuto	-11.4362
▁dividere	-11.4362
▁concessioni	-11.4362
▁guide	-11.4364
▁impar	-11.4367
▁follia	-11.4368
▁nodo	-11.4376
▁pakistan	-11.4377
▁schiavitù	-11.4377
pt	-11.4379
nel	-11.4382
▁giuda	-11.4382
▁scaccia	-11.4382
▁ammirare	-11.4393
▁effettuata	-11.4393
▁sottili	-11.4394
▁rispettive	-11.4396
affermazione	-11.4398
▁necessita	-11.4402
▁cannoni	-11.4402
▁dominante	-11.4402
▁incendi	-11.4407
▁monumenti	-11.441
▁sospiro	-11.441
▁seme	-11.4411
▁peggiori	-11.4411
▁social	-11.4412
▁ron	-11.4413
▁catalogo	-11.4413
▁netta	-11.4414
evole	-11.4421
▁guardo	-11.4422
▁cioccolato	-11.4426
▁offesa	-11.4426
▁feroci	-11.4426
dina	-11.4427
▁normativo	-11.4428
▁vegetali	-11.4429
▁regali	-11.4431
▁sollevata	-11.4435
▁vivace	-11.4437
^	-11.4437
▁disprezza	-11.4437
▁piaceva	-11.4438
▁spezza	-11.4441
▁chiavi	-11.4442
▁diciotto	-11.4442
▁potenzialità	-11.4444
asi	-11.4445
▁commettere	-11.4446
▁limitazioni	-11.4446
▁imita	-11.4447
▁apparenza	-11.4449
▁rari	-11.4451
▁affare	-11.4455
▁punte	-11.4458
▁presupposti	-11.4458
▁infelici	-11.4458
▁opposta	-11.4458
▁tenute	-11.4458
▁infinite	-11.4458
▁coinvolge	-11.4459
▁credette	-11.4459
▁malizia	-11.4459
▁rafforzata	-11.4459
▁mangimi	-11.4461
▁ambasciatore	-11.4461
▁mappa	-11.4461
▁propositi	-11.4461
33	-11.4462
▁successori	-11.4469
▁laura	-11.4471
▁copri	-11.4472
▁incapace	-11.4474
▁scherzo	-11.4474
▁cugino	-11.4474
▁interrogativi	-11.4475
ttare	-11.4476
met	-11.4478
▁cominciano	-11.4478
▁risparmi	-11.448
▁apposta	-11.4483
▁paragona	-11.4483
▁niuno	-11.4484
▁prestigio	-11.4486
▁parevano	-11.4486
▁arro	-11.4488
ph	-11.4489
▁palese	-11.4489
▁pulizia	-11.4491
▁rendeva	-11.4492
▁indicatori	-11.4493
▁armamenti	-11.4493
▁mole	-11.4495
▁incertezza	-11.4495
▁cieli	-11.4495
▁angola	-11.4498
▁provi	-11.45
▁tolta	-11.45
▁papato	-11.4501
▁interpreta	-11.4504
▁pista	-11.4504
▁arrivi	-11.4504
▁battuto	-11.4507
lati	-11.4507
▁smettere	-11.4507
▁spie	-11.4509
▁2001,	-11.4509
cns	-11.4509
▁viaggiatori	-11.451
▁combinazione	-11.451
▁compimento	-11.451
▁sposi	-11.4511
▁spalanca	-11.4512
▁giocatori	-11.4513
▁8,	-11.4513
▁soffer	-11.4513
▁improvviso	-11.4514
ntur	-11.4516
▁38	-11.4516
▁suggeri	-11.452
▁formidabile	-11.4523
▁sincero	-11.4523
▁cariche	-11.4524
▁bergamo	-11.4524
sson	-11.4525
▁morbo	-11.4526
▁esaminando	-11.4527
▁ragionevoli	-11.4529
intesa	-11.4531
▁stabilita	-11.4533
dotti	-11.4535
▁conquistare	-11.4538
▁aggiungendo	-11.4538
▁bilaterali	-11.4539
▁sensazioni	-11.4539
▁margini	-11.454
▁semestre	-11.454
ok	-11.454
late	-11.4543
▁duello	-11.4544
tru	-11.4544
▁recato	-11.4546
alleanza	-11.4547
▁congiuntamente	-11.4552
▁danesi	-11.4553
bbero	-11.4555
▁siffatta	-11.4556
▁comportare	-11.4556
▁oscuro	-11.4557
▁produttività	-11.4557
▁canada	-11.4557
▁munizioni	-11.4558
▁preoccupato	-11.4559
▁slancio	-11.4561
▁chiarito	-11.4567
▁dottrine	-11.4572
▁kinnock	-11.4572
▁risoluto	-11.4572
▁laeken	-11.4572
▁diventerà	-11.4573
▁casca	-11.4574
par	-11.4574
llini	-11.4575
▁ricorre	-11.4575
▁confina	-11.4576
yer	-11.4577
▁tocco	-11.4578
▁partite	-11.458
ave	-11.4583
▁sincera	-11.4583
dal	-11.4584
▁proveniente	-11.4589
▁rapporta	-11.4589
▁tragico	-11.4589
gar	-11.4589
▁registrare	-11.459
▁renda	-11.459
▁vincolanti	-11.4591
▁eccesso	-11.4591
forma	-11.4592
▁01	-11.4596
▁ann	-11.4601
▁constata	-11.4601
▁opportuna	-11.4602
▁corto	-11.4604
▁magistrato	-11.4605
▁marittimo	-11.4605
dus	-11.4605
▁risorsa	-11.4605
▁ripetutamente	-11.4607
▁mh	-11.4609
mai	-11.461
▁capriccio	-11.4612
ers	-11.4615
▁legislativi	-11.4621
▁scarso	-11.4626
▁tentazione	-11.463
▁desiderato	-11.4631
▁barbaro	-11.4634
▁fornita	-11.4635
▁setta	-11.4635
▁riuscirà	-11.464
▁troverete	-11.4643
ius	-11.4644
▁classici	-11.4645
▁decennio	-11.4645
vio	-11.465
▁conferire	-11.4651
▁sbagliata	-11.4652
▁false	-11.4652
▁piazze	-11.4654
▁deposito	-11.4654
▁supplementari	-11.4654
▁sigarette	-11.4654
▁quesito	-11.4655
▁acquis	-11.4656
▁scu	-11.4656
▁ruina	-11.4657
▁serbia	-11.466
▁suggerito	-11.4662
▁diventati	-11.4665
▁aduna	-11.4665
▁viaggiare	-11.4666
▁dame	-11.4666
▁pul	-11.4667
▁prendeva	-11.4668
▁pratici	-11.4669
▁cominci	-11.4669
▁marche	-11.467
▁preparati	-11.4671
▁prefetto	-11.4671
▁propaganda	-11.4671
▁panno	-11.4672
▁orrore	-11.4673
▁negoziale	-11.4674
▁accessori	-11.4674
/3	-11.4675
▁provo	-11.4677
ther	-11.4677
ospedale	-11.4678
32	-11.4679
▁benevento	-11.4679
/1	-11.468
▁brevetto	-11.468
▁integra	-11.4682
▁riservata	-11.4684
▁vedrete	-11.4688
▁autonomi	-11.4689
▁plastica	-11.4689
▁tranquillità	-11.4689
▁letti	-11.4689
▁rare	-11.4692
▁vele	-11.4694
▁durare	-11.4695
▁forno	-11.4696
dura	-11.4699
▁onesta	-11.4699
▁ahi	-11.47
▁potessi	-11.4701
importo	-11.4701
▁trasferire	-11.4701
▁9,	-11.4702
▁colline	-11.4702
▁tenersi	-11.4703
▁cam	-11.4703
▁zimbabwe	-11.4704
▁tramonto	-11.4704
▁africani	-11.4705
▁free	-11.4709
by	-11.4711
▁usci	-11.4711
zzò	-11.4711
▁passeggiata	-11.4711
▁occupata	-11.4711
lus	-11.4712
▁rispettati	-11.4713
▁effettua	-11.4713
▁lampo	-11.4717
▁fro	-11.4718
▁coperte	-11.4721
▁patriarca	-11.4721
esse	-11.4722
▁operativa	-11.4725
rme	-11.4727
▁spiace	-11.4729
▁emana	-11.473
▁misurare	-11.4735
▁apparve	-11.4736
▁ultimamente	-11.4737
▁diffuse	-11.4737
▁accarezza	-11.4737
▁potenziali	-11.4738
mio	-11.4743
▁segnalato	-11.4744
cti	-11.4745
▁urla	-11.4745
▁restituire	-11.4748
▁fogli	-11.4751
▁preferenza	-11.4754
▁dittatura	-11.4754
▁rispecchia	-11.4755
▁accadde	-11.4756
▁gomma	-11.4756
sone	-11.476
▁dirigente	-11.4761
▁pagano	-11.4762
forme	-11.4763
▁gor	-11.4764
▁piove	-11.4768
▁dea	-11.477
▁riferi	-11.477
▁domestici	-11.4771
▁persecuzione	-11.4771
▁guerrieri	-11.4771
▁sinora	-11.4775
▁copre	-11.4776
▁consentano	-11.4778
▁commenta	-11.4778
▁marte	-11.4779
▁brano	-11.4779
▁merce	-11.478
▁sibi	-11.478
▁informale	-11.4781
rch	-11.4781
▁strani	-11.4782
visi	-11.4783
mici	-11.4783
▁costantino	-11.4783
ting	-11.4785
▁escluso	-11.4787
ban	-11.4788
▁razionale	-11.4788
▁seduti	-11.4788
▁arabo	-11.4789
▁doganali	-11.4789
idi	-11.4789
▁cassi	-11.4791
▁acquistato	-11.4792
quo	-11.4795
▁rock	-11.4801
▁•	-11.4804
gione	-11.4805
▁agostino	-11.4805
▁collabora	-11.4808
▁effettiva	-11.4808
▁profeti	-11.4808
▁god	-11.4815
▁contatta	-11.4818
▁municipio	-11.4821
▁fianchi	-11.4821
▁ruggiero	-11.4821
▁cospetto	-11.4822
▁laboratori	-11.4822
▁simula	-11.4827
▁identificare	-11.4828
pos	-11.4832
▁ponendo	-11.4833
▁danneggia	-11.4834
gel	-11.4834
▁aggira	-11.4834
▁semplificare	-11.4837
▁pensionistici	-11.4838
▁levante	-11.4839
▁indifferente	-11.484
▁banchi	-11.4841
▁religioni	-11.4843
cs	-11.4847
▁affida	-11.485
miche	-11.485
▁tirato	-11.485
▁automobili	-11.4853
▁fornitori	-11.4854
▁rigida	-11.4855
▁modulo	-11.4855
▁sottoporre	-11.4855
▁accompagnata	-11.4855
▁provvidenza	-11.4855
▁pontefici	-11.4856
▁annal	-11.4858
▁sopravvivere	-11.4858
▁ss	-11.4859
▁valli	-11.486
▁veniamo	-11.4861
▁atene	-11.4861
allegato	-11.4862
pen	-11.4865
▁limitarsi	-11.4868
▁gridare	-11.4871
▁esclude	-11.4871
▁pallida	-11.4871
▁residui	-11.4871
▁brama	-11.4872
▁cessare	-11.4872
vie	-11.4873
▁divisi	-11.4874
▁invero	-11.4876
▁levato	-11.4877
▁falsi	-11.4878
▁artistico	-11.488
▁gala	-11.488
▁ringraziando	-11.4881
▁cavi	-11.4882
evoli	-11.4883
▁penti	-11.4884
ottimo	-11.4886
▁tru	-11.4886
chiamo	-11.4887
▁umile	-11.4888
▁vole	-11.4889
▁pin	-11.489
ère	-11.4892
▁record	-11.4894
▁grassi	-11.4895
▁coll	-11.4896
▁reg	-11.4896
▁concorda	-11.4901
▁mostre	-11.4901
ride	-11.4904
tone	-11.4905
▁dicesse	-11.4905
▁riconosciuti	-11.4905
▁esteso	-11.4906
▁cellulare	-11.4906
▁agevola	-11.4907
▁nozione	-11.4907
▁scema	-11.4908
▁albergo	-11.4908
▁succedendo	-11.4909
▁tristo	-11.4912
abili	-11.4912
▁ammazza	-11.4912
▁opporsi	-11.4914
▁ardi	-11.4914
rte	-11.4915
▁croci	-11.4918
▁propor	-11.492
▁scoperte	-11.4922
▁calcoli	-11.4923
▁rilascio	-11.4924
▁concilia	-11.4924
▁propriamente	-11.4927
▁galee	-11.4928
▁dua	-11.4928
▁ognuna	-11.4928
bar	-11.4938
▁cattolico	-11.4939
▁malfatto	-11.494
▁seppelli	-11.4942
uccia	-11.4943
▁rota	-11.4946
▁sper	-11.4948
▁opportuni	-11.4948
assi	-11.4951
▁vinti	-11.4951
▁deplora	-11.4951
fal	-11.4953
▁attrezzature	-11.4956
▁stupefacenti	-11.4956
▁presuppone	-11.4956
▁xvii	-11.4957
▁cattive	-11.4957
▁up	-11.4957
▁continueremo	-11.4957
▁resiste	-11.4957
▁gonfia	-11.4958
inserimento	-11.4958
▁domandare	-11.4959
▁mercanti	-11.4959
▁copie	-11.496
))	-11.4964
▁rivolgersi	-11.4969
▁senatore	-11.4971
▁bernardo	-11.4972
▁entrava	-11.4972
▁diffidenza	-11.4973
▁miliardo	-11.4973
▁bombe	-11.4974
▁avvenimento	-11.4974
▁bomba	-11.4975
▁ringraziamenti	-11.4975
▁unitaria	-11.4976
▁credibile	-11.4976
▁bestiame	-11.4977
rce	-11.4978
▁onu	-11.4981
▁desiderava	-11.4984
cal	-11.4987
▁illusioni	-11.499
▁birmania	-11.499
ordina	-11.499
▁ammirato	-11.4992
▁mera	-11.4992
▁ignoranza	-11.4994
▁fazione	-11.4995
▁poterono	-11.4996
▁nettamente	-11.4996
▁stimolare	-11.4998
eni	-11.4999
▁differente	-11.5
▁indicano	-11.5
▁giuro	-11.5001
▁cit	-11.5001
amento	-11.5006
▁derivano	-11.5006
▁göteborg	-11.5007
▁biologica	-11.5008
▁trasformato	-11.5008
▁stento	-11.5009
▁feri	-11.5011
▁amano	-11.5011
cidi	-11.5012
▁pc	-11.5012
▁disturba	-11.5012
▁passeggio	-11.5014
▁saliva	-11.5017
▁palazzi	-11.5018
▁farti	-11.5021
▁nebbia	-11.5021
▁paoli	-11.5022
▁elle	-11.5024
▁elementari	-11.5024
▁ghibellini	-11.5024
▁mantiene	-11.5024
▁concordi	-11.5025
▁rinvia	-11.5025
▁brani	-11.5025
▁mel	-11.5026
tr	-11.5028
▁insino	-11.5029
▁burro	-11.503
▁quartieri	-11.5032
ioni	-11.5032
▁gettare	-11.5036
▁sperava	-11.5036
▁avessimo	-11.5036
gnò	-11.5036
▁vario	-11.5038
acce	-11.5038
▁vaticano	-11.5042
lie	-11.5043
▁ottene	-11.5045
▁set	-11.5045
ocialdemocratici	-11.5046
▁logo	-11.5046
▁regala	-11.5047
▁sorride	-11.5049
▁deposita	-11.5049
▁lá	-11.5049
cini	-11.5052
▁album	-11.5057
▁confidenza	-11.5059
▁contribuiscono	-11.5059
▁preservare	-11.506
▁definite	-11.506
▁redatto	-11.5061
▁scese	-11.5061
▁scoppio	-11.5065
tas	-11.5067
logici	-11.5067
▁birra	-11.5067
▁rai	-11.5071
▁orecchi	-11.5074
▁affianca	-11.5076
▁galleria	-11.5077
▁riferimenti	-11.5077
▁sponda	-11.5077
34	-11.508
▁liste	-11.5081
▁soffri	-11.5081
▁robert	-11.5081
▁gridando	-11.5083
▁dec	-11.5083
▁raro	-11.5084
▁pubblicati	-11.5085
▁esclusione	-11.5085
▁1997,	-11.5087
▁dote	-11.5088
ham	-11.5088
▁sessi	-11.509
▁servigio	-11.5091
▁attribuito	-11.5093
▁viti	-11.5093
▁violenti	-11.5095
▁salvi	-11.5096
▁crescendo	-11.5097
▁ante	-11.5098
▁sicure	-11.5099
▁consenti	-11.5099
▁gioie	-11.5104
▁tenevano	-11.5106
ronsi	-11.5106
▁custode	-11.5111
▁palestina	-11.5111
▁ufficialmente	-11.5111
▁testimonianze	-11.5111
▁nunzio	-11.5111
▁ritornò	-11.5112
▁guerrazzi	-11.5112
▁dure	-11.5114
▁integrante	-11.5115
▁scrivendo	-11.5121
▁cingar	-11.5121
▁sará	-11.5121
▁pubblicare	-11.5122
▁viventi	-11.5124
▁palme	-11.5125
▁costituisca	-11.5125
▁collegamenti	-11.5126
▁disordini	-11.5128
▁ripetè	-11.5128
▁benedizione	-11.513
▁navale	-11.5132
42	-11.5133
attiva	-11.5134
▁concludendo	-11.5135
▁ottica	-11.5136
▁lenta	-11.5137
▁amiche	-11.5139
tes	-11.5142
▁ecce	-11.5143
messa	-11.5144
▁effettuate	-11.5144
▁paiono	-11.5144
▁legislatura	-11.5145
▁produttore	-11.5145
▁riesci	-11.5145
▁orari	-11.5148
▁10,	-11.5148
▁comparve	-11.515
▁pervenire	-11.515
▁xix	-11.5151
▁chiedersi	-11.5151
▁rendo	-11.5156
▁rappresentati	-11.5158
▁porsi	-11.5159
▁collina	-11.5161
▁domestico	-11.5163
▁discussa	-11.5163
▁sostanziali	-11.5163
▁obbligati	-11.5163
▁ministeriale	-11.5163
▁consacra	-11.5163
▁guidato	-11.5164
▁dipinto	-11.5164
▁superba	-11.5166
quis	-11.5169
▁fiero	-11.5171
▁obbligatorio	-11.5171
▁ospedale	-11.5172
▁spiegazioni	-11.5173
ez	-11.5175
▁rep	-11.5177
▁marine	-11.5177
▁trovandosi	-11.5178
▁spunta	-11.518
▁bestie	-11.518
▁commozione	-11.5181
▁imminente	-11.5184
▁missioni	-11.5185
ion	-11.5185
▁provenza	-11.5187
▁cancellare	-11.5191
▁attira	-11.5193
▁correnti	-11.5197
▁esposte	-11.5198
▁commosso	-11.5198
▁entrando	-11.5199
▁demonio	-11.5199
▁appo	-11.5202
▁precedentemente	-11.5202
camente	-11.5203
▁elaborata	-11.5204
▁divenuta	-11.5204
▁credenza	-11.5205
insegnamento	-11.5208
▁ferrovia	-11.5208
▁accettata	-11.5211
▁dubitare	-11.5211
▁scatena	-11.5212
ku	-11.5214
▁sparse	-11.5214
▁calunnia	-11.5215
▁eugenia	-11.5215
▁raffigura	-11.5215
▁indirizzi	-11.5215
▁milizia	-11.5215
▁pongono	-11.5217
ldi	-11.5219
▁darò	-11.5221
▁cinesi	-11.5222
▁andranno	-11.5223
duc	-11.5223
▁soliti	-11.5225
▁accresce	-11.5227
▁aziendali	-11.5228
▁umanitario	-11.523
▁facessero	-11.5232
▁obiezioni	-11.5232
▁riproduzione	-11.5233
ros	-11.5234
▁spara	-11.5237
▁investiga	-11.5238
▁orazio	-11.5239
▁arrestato	-11.5241
▁registri	-11.5243
▁culla	-11.5245
elemento	-11.5246
▁fermato	-11.5248
▁doversi	-11.5249
▁calamità	-11.525
▁clandestina	-11.525
▁guidata	-11.5252
nger	-11.5253
▁galera	-11.5253
▁apprezzato	-11.5256
▁ingenti	-11.5257
▁fascio	-11.5259
▁secco	-11.526
posto	-11.5261
▁dimentichiamo	-11.5261
▁rigorosa	-11.5262
mes	-11.5263
▁bolle	-11.5265
▁fontana	-11.5267
aco	-11.5268
▁imbarcazioni	-11.5269
▁demo	-11.5271
▁paglia	-11.5274
▁dipendente	-11.5276
▁pecore	-11.5279
rosa	-11.5279
▁desse	-11.528
▁gigante	-11.5282
▁commercializza	-11.5283
▁approvate	-11.5284
▁ottime	-11.5285
▁bottiglia	-11.5285
▁rim	-11.5286
▁corde	-11.5287
▁pregiudizi	-11.5287
▁superbo	-11.5288
▁campioni	-11.5289
▁cazzo	-11.529
lette	-11.5292
▁addetti	-11.5294
▁segnato	-11.5298
▁rispondo	-11.53
▁portavano	-11.53
▁raddoppia	-11.5301
▁esegui	-11.5302
▁preziosa	-11.5302
▁riccardo	-11.5303
▁taci	-11.5305
ssione	-11.5305
▁conobbe	-11.5306
▁abbandono	-11.5306
▁medi	-11.5311
▁ottanta	-11.532
▁insufficienti	-11.532
vin	-11.532
▁cronica	-11.5321
▁venere	-11.5322
▁strato	-11.5324
▁rientro	-11.5324
▁discende	-11.5328
▁moti	-11.5331
▁1998.	-11.5335
mico	-11.5336
▁colpire	-11.534
gente	-11.5343
▁sete	-11.5344
▁assomiglia	-11.5345
ins	-11.5349
▁repubblicano	-11.535
pla	-11.5352
49	-11.5353
▁preparando	-11.5354
▁razionali	-11.5354
rza	-11.5355
▁brasile	-11.5356
▁femminili	-11.5356
▁char	-11.5356
apprendimento	-11.5364
▁speso	-11.5364
▁mandar	-11.5366
▁segreta	-11.5367
▁introduce	-11.5367
ntu	-11.5367
▁credendo	-11.5369
sero	-11.5369
appa	-11.537
▁prati	-11.5371
▁diligenza	-11.5373
▁poterlo	-11.5374
▁virginia	-11.5376
ipotesi	-11.5382
▁br	-11.5382
▁interrotta	-11.5382
▁scontra	-11.5383
▁liberare	-11.5384
▁intimo	-11.5384
▁saltare	-11.5387
▁dna	-11.539
▁supporre	-11.5391
▁dichiaro	-11.5391
▁orbene	-11.5392
▁grata	-11.5393
▁certificazione	-11.5393
▁gabriele	-11.5395
id	-11.5396
ben	-11.5397
▁spina	-11.5399
▁temp	-11.5399
rate	-11.5399
▁integrati	-11.54
rello	-11.5401
▁avi	-11.5402
▁condur	-11.5405
▁decisiva	-11.5406
▁avvicinarsi	-11.5407
▁contemporanei	-11.5409
▁cronaca	-11.5409
▁bloccare	-11.5411
pica	-11.5411
▁separati	-11.5411
▁dorme	-11.5415
▁umili	-11.5416
▁matilde	-11.5419
▁scosse	-11.5425
▁associa	-11.5426
▁ispettori	-11.5427
▁proteste	-11.5427
▁professa	-11.5427
▁ahimè	-11.5427
▁sba	-11.5428
▁accessibili	-11.5428
▁corrono	-11.5429
▁delusione	-11.5429
▁farmaco	-11.5432
▁purché	-11.5433
▁siede	-11.5438
rbo	-11.5441
▁giri	-11.5444
▁ridotte	-11.5446
ms	-11.5448
▁gon	-11.5452
▁farli	-11.5453
▁coperti	-11.5458
▁diffondere	-11.5459
▁clonazione	-11.5462
▁fisiche	-11.5464
▁cupo	-11.5465
▁vago	-11.5465
▁marmi	-11.5465
▁visse	-11.5468
▁giustificazione	-11.5468
/2	-11.547
▁phare	-11.547
▁ec	-11.547
▁green	-11.5472
▁coordinare	-11.5475
hu	-11.5478
▁direzioni	-11.5478
▁rettifica	-11.548
▁===	-11.548
▁atleti	-11.5481
▁dedicare	-11.5482
▁palma	-11.5483
tale	-11.5484
▁generosi	-11.5485
▁priori	-11.5486
▁inganna	-11.5488
▁iniziali	-11.549
▁vendica	-11.5492
▁regolamentare	-11.5493
care	-11.5496
▁rimanga	-11.5496
▁servitore	-11.5497
▁rigoroso	-11.5498
▁contadino	-11.5499
▁solenni	-11.5499
▁spettacoli	-11.5499
▁trasparenti	-11.5499
▁godono	-11.5499
▁concessi	-11.55
▁rimaste	-11.55
▁monopoli	-11.55
▁testimone	-11.5502
▁curare	-11.5503
▁decreti	-11.5507
;/	-11.5508
occhi	-11.5508
▁concordia	-11.551
▁passarono	-11.5511
▁rivale	-11.5514
▁piacciono	-11.5516
▁largamente	-11.5517
sten	-11.5517
▁artiglierie	-11.5519
▁assegna	-11.552
cata	-11.5521
▁www	-11.5522
▁sopportare	-11.5524
▁rivesti	-11.5528
▁riuniti	-11.5531
zz	-11.5532
▁impiega	-11.5533
▁metropoli	-11.5534
▁sfa	-11.5536
cello	-11.5536
▁crema	-11.5537
iana	-11.5537
▁esista	-11.5538
▁scuse	-11.5539
▁fora	-11.5541
▁spettatori	-11.5542
▁email	-11.5542
▁frega	-11.5546
▁immaginazione	-11.5547
▁inventa	-11.5547
▁vietare	-11.555
▁spirituali	-11.555
▁pulita	-11.5551
▁fio	-11.5552
▁appaiono	-11.5552
▁promosso	-11.5552
▁conservatori	-11.5552
▁colonie	-11.5552
▁protetti	-11.5553
mas	-11.5553
▁pappa	-11.5556
▁spar	-11.5559
▁presti	-11.5562
▁lasciarsi	-11.5565
logi	-11.5566
▁apparecchi	-11.5566
rma	-11.5567
▁fermarsi	-11.5567
tari	-11.5569
▁selvaggia	-11.5569
▁crudeli	-11.557
▁raffaello	-11.5571
▁umore	-11.5573
▁nanna	-11.5574
▁cominciamo	-11.5578
sk	-11.5579
urs	-11.5582
▁destinare	-11.5583
▁investito	-11.5585
▁corretti	-11.5586
▁portar	-11.5588
▁costretta	-11.5588
▁distorsioni	-11.5588
▁sovrani	-11.559
▁odore	-11.5591
▁spettro	-11.5591
▁meda	-11.5594
etica	-11.5596
▁concentrarsi	-11.5598
done	-11.56
▁costrui	-11.5602
fere	-11.5603
▁cacciato	-11.5604
bit	-11.5605
▁suscitato	-11.5606
▁apprezzo	-11.5607
▁sconosciuto	-11.5607
▁riconciliazione	-11.5609
▁successe	-11.561
▁maschile	-11.5614
esposizione	-11.5616
▁circo	-11.5616
▁pazzi	-11.5618
▁poetica	-11.5624
▁saggezza	-11.5625
▁composti	-11.5625
▁turche	-11.5625
▁vigili	-11.563
▁realizzate	-11.5632
cari	-11.5632
▁volare	-11.5635
▁inserimento	-11.5637
▁facilita	-11.5638
immissione	-11.564
▁complementari	-11.5641
▁monopolio	-11.5641
▁compre	-11.5642
▁giammai	-11.5643
▁andarsene	-11.5643
▁compagna	-11.5646
letta	-11.5646
▁kong	-11.5647
▁ros	-11.5648
▁strane	-11.5648
rano	-11.5648
rmene	-11.5649
▁architettura	-11.5649
▁dieta	-11.565
▁confessare	-11.5651
dare	-11.5654
▁top	-11.5655
▁scioglie	-11.5655
▁dubito	-11.5656
▁umanitaria	-11.5657
▁medina	-11.5657
cura	-11.5658
41	-11.566
▁nemica	-11.5661
▁teatri	-11.5661
▁sorridere	-11.5661
▁camion	-11.5662
▁territoriali	-11.5663
▁carenza	-11.5664
▁foco	-11.5669
▁solitamente	-11.5671
▁44	-11.5671
▁accese	-11.5681
▁giustiniano	-11.5681
▁finta	-11.5682
▁server	-11.5682
▁scorgere	-11.5683
95	-11.5684
▁dá	-11.5684
solo	-11.5684
37	-11.5685
ngl	-11.569
▁richiamato	-11.5691
▁procuratore	-11.5693
▁sapesse	-11.5694
▁gusti	-11.5695
▁temeva	-11.5698
▁torrente	-11.5698
▁voluttà	-11.5698
▁bionda	-11.5701
cate	-11.5702
▁2002,	-11.5702
▁esprimersi	-11.5705
ologia	-11.5705
▁2002.	-11.5708
▁cieca	-11.5712
yo	-11.5713
▁sg	-11.5716
▁cotesti	-11.5716
▁imbarca	-11.5716
▁carducci	-11.5717
▁acquisire	-11.5717
▁intelletto	-11.5717
▁assassini	-11.572
▁classificazione	-11.5724
▁attese	-11.5725
▁vibra	-11.5727
▁ripristinare	-11.5727
cchino	-11.5728
mari	-11.5728
▁diviene	-11.5729
▁asciuga	-11.5729
▁investi	-11.5732
▁riputa	-11.5732
sor	-11.5733
▁occhiali	-11.5734
▁provenienza	-11.5735
▁costruttiva	-11.5735
▁suddetti	-11.5735
▁indicazione	-11.5735
▁vedute	-11.5735
▁rimprovero	-11.5737
▁sopratutto	-11.5738
▁rimini	-11.5743
▁presidio	-11.5745
▁difatti	-11.5745
▁indagine	-11.5746
mque	-11.575
▁red	-11.5751
▁aggiungo	-11.5751
▁formali	-11.5753
▁finlandese	-11.5753
▁tecnologica	-11.5753
▁pilastri	-11.5753
▁elettorali	-11.5753
roma	-11.5755
▁avviata	-11.5755
▁bocche	-11.5756
▁ehi	-11.5757
▁specificamente	-11.5757
▁ya	-11.5758
▁continuazione	-11.5759
▁ambi	-11.5761
▁edizioni	-11.5761
▁parrocchia	-11.5766
▁visitato	-11.5767
tch	-11.577
▁vena	-11.577
▁attuata	-11.5771
▁autentico	-11.5771
▁costituente	-11.5771
▁diagnosi	-11.5771
▁fabrizio	-11.5772
▁muni	-11.5772
▁suggerisce	-11.5773
▁flotte	-11.5773
▁legna	-11.5773
▁vapore	-11.5774
▁annuali	-11.5775
▁istrui	-11.5778
▁salari	-11.5778
▁custodia	-11.5779
▁nominati	-11.578
▁quid	-11.578
▁vasi	-11.5781
▁sentii	-11.5783
▁rifiutare	-11.5783
ccu	-11.5784
▁stampe	-11.5784
▁salda	-11.5788
ram	-11.5789
▁prodotta	-11.579
▁seguiti	-11.5791
▁udì	-11.5791
▁onesti	-11.5791
▁indovina	-11.5792
▁suggerimento	-11.5793
▁eco	-11.5793
tele	-11.5796
▁riparare	-11.58
▁bagni	-11.5801
nc	-11.5802
▁contrariamente	-11.5802
▁vige	-11.5802
▁aumentato	-11.5807
▁rinviato	-11.5808
▁eseguito	-11.5808
▁applicano	-11.5808
▁glorioso	-11.5808
▁corrado	-11.5809
▁permetto	-11.5809
▁seguite	-11.581
▁volontaria	-11.5811
▁nunc	-11.5811
▁muoiono	-11.5814
▁disperata	-11.5816
▁elevate	-11.5816
emergenza	-11.5818
mos	-11.5818
▁ricercare	-11.5818
▁cape	-11.5819
▁dotata	-11.582
▁cattedra	-11.5822
▁trovando	-11.5823
▁manu	-11.5825
▁matto	-11.5825
▁gabinetto	-11.5827
▁pubblicò	-11.5827
▁aquilino	-11.5827
▁spagnoli	-11.5827
▁limitati	-11.5828
▁parlerò	-11.5828
▁batteria	-11.5828
▁55	-11.583
▁real	-11.583
ossi	-11.5831
▁compensa	-11.5835
▁spedito	-11.5836
▁avermi	-11.5841
▁cent	-11.5843
▁min	-11.5845
▁sterline	-11.5846
▁vertici	-11.5847
▁rinnovare	-11.5847
▁ces	-11.5847
▁angoscia	-11.5847
▁vetri	-11.5847
▁risenti	-11.585
▁mutamenti	-11.5851
▁governare	-11.5851
▁esilio	-11.5854
▁distribuito	-11.5855
rare	-11.5855
▁chiarimento	-11.5858
▁gru	-11.5858
▁complicato	-11.5858
▁foggia	-11.5863
▁fortunato	-11.5864
▁formata	-11.5864
▁trasmesso	-11.5864
▁proviene	-11.5865
▁indonesia	-11.5867
▁nova	-11.5869
▁coppa	-11.5872
▁abolire	-11.5873
imposizione	-11.5874
▁imperiali	-11.5876
pc	-11.5877
▁echo	-11.5883
▁compromessi	-11.5883
▁rimarrà	-11.5883
▁converti	-11.5884
▁penalizza	-11.5886
meno	-11.5888
▁disarmo	-11.5889
▁unire	-11.5889
▁dose	-11.5889
impianto	-11.5892
▁bastano	-11.5892
▁trattandosi	-11.5892
▁intitolato	-11.5892
ardo	-11.5893
▁giustificato	-11.5893
▁comandi	-11.5893
▁hong	-11.5894
▁datori	-11.5897
▁calpesta	-11.5897
nam	-11.5897
▁modesta	-11.5897
59	-11.59
▁congiuntura	-11.5902
▁retorica	-11.5902
▁xenofobia	-11.5903
▁ripigli	-11.5904
zu	-11.5905
▁abbina	-11.5905
▁levare	-11.5906
▁coltello	-11.5908
▁trama	-11.5912
▁condiziona	-11.5913
▁ave	-11.5914
▁65	-11.5916
▁trovavasi	-11.5916
▁temendo	-11.5918
▁foro	-11.5918
▁poggia	-11.5919
▁stoccolma	-11.592
▁prospetta	-11.5921
dite	-11.5922
▁illegali	-11.5923
▁pigliare	-11.5924
▁darle	-11.5925
▁canna	-11.5926
▁allor	-11.5926
▁pozzo	-11.5927
▁legni	-11.5929
▁intenti	-11.5934
▁potenziare	-11.5934
▁immaginate	-11.5934
cone	-11.5937
▁collettivo	-11.5939
▁lampada	-11.5939
▁guelfi	-11.5939
▁privacy	-11.5939
▁affolla	-11.5939
▁turca	-11.5939
▁palacio	-11.594
▁inerenti	-11.594
▁presentò	-11.594
▁teniamo	-11.594
orientamento	-11.5941
▁accettabili	-11.5941
▁iran	-11.5942
▁argu	-11.5944
▁blog	-11.5945
▁stradali	-11.5946
▁gusta	-11.5946
▁sbaglia	-11.5947
▁considerano	-11.5948
ndere	-11.5952
▁guardato	-11.5952
mon	-11.5953
▁conoscendo	-11.5953
▁equa	-11.5954
ville	-11.5954
▁compia	-11.5954
▁ispirato	-11.5955
▁ritrovare	-11.5957
▁mantenendo	-11.5957
▁nutro	-11.5958
▁fantasma	-11.5958
▁nipoti	-11.5958
▁balena	-11.5959
▁ferra	-11.596
▁intensità	-11.5962
▁mq	-11.5963
▁rinviare	-11.5963
▁impronta	-11.5963
poni	-11.5964
▁ordinario	-11.5967
▁impianto	-11.5967
▁narrazione	-11.5972
▁loredana	-11.5977
▁accessibile	-11.5977
▁avanzi	-11.5978
▁decadenza	-11.5978
▁contraddizioni	-11.5978
▁avverrà	-11.5979
▁divisioni	-11.5979
▁schifo	-11.5979
▁salone	-11.5983
▁frena	-11.5984
▁barbara	-11.5986
▁pecca	-11.5987
▁quarti	-11.5988
▁sorgente	-11.5989
--	-11.599
▁anello	-11.5994
▁mangi	-11.5995
esso	-11.5995
▁roth	-11.5996
▁lionardo	-11.5996
▁rivolti	-11.5996
▁esauriente	-11.5996
▁causare	-11.5997
▁stimolo	-11.5997
▁larghe	-11.5998
▁dg	-11.5998
▁grotta	-11.5999
▁roccia	-11.6
git	-11.6002
▁acciaio	-11.6002
▁terremoto	-11.6004
▁agito	-11.6004
▁mastro	-11.6005
▁protetto	-11.6007
▁ribella	-11.6009
mettere	-11.601
udo	-11.6011
cur	-11.6012
▁biodiversità	-11.6014
▁sindacali	-11.6014
▁aggiusta	-11.6015
▁santuario	-11.6016
▁scava	-11.6017
▁monaci	-11.6017
eco	-11.6018
▁limitate	-11.6018
▁fugge	-11.6021
▁vor	-11.6021
▁consolazione	-11.6021
▁tribuna	-11.6027
▁darmi	-11.6027
▁sentendo	-11.6028
▁concentrare	-11.6028
▁offende	-11.6029
▁riconosco	-11.6032
▁attendiamo	-11.6033
▁proteine	-11.6033
▁tradotto	-11.6033
▁passavano	-11.6033
▁contenente	-11.6033
▁comparsa	-11.6035
stina	-11.6035
▁attive	-11.6037
▁apostoli	-11.604
▁esplora	-11.604
▁abuso	-11.6042
▁ansia	-11.6042
▁solana	-11.6043
▁sven	-11.6045
vero	-11.6047
▁accogliamo	-11.6052
▁gloriosa	-11.6052
▁transeuropee	-11.6052
▁cimitero	-11.6052
▁didattica	-11.6052
▁portale	-11.6054
▁allevatori	-11.6054
rto	-11.6054
▁card	-11.6055
ccie	-11.6056
nn	-11.6058
zzu	-11.6063
▁prestazione	-11.6065
isse	-11.6066
▁riducendo	-11.6067
▁inseriti	-11.6067
tata	-11.6068
affi	-11.607
▁intrapreso	-11.6071
▁barbe	-11.6075
▁lombardi	-11.6075
▁tendono	-11.6076
mano	-11.6076
▁assedio	-11.6078
▁esisteva	-11.6078
▁nominare	-11.6078
▁estesa	-11.6079
▁separate	-11.6081
▁affrontati	-11.6085
▁discrimina	-11.6085
▁collegato	-11.6087
▁cadaveri	-11.6091
▁compatibile	-11.6091
▁divinità	-11.6092
occhè	-11.6093
bel	-11.6093
▁neppur	-11.6094
▁raccontato	-11.6095
▁formalmente	-11.6097
▁atteso	-11.6098
far	-11.6098
▁clo	-11.6101
▁gol	-11.6105
▁disegnare	-11.6105
▁percepi	-11.6105
dda	-11.6107
▁rara	-11.6109
▁ritirato	-11.6109
▁scolastica	-11.611
▁11,	-11.6111
▁mina	-11.6111
75	-11.6112
▁terminato	-11.6114
guard	-11.6115
▁der	-11.6119
nno	-11.6124
▁pretese	-11.6124
▁tene	-11.6127
▁tappe	-11.6127
ces	-11.6127
▁teorie	-11.6129
▁vincolo	-11.6129
▁condivisione	-11.6129
▁appar	-11.6129
▁tentò	-11.6132
▁esponenti	-11.6132
dol	-11.6134
▁dirle	-11.614
43	-11.6141
▁corro	-11.6142
▁bien	-11.6143
siamo	-11.6143
▁prestato	-11.6145
▁illusione	-11.6146
▁stampato	-11.6146
▁network	-11.6148
▁procedimenti	-11.6148
▁allievi	-11.6148
iran	-11.6148
▁inseri	-11.6149
▁seguaci	-11.615
▁dottori	-11.6151
▁sb	-11.6151
▁espansione	-11.6151
▁contemplare	-11.6152
dd	-11.6152
▁delicati	-11.6152
▁inquinanti	-11.6152
▁capri	-11.6153
più	-11.6155
▁mutato	-11.6156
anda	-11.6157
aeroporto	-11.6158
ntes	-11.6158
inc	-11.6159
▁chris	-11.6159
▁dispensa	-11.6163
▁tesa	-11.6163
volta	-11.6163
▁busto	-11.6164
cine	-11.6165
▁lavoratore	-11.6166
▁guinea	-11.6167
▁diplomazia	-11.6168
▁comporre	-11.6168
▁messina	-11.6168
▁riconoscendo	-11.6168
▁nubi	-11.617
▁tilde	-11.617
▁vestita	-11.617
▁riconoscenza	-11.6172
▁obbligatorie	-11.6173
▁arresto	-11.6174
▁rendiamo	-11.6174
▁grafico	-11.6174
▁applicabili	-11.6175
▁brigata	-11.6177
▁morde	-11.6178
pao	-11.6182
▁attendono	-11.6184
▁preferenze	-11.6186
▁veicolo	-11.6186
▁conseguito	-11.6186
▁siviglia	-11.6186
▁prospero	-11.6187
▁stanchezza	-11.6187
ardi	-11.6189
▁utilizzano	-11.6191
▁raramente	-11.6192
▁tributo	-11.6192
▁mento	-11.6194
km	-11.6194
▁trovasi	-11.6196
pit	-11.6197
▁chiamavano	-11.6203
▁scintilla	-11.6205
▁biblioteche	-11.6206
▁tensioni	-11.6206
▁docenti	-11.6208
▁infiamma	-11.621
▁rap	-11.6211
▁parso	-11.6212
▁specificità	-11.6212
▁martiri	-11.6212
▁direbbe	-11.6213
▁offrendo	-11.6216
▁intensificare	-11.6218
ncio	-11.6218
▁incrementare	-11.6219
▁serviva	-11.6219
▁presentarsi	-11.6221
tudini	-11.6224
▁tunnel	-11.6225
▁curiosi	-11.6225
▁meccanica	-11.6226
▁rialza	-11.6226
▁climatico	-11.6227
▁favorevolmente	-11.6227
▁salito	-11.6228
▁spegne	-11.6229
▁legalità	-11.623
▁applicabile	-11.623
tero	-11.6231
▁chiami	-11.6234
▁seguiva	-11.6234
esclusione	-11.6235
▁sorse	-11.6237
scrive	-11.6238
▁pesi	-11.6239
▁rilassa	-11.624
dori	-11.6241
glielo	-11.6243
▁sostenendo	-11.6243
▁assicurarsi	-11.6244
ë	-11.6244
▁bartolomeo	-11.6244
▁sportive	-11.6244
▁bacino	-11.6244
▁tacque	-11.6245
▁arcivescovo	-11.6246
▁riparti	-11.6246
▁credevo	-11.6247
▁soddisfatta	-11.6248
cho	-11.6248
▁gialla	-11.6248
▁passaggi	-11.6248
▁infino	-11.6249
▁ricordati	-11.625
▁foglia	-11.6251
▁camp	-11.6252
▁caos	-11.6252
▁scri	-11.6253
▁out	-11.6254
▁secondaria	-11.626
▁valga	-11.6263
logico	-11.6263
▁irlandesi	-11.6264
▁unilaterale	-11.6264
▁complesse	-11.6265
▁bulgaria	-11.6266
▁cornice	-11.6266
▁aumenti	-11.6267
▁39	-11.627
▁pigli	-11.6271
▁43	-11.6271
cano	-11.6273
▁giudicato	-11.6273
▁mutamento	-11.6274
▁circondato	-11.6274
▁favola	-11.6274
▁rica	-11.6274
▁prevale	-11.6276
dì	-11.6277
▁articola	-11.6278
▁indicata	-11.6278
▁conformi	-11.6279
▁rimanente	-11.6281
▁risponda	-11.6283
▁divergenze	-11.6283
▁durevole	-11.6283
geri	-11.6289
▁autobus	-11.6289
▁stante	-11.6289
▁campane	-11.629
sis	-11.6291
▁mirabile	-11.6293
inflazione	-11.6293
vel	-11.6295
glione	-11.6298
psi	-11.6299
▁magia	-11.6299
aveva	-11.63
▁vigo	-11.6301
ccò	-11.6302
▁browser	-11.6302
▁licenze	-11.6302
▁contrada	-11.6303
▁orna	-11.6303
▁concorrenti	-11.6304
▁neuro	-11.6304
▁rischiano	-11.6306
▁viaggia	-11.6308
▁contrade	-11.6308
▁romeo	-11.6308
gato	-11.6311
▁affidata	-11.6315
▁inspira	-11.6315
orum	-11.6316
▁pani	-11.6318
▁correzione	-11.632
▁flaminio	-11.6322
▁israeliani	-11.6322
▁attribuita	-11.6322
▁comunali	-11.6322
▁inganno	-11.6323
lf	-11.6323
▁mora	-11.6324
▁tornano	-11.6325
▁formulata	-11.6327
▁giogo	-11.6328
▁versioni	-11.6328
cis	-11.6329
▁vaso	-11.6332
▁abbiam	-11.6332
▁ventre	-11.6333
▁beatu	-11.6333
▁lett	-11.6333
▁riuni	-11.6338
▁difensori	-11.6341
▁preziose	-11.6341
▁condiviso	-11.6341
▁sorprese	-11.6342
▁balcone	-11.6342
grafo	-11.6342
sei	-11.6343
▁37	-11.6345
▁blocca	-11.6347
▁interpretare	-11.6348
▁sentita	-11.635
▁topo	-11.6351
▁ponga	-11.6352
▁mostrarsi	-11.6353
▁prioritario	-11.6354
lda	-11.6355
▁ricon	-11.6356
▁riformare	-11.6357
age	-11.6357
▁cooperare	-11.6358
▁difendersi	-11.6358
▁intensa	-11.6359
▁bielorussia	-11.6361
dato	-11.6361
▁transazioni	-11.6361
▁medaglia	-11.6362
vò	-11.6363
▁conclusi	-11.6363
aro	-11.6364
archi	-11.6364
▁api	-11.6366
▁giunga	-11.637
▁colture	-11.6371
my	-11.6372
▁cagioni	-11.6377
▁posse	-11.6377
▁cremona	-11.6381
▁albanesi	-11.6381
▁anne	-11.6383
▁liberato	-11.6383
▁andai	-11.6384
▁mutare	-11.6388
▁mosche	-11.639
appello	-11.6391
▁autentica	-11.6392
▁violet	-11.6394
ning	-11.6395
ade	-11.64
▁♪	-11.64
▁perplessità	-11.6401
▁denominazione	-11.6401
▁black	-11.6402
▁95	-11.6402
▁aerea	-11.6404
▁sacrifica	-11.6404
▁ferrante	-11.6405
▁ripi	-11.641
▁infanzia	-11.6413
▁decima	-11.6415
▁puntare	-11.6417
▁diminui	-11.6417
▁chiederle	-11.6417
▁derivati	-11.6418
`	-11.642
▁ambiziosi	-11.642
▁liquido	-11.642
://	-11.642
▁offerti	-11.642
para	-11.642
sola	-11.6422
▁originaria	-11.6423
rve	-11.6424
este	-11.6424
▁casse	-11.6425
▁etichetta	-11.6426
▁fummo	-11.6427
let	-11.6427
zionali	-11.6427
▁osservando	-11.6429
▁fieri	-11.643
veri	-11.643
▁frazione	-11.643
▁funzionano	-11.6432
formi	-11.6433
▁sani	-11.6433
▁saccheggia	-11.6433
▁vigila	-11.6437
▁dogma	-11.6438
▁ratificato	-11.6439
▁competitiva	-11.644
▁discipline	-11.644
▁menzogna	-11.644
▁sufficienza	-11.644
▁imposti	-11.644
▁distrutti	-11.6441
▁viltà	-11.6441
gl	-11.6441
46	-11.6443
▁soffio	-11.6444
▁cali	-11.6447
▁prendete	-11.6451
▁cori	-11.6452
▁dotto	-11.6455
▁torta	-11.6457
▁auspicato	-11.6457
.1	-11.6458
vre	-11.6458
▁risalto	-11.646
▁fusse	-11.6465
▁magis	-11.6466
▁investitori	-11.6466
▁0.	-11.6467
sha	-11.6469
▁esserlo	-11.6469
▁quotidianamente	-11.6469
▁batteri	-11.6469
▁oli	-11.647
dè	-11.647
aia	-11.6472
▁apporta	-11.6472
stò	-11.6472
▁1989	-11.648
▁pig	-11.648
▁off	-11.6483
▁tranquilli	-11.6485
▁alli	-11.6486
▁sofferma	-11.6487
ologiche	-11.6489
ji	-11.649
▁acc	-11.6492
▁leale	-11.6493
▁incerto	-11.6494
▁misteri	-11.6497
▁doma	-11.6498
▁titolare	-11.6499
min	-11.65
▁gela	-11.65
▁compera	-11.65
▁vicinanza	-11.6503
▁compara	-11.6504
▁barbarie	-11.6505
niche	-11.6505
▁sacre	-11.6507
▁provengono	-11.651
▁espone	-11.6512
▁sospendere	-11.6514
▁gaza	-11.6515
▁parlarne	-11.6517
▁coincide	-11.6518
▁circuito	-11.6519
▁persuaso	-11.6519
▁raggiunta	-11.6519
▁combina	-11.652
▁vedevo	-11.652
▁pedante	-11.6523
▁analogamente	-11.6523
▁casta	-11.6524
▁buonarrot	-11.6526
▁instaurare	-11.6528
▁economicamente	-11.6533
▁certificato	-11.6535
▁sassi	-11.6536
▁quant	-11.6536
▁visibili	-11.6537
▁maniere	-11.6538
▁dichiarata	-11.6539
▁combustibili	-11.6539
▁parallelo	-11.6539
▁allorquando	-11.6539
▁posteriore	-11.6539
▁tata	-11.654
oratore	-11.654
▁correndo	-11.6541
▁rou	-11.6545
2.	-11.6547
▁pasquale	-11.6547
▁possedere	-11.6551
▁2001.	-11.6551
ds	-11.6553
mmer	-11.6555
▁ampi	-11.6558
perché	-11.6558
▁oppressi	-11.6558
▁antibiotici	-11.6559
▁parzialmente	-11.6559
▁persecuzioni	-11.6559
▁prerogative	-11.6559
▁sottopiede	-11.6559
▁quattrini	-11.6559
▁saprei	-11.6559
▁resterà	-11.6561
▁totalità	-11.6561
▁regi	-11.6561
▁esercitato	-11.6562
▁continueranno	-11.6562
▁docente	-11.6562
▁accerta	-11.6562
▁occidente	-11.6565
▁create	-11.6565
▁deliberazione	-11.6566
onere	-11.6569
▁orecchio	-11.6569
▁parentesi	-11.657
▁disciplinare	-11.6571
▁formati	-11.6571
▁gla	-11.6573
5/	-11.6574
▁attaccato	-11.6575
▁consoli	-11.6578
▁misto	-11.6579
▁israeliano	-11.6579
▁parea	-11.6579
ney	-11.6579
▁conservato	-11.658
▁millennio	-11.6582
▁usiamo	-11.6587
▁citata	-11.6587
uf	-11.6587
▁cave	-11.6588
cam	-11.6593
▁lomé	-11.6593
europe	-11.6593
▁sve	-11.6598
▁consueto	-11.6599
▁perpetuo	-11.6599
▁eccezionali	-11.6599
▁ricevuti	-11.6599
▁pregiudizio	-11.66
▁approfitta	-11.6602
▁lenti	-11.6605
porta	-11.6605
app	-11.6606
▁line	-11.6606
▁accadendo	-11.6608
▁giudiziarie	-11.6609
▁denunciare	-11.661
▁corridoio	-11.661
ggiò	-11.6612
▁spreca	-11.6616
▁250	-11.6617
▁legittimi	-11.6617
tque	-11.6618
▁trattenuto	-11.6619
▁lusinga	-11.6619
▁ecologico	-11.6619
▁postali	-11.662
uc	-11.662
▁fal	-11.662
▁buonaparte	-11.662
▁fuochi	-11.662
▁fallito	-11.6621
▁contribuirà	-11.6621
▁crollo	-11.6621
▁comprato	-11.6622
▁ted	-11.6623
▁eredità	-11.6624
▁tito	-11.6624
▁cattedrale	-11.6625
▁raduna	-11.6626
▁rif	-11.6628
▁combattenti	-11.6628
▁scaglia	-11.6629
▁negato	-11.6629
▁arrivando	-11.663
▁versante	-11.663
▁riparo	-11.663
▁incontrano	-11.663
▁devasta	-11.6631
▁ara	-11.6631
▁entri	-11.6633
gari	-11.6633
▁passar	-11.6636
▁prontamente	-11.6636
);	-11.6639
▁pistola	-11.6639
▁rispettivamente	-11.6639
▁introdotte	-11.6639
▁avventure	-11.6639
▁celesti	-11.6639
▁vitali	-11.664
▁mancò	-11.664
af	-11.6641
▁etica	-11.6646
▁pic	-11.6648
▁impor	-11.665
▁generato	-11.665
▁colleghe	-11.6651
▁moro	-11.6654
▁rifiutato	-11.6659
▁clausole	-11.6659
▁pistoia	-11.6659
▁sostenitori	-11.6659
▁silvia	-11.6659
▁pepe	-11.6659
nziale	-11.666
▁vettura	-11.666
▁avversario	-11.6664
▁ruppe	-11.6666
asso	-11.6673
▁canne	-11.6676
▁popola	-11.6677
▁deploro	-11.6679
▁svolti	-11.668
▁conosciuti	-11.668
▁curia	-11.6681
cuo	-11.6686
▁trattata	-11.6688
▁facto	-11.669
▁preventiva	-11.6694
ume	-11.6698
▁nesso	-11.67
▁conoscete	-11.67
▁percezione	-11.67
▁apprendere	-11.6703
▁tevere	-11.6704
▁eguale	-11.6705
▁cominciando	-11.6705
sus	-11.6707
▁senta	-11.6707
ec	-11.6708
edificio	-11.6711
▁sommi	-11.6711
▁stipendio	-11.6712
▁affonda	-11.6716
entra	-11.6717
▁sessuali	-11.6718
▁jugoslavia	-11.672
▁interiore	-11.672
▁diverti	-11.6723
▁rimborso	-11.673
inverno	-11.6731
▁informatica	-11.6732
▁ottone	-11.6734
▁cella	-11.6734
gnolo	-11.6734
▁nam	-11.6734
ggiato	-11.6736
▁esclusiva	-11.674
▁tronco	-11.674
▁introdotta	-11.674
▁congiunto	-11.674
▁intelligenti	-11.674
▁traduce	-11.674
▁gradualmente	-11.674
▁perugia	-11.674
▁passe	-11.6741
▁battesimo	-11.6741
▁incominciò	-11.6741
▁caratterizzata	-11.6742
▁troveremo	-11.6742
▁compila	-11.6742
▁perduti	-11.6742
▁particelle	-11.6743
▁quadra	-11.6743
▁adagio	-11.6744
▁agio	-11.6744
53	-11.6747
anza	-11.6748
▁pensai	-11.6749
▁migratori	-11.675
afghanistan	-11.6751
atura	-11.6752
▁gel	-11.6757
▁configura	-11.6757
stare	-11.6757
▁dimissioni	-11.6761
▁forniscono	-11.6762
▁slovacchia	-11.6762
▁tasche	-11.6763
'8	-11.6764
▁cavo	-11.6765
▁andremo	-11.6766
▁scorge	-11.6768
▁induce	-11.6768
▁ordinamento	-11.6772
▁diffonde	-11.6772
▁um	-11.6775
▁prussia	-11.6775
▁strati	-11.6779
▁consuetudine	-11.6781
▁offeso	-11.6781
▁analogo	-11.6781
▁artificiale	-11.6781
▁sfortunatamente	-11.6781
▁affermano	-11.6781
▁mercante	-11.6782
▁traditore	-11.6782
ult	-11.6783
▁psicologia	-11.6786
▁spu	-11.6786
▁distante	-11.6786
▁parcheggio	-11.6786
▁cotal	-11.6787
▁emozione	-11.6789
▁fru	-11.6791
54	-11.6792
oceano	-11.6793
▁sella	-11.6796
▁luisa	-11.6798
▁sam	-11.68
▁competizione	-11.6802
▁multilaterale	-11.6802
▁annulla	-11.6802
▁world	-11.6803
▁terze	-11.6804
▁garantendo	-11.6806
▁diletta	-11.6808
▁chimici	-11.681
out	-11.6811
albero	-11.6813
▁rotte	-11.6814
▁tralascia	-11.6815
▁ottimale	-11.6816
vennero	-11.6818
▁giustificata	-11.6819
▁licenzia	-11.6819
▁preserva	-11.6822
▁galèe	-11.6822
▁prospettiua	-11.6822
▁scampa	-11.6823
▁carichi	-11.6823
▁triangolo	-11.6823
▁pronunciato	-11.6825
▁soleva	-11.6825
▁ragionare	-11.6826
▁12,	-11.6827
▁variazioni	-11.6828
▁tazza	-11.6835
▁stime	-11.6835
▁devozione	-11.6836
▁eliminazione	-11.6838
▁costruita	-11.6839
▁ripetuto	-11.6843
▁intraprese	-11.6843
▁comporterebbe	-11.6843
▁vasti	-11.6843
▁smaltimento	-11.6844
▁round	-11.6845
▁torn	-11.6852
▁udir	-11.6858
▁duchi	-11.6861
▁cameriera	-11.6863
▁sostenuti	-11.6863
▁fisonomi	-11.6863
▁strepito	-11.6863
▁dublino	-11.6863
▁maschio	-11.6863
▁aderenti	-11.6863
▁trieste	-11.6864
▁aprì	-11.6864
▁riviste	-11.6864
▁eretici	-11.6866
▁trae	-11.6866
nfi	-11.6871
▁rovescio	-11.6872
▁genero	-11.6873
▁mac	-11.6874
▁time	-11.6875
ttato	-11.6876
▁pressi	-11.6881
▁muso	-11.6882
▁ista	-11.6883
▁entrarono	-11.6885
▁scarico	-11.6886
goli	-11.6891
▁rinunzia	-11.6896
▁esportazione	-11.69
▁orizzontale	-11.6904
▁toscani	-11.6904
scritto	-11.6905
▁ricrea	-11.6906
▁annovera	-11.6908
▁lievi	-11.6911
▁dedicati	-11.6913
▁progetta	-11.6916
islam	-11.6919
▁assalto	-11.6919
▁rubi	-11.6919
▁assicurazione	-11.6921
▁vana	-11.6921
▁accompagnare	-11.6922
vera	-11.6922
▁pellegrino	-11.6925
▁cibi	-11.6926
▁toscano	-11.6927
▁pianoforte	-11.6927
▁nominale	-11.6928
▁fossimo	-11.6929
▁chiesi	-11.6934
▁dormiva	-11.6936
▁omai	-11.6937
▁pun	-11.6942
▁facciata	-11.6944
▁tiri	-11.6946
▁preveda	-11.6946
▁cognizione	-11.6946
▁condivisa	-11.6946
▁esorto	-11.6947
▁indifferenza	-11.6948
▁peggiora	-11.6949
▁cangia	-11.6949
▁trattamenti	-11.6949
▁tormenti	-11.6951
▁proponendo	-11.6951
▁scontri	-11.6951
▁massimamente	-11.6951
▁tunisi	-11.6952
▁affidamento	-11.6953
▁elimina	-11.6957
improvviso	-11.6957
47	-11.6958
▁avanzati	-11.6962
aggio	-11.6963
▁attraversando	-11.6964
▁piaga	-11.6965
▁clandestini	-11.6967
▁mantello	-11.6967
▁sanitarie	-11.6968
▁acuto	-11.6969
▁troia	-11.697
▁urta	-11.6972
ione	-11.6972
▁cosà	-11.6972
▁finiscono	-11.6973
▁ridur	-11.6974
▁aumentando	-11.6975
▁elettricità	-11.6975
▁calza	-11.6977
autonomia	-11.6978
▁servigi	-11.698
▁sma	-11.6981
▁nullo	-11.6982
▁causati	-11.6983
▁dolcemente	-11.6983
▁sanzione	-11.6983
▁lavorazione	-11.6984
▁bevande	-11.6987
▁soccorsi	-11.6987
▁autonomo	-11.6988
▁dovresti	-11.6988
▁loris	-11.6988
▁volea	-11.6991
▁ul	-11.6992
▁scaturi	-11.6992
▁situato	-11.6995
▁annunci	-11.6996
▁salì	-11.6997
▁varii	-11.7
▁vinse	-11.7002
▁amaro	-11.7005
▁scritt	-11.7005
rsa	-11.7006
▁viale	-11.7006
▁colgo	-11.7007
1,	-11.7008
▁trascorsi	-11.7008
▁valoroso	-11.7008
▁accetto	-11.7009
▁ammessi	-11.7009
▁pubblicate	-11.7009
▁manuale	-11.7009
▁aggrega	-11.701
▁stupida	-11.7011
▁anticipa	-11.7012
▁similmente	-11.7012
▁trasportare	-11.7013
▁cercate	-11.7014
▁attaccare	-11.7016
▁muto	-11.7021
▁ovest	-11.7021
▁deliberato	-11.7022
fici	-11.7025
▁insinua	-11.7027
▁borghese	-11.7029
▁johannesburg	-11.7029
▁proseguì	-11.7029
▁introdotti	-11.7029
▁maglia	-11.703
esti	-11.703
▁capponi	-11.703
▁cottura	-11.7031
▁stabilizzazione	-11.7034
▁gil	-11.7034
▁superiorità	-11.7036
▁insistito	-11.7039
▁ispirazione	-11.7039
5%	-11.7041
▁conteneva	-11.7041
▁adoperarsi	-11.7043
ille	-11.7048
▁sen	-11.7048
▁assoggetta	-11.705
▁cameriere	-11.705
▁ravenswood	-11.705
▁rivolse	-11.705
▁radicalmente	-11.705
▁odierno	-11.7052
▁ladri	-11.7053
▁arriviamo	-11.7054
▁sollecito	-11.7054
▁decreta	-11.7054
▁aperse	-11.7055
▁goccia	-11.7055
▁corna	-11.7056
▁consegnato	-11.706
rpi	-11.7061
▁tematica	-11.7062
▁tradito	-11.7062
▁quarant	-11.7068
▁martirio	-11.7068
▁stende	-11.7069
▁sec	-11.7069
▁incarna	-11.707
▁superfluo	-11.7071
▁gentiluomini	-11.7071
▁ricevute	-11.7071
▁ostacola	-11.7071
▁pių	-11.7071
presso	-11.7071
▁interrompere	-11.7072
▁nomine	-11.7072
▁sincerità	-11.7073
44	-11.7073
▁$	-11.7074
▁decoro	-11.7076
▁turisti	-11.708
▁cale	-11.7082
tela	-11.7084
▁600	-11.7086
▁zan	-11.7087
▁fucile	-11.7092
▁indotto	-11.7094
▁granduca	-11.7095
▁box	-11.7095
▁cuci	-11.7095
▁cav	-11.7097
▁reggia	-11.71
▁orientali	-11.71
▁cime	-11.71
vere	-11.71
antica	-11.71
▁ferme	-11.7102
▁generare	-11.7102
▁dissimula	-11.7105
▁proceda	-11.7106
▁ricevette	-11.7107
lon	-11.7108
▁sy	-11.7109
▁cicli	-11.7109
volmente	-11.7109
▁inserita	-11.7109
▁soglio	-11.7112
time	-11.7113
▁clinica	-11.7114
▁bovini	-11.7115
corre	-11.7116
▁immunità	-11.7122
▁prolunga	-11.7122
▁fondamenta	-11.7124
▁corrispondenti	-11.7125
▁paure	-11.7125
▁propongono	-11.7126
▁cellula	-11.7129
mera	-11.7129
iii	-11.7132
52	-11.7134
▁retribuzione	-11.7135
▁alunni	-11.7135
▁suddetta	-11.7135
▁abi	-11.7137
▁hic	-11.7137
▁ostante	-11.7138
▁abbigliamento	-11.7138
▁integrale	-11.7141
▁reputazione	-11.7142
▁facce	-11.7144
▁indugio	-11.7145
▁vili	-11.7147
▁scopre	-11.7149
▁apprezzare	-11.7149
▁persuadere	-11.7151
▁darvi	-11.7152
▁michelagnio	-11.7154
▁rimuovere	-11.7154
▁presentava	-11.7155
▁uscite	-11.7155
▁epizootica	-11.7156
▁conclusa	-11.7156
▁inaccettabili	-11.7156
▁basterebbe	-11.7156
▁celebrare	-11.7156
▁catania	-11.7156
▁oltrepassa	-11.7157
▁nascono	-11.7158
▁fisici	-11.7161
accio	-11.7163
omi	-11.7163
▁remo	-11.7164
▁facendosi	-11.7168
▁intermedia	-11.7168
▁sembravano	-11.7169
vene	-11.7172
ucce	-11.7174
▁capitan	-11.7174
▁immagino	-11.7174
▁supporta	-11.7176
▁opportune	-11.7177
▁invisibile	-11.7177
▁universali	-11.7177
▁nissun	-11.7178
▁stipula	-11.7178
▁comitatologia	-11.7178
atore	-11.718
▁ediz	-11.718
)).	-11.7181
▁scalda	-11.7181
▁onorato	-11.7181
▁addita	-11.7182
▁intervista	-11.7183
▁ringraziamo	-11.7184
..."	-11.7187
▁premesse	-11.7187
▁shi	-11.7188
▁dispiacere	-11.7189
▁corsica	-11.7189
nas	-11.7196
▁sostenute	-11.7198
▁supplementare	-11.7198
▁sportivi	-11.7198
▁misterioso	-11.7198
▁operativi	-11.72
▁pastori	-11.7201
▁consultato	-11.7203
▁dipoi	-11.7203
▁eleganti	-11.7205
▁opportunamente	-11.7205
▁sperimenta	-11.7206
▁iscrizione	-11.7208
▁individua	-11.721
fin	-11.7211
▁mediazione	-11.7215
▁fasce	-11.7217
ultraperiferiche	-11.722
▁impressioni	-11.722
▁lentezza	-11.722
▁trasferimenti	-11.7221
▁rivelarsi	-11.7222
ang	-11.7223
▁imperatori	-11.7224
▁preadesione	-11.7225
▁bugia	-11.7226
ring	-11.7226
gina	-11.7227
▁ton	-11.7228
▁trattasse	-11.723
▁1000	-11.7231
▁scontato	-11.7233
ou	-11.7235
▁dan	-11.7237
▁finanziato	-11.7241
▁respinta	-11.7241
▁dammi	-11.7241
▁esci	-11.7241
▁letizia	-11.7242
▁caduti	-11.7242
▁stupido	-11.7243
▁ironia	-11.7244
▁uscir	-11.7244
▁war	-11.7244
▁colmare	-11.7245
▁paterna	-11.7246
▁corpora	-11.7249
▁repubblicana	-11.7252
pio	-11.7253
▁sollevate	-11.7257
▁bancario	-11.7259
rita	-11.726
ä	-11.7262
▁legislatore	-11.7262
▁guadagni	-11.7262
▁partigiani	-11.7264
▁laonde	-11.7265
pidi	-11.7266
▁gin	-11.7266
▁necessit	-11.7267
▁avverte	-11.7271
ctus	-11.7276
▁affrontata	-11.728
ía	-11.7283
llato	-11.7287
▁delega	-11.7289
▁facevo	-11.7289
▁inoltra	-11.729
▁esclusivo	-11.729
▁prenderà	-11.7291
▁magno	-11.7292
▁duecento	-11.7293
▁melo	-11.7293
▁bob	-11.7294
▁maniche	-11.7295
▁fig	-11.7297
▁appresta	-11.7298
celle	-11.7298
▁creatore	-11.7299
vers	-11.7299
lum	-11.7302
▁irre	-11.7302
▁sparti	-11.7303
▁dotati	-11.7305
▁galileo	-11.7305
▁podestà	-11.7305
▁ristretto	-11.7305
▁bottiglie	-11.7305
▁associo	-11.7306
▁celebri	-11.7306
▁drammatico	-11.7307
▁disarma	-11.7307
▁manager	-11.7307
▁diventò	-11.7308
cl	-11.731
▁possede	-11.7312
▁sunt	-11.7312
▁scuro	-11.7313
▁scarse	-11.7313
▁avvertire	-11.7315
▁georgia	-11.7317
gestione	-11.7318
▁recò	-11.732
▁salvato	-11.732
▁cinquant	-11.7321
▁spacca	-11.7321
▁brand	-11.7324
▁berta	-11.7324
▁xxiii	-11.7326
scie	-11.7326
aci	-11.7326
▁rigido	-11.7327
▁potenzialmente	-11.7327
▁stivali	-11.7327
▁osservò	-11.7328
▁serpente	-11.7329
▁contesta	-11.7329
ulo	-11.733
▁variabile	-11.7332
▁comporti	-11.7334
zj	-11.7335
avano	-11.7335
▁variazione	-11.7336
fiche	-11.7337
▁ripeteva	-11.7341
▁quattrocento	-11.7342
▁suscitare	-11.7342
belli	-11.7343
▁incrocia	-11.7344
▁flo	-11.7344
▁segrete	-11.7346
▁guardano	-11.7348
▁mogli	-11.7348
▁marittimi	-11.7348
▁disturbi	-11.7348
▁ingiuria	-11.7348
▁vettori	-11.7348
▁confido	-11.7349
▁incorpora	-11.7349
▁cambiata	-11.735
▁trema	-11.735
▁favorito	-11.7351
▁spaziale	-11.7353
▁avevi	-11.7355
▁ku	-11.7357
▁sollevati	-11.7358
▁xxii	-11.7359
▁part	-11.736
▁sacrifici	-11.7361
▁omar	-11.7362
▁spunti	-11.7362
▁fabio	-11.7363
▁delegato	-11.7365
media	-11.7369
▁mondi	-11.737
▁misteriosa	-11.737
▁riferiscono	-11.7371
▁biondo	-11.7373
▁affascinante	-11.7373
stante	-11.7375
berg	-11.7379
▁fiesc	-11.738
▁tout	-11.738
▁spostare	-11.7383
▁5.	-11.7384
▁duramente	-11.7384
▁discordia	-11.7385
▁ricordano	-11.7385
gere	-11.7389
▁mormora	-11.739
▁cristalli	-11.739
▁azzurri	-11.7392
▁posteriori	-11.7392
gata	-11.7392
▁solennità	-11.7394
▁rinnovato	-11.7395
resti	-11.7396
▁esperimento	-11.7397
▁soffrono	-11.7398
▁porgere	-11.7399
▁elenca	-11.7399
▁rilasciato	-11.7402
▁rivelazione	-11.7406
▁avventa	-11.7408
▁grati	-11.741
▁47	-11.7413
▁piacque	-11.7414
▁vorranno	-11.7416
▁abitudine	-11.7418
▁udiva	-11.7419
▁terroristici	-11.742
▁vocazione	-11.742
▁solidale	-11.7423
entità	-11.7424
nari	-11.7425
vu	-11.7427
▁alter	-11.7428
invito	-11.743
▁liquida	-11.7432
cale	-11.7434
▁emergere	-11.7434
▁sangiorgio	-11.7435
▁teatrale	-11.7435
▁alessandria	-11.7436
▁parleremo	-11.7436
▁mastica	-11.7437
▁valenti	-11.7437
▁quetto	-11.7439
▁meditazione	-11.7441
▁fotografie	-11.7441
umque	-11.7442
▁ricomincia	-11.7445
▁proibi	-11.7445
▁appetito	-11.7445
▁reggere	-11.7446
▁pelli	-11.7448
andamento	-11.7449
▁avvertito	-11.7449
▁raccolse	-11.745
▁picco	-11.7453
▁valutato	-11.7456
▁beati	-11.7456
▁bonaventura	-11.7457
▁risarcimento	-11.7457
▁sportivo	-11.7457
▁difeso	-11.7458
▁anticipare	-11.7458
▁cofinanziamento	-11.7458
▁prometto	-11.7458
▁interessata	-11.746
▁scaricare	-11.7461
▁avevan	-11.7463
insegna	-11.7464
▁assunzione	-11.7465
▁restando	-11.7465
▁valorizzazione	-11.7467
▁pretesa	-11.7471
▁tai	-11.7471
▁tragica	-11.7474
▁compatibili	-11.7478
▁ricade	-11.7479
▁coalizione	-11.7479
rus	-11.7483
▁allinea	-11.7484
ssimamente	-11.7488
detto	-11.7489
cida	-11.7494
▁studiosi	-11.7496
▁nodi	-11.7497
▁fortezze	-11.7497
▁faenza	-11.7499
▁riflessi	-11.75
▁bicicletta	-11.7501
▁venduto	-11.7501
pper	-11.7501
▁acquisito	-11.7501
▁baltico	-11.7503
▁lavorativa	-11.7503
▁inquadra	-11.7504
▁impiegare	-11.7506
▁allarme	-11.7506
▁ster	-11.7507
▁rodi	-11.7507
▁solite	-11.7508
▁mc	-11.7508
▁termo	-11.7509
▁impugna	-11.7513
▁primario	-11.7516
▁insisto	-11.7517
▁tipico	-11.7518
▁diventava	-11.752
▁angelica	-11.7521
▁riflesso	-11.7523
▁libretto	-11.7523
▁moderazione	-11.7525
▁lontananza	-11.7527
arca	-11.7529
▁importantissimo	-11.7531
▁altrettanti	-11.7532
▁gliel	-11.7533
▁ph	-11.7533
▁fissazione	-11.7535
▁consentendo	-11.754
▁verifiche	-11.7542
▁dimostrazioni	-11.7543
posta	-11.7543
▁attuate	-11.7543
▁mantenuta	-11.7545
▁monferrato	-11.7545
▁sollievo	-11.7545
▁sporge	-11.7545
▁incomprensibile	-11.7546
▁insulta	-11.7546
ren	-11.7546
▁prelati	-11.7546
▁magna	-11.7547
berto	-11.7547
▁definizioni	-11.7548
▁comunione	-11.7549
strada	-11.7549
▁insegnamenti	-11.7551
▁controversia	-11.7551
▁qualcun	-11.7553
▁verificarsi	-11.7556
▁sultano	-11.7557
▁scatta	-11.7558
1999	-11.7558
▁sospira	-11.756
dí	-11.7562
▁istor	-11.7565
▁qualsivoglia	-11.7567
▁sciopero	-11.7567
▁coerenti	-11.7567
▁feconda	-11.7567
▁pellegrini	-11.7567
venir	-11.7568
▁invitiamo	-11.7568
▁carrara	-11.7569
▁paghe	-11.7569
▁ridusse	-11.7569
▁climatici	-11.7569
▁cli	-11.757
ú	-11.757
▁letterati	-11.7572
▁fiere	-11.7572
▁penne	-11.7572
▁finanzia	-11.7573
▁restituzione	-11.7573
gas	-11.7575
▁plan	-11.7579
▁oste	-11.7585
▁teologia	-11.7585
▁statistica	-11.7586
▁separato	-11.7588
▁nascosta	-11.7588
▁morir	-11.7588
▁detenzione	-11.7589
▁uscendo	-11.7589
▁infermiere	-11.759
▁trattate	-11.7593
▁capitato	-11.7595
pr	-11.7597
sv	-11.7598
▁convenuto	-11.7598
▁adeguare	-11.7599
fond	-11.7599
▁redigere	-11.7601
▁daniel	-11.7602
▁dole	-11.7604
▁dirgli	-11.7605
▁coltiva	-11.7605
▁unisce	-11.7609
soli	-11.7609
▁alimentazione	-11.761
▁convivenza	-11.7611
▁gazzetta	-11.7611
▁mezzanotte	-11.7611
▁riconobbe	-11.7612
▁prodotte	-11.7612
▁societa	-11.7613
aba	-11.7613
▁onestà	-11.7614
▁spesse	-11.7614
ngue	-11.7614
gor	-11.7615
▁germani	-11.7616
▁rinnovamento	-11.7617
▁raccomandato	-11.7617
riche	-11.762
▁inaugura	-11.7628
▁darci	-11.7629
▁beato	-11.7629
gon	-11.7631
▁tuono	-11.7634
vale	-11.7634
▁pittori	-11.7635
▁dittatore	-11.7635
▁talenti	-11.7637
vita	-11.7637
▁riscaldamento	-11.7637
ig	-11.764
▁iniziata	-11.7641
llò	-11.7642
▁sciagura	-11.7644
▁gita	-11.7644
▁macchie	-11.7644
atti	-11.7645
▁penta	-11.7645
▁agente	-11.7647
bert	-11.7647
▁esercitata	-11.7648
▁gridava	-11.7649
▁addormenta	-11.7649
▁autonoma	-11.765
▁soverchia	-11.7652
▁migliorato	-11.7653
▁attuato	-11.7653
▁scrupolo	-11.7653
▁interpreti	-11.7656
▁ricetta	-11.7656
▁banconote	-11.7656
▁opprime	-11.7656
▁automatico	-11.7656
▁volevamo	-11.7656
▁terrestre	-11.7658
▁piaccia	-11.7658
▁parallelamente	-11.7658
▁rispondono	-11.7659
▁eccetto	-11.7659
▁gliela	-11.766
▁umilia	-11.7662
▁istituisce	-11.7665
▁fissata	-11.7666
▁master	-11.7668
▁stavamo	-11.7669
▁stanchi	-11.7669
▁interessano	-11.767
▁ingannato	-11.7672
▁curiosa	-11.7673
▁numerosa	-11.7674
▁ist	-11.7674
▁assicuro	-11.7678
▁democrazie	-11.7678
▁margherita	-11.7678
▁cambogia	-11.7678
▁invecchia	-11.7679
▁ispezioni	-11.7679
▁messere	-11.7681
▁autorizzato	-11.7681
▁sudore	-11.7681
▁privatizzazione	-11.7682
▁garantisca	-11.7682
nter	-11.7683
▁fes	-11.7685
verse	-11.7686
▁canoni	-11.7686
▁vietato	-11.7687
▁parrebbe	-11.7689
▁promise	-11.769
▁tibi	-11.769
▁avvili	-11.7691
▁nar	-11.7692
▁parecchio	-11.7693
▁ritornato	-11.7693
▁versare	-11.7694
▁ori	-11.7694
▁mediterranea	-11.7701
▁formule	-11.7701
▁riteneva	-11.7701
▁scoraggia	-11.7701
▁moltissime	-11.7703
mati	-11.7705
▁punizione	-11.7706
▁rafforzato	-11.7707
▁arrivarono	-11.7708
▁mamme	-11.7709
▁gianni	-11.7711
sser	-11.7712
▁apprendimento	-11.7712
▁ascoltando	-11.7713
operato	-11.7713
▁grafica	-11.7714
alter	-11.7717
▁colpita	-11.7719
▁esecutiva	-11.7723
▁esplicito	-11.7723
▁produttivo	-11.7723
2,	-11.7723
▁scelti	-11.7723
▁valgono	-11.7724
▁declina	-11.7724
▁sopprimere	-11.7724
▁miserabile	-11.7725
▁mihi	-11.7726
▁centra	-11.7727
▁abitazioni	-11.7727
▁allegro	-11.7727
▁arbitrio	-11.7729
▁intreccia	-11.7729
gramma	-11.7731
▁sorrideva	-11.7731
▁1997.	-11.7735
reste	-11.7736
▁flu	-11.7737
irono	-11.774
▁fel	-11.774
▁esplicita	-11.7741
▁comunemente	-11.7742
▁rubare	-11.7742
fan	-11.7744
▁cotanto	-11.7745
▁bambine	-11.7745
▁cittadine	-11.7745
▁sequenza	-11.7745
▁diocesi	-11.7745
▁sbarra	-11.7746
nina	-11.7746
▁comprenda	-11.7746
▁secchi	-11.7747
▁legalmente	-11.7747
dente	-11.7747
▁spento	-11.7748
▁gratuitamente	-11.7751
▁vaglia	-11.7752
dam	-11.7752
▁grand	-11.7753
▁allevamento	-11.7753
▁pria	-11.7753
uolo	-11.7753
▁gene	-11.7754
▁incita	-11.7754
lor	-11.7755
▁1-	-11.7755
▁michel	-11.7757
▁batteva	-11.7757
▁modella	-11.7758
ys	-11.7761
▁verun	-11.7762
messi	-11.7762
▁cc	-11.7764
attesa	-11.7768
▁malinconia	-11.7768
▁vetta	-11.7769
▁contorni	-11.7771
ggiava	-11.7771
cole	-11.7772
▁sottrarsi	-11.7772
▁distacca	-11.7772
▁dovessi	-11.7773
▁apparisce	-11.7775
▁bevi	-11.778
inclusione	-11.7781
▁simoni	-11.7782
▁documenta	-11.7783
▁teso	-11.7787
▁brok	-11.7789
▁cresciuta	-11.779
▁facebook	-11.7791
▁dum	-11.7792
▁approfittare	-11.7793
lam	-11.7794
▁cappelli	-11.78
▁confusa	-11.7802
▁52	-11.7803
▁festeggia	-11.7804
▁abbonda	-11.7804
▁indirizza	-11.7804
▁tornati	-11.7805
indicazione	-11.7806
▁180	-11.7808
ciò	-11.7809
venisse	-11.7811
▁accompagnati	-11.7811
▁bestemmia	-11.7813
▁performance	-11.7813
▁ristabilire	-11.7813
zzano	-11.7814
▁ostilità	-11.7814
▁cai	-11.7814
▁finanza	-11.7815
▁propose	-11.7816
▁cercar	-11.7817
▁saggia	-11.7817
ttino	-11.7817
▁46	-11.7818
▁tè	-11.7819
▁qualifiche	-11.782
▁volgo	-11.7821
▁ordinata	-11.7823
▁stanziati	-11.7824
indirizzo	-11.7827
tissima	-11.7827
▁punire	-11.7828
▁stili	-11.7828
dati	-11.7829
▁amplia	-11.7829
▁unirsi	-11.7829
▁mele	-11.783
aids	-11.7831
tario	-11.7833
▁concerta	-11.7833
dum	-11.7834
▁testimonia	-11.7834
▁scomunica	-11.7835
▁analoghe	-11.7836
▁avvolge	-11.7836
▁cerimonie	-11.7836
▁troverai	-11.7836
▁esemplari	-11.7836
▁audace	-11.7836
▁leopardi	-11.7836
▁ernesto	-11.7836
mena	-11.7837
▁specialisti	-11.7839
▁fulmine	-11.784
▁discendenti	-11.7841
mene	-11.7844
▁andrò	-11.7845
▁arrampica	-11.7845
▁zitto	-11.7847
▁andrebbero	-11.7847
▁saldo	-11.7848
effettiva	-11.7849
▁idro	-11.7856
▁atterra	-11.7856
ov	-11.7858
porto	-11.7858
▁inammissibile	-11.7859
▁inclusa	-11.7859
▁suppongo	-11.7859
▁cannone	-11.7859
▁parlate	-11.7859
▁prosegui	-11.7861
▁divise	-11.7861
▁sezioni	-11.7864
▁41	-11.7865
▁approvvigiona	-11.7866
luc	-11.7868
▁palesa	-11.7869
▁intro	-11.787
▁avean	-11.7873
▁erede	-11.7874
▁progredi	-11.7875
▁sap	-11.7879
▁flessibili	-11.7879
65	-11.7881
cch	-11.7881
▁efficienti	-11.7881
▁corregge	-11.7882
▁spiagge	-11.7882
crimina	-11.7883
▁guasto	-11.7883
▁larghezza	-11.7883
▁priore	-11.7888
▁sparta	-11.7892
▁abituati	-11.7892
kin	-11.7894
▁proviamo	-11.7894
▁pazzia	-11.7896
los	-11.7897
-19	-11.7898
▁mecca	-11.7898
▁attendo	-11.7899
▁esatta	-11.7904
▁napoletani	-11.7904
▁direttrici	-11.7904
▁guerriero	-11.7904
▁trovino	-11.7905
56	-11.7906
▁correvano	-11.7908
▁paesaggi	-11.7911
▁leggeva	-11.7915
cet	-11.7916
98	-11.7918
▁muli	-11.7918
▁menzionare	-11.7919
▁tipici	-11.7921
▁suppone	-11.7921
▁nos	-11.7922
▁stimato	-11.7922
▁solennemente	-11.7922
llus	-11.7923
▁vulnerabili	-11.7925
▁giunte	-11.7927
▁analoghi	-11.7927
▁acciocchè	-11.7927
▁smantellamento	-11.7928
▁blocchi	-11.7928
▁mentalità	-11.7928
▁metterlo	-11.7928
▁arrestare	-11.793
▁aprendo	-11.793
▁sfi	-11.793
▁organizzati	-11.7931
▁roero	-11.7932
?!	-11.7932
▁pulito	-11.7937
▁gettato	-11.7937
▁emissione	-11.7938
▁paris	-11.794
▁incentivare	-11.794
intento	-11.7941
▁drago	-11.7944
▁gratuita	-11.7944
▁auspicio	-11.7946
▁consentirebbe	-11.7947
▁proto	-11.7949
▁mos	-11.795
▁occulta	-11.795
▁oltremodo	-11.795
▁contenenti	-11.795
▁riprova	-11.7951
bet	-11.7951
▁vincola	-11.7954
ice	-11.7955
qu	-11.7955
▁consegnare	-11.7956
▁proverbio	-11.7958
▁discorrere	-11.7959
▁propaga	-11.7959
▁assimila	-11.7962
▁imperocch	-11.7963
▁trovasse	-11.7963
bru	-11.7964
▁commesse	-11.7964
▁tentando	-11.7965
▁temporali	-11.7966
▁inviati	-11.7967
▁calcolare	-11.7968
▁morton	-11.7969
▁algeria	-11.7972
▁cecilia	-11.7973
▁liikanen	-11.7973
▁valorosi	-11.7973
▁figuri	-11.7973
▁professioni	-11.7974
▁novanta	-11.7974
▁molla	-11.7975
▁audio	-11.7977
▁attraversare	-11.7978
▁giaco	-11.798
▁assicurazioni	-11.798
▁laghi	-11.7985
▁120	-11.7986
mal	-11.7988
▁osservatorio	-11.7989
▁editori	-11.799
▁pronte	-11.7991
▁facci	-11.7993
▁perfeziona	-11.7995
▁volessero	-11.7995
▁preparata	-11.7996
▁machiavelli	-11.7996
▁domestica	-11.7996
▁accampa	-11.7996
▁anton	-11.7996
▁complimentarmi	-11.7997
▁sottoposte	-11.7999
▁immortale	-11.8
▁sollecitare	-11.8001
▁duratura	-11.8002
gru	-11.8002
▁bellezze	-11.8002
▁migliorata	-11.8003
68	-11.8005
▁albania	-11.8005
▁stringendo	-11.8005
▁comparto	-11.8006
▁bicchieri	-11.8008
▁lassa	-11.801
▁scusate	-11.8017
▁stupenda	-11.8019
▁riconosciamo	-11.802
▁carrello	-11.802
▁atteggiamenti	-11.802
▁stringa	-11.802
▁impazienza	-11.8021
▁tornerà	-11.8021
▁riputazione	-11.8024
▁affermava	-11.8024
osce	-11.8025
▁contrarie	-11.8026
▁concordiamo	-11.8027
fino	-11.8027
dimento	-11.8027
▁reno	-11.8029
uff	-11.8031
▁bill	-11.8036
▁ripetersi	-11.8037
▁yo	-11.8039
▁domin	-11.8039
lui	-11.8041
▁bonifazio	-11.8042
▁denunce	-11.8042
▁interlocutori	-11.8042
[...]
