<unk>	0
<s>	0
</s>	0
▁di	-3.4554
,	-3.54424
▁e	-3.67774
.	-3.79181
▁che	-3.95476
▁la	-4.01889
▁il	-4.13772
▁in	-4.27861
▁a	-4.33259
'	-4.40389
▁per	-4.4852
▁un	-4.59168
▁non	-4.64214
▁è	-4.78552
▁del	-4.83737
▁le	-4.87087
▁i	-4.87769
▁si	-4.9808
▁della	-5.01051
▁l	-5.02002
▁una	-5.06517
▁con	-5.18624
▁da	-5.36839
▁al	-5.46432
▁ma	-5.53905
▁dei	-5.5573
▁più	-5.61487
’	-5.6226
▁gli	-5.68086
▁come	-5.69963
▁sono	-5.70017
▁nel	-5.74766
▁alla	-5.75947
▁delle	-5.77544
▁questo	-5.78975
▁dell	-5.79231
▁se	-5.87164
▁ha	-5.92308
▁o	-6.01391
▁lo	-6.03242
:	-6.03505
▁anche	-6.07973
re	-6.09681
▁ed	-6.17728
▁mi	-6.22423
▁ad	-6.22956
no	-6.24369
▁nella	-6.27046
▁questa	-6.32667
to	-6.35518
▁ci	-6.37145
▁era	-6.37946
▁cui	-6.4085
▁essere	-6.40894
▁dal	-6.42903
▁loro	-6.43189
ta	-6.4424
▁commissione	-6.47515
te	-6.49338
ti	-6.49393
▁all	-6.50161
▁sua	-6.51032
▁tutti	-6.54499
▁suo	-6.54705
i	-6.57621
▁-	-6.57665
va	-6.58307
▁ai	-6.58758
▁(	-6.58887
▁alle	-6.62355
▁degli	-6.63618
▁su	-6.63628
?	-6.66074
▁europea	-6.67317
▁tra	-6.67708
▁stato	-6.68974
▁.	-6.69111
▁sia	-6.71147
▁stati	-6.71781
a	-6.72395
▁presidente	-6.74076
▁dalla	-6.7716
▁ne	-6.77533
▁vi	-6.78094
e	-6.78678
▁tutto	-6.79556
▁io	-6.80034
▁così	-6.81457
▁ho	-6.81936
▁parte	-6.81961
o	-6.81986
▁due	-6.82097
▁d	-6.82423
▁quando	-6.82513
▁sul	-6.82937
▁de	-6.84094
▁quanto	-6.85211
)	-6.85813
unione	-6.8618
▁fatto	-6.87845
r	-6.87863
s	-6.88261
▁solo	-6.88814
▁molto	-6.89322
▁hanno	-6.89763
▁sulla	-6.90201
▁"	-6.92054
ndo	-6.9216
▁prima	-6.92227
▁signor	-6.9227
;	-6.97435
▁senza	-6.9787
▁modo	-6.97977
▁cosa	-6.99262
▁ancora	-6.99656
▁parlamento	-7.02245
▁quella	-7.02274
▁ogni	-7.03158
▁quale	-7.05137
▁abbiamo	-7.05534
▁poi	-7.05678
▁fu	-7.0653
▁uno	-7.07691
▁può	-7.08147
▁perché	-7.08383
▁mio	-7.09254
▁sempre	-7.10402
▁noi	-7.105
▁altri	-7.10921
▁ciò	-7.10956
▁consiglio	-7.12357
▁tempo	-7.12475
▁relazione	-7.1354
▁questi	-7.14431
▁già	-7.14913
▁dopo	-7.15517
▁nei	-7.15992
▁nell	-7.17302
▁fare	-7.18461
▁quello	-7.18467
▁anni	-7.18672
▁aveva	-7.19176
▁c	-7.19462
▁ora	-7.19992
▁fa	-7.21608
▁*	-7.22798
▁me	-7.2354
▁nelle	-7.23754
▁paesi	-7.23837
-	-7.24297
▁politica	-7.24947
▁quel	-7.25262
▁membri	-7.26404
▁quindi	-7.26782
si	-7.26996
▁europeo	-7.27593
▁egli	-7.29097
▁lavoro	-7.30128
▁tale	-7.30226
▁vita	-7.31127
▁chi	-7.31823
▁quali	-7.32513
▁	-7.33989
rsi	-7.35151
▁qui	-7.35527
▁suoi	-7.37222
vano	-7.38938
▁lui	-7.39212
ni	-7.39985
▁tutte	-7.40215
▁fra	-7.4024
▁deve	-7.40391
▁contro	-7.40555
▁mia	-7.40952
!	-7.4175
▁re	-7.42409
▁volta	-7.45434
ne	-7.4545
sse	-7.46217
▁queste	-7.47973
▁dove	-7.48528
le	-7.48833
▁mai	-7.4904
▁perchè	-7.49055
▁nostro	-7.50382
▁dall	-7.51093
▁altro	-7.52846
▁punto	-7.52905
▁grande	-7.53257
▁proprio	-7.53547
▁oggi	-7.5444
▁mondo	-7.54459
mente	-7.54789
▁secondo	-7.54963
▁lei	-7.55255
▁dobbiamo	-7.56675
▁stesso	-7.5714
▁ti	-7.58699
▁nostra	-7.59317
▁bene	-7.59452
▁primo	-7.59459
n	-7.59665
▁sotto	-7.60082
▁sarà	-7.61132
▁fine	-7.61258
ri	-7.61389
▁giorno	-7.61525
▁tanto	-7.61873
na	-7.61976
è	-7.62175
▁qualche	-7.62353
▁col	-7.62476
▁stata	-7.63433
▁dire	-7.6345
▁siamo	-7.63694
▁diritti	-7.64217
▁agli	-7.64316
li	-7.64373
▁dai	-7.64493
ro	-7.65033
▁tre	-7.66139
▁li	-7.66172
▁vorrei	-7.67157
nte	-7.67342
▁alcuni	-7.67604
▁caso	-7.68354
▁allora	-7.68667
▁paese	-7.69091
▁tu	-7.69132
▁erano	-7.69517
▁sta	-7.69897
▁sue	-7.70067
▁via	-7.70136
▁importante	-7.70227
▁dalle	-7.71587
▁persone	-7.72152
▁sarebbe	-7.72308
▁–	-7.72748
▁nome	-7.73546
▁sviluppo	-7.73825
▁no	-7.7471
▁far	-7.74731
▁però	-7.74742
▁cittadini	-7.75131
▁voi	-7.75248
chi	-7.75755
▁proposta	-7.75836
▁meno	-7.76291
▁forse	-7.7675
l	-7.7716
▁detto	-7.77282
▁cose	-7.77566
▁momento	-7.77591
▁tuttavia	-7.78036
▁altre	-7.78549
▁“	-7.79074
▁problema	-7.79427
▁poco	-7.79562
▁fosse	-7.79785
la	-7.79832
"	-7.8021
▁casa	-7.80378
▁sulle	-7.8098
▁nuovo	-7.81
▁verso	-7.81009
t	-7.81338
nti	-7.81473
▁sì	-7.82091
...	-7.82301
▁molti	-7.82464
▁tutta	-7.82873
▁città	-7.83333
ci	-7.83512
▁,	-7.83518
rono	-7.83559
▁commissario	-7.83743
onorevole	-7.84259
▁questione	-7.85015
▁possibile	-7.85104
▁va	-7.85391
▁particolare	-7.85632
▁nostri	-7.85709
▁mentre	-7.85982
▁inoltre	-7.86094
▁sicurezza	-7.86153
europa	-7.86334
▁signora	-7.86505
▁quelle	-7.86838
▁sui	-7.87699
▁gruppo	-7.88558
zione	-7.89098
▁situazione	-7.89524
▁quasi	-7.90179
▁livello	-7.90451
▁s	-7.90718
▁avere	-7.91999
▁po	-7.92246
▁dello	-7.92249
vi	-7.93243
▁ben	-7.93488
▁mercato	-7.9383
▁luogo	-7.93997
▁sistema	-7.94674
▁comune	-7.94865
▁diritto	-7.95737
▁gran	-7.95848
▁rispetto	-7.96645
rlo	-7.96735
▁governo	-7.96881
▁esempio	-7.97548
▁so	-7.97823
▁nè	-7.97941
▁tratta	-7.98549
mo	-7.9933
m	-7.99554
▁sull	-8.00286
▁fino	-8.00508
▁te	-8.00577
▁settore	-8.00859
▁possono	-8.00877
▁favore	-8.01116
lo	-8.01989
▁vero	-8.0199
se	-8.02052
▁tali	-8.02155
▁certo	-8.02656
▁invece	-8.03041
▁base	-8.03528
▁negli	-8.04846
▁viene	-8.06375
mot	-8.07558
vo	-8.07901
▁parole	-8.08009
de	-8.08016
mi	-8.08046
▁sopra	-8.08917
▁oltre	-8.09021
▁troppo	-8.097
▁credo	-8.10219
co	-8.10249
▁siano	-8.10785
▁?	-8.1087
▁mano	-8.11013
▁allo	-8.11354
▁donne	-8.11493
▁processo	-8.12338
▁aver	-8.1305
▁materia	-8.13175
▁dio	-8.13188
▁generale	-8.141
”	-8.14416
▁riguarda	-8.14459
▁volte	-8.14675
▁possiamo	-8.14923
▁stessa	-8.15015
▁colleghi	-8.15031
▁sa	-8.15176
▁occhi	-8.15233
▁devono	-8.15426
▁pertanto	-8.1662
ca	-8.16768
▁anno	-8.17082
▁nuova	-8.17266
so	-8.18481
▁problemi	-8.18496
▁quelli	-8.18733
▁meglio	-8.19113
▁guerra	-8.19318
▁sociale	-8.19492
▁dunque	-8.202
rà	-8.20458
▁maggiore	-8.21049
▁programma	-8.21079
▁numero	-8.21142
▁libertà	-8.21219
▁lungo	-8.21438
▁insieme	-8.21694
▁bisogno	-8.21715
▁roma	-8.22161
▁donna	-8.22333
▁terra	-8.22612
▁nulla	-8.22796
▁necessario	-8.22844
▁mezzo	-8.22946
▁sei	-8.23186
▁disse	-8.23595
▁dato	-8.24038
▁uomini	-8.24383
▁onorevoli	-8.24544
▁quest	-8.2464
▁soprattutto	-8.24747
▁avrebbe	-8.25109
▁grandi	-8.25224
▁società	-8.25288
sa	-8.25323
▁discussione	-8.2596
rla	-8.26641
▁futuro	-8.27255
▁ri	-8.27441
▁direttiva	-8.27552
di	-8.27781
▁misure	-8.27865
▁europei	-8.2811
▁giorni	-8.28164
▁soltanto	-8.28326
▁storia	-8.28378
▁morte	-8.28812
▁ella	-8.29053
▁bilancio	-8.29056
▁porta	-8.29062
▁trattato	-8.30081
▁grazie	-8.3027
▁cuore	-8.30379
▁europa	-8.30477
▁senso	-8.3051
ò	-8.30712
rmi	-8.30941
▁alcune	-8.3102
▁n	-8.31061
▁vedere	-8.31328
▁vista	-8.31416
▁popolo	-8.31431
▁ricerca	-8.31491
▁presente	-8.32777
▁corso	-8.32804
▁parti	-8.32926
▁conto	-8.33218
▁forza	-8.33374
tta	-8.33519
▁campo	-8.33882
▁dice	-8.33909
▁dovrebbe	-8.33916
▁potrebbe	-8.34127
mento	-8.34366
▁essi	-8.34866
d	-8.34877
▁essa	-8.34971
▁legge	-8.35109
▁possa	-8.35378
▁infatti	-8.35433
▁nostre	-8.35452
▁fuori	-8.35498
▁servizi	-8.36682
▁posizione	-8.37151
amo	-8.37551
sti	-8.37641
▁grado	-8.38158
▁capo	-8.38997
▁possibilità	-8.3908
ma	-8.39214
▁dare	-8.39384
▁pace	-8.39678
c	-8.40049
zioni	-8.40094
▁risposta	-8.4043
▁condizioni	-8.4044
▁propria	-8.40503
▁spesso	-8.40715
▁abbia	-8.40896
▁fece	-8.41024
ssero	-8.41053
▁tal	-8.41136
▁posto	-8.41207
▁et	-8.41227
rci	-8.41413
▁voce	-8.41828
▁onorevole	-8.41906
▁state	-8.42046
▁pure	-8.42237
▁nuovi	-8.42264
▁padre	-8.42413
▁molte	-8.42493
▁quadro	-8.42759
▁forma	-8.42759
▁co	-8.42892
▁necessità	-8.43062
▁ecco	-8.43275
▁internazionale	-8.43356
anno	-8.43377
▁umani	-8.43421
▁buona	-8.44093
▁qualità	-8.44312
▁uomo	-8.44493
▁presso	-8.44578
ra	-8.44713
▁sembra	-8.44723
▁né	-8.44908
▁ragione	-8.45614
▁parola	-8.45806
▁cento	-8.45951
▁buon	-8.4626
▁garantire	-8.46452
▁appena	-8.46675
ce	-8.46789
▁quei	-8.4688
▁fronte	-8.46972
▁cooperazione	-8.47001
▁realtà	-8.47285
▁politiche	-8.47429
▁causa	-8.47525
▁desidero	-8.47583
▁durante	-8.47666
▁domanda	-8.47791
).	-8.47846
x	-8.48585
▁principio	-8.48654
▁proposte	-8.48748
▁posso	-8.48813
ve	-8.48914
▁forte	-8.48915
▁passo	-8.49048
▁dagli	-8.49421
▁attività	-8.49493
▁merito	-8.49519
▁risoluzione	-8.49528
sta	-8.4971
▁visto	-8.49815
▁gente	-8.49971
▁prodotti	-8.50236
altro	-8.50272
accordo	-8.5036
▁tempi	-8.50486
▁circa	-8.505
▁piano	-8.50567
▁pur	-8.5081
▁ce	-8.51224
▁dati	-8.51265
ssi	-8.513
▁progetto	-8.513
in	-8.5134
▁fondo	-8.51376
▁mani	-8.51407
▁nuove	-8.51424
▁ruolo	-8.51696
▁avuto	-8.51945
▁davvero	-8.52046
▁«	-8.52225
▁seconda	-8.52961
▁sostegno	-8.54169
▁poter	-8.54433
▁imprese	-8.54533
▁diversi	-8.54566
che	-8.54739
▁attraverso	-8.54837
▁là	-8.55014
▁strada	-8.55215
▁saranno	-8.55361
/	-8.5541
▁accordo	-8.55633
▁crisi	-8.55797
rne	-8.55836
▁avevano	-8.55894
ssimo	-8.56206
ndosi	-8.56361
▁milioni	-8.56448
▁cioè	-8.56538
▁quattro	-8.56644
▁presidenza	-8.57017
▁informazioni	-8.5714
▁luce	-8.57286
▁voglio	-8.57301
▁tipo	-8.57464
▁nessuno	-8.57675
▁miei	-8.5798
▁regolamento	-8.58323
▁economica	-8.58486
▁controllo	-8.58496
▁san	-8.58581
▁occorre	-8.58771
▁subito	-8.58895
▁adesso	-8.5896
▁natura	-8.59177
▁chiesa	-8.5947
ue	-8.59626
▁ritengo	-8.59795
▁italia	-8.6011
▁vengono	-8.60138
tte	-8.60264
▁comunità	-8.60303
en	-8.6048
▁nazionale	-8.60598
▁emendamenti	-8.60748
▁infine	-8.6078
▁maggior	-8.61036
▁obiettivi	-8.61112
▁tuo	-8.61226
p	-8.61361
▁qualcosa	-8.61505
▁nazionali	-8.61828
▁lotta	-8.62026
▁persona	-8.62265
▁furono	-8.62533
▁2	-8.62656
▁esso	-8.62818
y	-8.62839
▁papa	-8.62997
azione	-8.6307
▁periodo	-8.63221
▁euro	-8.63264
▁hai	-8.63269
▁colla	-8.63911
da	-8.63959
▁male	-8.64023
▁seguito	-8.64238
rli	-8.64252
▁regno	-8.64495
▁responsabilità	-8.64853
▁andare	-8.65239
ranno	-8.65509
▁riguardo	-8.65644
▁termine	-8.65757
▁autorità	-8.66488
▁motivo	-8.66753
▁parlare	-8.6684
▁francia	-8.66957
▁pubblico	-8.67116
rò	-8.67268
▁poiché	-8.67484
▁stiamo	-8.67624
▁famiglia	-8.67703
tti	-8.67962
gli	-8.68134
tto	-8.68191
▁fatti	-8.68394
▁mesi	-8.68557
▁avanti	-8.6857
tà	-8.6878
▁1	-8.69048
▁qual	-8.69138
ʼ	-8.69412
▁risorse	-8.69706
▁relazioni	-8.69783
▁poteva	-8.7004
▁prendere	-8.70154
▁coloro	-8.70207
me	-8.70431
▁almeno	-8.70685
▁corpo	-8.7099
▁oh	-8.71022
▁questioni	-8.71082
▁decisione	-8.71227
▁fondi	-8.71357
zza	-8.71479
▁comunque	-8.71607
▁pubblica	-8.71635
▁trovare	-8.71718
▁3	-8.72004
▁ore	-8.72362
▁testa	-8.72394
▁bella	-8.72468
▁protezione	-8.7268
▁nello	-8.72875
▁diverse	-8.73333
bile	-8.73435
▁corte	-8.73655
▁potuto	-8.73881
rle	-8.74035
▁norme	-8.74085
▁parere	-8.74704
▁intorno	-8.75386
do	-8.75659
▁madre	-8.75886
▁uniti	-8.75906
▁punti	-8.76101
▁fin	-8.76126
▁testo	-8.76185
io	-8.7657
▁bambini	-8.76598
▁ultimi	-8.76641
▁salute	-8.76824
▁ii	-8.76948
▁giustizia	-8.76962
▁istituzioni	-8.77052
▁casi	-8.77269
▁difficile	-8.77286
▁bisogna	-8.77352
▁notte	-8.7758
▁rappresenta	-8.77655
ria	-8.78059
▁innanzi	-8.781
altra	-8.78148
▁prova	-8.78156
▁faccia	-8.78175
▁maniera	-8.7836
▁strategia	-8.78364
▁son	-8.78543
▁signore	-8.78582
▁tua	-8.78809
▁successo	-8.7889
▁valore	-8.78994
▁vuole	-8.79011
".	-8.79019
▁relatore	-8.79135
▁significa	-8.79148
rvi	-8.79228
▁vogliamo	-8.79378
▁principi	-8.79499
ga	-8.795
▁giovani	-8.79552
▁sola	-8.7962
▁politico	-8.79623
▁migliore	-8.79794
▁avesse	-8.79816
▁anzi	-8.80119
▁soluzione	-8.80126
▁fanno	-8.80303
▁unione	-8.80845
▁pro	-8.80853
▁effetti	-8.80857
▁sede	-8.80901
▁deputati	-8.80941
▁assai	-8.80947
▁termini	-8.81511
▁libro	-8.8154
▁pochi	-8.8173
▁nonché	-8.81896
▁importanti	-8.81924
▁breve	-8.81935
b	-8.82313
▁piuttosto	-8.8242
▁sè	-8.82539
g	-8.82629
▁regione	-8.82672
▁veramente	-8.82794
▁risultati	-8.82836
▁potere	-8.82927
▁alcun	-8.82994
u	-8.83208
▁sera	-8.83338
▁aiuti	-8.83433
▁attenzione	-8.83458
▁dibattito	-8.83773
▁fondamentale	-8.83837
▁pari	-8.83861
▁misura	-8.83913
▁serie	-8.84012
▁mare	-8.84177
bili	-8.84278
▁penso	-8.84565
▁servizio	-8.84742
▁sole	-8.84826
▁passato	-8.84871
menti	-8.84965
▁creare	-8.84981
▁spirito	-8.85008
▁'	-8.85102
▁altra	-8.85599
▁primi	-8.85735
interno	-8.85745
▁sociali	-8.85853
▁stanno	-8.85879
▁tema	-8.85911
▁vostra	-8.8607
▁mettere	-8.86322
ste	-8.86387
▁affrontare	-8.8687
&	-8.86964
▁qualsiasi	-8.87045
▁pare	-8.87138
▁chiaro	-8.87305
lla	-8.87354
▁linea	-8.87413
”.	-8.8746
▁v	-8.87802
▁sapere	-8.88222
▁cinque	-8.88413
▁crescita	-8.8846
▁conte	-8.88906
▁dietro	-8.8915
▁proposito	-8.89327
▁produzione	-8.89385
ambito	-8.89404
▁regioni	-8.89735
▁pesca	-8.90043
us	-8.9043
▁stessi	-8.90554
▁10	-8.90611
era	-8.9065
▁partito	-8.90801
▁ve	-8.90924
▁fede	-8.91284
▁spazio	-8.91588
▁terzo	-8.9172
▁politici	-8.91825
go	-8.91866
▁entro	-8.91867
▁genere	-8.92007
▁avete	-8.9204
▁centro	-8.92094
▁lavoratori	-8.92131
tori	-8.9226
ambiente	-8.92343
▁data	-8.92649
▁consumatori	-8.9273
▁aspetti	-8.92791
▁presto	-8.93005
▁affinché	-8.93041
▁gestione	-8.93295
▁5	-8.93355
f	-8.93358
▁ministro	-8.93724
▁vostro	-8.9429
▁lettera	-8.94508
il	-8.94514
▁piedi	-8.94537
▁confronti	-8.95043
▁sangue	-8.9527
▁milano	-8.95322
▁ottenere	-8.95341
▁atto	-8.95342
▁fatta	-8.95355
▁facendo	-8.95482
▁finalmente	-8.95554
▁europee	-8.95978
▁naturalmente	-8.96472
▁fondamentali	-8.96558
▁trova	-8.96606
▁commercio	-8.96619
v	-8.96626
▁procedura	-8.96671
▁4	-8.96735
▁repubblica	-8.96819
▁alcuna	-8.97183
▁giovane	-8.97339
▁studio	-8.97344
▁pensiero	-8.97442
▁posti	-8.97565
▁figlio	-8.97569
▁niente	-8.97576
▁resto	-8.97716
▁mondiale	-8.97717
▁secolo	-8.97925
▁semplice	-8.98246
▁ovviamente	-8.98264
▁democrazia	-8.98407
),	-8.99032
▁armi	-8.99154
▁qua	-8.9918
▁preso	-8.99205
▁dentro	-8.99225
▁giusto	-8.99398
▁venne	-8.99505
mmo	-8.99612
▁tanti	-8.99843
▁strumenti	-9.00154
uomo	-9.00217
▁difficoltà	-9.00274
▁avea	-9.00391
▁interno	-9.00536
▁strumento	-9.00543
▁amore	-9.00701
▁parla	-9.00832
▁carlo	-9.00898
▁gruppi	-9.01114
▁dovuto	-9.01235
▁ebbe	-9.0139
▁amici	-9.01524
▁occasione	-9.01618
▁voto	-9.0172
▁economico	-9.02016
▁popolazione	-9.0209
▁duca	-9.02102
▁volontà	-9.02143
▁mente	-9.02154
▁perciò	-9.02448
▁onde	-9.02545
▁specie	-9.02688
▁principe	-9.02761
▁importanza	-9.02762
▁vale	-9.028
▁verità	-9.02824
▁ove	-9.03121
▁tutela	-9.03271
▁azioni	-9.03288
▁titolo	-9.03354
▁aspetto	-9.0374
▁risultato	-9.03741
▁richiesta	-9.03753
▁sostenere	-9.03926
▁scopo	-9.03944
rio	-9.04116
▁sappiamo	-9.04259
▁tratto	-9.04288
▁lì	-9.04553
▁letto	-9.04565
▁rischio	-9.04577
▁spero	-9.04599
▁to	-9.04603
▁riforma	-9.04738
articolo	-9.04887
▁contrario	-9.05056
▁capacità	-9.05279
▁progetti	-9.05315
▁alto	-9.05527
▁moglie	-9.05754
▁coi	-9.06081
▁ra	-9.0609
▁membro	-9.06108
▁!	-9.06345
▁programmi	-9.06436
▁interessi	-9.06479
▁grave	-9.06665
▁domani	-9.06715
▁piccolo	-9.06758
▁comunicazione	-9.06841
▁negoziati	-9.06872
▁proprie	-9.07113
▁forze	-9.07142
tore	-9.07196
▁don	-9.0721
▁votato	-9.0727
▁personale	-9.07377
▁accordi	-9.07444
▁difesa	-9.07447
▁fossero	-9.07497
▁assolutamente	-9.07623
▁bel	-9.07697
▁or	-9.08095
▁presenza	-9.08146
▁nazioni	-9.08233
▁mie	-9.08378
ssa	-9.08775
▁pratica	-9.08795
▁opera	-9.08797
▁doveva	-9.08863
▁devo	-9.08903
▁pel	-9.08964
rti	-9.0904
▁dieci	-9.09095
▁esiste	-9.09438
▁migliorare	-9.09559
fi	-9.09611
▁dubbio	-9.09629
▁cura	-9.09688
▁faceva	-9.09773
▁ah	-9.09774
▁seno	-9.09789
pa	-9.09821
▁farlo	-9.09839
▁cielo	-9.0989
▁riferimento	-9.10008
▁prese	-9.10095
nza	-9.10295
▁vecchio	-9.10793
▁comuni	-9.10827
um	-9.1092
▁ormai	-9.10936
▁pensare	-9.11077
▁raggiungere	-9.11104
▁purtroppo	-9.1114
▁settori	-9.11377
▁unico	-9.11428
▁rispose	-9.11435
▁mo	-9.11469
▁creazione	-9.11501
ssima	-9.11995
lli	-9.1204
▁ringrazio	-9.12115
▁principali	-9.12192
▁vera	-9.12302
▁formazione	-9.12394
▁priorità	-9.12447
▁essendo	-9.12619
▁propri	-9.12803
▁leggi	-9.12881
▁contesto	-9.13692
ordine	-9.13801
▁sistemi	-9.13821
▁scuola	-9.13902
▁que	-9.14114
▁x	-9.14203
▁sugli	-9.14223
rebbe	-9.14255
▁mese	-9.14275
▁settimana	-9.14487
▁tante	-9.14511
▁obiettivo	-9.14658
sco	-9.14677
▁possano	-9.14817
sce	-9.14826
rie	-9.14912
▁esser	-9.14988
▁attualmente	-9.14996
▁vari	-9.1505
gt	-9.15111
▁presentato	-9.15143
▁lunga	-9.15171
▁dialogo	-9.1518
▁colle	-9.15328
▁vede	-9.15463
▁vicino	-9.156
▁continua	-9.15607
▁rendere	-9.15814
▁ca	-9.1591
h	-9.15956
▁debba	-9.15975
▁votazione	-9.1603
▁libera	-9.16173
▁giovanni	-9.1623
▁nota	-9.1639
▁b	-9.16566
▁davanti	-9.16854
▁dovrebbero	-9.16868
▁civile	-9.16962
▁20	-9.17195
▁costi	-9.17254
▁trasporto	-9.17294
on	-9.17335
▁stava	-9.17345
▁interesse	-9.17495
▁valutazione	-9.17634
▁collega	-9.17678
▁ordine	-9.17751
▁15	-9.17762
economia	-9.17822
▁dovremmo	-9.17866
▁piccole	-9.18039
▁evitare	-9.18093
▁napoli	-9.18387
▁nonostante	-9.18434
▁direzione	-9.18477
▁presenti	-9.18522
▁progressi	-9.18558
▁concorrenza	-9.18776
▁prossimo	-9.18816
▁francese	-9.19
z	-9.19427
▁mal	-9.19472
▁...	-9.19665
▁qualcuno	-9.19768
▁voleva	-9.19867
▁centrale	-9.19878
▁animali	-9.20224
▁m	-9.20236
▁potrà	-9.20388
▁disposizione	-9.20466
▁certamente	-9.20583
▁speranza	-9.20597
▁territorio	-9.20712
▁affari	-9.20868
▁soldati	-9.20881
▁guarda	-9.20983
▁maria	-9.20998
▁mezzi	-9.21001
▁abbastanza	-9.21008
▁maggio	-9.21147
▁carta	-9.21165
▁vivere	-9.21265
▁chiaramente	-9.21308
▁scorso	-9.21352
▁paura	-9.21423
po	-9.2143
obiettivo	-9.21436
▁passi	-9.21541
▁migliori	-9.21658
▁seguente	-9.21774
▁decisioni	-9.21778
llo	-9.21876
▁dì	-9.21887
▁maggioranza	-9.21949
▁varie	-9.2197
▁lingua	-9.22058
▁qualunque	-9.22103
▁facile	-9.22108
un	-9.22182
▁carica	-9.22246
▁18	-9.22255
▁camera	-9.22268
▁efficace	-9.22354
▁do	-9.22379
▁popoli	-9.22424
▁gioco	-9.22545
▁semplicemente	-9.22641
smo	-9.22719
pe	-9.22815
▁elementi	-9.22924
idea	-9.22939
▁avendo	-9.22954
▁intende	-9.23027
▁ringraziare	-9.23155
▁conseguenza	-9.23198
▁carattere	-9.23403
▁fase	-9.23819
▁articolo	-9.23849
▁venga	-9.23858
▁basta	-9.24116
▁conseguenze	-9.24365
▁dovrà	-9.24373
▁cultura	-9.24398
▁positivo	-9.24448
▁oggetto	-9.24457
▁figli	-9.24498
▁maggiori	-9.24619
▁musica	-9.24799
▁sforzi	-9.24859
▁piú	-9.24923
▁voluto	-9.24981
▁messo	-9.24997
▁fiducia	-9.25006
▁chiedere	-9.25357
▁principale	-9.25522
▁giugno	-9.25773
▁vanno	-9.25859
▁tenere	-9.25973
▁conferenza	-9.26
▁portare	-9.26129
▁rispondere	-9.26142
▁estremamente	-9.26149
▁6	-9.26167
▁capire	-9.262
▁pre	-9.26368
▁intanto	-9.26369
▁diceva	-9.26383
▁poichè	-9.26441
es	-9.26617
ba	-9.26681
▁probabilmente	-9.26941
▁pi	-9.26952
▁particolarmente	-9.2697
▁considerazione	-9.27163
gi	-9.27277
▁siete	-9.27595
rgli	-9.27636
▁continuare	-9.27657
j	-9.2767
▁promuovere	-9.27801
▁russia	-9.27853
▁valori	-9.27875
ge	-9.28131
uso	-9.28134
k	-9.28207
be	-9.28226
▁mille	-9.28342
▁piccola	-9.28426
▁convenzione	-9.28538
▁prodotto	-9.2856
▁dichiarazione	-9.28594
▁scelta	-9.28668
▁amico	-9.28681
▁pieno	-9.28704
bi	-9.28809
▁comunitario	-9.28892
▁naturale	-9.289
▁esprimere	-9.28983
▁spese	-9.29157
▁sicuro	-9.29208
▁nessun	-9.29212
▁lavori	-9.29233
▁sito	-9.29266
▁pena	-9.29296
▁sottolineare	-9.293
▁fuoco	-9.29354
▁simile	-9.2961
inizio	-9.2966
▁impegno	-9.29762
▁vigore	-9.29788
▁lisbona	-9.29858
▁venire	-9.29959
02	-9.30148
▁par	-9.30157
sca	-9.30183
industria	-9.30198
energia	-9.30288
per	-9.30321
▁reale	-9.30323
▁atti	-9.30514
▁violenza	-9.30567
▁medesimo	-9.30669
▁gravi	-9.30725
▁silenzio	-9.30795
▁dicembre	-9.30812
▁regole	-9.30866
▁modello	-9.31019
lt	-9.31154
▁ridurre	-9.31169
▁g	-9.31368
▁esse	-9.3147
▁scritto	-9.31589
▁seduta	-9.31614
occupazione	-9.31687
▁altresì	-9.31727
▁legislazione	-9.31816
▁19	-9.31909
▁avevo	-9.31931
▁iii	-9.31979
▁ragioni	-9.31995
▁mostra	-9.32066
▁tanta	-9.32339
▁documento	-9.32371
▁svolto	-9.3243
▁pubblici	-9.32449
▁quanti	-9.32479
▁patria	-9.32558
▁sto	-9.32598
▁piccoli	-9.32623
▁viaggio	-9.32644
▁guida	-9.32791
▁governi	-9.32907
▁internazionali	-9.32932
▁nemmeno	-9.32933
ano	-9.33065
▁cambiamento	-9.33137
▁pareva	-9.33272
▁lavorare	-9.33278
▁piena	-9.3341
▁volto	-9.33581
▁marzo	-9.33601
▁12	-9.33736
▁media	-9.33753
▁riduzione	-9.33767
▁libero	-9.3387
▁fortuna	-9.34145
▁idee	-9.34191
▁disposizioni	-9.34227
▁globale	-9.34236
▁pericolo	-9.34291
▁passare	-9.34404
▁lor	-9.34408
▁dà	-9.34506
▁zona	-9.34745
▁destra	-9.3475
tura	-9.3475
▁bo	-9.34766
▁sé	-9.34986
▁settembre	-9.35066
fa	-9.35097
ho	-9.3534
▁marito	-9.35343
▁essenziale	-9.35518
▁opportunità	-9.35541
lle	-9.35642
▁sinistra	-9.35658
▁compito	-9.35693
▁canto	-9.35706
▁turchia	-9.35741
▁visita	-9.35786
▁:	-9.3581
▁nord	-9.35825
▁mandato	-9.35845
▁stabilità	-9.36178
▁forme	-9.36223
▁giudizio	-9.36249
▁francesco	-9.36305
▁piacere	-9.36388
▁ricordare	-9.36404
ato	-9.36406
▁capi	-9.36488
▁motivi	-9.36515
▁collaborazione	-9.36558
importanza	-9.37002
▁virtù	-9.37018
▁mantenere	-9.37062
▁iniziative	-9.3725
▁deciso	-9.37256
▁iscritto	-9.37294
▁intervento	-9.37299
”,	-9.37349
▁contributo	-9.37366
▁cercare	-9.3756
▁presentata	-9.37591
▁fornire	-9.37783
ora	-9.37887
▁costituzione	-9.37899
▁bocca	-9.37937
▁rende	-9.37977
▁potrebbero	-9.38001
▁chiedo	-9.38075
▁ossia	-9.38146
▁conoscenza	-9.38656
▁necessaria	-9.38683
que	-9.38793
▁certa	-9.38841
▁condizione	-9.38898
▁adottare	-9.38975
▁rete	-9.39017
emendamento	-9.39058
ere	-9.39237
▁denaro	-9.39373
▁sufficiente	-9.39389
▁italiana	-9.39443
▁fratello	-9.39564
▁danno	-9.39628
▁chiesto	-9.39697
▁energia	-9.3976
▁sebbene	-9.39785
",	-9.39791
ha	-9.3986
▁verde	-9.39876
»	-9.39894
▁parlato	-9.39927
▁desiderio	-9.40351
▁avrà	-9.404
is	-9.40428
▁tardi	-9.40465
▁partire	-9.40488
▁avviso	-9.40539
▁dolore	-9.40543
▁trovato	-9.40593
▁opere	-9.40769
▁firenze	-9.40805
eri	-9.40839
▁germania	-9.40947
▁cristo	-9.40966
▁vertice	-9.41002
nt	-9.41017
▁p	-9.4112
▁oppure	-9.41232
▁umana	-9.41234
pi	-9.41326
▁solidarietà	-9.41381
▁partecipazione	-9.41448
▁mercati	-9.41482
▁nessuna	-9.41574
▁resta	-9.41657
▁francesi	-9.41722
▁vuol	-9.4189
▁attuale	-9.41917
▁cap	-9.41991
tu	-9.42263
▁dico	-9.42276
▁bi	-9.4241
▁be	-9.42426
▁7	-9.42505
▁metà	-9.42537
▁regionale	-9.42567
▁lato	-9.42595
▁ovvero	-9.42708
▁prezzo	-9.4274
bo	-9.42792
remo	-9.4285
▁bianco	-9.42859
▁esame	-9.42867
▁case	-9.42889
▁verrà	-9.42904
▁monte	-9.42964
▁uso	-9.43032
▁conti	-9.43034
▁campagna	-9.43077
▁lontano	-9.43136
▁morto	-9.43312
▁ba	-9.43578
▁reca	-9.4359
▁terzi	-9.43965
▁ultimo	-9.43971
w	-9.44079
▁solamente	-9.44162
▁finanziaria	-9.44255
ale	-9.44293
▁trasparenza	-9.44307
▁appunto	-9.44325
▁locali	-9.44336
▁santa	-9.4453
▁porre	-9.44539
▁italiano	-9.44563
▁idea	-9.44617
▁luglio	-9.44623
▁ricordo	-9.44749
▁credere	-9.44758
▁vuoi	-9.4479
▁battaglia	-9.4486
▁lettere	-9.4507
▁concetto	-9.45159
▁mamma	-9.4517
▁fini	-9.45171
zzazione	-9.45245
▁investimenti	-9.4528
▁gennaio	-9.45296
▁quegli	-9.45328
assemblea	-9.4542
▁sentire	-9.45511
▁affatto	-9.45555
▁aiuto	-9.45621
▁the	-9.45639
▁chiede	-9.45645
▁cerca	-9.45647
▁prime	-9.45712
▁chiama	-9.45724
▁memoria	-9.45795
▁favorevole	-9.46246
▁ancor	-9.46461
▁bensì	-9.46503
▁dimostra	-9.46603
▁30	-9.46606
▁elezioni	-9.46663
▁stesse	-9.46685
▁mancanza	-9.46745
▁economici	-9.4693
▁rapporto	-9.47155
▁contra	-9.47173
▁prezzi	-9.47469
nze	-9.47473
ultimo	-9.47507
▁compromesso	-9.4754
▁fe	-9.47546
▁lettura	-9.47611
▁struttura	-9.47622
er	-9.47682
▁presentare	-9.47762
an	-9.47782
sto	-9.4782
▁direttamente	-9.47882
▁prevede	-9.4791
zze	-9.47957
▁mattina	-9.4796
▁precedente	-9.48006
▁sarebbero	-9.48061
▁unite	-9.48088
▁ieri	-9.48155
▁u	-9.48253
▁pa	-9.48344
▁mette	-9.48412
▁palazzo	-9.48422
▁commerciali	-9.48446
glia	-9.48514
▁entrare	-9.48536
▁coraggio	-9.48536
▁pietro	-9.48625
ssimi	-9.48627
▁ministri	-9.48651
▁vogliono	-9.48725
▁alta	-9.48759
▁ero	-9.48799
▁novembre	-9.48819
▁trasporti	-9.48829
▁risolvere	-9.48854
nta	-9.4889
▁dovere	-9.48931
2	-9.48988
▁pe	-9.49162
▁libri	-9.49292
▁vittime	-9.49326
▁fiori	-9.4934
▁domande	-9.49452
▁figura	-9.49482
are	-9.49567
▁stampa	-9.49606
▁giuridica	-9.49685
▁dinanzi	-9.49694
▁sala	-9.49718
▁=	-9.49808
▁totale	-9.49812
▁criteri	-9.49964
▁effetto	-9.50004
▁simili	-9.50142
▁acqua	-9.50193
▁portato	-9.50209
▁regime	-9.50224
▁com	-9.50252
▁sicuramente	-9.50265
trice	-9.50327
▁ambito	-9.50357
▁utile	-9.50379
▁approccio	-9.50427
▁segno	-9.50468
▁conclusione	-9.50512
▁sai	-9.50523
▁ambientale	-9.50565
gna	-9.5057
▁braccia	-9.506
▁bello	-9.50782
▁necessarie	-9.50872
▁sette	-9.50945
▁massimo	-9.50951
▁soli	-9.51019
▁proposto	-9.51201
▁veniva	-9.51258
▁studi	-9.51304
▁giornata	-9.51711
▁presenta	-9.5183
acqua	-9.51877
▁nato	-9.51917
▁povertà	-9.51921
iniziativa	-9.52021
▁procedure	-9.52186
con	-9.5219
▁minuti	-9.52223
▁finanziario	-9.52302
▁organizzazioni	-9.52328
▁dicendo	-9.52331
▁capitale	-9.52392
▁conoscere	-9.52405
▁certi	-9.52413
▁coscienza	-9.52427
ck	-9.52479
▁siccome	-9.52554
attuale	-9.52586
▁esperienza	-9.52599
▁anch	-9.52658
▁discorso	-9.52757
sso	-9.52902
ate	-9.52905
▁abbiano	-9.52944
▁costituisce	-9.52951
▁basso	-9.53002
▁caro	-9.53005
▁rimane	-9.53027
▁felice	-9.53121
▁religione	-9.5315
▁relative	-9.53183
▁--	-9.53275
▁acque	-9.53283
▁trattamento	-9.53368
▁sguardo	-9.53759
▁sapete	-9.53806
▁luoghi	-9.5388
▁recente	-9.5391
▁facciamo	-9.54048
▁superiore	-9.54128
ultima	-9.54335
▁aziende	-9.54348
applicazione	-9.54408
▁nemico	-9.54415
rai	-9.54594
▁militare	-9.54617
▁puoi	-9.54659
▁8	-9.54997
▁umano	-9.55032
▁potesse	-9.5514
▁piazza	-9.55211
▁posta	-9.55284
▁completamente	-9.5543
▁chiara	-9.55464
▁venuto	-9.5568
attività	-9.55706
▁grazia	-9.55723
▁documenti	-9.55766
▁tramite	-9.55862
▁avrebbero	-9.56037
▁lascia	-9.56122
▁massima	-9.56338
▁pensa	-9.56393
▁affermato	-9.56466
▁molta	-9.56483
▁giusta	-9.56587
▁diventare	-9.56627
▁seguire	-9.5673
▁medio	-9.56744
▁venezia	-9.56747
▁indietro	-9.56809
▁famiglie	-9.56842
one	-9.56889
▁auto	-9.56932
▁relativa	-9.57092
▁banca	-9.5716
▁finanziari	-9.5717
nda	-9.57181
▁movimento	-9.5728
▁sostenibile	-9.57455
▁vedi	-9.57474
▁comitato	-9.57541
▁ricevuto	-9.57677
▁coesione	-9.57833
▁terrorismo	-9.57854
▁assicurare	-9.579
▁raggiunto	-9.58154
▁spagna	-9.58158
▁eh	-9.5816
▁sensi	-9.58232
▁povero	-9.58261
▁vantaggio	-9.58435
▁accesso	-9.58585
▁passa	-9.5867
▁zone	-9.58768
▁poveri	-9.58794
▁sud	-9.58815
▁numerosi	-9.58827
ccio	-9.58867
▁incontro	-9.58905
▁sentito	-9.59064
▁gas	-9.5922
▁ro	-9.59318
▁aperto	-9.59388
▁giù	-9.59401
▁ta	-9.59501
▁voglia	-9.59533
▁italiani	-9.59768
▁costo	-9.5985
▁differenza	-9.59874
▁25	-9.59887
▁diverso	-9.599
▁diventa	-9.59928
▁messa	-9.59968
▁paolo	-9.60114
▁finale	-9.60306
▁santo	-9.60314
al	-9.60449
▁scena	-9.60489
fo	-9.60547
▁chiese	-9.60588
▁16	-9.60589
▁combattere	-9.60607
▁bambino	-9.6062
▁aree	-9.6064
▁modi	-9.60739
▁presa	-9.60743
▁miliardi	-9.6087
area	-9.60894
▁propone	-9.61039
▁otto	-9.61134
▁mar	-9.61205
▁polizia	-9.61234
▁ottobre	-9.6132
▁azione	-9.61333
▁signori	-9.61373
▁accettare	-9.6141
▁anti	-9.61566
▁somma	-9.61833
attuazione	-9.61843
▁definizione	-9.61852
▁impossibile	-9.61878
▁poche	-9.6196
▁cina	-9.61985
▁vide	-9.62066
ndi	-9.62149
ia	-9.62211
▁emendamento	-9.62213
▁inter	-9.62279
▁14	-9.62311
▁entrambi	-9.62365
▁stanza	-9.62442
▁risulta	-9.62531
▁nemici	-9.62537
▁aprile	-9.6256
▁vive	-9.62666
▁potete	-9.6267
▁9	-9.62722
▁piace	-9.62723
▁dallo	-9.62794
▁13	-9.62808
▁agire	-9.62862
▁carne	-9.62871
▁funzione	-9.62876
▁tenuto	-9.63039
du	-9.63167
▁spalle	-9.63181
▁esistono	-9.63221
▁forti	-9.63224
▁ulteriori	-9.63292
agricoltura	-9.6331
▁anima	-9.63317
non	-9.63343
▁t	-9.63514
▁internet	-9.63633
▁beni	-9.63636
▁consenso	-9.63695
▁vittoria	-9.63737
▁vediamo	-9.63768
▁castello	-9.63786
▁generali	-9.63912
▁finanziamento	-9.63967
▁sicilia	-9.63972
▁competenze	-9.63983
▁usa	-9.64025
▁opportuno	-9.64065
▁tom	-9.64164
▁pienamente	-9.6425
▁peso	-9.6441
ali	-9.64556
▁realizzare	-9.64588
▁soluzioni	-9.64645
▁avrei	-9.64742
▁giro	-9.648
▁evidente	-9.64825
▁nero	-9.6486
▁aggiungere	-9.65149
organizzazione	-9.65283
zio	-9.65383
▁farsi	-9.65416
▁livelli	-9.65485
▁sapeva	-9.65526
▁paragrafo	-9.65535
lu	-9.65556
».	-9.65581
▁permette	-9.65581
▁iv	-9.6576
▁scala	-9.65782
ata	-9.65825
nto	-9.65846
▁necessari	-9.65875
▁proprietà	-9.65885
▁chiamato	-9.65929
▁argomento	-9.65944
sci	-9.66093
▁ch	-9.66145
▁revisione	-9.66323
▁scambio	-9.66425
st	-9.66446
▁interventi	-9.66452
▁aumento	-9.66452
▁ragazzi	-9.66526
▁applicazione	-9.66527
▁17	-9.66656
▁morire	-9.66793
▁svolgere	-9.66812
▁andò	-9.66821
ar	-9.66822
▁go	-9.66828
▁usare	-9.66905
nsi	-9.66986
▁unito	-9.67074
it	-9.67096
▁viso	-9.67099
▁romani	-9.67202
▁auguro	-9.67248
▁parlamentare	-9.6727
▁rafforzare	-9.67288
▁finanziarie	-9.67311
▁quell	-9.67347
(	-9.67372
▁relativi	-9.67472
▁codice	-9.6752
bc	-9.67552
▁dimostrato	-9.67606
▁normativa	-9.67625
▁temi	-9.67678
▁fi	-9.67694
▁quantità	-9.67732
▁talvolta	-9.67732
▁neppure	-9.67751
▁economiche	-9.67794
attenzione	-9.67868
▁scrive	-9.67936
▁procedere	-9.67944
▁colore	-9.6798
▁braccio	-9.68282
▁serve	-9.68298
▁chiave	-9.68303
▁parlamentari	-9.68332
▁sfida	-9.68447
▁stare	-9.68461
▁relatrice	-9.68536
zzi	-9.68646
accesso	-9.68711
▁faccio	-9.68809
▁diede	-9.68941
▁alimentare	-9.69108
▁vengano	-9.69111
▁11	-9.69115
▁capitolo	-9.69135
▁speciale	-9.69153
▁offre	-9.69239
▁volle	-9.69369
▁lib	-9.69432
▁morti	-9.69549
informazione	-9.6965
▁vecchia	-9.69672
zzo	-9.69683
▁elemento	-9.69696
▁costa	-9.69703
▁prende	-9.69737
▁voler	-9.69834
▁ama	-9.70009
▁esigenze	-9.70031
▁effettivamente	-9.7006
▁crede	-9.70148
▁espresso	-9.70161
▁richiede	-9.70249
▁figlia	-9.70258
▁trovano	-9.70286
ur	-9.7031
▁contenuto	-9.70325
aula	-9.70342
▁sforzo	-9.70392
▁scienza	-9.70649
oni	-9.70751
▁riforme	-9.70793
▁finora	-9.70906
3	-9.70924
▁cos	-9.71086
▁an	-9.71103
▁gesù	-9.7111
▁costruzione	-9.71188
▁na	-9.71197
ggio	-9.7127
▁prove	-9.71331
#	-9.7139
▁č	-9.71453
▁rapporti	-9.71722
▁emissioni	-9.71854
▁età	-9.7186
tra	-9.7192
▁parigi	-9.72044
▁compagnia	-9.72087
▁origine	-9.72101
▁dar	-9.72158
▁rappresentanti	-9.72228
▁el	-9.72247
▁ritorno	-9.7232
▁sullo	-9.72385
▁previsto	-9.72495
▁cambiamenti	-9.72504
▁discutere	-9.72525
▁metodo	-9.72561
▁specialmente	-9.72702
euro	-9.72731
▁andava	-9.72809
▁dichiarazioni	-9.72834
▁cercando	-9.72903
."	-9.72929
▁parlando	-9.7296
▁potenza	-9.7296
▁afferma	-9.73063
▁terza	-9.731
▁contribuire	-9.73105
▁lasciato	-9.7311
▁condotta	-9.73161
▁mediante	-9.73162
▁messaggio	-9.73216
istruzione	-9.73237
▁belle	-9.73252
▁eppure	-9.73263
▁responsabile	-9.73264
▁prossima	-9.73322
▁ex	-9.73348
▁miglioramento	-9.73541
fe	-9.73552
▁migliaia	-9.73732
▁buono	-9.73871
▁popolare	-9.73899
▁chiusa	-9.73906
▁osservazioni	-9.74025
▁trattati	-9.7406
▁figliuolo	-9.74207
▁riteniamo	-9.74231
▁tecnologia	-9.74231
▁riconoscere	-9.74249
cca	-9.7436
▁scrivere	-9.74402
▁patto	-9.74425
▁culturale	-9.74495
▁febbraio	-9.74586
▁altrimenti	-9.74592
▁provincia	-9.74614
tica	-9.74641
▁r	-9.74692
▁marchese	-9.74697
▁strutturali	-9.74701
cco	-9.74847
▁civili	-9.75017
▁esattamente	-9.75065
▁00:	-9.75066
▁opinione	-9.75096
▁complesso	-9.7514
▁campi	-9.75162
4	-9.75359
▁coordinamento	-9.75364
▁manca	-9.75379
▁vento	-9.75438
ing	-9.75488
▁collo	-9.75643
▁locale	-9.75658
▁rivoluzione	-9.7572
▁vino	-9.75776
▁dicono	-9.75778
▁gioia	-9.75856
▁nazione	-9.75869
▁note	-9.75875
▁assistenza	-9.76002
▁modifica	-9.7602
▁rischi	-9.76115
▁ue	-9.76124
▁vostri	-9.76164
▁iniziativa	-9.76206
▁cristiani	-9.7622
▁comunitaria	-9.76234
▁aumentare	-9.763
▁richieste	-9.76325
▁passione	-9.76406
▁bellezza	-9.76552
▁reti	-9.76561
ch	-9.76579
▁ferma	-9.76676
nde	-9.76785
tico	-9.76808
▁[	-9.76923
▁percorso	-9.76962
▁adottato	-9.77014
▁aperta	-9.77191
▁concludere	-9.7729
▁leggere	-9.77348
▁cavallo	-9.77377
▁mu	-9.77395
▁tornare	-9.7754
cci	-9.77546
▁naturali	-9.77589
▁ognuno	-9.77677
▁regola	-9.77694
▁inglese	-9.77899
▁venti	-9.77941
▁limiti	-9.77994
▁maestro	-9.78022
▁modalità	-9.78082
▁fatte	-9.78086
▁guardare	-9.78116
italia	-9.78136
▁utilizzare	-9.78155
▁festa	-9.78221
▁viva	-9.78266
▁considerare	-9.78271
▁diversa	-9.78277
▁intervenire	-9.78415
▁solito	-9.78419
▁settimane	-9.78432
▁definire	-9.78452
▁porte	-9.78481
▁capitano	-9.78529
▁disponibili	-9.78673
ero	-9.78684
▁moneta	-9.78726
▁perdere	-9.78753
el	-9.78777
▁buoni	-9.78789
▁notizia	-9.78823
▁preoccupazione	-9.78828
▁distanza	-9.78924
▁risponde	-9.78961
▁offrire	-9.79071
▁strade	-9.79177
man	-9.79181
▁standard	-9.79251
▁colpa	-9.79278
▁rispettare	-9.79286
▁buone	-9.79334
ghi	-9.79366
▁altrettanto	-9.79386
▁troviamo	-9.79517
▁é	-9.79532
tri	-9.79587
▁contempo	-9.79684
▁teatro	-9.79797
▁promozione	-9.79809
▁dimensione	-9.79811
▁povera	-9.7991
▁impegni	-9.80087
▁colpo	-9.80145
▁compiere	-9.80268
▁potranno	-9.80297
essere	-9.80356
▁minaccia	-9.80371
▁linee	-9.80379
▁soldi	-9.80396
▁porto	-9.80414
▁pacchetto	-9.80489
ati	-9.80511
▁rapidamente	-9.80572
adesione	-9.80634
▁arrivare	-9.80646
▁dolce	-9.80648
▁antichi	-9.8065
▁portata	-9.80666
▁ga	-9.80725
▁sino	-9.80729
cu	-9.80769
▁capelli	-9.8097
ng	-9.81067
▁addirittura	-9.81124
▁approvato	-9.81149
▁visione	-9.8117
unica	-9.8124
stra	-9.81252
▁vie	-9.81267
▁riconoscimento	-9.81297
▁gloria	-9.81299
▁informazione	-9.81301
▁romano	-9.81332
▁vedo	-9.81381
▁ampio	-9.81431
▁commerciale	-9.81546
▁dovranno	-9.81564
▁navi	-9.81641
am	-9.81709
▁persino	-9.81711
▁ambiente	-9.81711
▁storico	-9.81757
▁terreno	-9.81782
▁pubbliche	-9.81826
▁ambientali	-9.81838
▁aiutare	-9.81845
▁ciascuno	-9.81851
▁50	-9.81885
▁tecnologie	-9.81924
intera	-9.82024
▁mila	-9.82085
▁du	-9.82127
▁morale	-9.82155
▁realizzazione	-9.82189
▁interessante	-9.82212
▁danni	-9.82299
▁lieto	-9.82323
▁tener	-9.82486
▁produttori	-9.82594
▁precedenti	-9.82643
▁facilmente	-9.82657
▁conflitto	-9.82669
▁sfide	-9.82935
▁farà	-9.83131
rum	-9.83176
▁parve	-9.83278
▁competenza	-9.83357
ana	-9.83379
▁cambiare	-9.8341
▁lasciare	-9.8348
▁cavalli	-9.83572
▁controlli	-9.83617
▁arriva	-9.83628
ccia	-9.83656
▁bu	-9.83839
▁partiti	-9.83883
5	-9.83969
▁est	-9.8398
▁tosto	-9.84078
▁fiume	-9.84125
▁nuovamente	-9.84126
▁massa	-9.84238
▁lega	-9.84246
opportunità	-9.84249
▁energetica	-9.84263
▁unica	-9.84351
▁errore	-9.84393
▁ni	-9.84433
▁detta	-9.84497
▁accanto	-9.84687
▁partner	-9.84936
▁creato	-9.84987
▁uscire	-9.85028
ì	-9.85033
▁vivo	-9.85206
▁vicini	-9.85277
▁decidere	-9.85293
▁candidati	-9.85356
opinione	-9.85356
▁pensato	-9.85385
▁tavola	-9.8541
▁conosce	-9.85471
▁noto	-9.85552
▁poeta	-9.85556
▁scuole	-9.856
▁eventi	-9.85643
▁tri	-9.85704
▁sentimento	-9.85776
▁immediatamente	-9.85796
▁permesso	-9.85915
▁comprendere	-9.85931
▁occupazione	-9.85968
▁vescovo	-9.86012
nia	-9.86111
ssime	-9.86186
▁discussioni	-9.86193
▁fecero	-9.86198
▁dignità	-9.86231
▁sviluppare	-9.86286
▁singoli	-9.86322
integrazione	-9.86337
▁carico	-9.86356
▁quarto	-9.86386
▁mura	-9.86397
▁militari	-9.8647
cchi	-9.86491
▁votare	-9.86516
▁medico	-9.86553
impegno	-9.86554
▁giunto	-9.8661
▁soggetti	-9.86633
▁fo	-9.86689
▁riunione	-9.86694
▁pratiche	-9.8678
▁peccato	-9.86813
▁bar	-9.86836
▁fai	-9.86841
▁sostanze	-9.86919
▁tuoi	-9.87134
ndolo	-9.87143
▁sento	-9.87165
▁punta	-9.87244
▁ultima	-9.87266
▁sentiva	-9.87279
▁confini	-9.87302
▁agricola	-9.87307
adozione	-9.87483
▁partecipare	-9.87602
▁prossimi	-9.87652
occasione	-9.87766
▁spesa	-9.87876
1	-9.87886
▁responsabili	-9.87894
esperienza	-9.88042
▁concerne	-9.88053
▁clima	-9.88146
▁attuali	-9.88196
▁fratelli	-9.88219
▁marco	-9.88281
▁petto	-9.88304
▁traffico	-9.88356
▁funzionamento	-9.88362
▁certe	-9.88363
▁mira	-9.88373
▁+	-9.88402
▁classe	-9.88402
▁cara	-9.88402
▁materiale	-9.88443
gno	-9.88479
schi	-9.88486
▁video	-9.88508
▁sogno	-9.88523
▁comincia	-9.88577
▁gi	-9.8858
▁secoli	-9.88605
à	-9.88644
▁stile	-9.88665
▁volete	-9.88745
ver	-9.88865
▁sale	-9.88867
▁stabilire	-9.88878
▁circolazione	-9.88942
▁f	-9.88969
▁ricevere	-9.89016
▁voci	-9.89097
▁circostanze	-9.8927
▁particolari	-9.89369
▁pone	-9.89369
zia	-9.8946
interesse	-9.89525
▁possibili	-9.89535
▁studenti	-9.89577
▁film	-9.89605
▁caccia	-9.89611
00	-9.89618
▁ritiene	-9.89644
▁dura	-9.89645
▁costruire	-9.898
ture	-9.89845
▁esistenti	-9.89987
▁partenza	-9.90046
▁pagina	-9.90136
▁aria	-9.90142
▁fonte	-9.90213
▁ricorda	-9.90278
▁prospettiva	-9.90453
▁colori	-9.90487
▁competitività	-9.90613
▁cause	-9.90688
▁medesima	-9.90785
▁aspetta	-9.90815
▁corona	-9.90856
▁progresso	-9.90951
▁padrone	-9.9097
▁strutture	-9.91056
▁critica	-9.91133
▁sol	-9.91177
▁ottenuto	-9.91177
▁vecchi	-9.91226
▁grecia	-9.91257
▁debito	-9.91326
▁indi	-9.91363
▁malattia	-9.91394
▁passaggio	-9.91397
▁contiene	-9.91451
▁disoccupazione	-9.91577
▁pagare	-9.91654
▁tratti	-9.91678
▁sin	-9.91794
▁immagini	-9.91857
▁rappresentano	-9.91917
bbe	-9.9195
▁sorta	-9.92141
▁dover	-9.92186
ns	-9.9225
▁ru	-9.92266
▁enorme	-9.92277
nu	-9.9234
applausi	-9.92354
▁provvedimenti	-9.92406
▁car	-9.92472
ter	-9.92486
▁genitori	-9.9256
▁labbra	-9.92597
▁prevenzione	-9.92625
▁luigi	-9.92644
▁novità	-9.92662
▁pezzo	-9.92683
▁cammino	-9.92745
▁bilanci	-9.9276
▁bianca	-9.92777
tivo	-9.92933
▁numerose	-9.92959
▁applicare	-9.92998
▁peggio	-9.93124
▁nomi	-9.93184
introduzione	-9.93184
▁nobili	-9.93206
▁consentire	-9.93246
▁versione	-9.93261
▁villa	-9.93304
▁spiega	-9.93368
▁sanità	-9.93405
▁comporta	-9.93414
▁frontiere	-9.93455
▁rosso	-9.93521
▁analisi	-9.93777
▁stima	-9.93788
nna	-9.93844
▁nucleare	-9.93846
rebbero	-9.93907
▁disciplina	-9.9392
▁democratico	-9.93989
qui	-9.94038
▁agricoltori	-9.94052
▁and	-9.94119
▁cittadino	-9.94135
▁preoccupazioni	-9.9416
▁serio	-9.94223
▁bassi	-9.94272
su	-9.94283
▁spetta	-9.94348
▁24	-9.94371
▁specifico	-9.94485
▁abitanti	-9.94496
▁insomma	-9.94556
▁fiscale	-9.94724
▁à	-9.94792
▁democratica	-9.9486
▁cor	-9.94978
▁giungere	-9.94989
▁veduto	-9.94993
bu	-9.95033
▁croce	-9.9505
za	-9.95157
▁piani	-9.95164
▁volume	-9.95204
7	-9.95352
▁introdurre	-9.95433
▁macchina	-9.95433
▁notizie	-9.95473
▁torna	-9.95496
▁relativo	-9.95542
▁chiunque	-9.95556
▁k	-9.95727
▁guardia	-9.95796
▁limite	-9.95896
▁tentativo	-9.96027
▁appoggio	-9.96051
▁devi	-9.96064
▁conclusioni	-9.96154
ss	-9.96223
th	-9.9627
▁za	-9.96297
gne	-9.96328
▁valle	-9.96375
▁errori	-9.96445
▁val	-9.96462
▁pane	-9.96541
erà	-9.96583
▁tocca	-9.96658
▁fenomeno	-9.96724
▁rifiuti	-9.96807
▁vantaggi	-9.96828
art	-9.9683
▁partenariato	-9.96868
▁orientale	-9.96882
▁requisiti	-9.96897
zi	-9.96958
▁terre	-9.96961
▁onore	-9.97116
▁completa	-9.97266
▁rimanere	-9.97271
▁maggiormente	-9.97376
▁contenuti	-9.97415
▁notevole	-9.97418
ente	-9.97429
▁consente	-9.97453
]	-9.97523
▁fonti	-9.97569
▁succede	-9.97575
▁art	-9.9778
▁foto	-9.97781
▁web	-9.97838
▁medie	-9.97891
nd	-9.97902
▁minimo	-9.98046
▁sposa	-9.9805
risate	-9.98094
▁situazioni	-9.98096
▁missione	-9.98164
▁utili	-9.98183
▁israele	-9.98232
▁monti	-9.98329
▁conferma	-9.98353
▁pensieri	-9.98397
▁funzioni	-9.98547
▁pressione	-9.98652
▁significato	-9.98669
▁medici	-9.9876
▁sorriso	-9.9881
é	-9.98831
▁vostre	-9.98886
gra	-9.99001
▁espressione	-9.99032
ie	-9.99093
▁indispensabile	-9.99105
▁importa	-9.99212
unico	-9.99232
▁100	-9.99279
▁000	-9.99397
▁domenica	-9.99426
▁raccolta	-9.995
▁profondo	-9.99501
▁ordini	-9.99503
▁finanziamenti	-9.99517
▁valutare	-9.99533
▁terribile	-9.99597
▁on	-9.99605
▁quante	-9.99648
▁specifiche	-9.99707
▁finestra	-9.99797
▁crea	-9.99812
▁capito	-9.99819
▁comprende	-9.9986
▁profonda	-9.99864
▁chiari	-9.99977
▁materiali	-10.0004
zzare	-10.0005
▁personali	-10.0005
▁regina	-10.001
▁dichiarato	-10.0041
▁ufficiale	-10.0045
▁estera	-10.0047
▁men	-10.005
▁porti	-10.0055
▁sorella	-10.0058
▁ultime	-10.007
▁verranno	-10.0076
▁potè	-10.0084
stica	-10.0087
▁attuazione	-10.0093
0	-10.0096
▁dipende	-10.0106
aria	-10.0107
▁malattie	-10.011
▁chiarezza	-10.0116
30	-10.0126
▁difendere	-10.013
▁metri	-10.013
▁moto	-10.0131
▁neanche	-10.0143
▁segreto	-10.0145
?"	-10.0147
▁piu	-10.0161
▁invito	-10.0162
▁voti	-10.0164
▁ferro	-10.0168
▁giustamente	-10.017
▁pronto	-10.0171
▁40	-10.0173
▁affermare	-10.0174
▁regionali	-10.0174
ja	-10.0177
▁potevano	-10.0181
▁agosto	-10.0186
▁bologna	-10.0199
▁contatto	-10.0205
lia	-10.0209
▁cervello	-10.021
▁opinioni	-10.0213
▁vol	-10.0219
▁minori	-10.022
▁andrea	-10.0227
▁sanno	-10.0237
▁fame	-10.025
▁disegno	-10.0252
▁operatori	-10.0267
▁scegliere	-10.0269
▁poteri	-10.0271
▁parità	-10.0272
▁ponte	-10.0273
▁esperti	-10.029
tá	-10.0291
▁adesione	-10.0307
sh	-10.0309
▁operazioni	-10.0313
▁dimostrare	-10.0322
▁prospettive	-10.0327
▁andiamo	-10.0334
▁metodi	-10.0337
▁pu	-10.0338
▁cominciò	-10.0338
▁permettere	-10.0339
▁rappresentante	-10.0342
▁posizioni	-10.0343
6	-10.0356
▁od	-10.0358
com	-10.0361
▁trovò	-10.0365
▁andato	-10.037
▁alcuno	-10.037
▁verbale	-10.0371
▁presentazione	-10.0385
▁considerato	-10.0386
▁lasciò	-10.0405
▁legno	-10.0417
▁entra	-10.042
▁vedeva	-10.0424
▁basi	-10.0426
▁segnale	-10.0427
▁antonio	-10.0431
▁finito	-10.0432
▁momenti	-10.0434
▁semplici	-10.0434
▁21	-10.0435
▁dovesse	-10.0436
▁(.)	-10.045
▁filippo	-10.0455
▁sanzioni	-10.0461
▁durata	-10.0464
▁processi	-10.0465
▁seguenti	-10.0467
▁grosso	-10.0486
▁tecniche	-10.0495
▁consumo	-10.0501
▁matrimonio	-10.0503
▁facoltà	-10.0504
▁attorno	-10.0509
▁merita	-10.0517
▁professionale	-10.052
▁dimensioni	-10.0524
▁tradizione	-10.053
▁avessero	-10.0532
▁rosa	-10.0534
▁interni	-10.0539
▁27	-10.054
▁giuridico	-10.054
▁lingue	-10.0541
▁tecnica	-10.0546
▁alimentari	-10.0553
assistenza	-10.0557
▁cibo	-10.0561
▁servi	-10.0573
▁corre	-10.0573
▁tribunale	-10.0576
▁van	-10.0582
▁debbano	-10.0585
ry	-10.0586
▁des	-10.0586
agenzia	-10.0598
▁consiste	-10.0608
▁intenzione	-10.0615
▁pontefice	-10.0616
opera	-10.062
▁cosí	-10.0624
▁rimase	-10.0627
▁reso	-10.0631
▁of	-10.0635
▁esteri	-10.0636
▁fianco	-10.0639
▁pelle	-10.0641
impatto	-10.0642
▁organi	-10.0646
▁entrambe	-10.0662
▁costante	-10.0662
▁perdita	-10.0663
▁compagni	-10.0671
▁capace	-10.0671
▁carte	-10.0679
▁&	-10.0684
intero	-10.0684
▁comunitarie	-10.0685
▁risposte	-10.0685
tur	-10.0686
fr	-10.0687
▁pazienti	-10.0688
▁potremmo	-10.0691
▁avviene	-10.0692
▁arte	-10.0703
▁spa	-10.0704
▁dante	-10.0707
▁ricorso	-10.0709
▁cari	-10.0713
▁modifiche	-10.0717
▁malgrado	-10.0718
▁animo	-10.072
▁fate	-10.0727
▁pio	-10.0727
ppo	-10.0742
▁uguale	-10.0743
▁alquanto	-10.0747
▁anco	-10.075
▁sostanza	-10.0753
cce	-10.0759
▁equilibrio	-10.0771
▁condurre	-10.0778
▁oriente	-10.0781
at	-10.0782
▁condanna	-10.0787
▁proteggere	-10.08
▁2000	-10.0802
▁pei	-10.081
▁impedire	-10.081
▁perfettamente	-10.0813
▁vedete	-10.0826
arte	-10.0829
▁greci	-10.083
▁pietà	-10.083
▁venuta	-10.0831
▁fanciulla	-10.0835
▁saputo	-10.0835
gni	-10.0837
bus	-10.0844
▁stretta	-10.0847
▁en	-10.0849
▁sca	-10.0853
▁esseri	-10.0856
▁nove	-10.0856
▁tasso	-10.0857
▁miglior	-10.0872
▁continuo	-10.0876
▁freddo	-10.0878
▁spettacolo	-10.0886
▁reali	-10.0898
▁personalmente	-10.0903
▁turismo	-10.0904
▁consigli	-10.0908
▁compiuto	-10.0924
▁rimasto	-10.0925
▁convinto	-10.0926
▁genova	-10.0928
ka	-10.0932
▁facevano	-10.0936
▁dimenticare	-10.0939
▁finchè	-10.0953
▁senti	-10.0954
▁ricordato	-10.0954
▁universale	-10.0957
▁man	-10.0959
▁funziona	-10.0961
▁poesia	-10.0962
▁beh	-10.0978
ll	-10.0989
▁sorte	-10.099
▁diciamo	-10.1001
▁inutile	-10.1003
▁principalmente	-10.1008
gio	-10.101
▁triste	-10.1017
▁toscana	-10.1029
▁quantunque	-10.1037
▁innanzitutto	-10.1037
▁stra	-10.104
▁giuseppe	-10.1055
▁meccanismo	-10.106
▁sottolineato	-10.1063
▁sport	-10.1064
▁interna	-10.1069
anni	-10.1081
°	-10.1085
▁svolgerà	-10.1087
▁truppe	-10.1088
▁potente	-10.11
utilizzo	-10.1102
8	-10.1103
▁trovo	-10.1116
▁aprire	-10.113
▁inizio	-10.1141
▁colui	-10.1144
▁pietra	-10.1149
▁vendita	-10.1152
▁tenendo	-10.1153
▁nasce	-10.1153
▁luna	-10.1155
▁guerre	-10.1165
▁linguaggio	-10.1177
▁pagine	-10.1177
▁prego	-10.1178
ggi	-10.1182
▁attiva	-10.1184
▁aggiunto	-10.1191
▁specifica	-10.1193
▁riusciti	-10.1197
▁for	-10.12
tro	-10.1212
ghe	-10.1216
▁bruxelles	-10.1219
▁mise	-10.1221
▁lu	-10.1221
▁chiediamo	-10.1223
glio	-10.1224
▁comunitari	-10.1225
▁interessati	-10.1227
▁ivi	-10.1236
▁democratici	-10.124
▁attuare	-10.1244
▁vivono	-10.1247
▁manda	-10.1254
pro	-10.1258
▁prete	-10.1282
▁arti	-10.1285
▁iniziare	-10.1288
▁soddisfazione	-10.1296
▁realmente	-10.13
▁sente	-10.1302
or	-10.1303
▁positiva	-10.1312
20	-10.1315
▁sci	-10.1317
▁magari	-10.1325
▁premio	-10.1329
▁banche	-10.1343
immigrazione	-10.1344
▁compiuti	-10.1354
▁dava	-10.1355
▁romana	-10.1361
▁differenze	-10.1363
▁condotto	-10.1366
▁sinistro	-10.1369
▁giardino	-10.1374
▁felicità	-10.1377
▁ministero	-10.1381
gia	-10.1388
▁ragazza	-10.1395
▁torre	-10.1402
▁lire	-10.1404
▁latte	-10.1409
▁pagamento	-10.1421
▁nondimeno	-10.1422
▁resistenza	-10.1423
▁credito	-10.1424
▁produrre	-10.1427
ed	-10.1429
▁giacomo	-10.1436
▁esclamò	-10.1437
ngo	-10.1441
▁paio	-10.1441
▁scusa	-10.1442
▁bassa	-10.1442
▁esempi	-10.1445
▁caratteristiche	-10.1448
▁attesa	-10.1459
▁gradi	-10.146
▁argomenti	-10.1461
▁sembrava	-10.1463
▁industriale	-10.1468
nga	-10.1474
▁impresa	-10.1475
▁passò	-10.1495
▁sostenuto	-10.1496
nato	-10.1499
▁versi	-10.1509
cia	-10.1511
▁ulteriore	-10.1516
▁corsi	-10.1527
▁cercato	-10.1531
▁ufficiali	-10.1534
▁dominio	-10.1549
▁trovava	-10.1552
▁inferiore	-10.1553
▁sentenza	-10.1557
▁autore	-10.1559
▁esercitare	-10.1562
▁potremo	-10.1565
▁quindici	-10.157
▁articoli	-10.1572
▁costituiscono	-10.1574
▁testi	-10.1574
▁ebbene	-10.1575
▁lista	-10.1581
▁riconosce	-10.1582
▁benessere	-10.1589
▁garanzia	-10.1589
▁veri	-10.159
▁avremo	-10.1591
▁serra	-10.1592
▁23	-10.1594
▁oggetti	-10.1597
▁unità	-10.16
▁appare	-10.1601
▁fatica	-10.1603
▁senato	-10.1604
▁tiene	-10.1606
▁ulteriormente	-10.1606
▁volevo	-10.1607
▁recenti	-10.1623
▁positivi	-10.1623
▁costui	-10.1624
▁liberalizzazion	-10.1626
▁discriminazione	-10.1627
▁torino	-10.163
▁narra	-10.1632
▁lavora	-10.1632
▁frutto	-10.1637
bilità	-10.1643
▁fattori	-10.1644
▁umane	-10.1644
▁norma	-10.1645
▁legati	-10.1647
▁teneva	-10.1663
▁giunta	-10.1666
▁sostiene	-10.1685
▁tipi	-10.169
▁accade	-10.169
▁destro	-10.1692
▁preparazione	-10.1696
▁spi	-10.1698
▁lasciando	-10.1702
▁riesce	-10.1712
▁minore	-10.1718
amore	-10.1719
▁finire	-10.1725
▁diretto	-10.1726
▁leader	-10.1728
▁2004	-10.1729
▁intendo	-10.1734
▁quivi	-10.1739
▁favorire	-10.1751
▁merci	-10.1766
▁climatico	-10.1769
▁strano	-10.1769
▁diretta	-10.177
▁jo	-10.1771
▁ostacoli	-10.1771
▁minuto	-10.1771
una	-10.1787
trici	-10.1794
▁qualora	-10.1795
ru	-10.1795
▁h	-10.1795
▁vergogna	-10.18
▁primavera	-10.18
▁timore	-10.1801
stri	-10.1803
▁sacco	-10.1804
▁desidera	-10.1806
▁messi	-10.1817
▁numeri	-10.1819
▁aiuta	-10.1828
▁salva	-10.1836
▁ka	-10.1839
▁greco	-10.1849
▁disponibilità	-10.185
vasi	-10.1854
▁sentimenti	-10.1856
▁ver	-10.1865
▁congratularmi	-10.1866
▁impatto	-10.1874
▁iniziato	-10.1876
▁compreso	-10.1884
▁efficaci	-10.1891
▁aula	-10.1895
▁racconta	-10.1897
tici	-10.1898
▁ragazzo	-10.1903
▁rientra	-10.1904
▁deputato	-10.1907
▁dovremo	-10.1914
▁ge	-10.1917
▁potenziale	-10.1918
▁avviare	-10.1919
▁nobile	-10.1921
▁riconosciuto	-10.1925
rra	-10.1926
▁asilo	-10.193
▁flessibilità	-10.1932
▁dottore	-10.194
▁pla	-10.194
▁quota	-10.1953
istituzione	-10.1954
▁infrastrutture	-10.1955
▁pubblicato	-10.1961
▁para	-10.1963
▁ripresa	-10.1966
pl	-10.1967
stico	-10.197
▁vennero	-10.1973
▁velocità	-10.1979
▁piede	-10.1985
▁cane	-10.1987
▁direttore	-10.1989
▁autori	-10.2004
tt	-10.2006
innovazione	-10.2007
▁americani	-10.2007
▁esercito	-10.2009
ani	-10.2015
▁gara	-10.2018
▁cesare	-10.2019
▁esclusivamente	-10.2021
▁eccellente	-10.2023
▁y	-10.2033
▁vada	-10.2036
▁patrimonio	-10.2046
▁comando	-10.2046
▁legislativo	-10.2047
▁22	-10.2053
et	-10.2054
▁grida	-10.2068
▁elevato	-10.207
▁indipendente	-10.207
▁divieto	-10.2077
▁dodici	-10.208
▁considerando	-10.2088
▁mangiare	-10.2089
▁chiamata	-10.209
▁riceve	-10.2092
▁crescente	-10.2096
▁economia	-10.2107
▁superare	-10.2109
▁morta	-10.2112
▁sviluppi	-10.2112
▁antico	-10.2115
▁gusto	-10.2123
▁occupa	-10.2126
▁speranze	-10.2132
▁spada	-10.2135
▁appello	-10.2137
▁altrove	-10.2137
▁destino	-10.2141
▁riuscire	-10.2143
▁ju	-10.2151
▁je	-10.2159
▁cucina	-10.216
jo	-10.2162
▁privato	-10.2165
allargamento	-10.2165
▁rumore	-10.2166
▁segue	-10.2184
▁sforza	-10.2187
▁bis	-10.2189
▁distribuzione	-10.2191
▁esprime	-10.2191
scono	-10.2196
▁scritta	-10.2196
▁muro	-10.2198
spi	-10.2209
▁avranno	-10.2211
▁presi	-10.2212
▁sospetto	-10.2215
▁mediterraneo	-10.2218
▁adottata	-10.2222
▁assumere	-10.2224
▁squadra	-10.2229
▁vo	-10.2237
▁larga	-10.2243
▁influenza	-10.2245
ster	-10.2257
▁verifica	-10.226
▁tecnico	-10.2264
der	-10.227
▁disponibile	-10.2275
▁tedesco	-10.2277
▁super	-10.228
chè	-10.2286
▁speciali	-10.2287
▁centinaia	-10.2288
▁conquista	-10.2291
▁stagione	-10.2296
▁rapida	-10.2297
▁accolgo	-10.2298
▁sembrano	-10.2302
▁soggetto	-10.2306
▁tue	-10.231
▁nomina	-10.2311
▁cu	-10.2313
alto	-10.2316
▁lunghi	-10.2316
▁stai	-10.2321
▁presentati	-10.2323
intervento	-10.2336
▁eliminare	-10.2348
▁ricco	-10.2352
▁spe	-10.2356
▁considera	-10.2368
▁dev	-10.2369
▁file	-10.237
ke	-10.2382
cche	-10.2393
▁difficili	-10.2395
est	-10.2396
▁kosovo	-10.2401
▁corretto	-10.2403
glie	-10.2403
▁peraltro	-10.2409
▁integrazione	-10.2415
▁penale	-10.2416
▁percento	-10.2418
pre	-10.2418
▁fermo	-10.2423
▁prevista	-10.2427
▁chiuso	-10.2429
▁orientamenti	-10.2431
▁comportamento	-10.2442
▁comma	-10.2444
▁can	-10.2454
▁pronti	-10.2463
▁destinati	-10.2466
▁parlava	-10.2474
▁assemblea	-10.2487
ufficio	-10.2487
▁volo	-10.2489
▁notare	-10.249
▁ottimo	-10.2493
nne	-10.2496
▁dollari	-10.251
▁ricchi	-10.2511
▁meccanismi	-10.2516
stro	-10.252
5-0	-10.2533
tò	-10.2537
▁fuga	-10.2547
▁venivano	-10.2552
▁computer	-10.2558
▁fila	-10.2561
rsene	-10.2562
▁riguardano	-10.2569
▁--&	-10.2573
▁riprese	-10.2576
br	-10.2578
▁riso	-10.2588
▁contratto	-10.2594
mma	-10.2596
▁protocollo	-10.2606
▁cardinale	-10.2607
▁direttive	-10.2619
▁paga	-10.2619
▁delegazione	-10.262
▁aspettare	-10.2624
▁inizia	-10.2627
▁fretta	-10.2628
autorità	-10.2628
▁scelto	-10.2631
▁veste	-10.2632
▁esperienze	-10.2633
▁cavaliere	-10.2634
▁zio	-10.2635
tiva	-10.2638
▁test	-10.2642
▁obblighi	-10.2643
▁cambia	-10.2644
▁pensi	-10.2647
▁legato	-10.2657
▁richiesto	-10.2658
▁sarei	-10.2666
▁privati	-10.2667
▁cambio	-10.267
aumento	-10.2673
sia	-10.2679
▁relativamente	-10.268
▁ricordi	-10.2689
▁parecchi	-10.269
▁ampia	-10.269
▁tende	-10.2695
▁fama	-10.2696
▁specifici	-10.2697
▁popolazioni	-10.2701
▁gio	-10.2703
▁monetaria	-10.2706
▁conflitti	-10.2706
▁proporre	-10.2712
▁atteggiamento	-10.2713
▁vite	-10.2713
▁enormi	-10.2722
▁provenienti	-10.2724
▁sicura	-10.2739
▁associazione	-10.2741
▁muta	-10.2743
▁generazione	-10.2753
zzato	-10.2754
pu	-10.276
▁rafforzamento	-10.276
▁corsa	-10.2762
▁giorgio	-10.2763
▁folla	-10.2773
▁storie	-10.2774
▁rurale	-10.2779
▁sub	-10.2782
▁tedeschi	-10.2808
▁modificare	-10.2812
▁originale	-10.2817
▁grido	-10.2817
▁decreto	-10.282
▁reddito	-10.2826
▁2003	-10.2826
▁ufficio	-10.2827
fica	-10.2828
analisi	-10.2828
▁continente	-10.2839
▁cadere	-10.2849
▁copia	-10.2855
▁soddisfare	-10.2865
▁stia	-10.2866
▁poli	-10.2869
auto	-10.287
▁riuscito	-10.2873
▁ideale	-10.2873
età	-10.2877
▁firma	-10.2879
▁corrente	-10.2881
nce	-10.2883
▁ok	-10.2892
▁possesso	-10.2892
▁condivido	-10.2893
colo	-10.2894
▁culturali	-10.2896
▁benché	-10.2898
▁pezzi	-10.2898
▁aereo	-10.29
▁stabilito	-10.291
▁contessa	-10.2913
▁fiore	-10.2917
▁esaminare	-10.2919
▁stretto	-10.2919
▁zi	-10.2922
▁adeguato	-10.2923
▁osservare	-10.2924
▁gambe	-10.2925
▁avevamo	-10.2932
▁profondamente	-10.2935
▁sco	-10.2939
▁globalizzazione	-10.2949
▁venisse	-10.2951
▁certezza	-10.2953
▁diversità	-10.2956
▁annuale	-10.2961
▁debole	-10.2966
▁filosofia	-10.2973
ex	-10.2973
▁segretario	-10.2974
▁andar	-10.2974
ino	-10.2978
▁pianta	-10.2979
▁pensava	-10.2982
▁adottate	-10.2983
▁farò	-10.2983
▁statuto	-10.2989
▁benissimo	-10.299
▁imporre	-10.299
▁alberi	-10.2991
▁passeggeri	-10.2994
esercizio	-10.2996
▁pranzo	-10.2996
▁futura	-10.2996
▁osservazione	-10.2998
▁conta	-10.2999
▁eran	-10.2999
▁cosi	-10.3006
epoca	-10.3008
ty	-10.3009
▁mezza	-10.3013
▁istante	-10.3017
▁conosciuto	-10.3022
▁spiegare	-10.3022
▁saremo	-10.3023
▁leone	-10.3029
▁centrali	-10.3029
▁rivolta	-10.3031
nse	-10.3031
▁cominciare	-10.3039
▁vii	-10.3039
▁lunghe	-10.3042
▁svolge	-10.3047
tiche	-10.3049
▁sonno	-10.3052
cio	-10.3059
▁trarre	-10.3063
▁pianeta	-10.3064
zo	-10.3067
▁liberi	-10.3072
▁transfrontalier	-10.3072
as	-10.3073
▁filo	-10.3082
▁ascolta	-10.3085
▁ricchezza	-10.3089
▁dubbi	-10.3093
▁logica	-10.3109
▁alessandro	-10.3113
▁sezione	-10.3119
africa	-10.3119
ndola	-10.3124
▁relatori	-10.3125
▁raccomandazioni	-10.3128
▁potrei	-10.3133
▁vivi	-10.314
sio	-10.3141
▁eventuali	-10.3143
▁riflessione	-10.3149
▁scambi	-10.3157
▁guisa	-10.3165
immagine	-10.3167
▁amministrazione	-10.3168
obbligo	-10.3169
▁previsti	-10.3169
▁avremmo	-10.3171
▁suono	-10.3176
tre	-10.3177
▁partita	-10.3178
▁tornò	-10.3184
▁poca	-10.3189
▁legale	-10.3191
▁sí	-10.3197
▁controllare	-10.3197
▁calma	-10.3213
▁operare	-10.3221
ser	-10.3224
▁utenti	-10.3233
▁indica	-10.3239
▁recentemente	-10.324
▁60	-10.3242
▁stranieri	-10.3243
▁concordo	-10.3253
▁inaccettabile	-10.3253
▁usato	-10.3257
▁intero	-10.3257
▁accogliere	-10.3264
▁ritardo	-10.3272
▁verificare	-10.3286
▁entrò	-10.3288
▁colpi	-10.3295
▁fuor	-10.3297
▁radio	-10.3303
▁confronto	-10.3306
▁pensando	-10.331
▁mon	-10.331
▁bra	-10.3311
▁montagna	-10.3313
▁stavano	-10.3314
▁assunto	-10.3321
▁ombra	-10.3328
ff	-10.3334
▁categoria	-10.3344
▁pomeriggio	-10.3346
▁permanente	-10.3346
▁eletto	-10.3347
▁ascoltare	-10.335
▁modelli	-10.3354
▁rivela	-10.3354
▁energetico	-10.3354
▁colà	-10.3354
▁civiltà	-10.3354
▁dispone	-10.3359
▁accolto	-10.336
▁istruzione	-10.3364
▁benchè	-10.3368
▁unicamente	-10.3373
ad	-10.3374
▁gestire	-10.3378
▁vado	-10.3379
▁vedendo	-10.338
▁occasioni	-10.338
▁tor	-10.3381
▁cagione	-10.3383
▁2010	-10.3384
▁compagnie	-10.3386
▁domandò	-10.3387
▁frase	-10.3389
▁significativo	-10.3389
▁giovine	-10.3394
▁incontra	-10.3394
▁avvenire	-10.3396
▁parliamo	-10.3401
▁perduto	-10.3405
▁inserire	-10.3406
▁parco	-10.341
dia	-10.3412
▁riflettere	-10.3415
▁marcia	-10.3416
van	-10.3421
▁chiare	-10.3422
▁verdi	-10.3422
▁figliuoli	-10.3424
▁trattare	-10.3427
▁caldo	-10.3428
▁riserve	-10.3429
▁vicenda	-10.3431
argomento	-10.3437
▁essenziali	-10.3442
▁roberto	-10.3442
▁violazione	-10.3446
▁antica	-10.3448
▁raccogliere	-10.345
amp	-10.3452
▁dovevano	-10.3467
▁venir	-10.3468
▁mosse	-10.3469
▁scorsa	-10.3473
ant	-10.3476
mpi	-10.3482
america	-10.3486
▁londra	-10.3487
▁realizzato	-10.3491
associazione	-10.3491
▁guardando	-10.3494
▁accaduto	-10.3498
▁servire	-10.3506
▁adatta	-10.3508
ttu	-10.3509
▁edizione	-10.3509
▁rom	-10.3514
▁fonda	-10.3517
▁26	-10.3517
ito	-10.3517
▁evidentemente	-10.3519
▁costituzionale	-10.3519
▁1,	-10.3524
▁eravamo	-10.3524
▁santi	-10.3534
▁compiti	-10.3535
▁riserva	-10.3537
▁mobilità	-10.3539
stre	-10.3542
▁conseguire	-10.3548
▁segni	-10.3557
▁scoperto	-10.3557
▁andando	-10.3558
▁reazione	-10.3564
▁ragionevole	-10.3565
▁veder	-10.3568
▁new	-10.3581
▁ital	-10.3583
ndomi	-10.3584
via	-10.3586
▁normale	-10.359
▁poscia	-10.3601
▁svolta	-10.3604
▁he	-10.3605
▁esterne	-10.361
▁rovina	-10.3612
▁chè	-10.3613
tevi	-10.3616
▁moderna	-10.3616
▁volesse	-10.3617
▁lago	-10.3619
▁turchi	-10.3621
aiuto	-10.3624
▁lavorato	-10.3625
▁ciclo	-10.3626
▁pressioni	-10.3627
▁promessa	-10.363
ose	-10.363
▁centri	-10.3632
▁tira	-10.3639
▁straordinaria	-10.3641
ura	-10.3643
▁vieni	-10.3649
▁benefici	-10.365
▁gira	-10.3656
▁viii	-10.3657
▁perde	-10.3662
▁2,	-10.3666
▁nu	-10.3667
▁quote	-10.3671
▁mala	-10.3677
▁gra	-10.3682
▁bru	-10.3686
▁inteso	-10.3691
▁ab	-10.3692
▁visti	-10.3695
▁efficiente	-10.37
▁scrisse	-10.3705
▁indicato	-10.3705
▁fattore	-10.371
▁oro	-10.3712
▁giornali	-10.3717
▁giochi	-10.373
▁soccorso	-10.3736
▁proseguire	-10.3739
▁romania	-10.3744
▁toglie	-10.3748
▁date	-10.375
▁scoprire	-10.375
▁vescovi	-10.3751
▁superficie	-10.3756
efficienza	-10.3764
▁stelle	-10.377
uti	-10.377
▁clienti	-10.3771
▁rossa	-10.3772
▁dichiara	-10.3775
▁racconto	-10.3777
▁arrivato	-10.3781
▁vicina	-10.3781
sche	-10.3782
▁utilizzato	-10.3783
dio	-10.3783
▁vai	-10.3796
▁deriva	-10.3796
▁cure	-10.3797
▁vasta	-10.3797
▁ché	-10.3798
▁divina	-10.3799
▁perso	-10.3802
▁dettagli	-10.3805
ze	-10.3805
▁addosso	-10.3809
▁definitiva	-10.3812
▁post	-10.3816
▁discusso	-10.3816
9	-10.382
▁avvenuto	-10.3822
q	-10.3823
ris	-10.3823
▁estrema	-10.383
▁imparare	-10.3831
▁scientifica	-10.3833
▁padri	-10.3842
▁caduta	-10.3844
▁disporre	-10.3851
▁diventato	-10.3851
▁denti	-10.3858
▁contrasto	-10.3859
▁lentamente	-10.3861
▁lieta	-10.3862
gu	-10.3866
▁agenzie	-10.3868
tive	-10.3868
▁vidi	-10.3877
▁fornito	-10.3879
▁star	-10.3879
▁polonia	-10.3879
▁provare	-10.3884
ire	-10.3885
▁consultazione	-10.3886
▁costantinopoli	-10.3886
▁ciascun	-10.3887
▁brevi	-10.389
▁»	-10.3891
▁enrico	-10.3901
▁perfino	-10.3905
▁professore	-10.3905
▁gu	-10.3907
▁piante	-10.3913
▁1999	-10.3915
▁criminalità	-10.3926
▁interrogazioni	-10.3926
ù	-10.3938
▁prigione	-10.3945
▁assieme	-10.3947
▁totalmente	-10.3947
▁risposto	-10.3951
▁restare	-10.3953
▁riferisco	-10.3954
▁violazioni	-10.3955
▁pan	-10.3956
▁riposo	-10.3958
▁cogli	-10.3959
▁morì	-10.3959
ven	-10.3964
▁rer	-10.3967
▁raccomandazione	-10.3974
▁determinato	-10.3975
▁altrui	-10.3978
▁dissi	-10.398
▁soggiunse	-10.3982
▁tecnici	-10.3984
▁ze	-10.3996
▁monete	-10.4002
os	-10.4005
mba	-10.4005
amministrazione	-10.4007
▁critiche	-10.4007
▁volti	-10.401
azienda	-10.4016
▁giudice	-10.4028
▁28	-10.4029
▁concrete	-10.4029
▁genti	-10.4032
▁occidentale	-10.4034
▁consumatore	-10.4047
▁esterna	-10.4048
▁parlamenti	-10.405
inv	-10.4053
anti	-10.4057
▁volere	-10.4058
▁federico	-10.4059
▁alti	-10.4059
pt	-10.4067
▁composto	-10.4074
▁italiane	-10.4082
▁terrore	-10.4083
▁dedicato	-10.4084
▁senz	-10.4084
interrogazione	-10.4093
▁prevedere	-10.4093
ssu	-10.4102
▁corruzione	-10.4103
▁sorpresa	-10.4104
▁successivamente	-10.4105
▁ricca	-10.4107
▁previste	-10.4109
cò	-10.411
▁elaborare	-10.411
▁determinazione	-10.4112
▁funzionari	-10.4115
▁por	-10.4117
▁chiarire	-10.4122
▁diavolo	-10.4126
▁effettuare	-10.4127
▁impianti	-10.4131
im	-10.4132
▁nave	-10.4137
▁colpito	-10.4139
▁traccia	-10.414
▁giuliano	-10.4141
esistenza	-10.4147
▁giornale	-10.415
▁coerente	-10.4157
▁is	-10.4158
▁ppe	-10.4158
▁rive	-10.4161
vol	-10.4167
▁dipendenti	-10.4169
▁dottrina	-10.4172
▁scarpe	-10.4176
▁gentile	-10.4177
tivi	-10.4179
▁fortemente	-10.4185
▁gia	-10.4187
▁fisica	-10.4187
▁posa	-10.4191
▁soglia	-10.4193
▁ricerche	-10.4196
ki	-10.4202
aspetto	-10.4208
▁speriamo	-10.421
origine	-10.4215
▁profilo	-10.4233
▁vincere	-10.4234
bra	-10.4239
▁fiorentini	-10.4239
▁trono	-10.4241
▁anziché	-10.4247
▁perdono	-10.4247
▁incoraggiare	-10.4248
▁sicuri	-10.425
▁capisco	-10.4259
▁corretta	-10.4269
▁ste	-10.4269
▁corse	-10.427
zie	-10.4276
▁vinto	-10.4282
▁sottolinea	-10.4282
▁ridotto	-10.4287
▁passati	-10.4288
▁petrolio	-10.4291
mp	-10.4292
▁seguita	-10.4297
▁utilizzati	-10.4298
▁appresso	-10.4298
au	-10.43
▁favorevoli	-10.4304
▁nascita	-10.4307
▁vendetta	-10.4311
▁chiamare	-10.4312
▁accetta	-10.4316
ber	-10.4318
▁consentito	-10.4321
▁discorsi	-10.4323
▁istituzionale	-10.4325
▁vesti	-10.4328
▁ecc	-10.4332
▁imposte	-10.4332
▁animale	-10.4335
voli	-10.4338
▁regolamentazion	-10.434
▁passando	-10.4341
▁lancia	-10.4341
▁odio	-10.4342
▁considerazioni	-10.4344
▁cena	-10.4349
▁destinato	-10.4349
▁minoranze	-10.4351
▁rapido	-10.4361
▁veicoli	-10.4362
▁dov	-10.4365
▁napoleone	-10.4367
▁correre	-10.4371
▁presentate	-10.4376
▁felici	-10.4386
▁sarò	-10.4389
▁soldato	-10.439
ita	-10.4391
▁barbari	-10.4397
▁ragazze	-10.4399
▁caffè	-10.4401
▁completo	-10.4403
▁intergovernativ	-10.4403
▁occhio	-10.4404
▁ebbero	-10.441
▁facesse	-10.4418
▁disposto	-10.4418
tum	-10.4422
apertura	-10.4427
▁cominciato	-10.4435
▁osserva	-10.4437
▁carcere	-10.444
▁lume	-10.4447
▁31	-10.4449
▁basata	-10.4464
▁%	-10.4473
▁chiusura	-10.4477
▁costretto	-10.4477
▁sentì	-10.4482
▁dispiace	-10.4482
tion	-10.4486
▁amsterdam	-10.4491
▁madonna	-10.4494
▁constatare	-10.4494
▁vuoto	-10.4495
▁pronta	-10.4497
ggia	-10.4497
▁sabato	-10.4499
▁istituzione	-10.4505
▁province	-10.4508
▁tempio	-10.4509
▁suolo	-10.4509
▁portogallo	-10.451
▁promesse	-10.4512
▁interessa	-10.4522
▁future	-10.4522
▁gode	-10.4528
▁largo	-10.4529
▁dando	-10.453
▁ratifica	-10.4539
approvazione	-10.4543
▁pericoli	-10.4545
▁storica	-10.4547
▁preghiera	-10.4561
ina	-10.4567
▁pisa	-10.4568
▁ucciso	-10.457
▁mandò	-10.4571
▁pose	-10.4571
▁capitali	-10.4572
▁doppio	-10.4572
rro	-10.4574
10	-10.4593
▁cima	-10.4595
▁dette	-10.4596
▁contare	-10.4598
▁costumi	-10.4598
▁museo	-10.4599
▁natale	-10.4602
ner	-10.4603
▁organismi	-10.4603
▁sovranità	-10.4604
▁africa	-10.4607
▁semi	-10.4608
▁giunti	-10.461
▁figliuola	-10.4611
▁efficacia	-10.4617
▁elettorale	-10.4622
ico	-10.4627
▁individuare	-10.4627
▁rappresentare	-10.4627
▁scelte	-10.4631
▁tavolo	-10.4632
▁nipote	-10.4634
▁oratori	-10.4634
▁contributi	-10.4641
▁sufficienti	-10.4641
▁associazioni	-10.4644
▁insegna	-10.4649
▁fissa	-10.4652
stru	-10.4656
▁superiori	-10.4657
▁comunale	-10.4662
iamo	-10.4663
▁contento	-10.4663
▁mettendo	-10.4665
▁accusa	-10.467
▁creduto	-10.4674
uno	-10.4677
▁urgente	-10.4682
▁istituire	-10.4682
▁salvare	-10.4685
▁amor	-10.4695
rdi	-10.4695
▁successivo	-10.4699
▁nata	-10.4702
▁trasferimento	-10.4705
▁vorrebbe	-10.4707
▁torto	-10.4708
rino	-10.4708
▁seco	-10.4709
▁genio	-10.4712
vole	-10.4713
▁cruciale	-10.4714
▁prigionieri	-10.4717
▁fiscali	-10.4717
nata	-10.4718
▁aggiunge	-10.4726
▁commissari	-10.4728
▁concilio	-10.4728
▁tendenza	-10.473
▁andata	-10.473
▁vince	-10.4732
▁adeguata	-10.4732
▁gioventù	-10.4736
▁villaggio	-10.4737
▁garibaldi	-10.4738
▁ovunque	-10.474
▁tutelare	-10.4747
▁catena	-10.4747
▁tuttora	-10.475
▁distruzione	-10.4756
▁meraviglia	-10.4764
▁miseria	-10.4765
feri	-10.4765
▁prevenire	-10.4765
▁organizzazione	-10.4769
▁contribuito	-10.477
▁guardò	-10.4774
▁scrittori	-10.4774
▁assoluta	-10.4776
▁mattino	-10.4782
università	-10.4784
▁nera	-10.4786
▁conserva	-10.4793
▁taluni	-10.4794
▁personaggi	-10.4794
▁volentieri	-10.4797
nzi	-10.4801
▁differenti	-10.4802
▁bianchi	-10.4805
▁invita	-10.4805
▁conservazione	-10.4806
mila	-10.4808
▁futuri	-10.481
omc	-10.4811
▁intendere	-10.4815
▁carità	-10.4817
▁pensiamo	-10.4818
▁movimenti	-10.4819
▁avvenimenti	-10.4821
▁diffusione	-10.4822
▁colonna	-10.4823
▁online	-10.4827
▁storici	-10.4832
▁privata	-10.4832
▁riuscita	-10.4839
▁crescere	-10.4839
▁manifesta	-10.484
tus	-10.4842
▁collegio	-10.4855
▁definito	-10.487
▁pesce	-10.4872
▁ja	-10.4874
▁regolamenti	-10.4875
▁ebrei	-10.4882
▁cristiano	-10.4883
▁prega	-10.4883
▁approvare	-10.4885
▁liberali	-10.4886
▁limitare	-10.4887
▁pensate	-10.4891
▁attivo	-10.4896
▁augusto	-10.4897
▁concreti	-10.49
▁pubblicazione	-10.4901
▁materie	-10.4906
▁portava	-10.4913
uto	-10.4915
▁immagine	-10.4916
▁nucleari	-10.4916
▁bei	-10.4916
▁gri	-10.4922
▁prodi	-10.4923
▁mangia	-10.4926
▁continuano	-10.4931
▁beneficio	-10.4932
▁costituire	-10.4942
rete	-10.4944
▁farne	-10.495
▁garanzie	-10.4954
▁università	-10.4956
▁continuamente	-10.4957
▁gregorio	-10.4958
▁parenti	-10.4961
▁commissioni	-10.4966
▁cappello	-10.4967
▁famoso	-10.4969
▁palermo	-10.4971
▁immaginare	-10.4973
▁apertura	-10.4976
▁neri	-10.498
▁lontana	-10.4981
▁poste	-10.4985
▁fabbrica	-10.4986
▁iniziale	-10.4988
ron	-10.4988
▁anime	-10.499
mbi	-10.4995
▁prassi	-10.4997
▁precisa	-10.4997
▁confusione	-10.5002
ly	-10.5005
▁sovra	-10.5007
▁vien	-10.5008
▁vigilanza	-10.5011
▁isole	-10.5012
▁appoggia	-10.5019
▁cha	-10.5019
▁citato	-10.5022
▁ambiti	-10.5025
▁anna	-10.503
▁letteratura	-10.5031
▁pianto	-10.5037
▁nn	-10.5041
▁approvazione	-10.5045
▁concreto	-10.5049
▁singolo	-10.5052
▁tutt	-10.5053
▁termina	-10.5058
▁ix	-10.5059
▁guardava	-10.506
▁andate	-10.5065
▁cogliere	-10.5066
▁antiche	-10.5068
▁rilievo	-10.5069
▁scrittore	-10.5078
osi	-10.5079
▁spera	-10.5082
▁pretesto	-10.5082
▁cani	-10.5087
lio	-10.5091
▁chiuse	-10.5095
▁veneziani	-10.5097
ica	-10.5101
▁pagamenti	-10.5105
▁concedere	-10.5106
▁negativo	-10.5106
▁composizione	-10.5107
4-0	-10.5109
▁ritorna	-10.5113
▁irlandese	-10.5114
▁fossi	-10.5114
▁signorina	-10.5119
▁plenaria	-10.5123
ffi	-10.5126
▁volendo	-10.5129
▁fumo	-10.5133
▁fantasia	-10.5136
▁intenzioni	-10.5141
▁pubblicità	-10.5141
▁rappresentato	-10.5142
▁mostrare	-10.5147
▁mali	-10.5151
▁femminile	-10.5168
nò	-10.517
▁figure	-10.517
▁trenta	-10.5173
▁neve	-10.5174
▁bri	-10.5175
▁prosegue	-10.5178
▁pac	-10.518
▁ciascuna	-10.5182
▁intendiamo	-10.5184
▁organizzata	-10.5187
▁formato	-10.5188
▁decide	-10.5193
rei	-10.5193
▁immagina	-10.5198
▁alimenti	-10.5203
▁accoglie	-10.5207
▁fri	-10.5207
▁pazienza	-10.5208
▁scoperta	-10.5208
▁pmi	-10.5209
▁avvicina	-10.5211
▁gesto	-10.5217
▁blu	-10.5217
ment	-10.5218
▁necessariamente	-10.5227
▁grandezza	-10.5233
▁capaci	-10.5242
▁latina	-10.5247
▁bal	-10.5248
▁notevoli	-10.5248
▁concede	-10.5252
▁ribadire	-10.5256
▁praticamente	-10.5257
▁mantenimento	-10.526
irlanda	-10.5264
▁bisogni	-10.5268
enti	-10.5269
▁utilizza	-10.5271
▁mari	-10.5272
▁marchesa	-10.5275
poli	-10.5278
▁avessi	-10.5282
▁lontani	-10.5289
▁giulio	-10.5301
▁cavalieri	-10.5312
▁basa	-10.5313
▁ovvio	-10.5315
▁lombardia	-10.5323
▁incidenti	-10.5324
▁partecipato	-10.5325
tamente	-10.5326
▁produce	-10.5327
▁chiudere	-10.5331
ppi	-10.5334
▁sussidiarietà	-10.5341
▁romanzo	-10.5353
▁miglia	-10.5355
▁presta	-10.5357
▁lorenzo	-10.536
▁anziani	-10.5361
▁flotta	-10.5362
uri	-10.5362
ul	-10.5364
▁culto	-10.5366
▁compagno	-10.5371
▁vittima	-10.5371
▁seriamente	-10.5381
▁rinnovabili	-10.5386
▁vedremo	-10.5387
▁america	-10.5391
▁medesimi	-10.5399
son	-10.5399
▁interessate	-10.54
▁stanziamenti	-10.5402
▁campagne	-10.5414
▁finché	-10.5415
▁meta	-10.5417
▁imperatore	-10.5423
▁economie	-10.5424
▁svezia	-10.5425
▁mobili	-10.5425
▁apre	-10.5431
▁divisione	-10.5432
▁sacro	-10.5434
▁disegni	-10.5435
▁conosco	-10.5436
lino	-10.5438
▁impegnati	-10.544
stiche	-10.5443
autore	-10.5444
▁incontri	-10.5447
▁29	-10.5447
▁approvata	-10.5447
▁religiosa	-10.545
▁canta	-10.5452
▁chiamati	-10.5454
▁bambina	-10.5463
▁emilia	-10.5466
▁riguardanti	-10.5466
▁bio	-10.5468
▁considerata	-10.547
▁studiare	-10.5473
▁proposti	-10.5473
▁teoria	-10.5474
he	-10.5474
▁uscì	-10.5476
lini	-10.5477
»,	-10.5485
▁creatura	-10.5492
▁valida	-10.5496
▁sperare	-10.5497
▁corpi	-10.5498
▁balcani	-10.5504
▁crediamo	-10.5508
▁pensò	-10.5519
▁provvedimento	-10.5519
bri	-10.5521
▁volevano	-10.5521
▁alternative	-10.5527
▁industriali	-10.5527
▁sfruttamento	-10.5527
▁terrà	-10.5531
▁legislativa	-10.5532
▁salvo	-10.5532
▁percentuale	-10.5542
▁professione	-10.5542
▁bravo	-10.5544
▁socialista	-10.5546
▁sostituire	-10.5547
▁trasparente	-10.5548
▁sti	-10.5548
▁degno	-10.555
▁venerdì	-10.5553
▁seppe	-10.5554
▁credeva	-10.5554
▁assume	-10.5555
▁lezione	-10.5557
▁concessione	-10.5561
▁curiosità	-10.5569
ute	-10.557
▁deboli	-10.5571
▁richiama	-10.5572
▁contratti	-10.5576
ppe	-10.558
▁giovedì	-10.5584
▁seguendo	-10.5585
▁sensazione	-10.5586
▁bandiera	-10.5587
▁finestre	-10.5595
▁saper	-10.5597
▁riva	-10.5601
▁regolare	-10.5604
í	-10.5611
▁giusti	-10.5616
▁frate	-10.5617
ando	-10.5622
▁delitto	-10.5624
hi	-10.5625
▁congresso	-10.5628
▁promesso	-10.5628
▁accettato	-10.5631
▁perfetto	-10.5631
▁xii	-10.5632
▁rivolto	-10.5638
▁gridò	-10.5646
▁assoluto	-10.5646
▁ricorrere	-10.5648
▁rotta	-10.5655
▁faremo	-10.5656
▁emerge	-10.5659
▁offerte	-10.5659
▁ingegno	-10.5659
▁familiare	-10.5662
▁aveano	-10.5664
mpo	-10.5665
lmente	-10.567
▁consegna	-10.567
▁cipro	-10.5671
▁taglia	-10.5671
▁artisti	-10.5673
▁stor	-10.5674
▁schengen	-10.568
▁contenta	-10.5682
▁monta	-10.5686
ampliamento	-10.5694
▁costituito	-10.5696
15	-10.5698
▁quinto	-10.5698
mar	-10.5701
▁essenzialmente	-10.5703
▁concesso	-10.5703
▁utilizzo	-10.5704
▁consapevoli	-10.5706
▁costoro	-10.5713
▁protesta	-10.5714
▁straordinario	-10.5717
oso	-10.5717
▁costantemente	-10.5723
▁esercizio	-10.5725
approccio	-10.5726
line	-10.5729
▁conciliazione	-10.5731
▁giudici	-10.5735
▁comunica	-10.5735
impresa	-10.5736
uta	-10.5737
▁frutti	-10.5737
▁rimasta	-10.5744
▁generazioni	-10.5747
nzo	-10.575
▁schiera	-10.5751
agenda	-10.5753
▁calcio	-10.576
!"	-10.5763
▁chiude	-10.5765
▁decisamente	-10.5767
▁arabi	-10.577
▁riprende	-10.5771
▁affetto	-10.5775
rdo	-10.5776
▁offerta	-10.578
▁bordo	-10.578
▁interne	-10.5782
▁muove	-10.5787
▁biblioteca	-10.5794
▁conformità	-10.5796
▁frattempo	-10.5798
▁meridionale	-10.5801
▁tragedia	-10.5806
▁giacchè	-10.5806
▁uffici	-10.5807
ts	-10.581
▁comprensione	-10.5812
▁interamente	-10.5814
▁duro	-10.5819
▁laddove	-10.5819
▁quanta	-10.5828
▁applica	-10.5829
▁elevati	-10.5829
▁individui	-10.583
▁organizzato	-10.5832
▁solleva	-10.5839
▁disposti	-10.5839
▁agricolo	-10.5841
▁paziente	-10.5843
▁palla	-10.5844
50	-10.5853
▁entrato	-10.5857
▁mostrato	-10.5858
▁banda	-10.5863
onu	-10.5864
▁franchi	-10.5867
▁amato	-10.5871
▁cristiana	-10.5879
ine	-10.588
▁rifiuto	-10.5881
wa	-10.5887
dra	-10.589
iva	-10.5895
▁rossi	-10.5896
▁km	-10.59
▁guglielmo	-10.5902
nge	-10.5903
▁solenne	-10.5907
▁strategie	-10.5907
▁approva	-10.5908
▁ricostruzione	-10.5913
ir	-10.5915
▁tenuta	-10.5916
udi	-10.593
▁♫	-10.5932
cri	-10.5933
▁tabacco	-10.5934
▁britannico	-10.5939
▁disco	-10.594
▁viola	-10.5945
mmi	-10.5947
ko	-10.5949
gua	-10.5952
▁assenza	-10.5953
▁servono	-10.5963
▁tornato	-10.5964
▁cala	-10.5965
▁consapevole	-10.5967
▁venuti	-10.5969
mini	-10.5972
▁vissuto	-10.5977
▁abbraccia	-10.5982
▁vitale	-10.5983
▁area	-10.5986
▁simbolo	-10.5989
▁vedono	-10.5993
▁competente	-10.5994
▁esistenza	-10.5995
▁discarico	-10.5998
▁scienze	-10.5999
nico	-10.6012
rs	-10.6015
▁naso	-10.6019
▁mena	-10.6021
rico	-10.6022
▁preme	-10.6026
▁rose	-10.6027
▁compresi	-10.6028
▁orale	-10.6031
spe	-10.6033
▁pescatori	-10.6039
▁mor	-10.6039
▁fallimento	-10.604
▁lasciate	-10.6043
mbo	-10.6045
▁bere	-10.6051
▁generalmente	-10.6051
á	-10.6055
▁industria	-10.6056
▁abusi	-10.6057
▁zero	-10.6065
▁supporto	-10.6065
▁1.	-10.6077
▁rin	-10.6081
▁immigrati	-10.6085
▁scritte	-10.6087
▁sanitaria	-10.6087
▁bisognava	-10.609
▁soggiorno	-10.6091
▁trasformazione	-10.6091
▁coinvolgimento	-10.6093
▁provato	-10.6094
▁sessione	-10.6094
▁‘	-10.6094
▁indicazioni	-10.6096
▁candidato	-10.6103
▁classi	-10.6107
▁coerenza	-10.611
▁ritornare	-10.611
▁cattivo	-10.6112
efficacia	-10.6124
▁lagrime	-10.6132
▁lavorando	-10.6132
▁implica	-10.6132
▁intera	-10.6138
▁sogni	-10.6138
▁sali	-10.614
/&	-10.614
▁salire	-10.6143
▁lacrime	-10.6143
mme	-10.6144
▁dovete	-10.6145
11	-10.6146
▁potenti	-10.6149
▁costretti	-10.6153
▁indipendenti	-10.6153
▁conduce	-10.6156
▁giova	-10.6157
▁tedesca	-10.6164
ori	-10.6166
▁macchine	-10.617
▁cattiva	-10.6173
qua	-10.6187
oro	-10.6187
▁consenta	-10.6189
▁zo	-10.619
zion	-10.6193
ndole	-10.6194
▁tesoro	-10.6194
ava	-10.6202
▁congiunta	-10.6211
12	-10.6216
▁turco	-10.6217
▁evento	-10.6218
ini	-10.622
▁preparare	-10.6225
▁vicepresidente	-10.6228
▁pia	-10.6232
▁ascoltato	-10.6233
▁cifre	-10.6233
▁angolo	-10.6234
▁alberto	-10.6235
▁0	-10.6236
▁saluta	-10.6242
▁montagne	-10.6242
▁farai	-10.6242
▁resa	-10.6247
▁raggi	-10.6248
▁tenta	-10.625
▁mancano	-10.6252
come	-10.6252
▁impone	-10.6257
tz	-10.6258
▁dirò	-10.626
▁ko	-10.626
▁rimedio	-10.6264
▁mediatore	-10.6265
▁continui	-10.6265
▁finanziare	-10.6268
▁calendario	-10.627
▁lasciar	-10.6271
▁detti	-10.6273
▁vestito	-10.6276
▁monitoraggio	-10.6278
▁sindaco	-10.6278
▁tiro	-10.6281
em	-10.6288
▁essersi	-10.6289
▁energie	-10.6291
gge	-10.6296
▁segna	-10.6297
▁scia	-10.6299
▁scrittura	-10.6303
▁padova	-10.6303
▁liberamente	-10.6303
▁piemonte	-10.6303
▁affronta	-10.6303
▁impa	-10.6309
▁esecuzione	-10.6311
▁giu	-10.6317
▁imp	-10.6319
▁stella	-10.6331
▁componenti	-10.6332
▁prescindere	-10.6333
ure	-10.634
▁confine	-10.6341
▁cliente	-10.6346
▁coinvolti	-10.6347
incontro	-10.6347
▁2005	-10.635
▁sostituito	-10.6353
▁assicura	-10.6356
▁resi	-10.6356
▁prestare	-10.6357
▁fedeli	-10.636
▁adeguate	-10.636
▁sovrano	-10.6364
▁visitare	-10.6366
▁titoli	-10.6371
land	-10.6372
oli	-10.6373
▁belli	-10.638
▁ridere	-10.6381
mina	-10.6381
▁legate	-10.6384
▁ripetere	-10.6384
▁giunse	-10.6385
▁ferdinando	-10.6386
▁entrata	-10.639
▁conoscenze	-10.6391
▁carrozza	-10.6396
▁200	-10.6397
▁gua	-10.6397
▁wi	-10.64
▁nega	-10.6403
mus	-10.6408
▁parlo	-10.6408
▁condannato	-10.6413
▁dono	-10.6415
▁1998	-10.6419
▁michele	-10.6419
▁attacchi	-10.642
▁fornisce	-10.6421
▁w	-10.6423
▁dimenticato	-10.6426
▁aperte	-10.6426
▁messe	-10.6427
▁divenne	-10.6433
▁giudica	-10.6434
▁preciso	-10.6435
▁leva	-10.6438
▁seria	-10.6439
▁minacce	-10.6446
▁ginevra	-10.6448
▁credibilità	-10.6449
▁sbagliato	-10.6449
▁offerto	-10.6451
▁varietà	-10.6451
▁scritti	-10.6452
ppa	-10.6453
▁vorremmo	-10.6454
▁sfruttare	-10.6454
col	-10.6456
▁avviato	-10.6463
▁campanella	-10.6469
▁imperiale	-10.6471
▁congratulo	-10.6474
▁software	-10.6479
▁manifestazione	-10.6481
▁accedere	-10.6481
▁abbandonare	-10.6481
▁fui	-10.6482
▁inserito	-10.6495
▁stu	-10.6498
ut	-10.6498
▁cresce	-10.6502
▁convinzione	-10.6502
▁citare	-10.6505
▁intraprendere	-10.6513
▁valido	-10.6513
rgi	-10.6514
pri	-10.6516
▁illegale	-10.6525
▁bulgaria	-10.6527
▁transizione	-10.653
▁interessanti	-10.6534
rda	-10.6535
▁piega	-10.6535
▁roba	-10.6536
▁piglia	-10.654
▁grossi	-10.6543
evoluzione	-10.6544
▁armata	-10.6547
lina	-10.6552
▁2008	-10.6553
▁1°	-10.6556
ante	-10.6557
▁tasse	-10.6562
▁danaro	-10.6562
▁poeti	-10.6563
▁priva	-10.6571
▁perfetta	-10.6573
▁j	-10.6576
▁giunge	-10.6577
eranno	-10.6578
▁saluto	-10.6578
▁imperadore	-10.658
▁condividere	-10.6586
▁giocare	-10.6587
▁tassa	-10.6589
▁attende	-10.6589
▁lezioni	-10.6596
cchia	-10.6596
▁avvi	-10.6597
▁vecchie	-10.6598
▁strettamente	-10.66
▁affrontato	-10.66
importante	-10.6601
▁navigazione	-10.6604
▁finita	-10.6605
▁votazioni	-10.6606
▁attentamente	-10.6608
▁commenti	-10.6608
▁minima	-10.661
▁marina	-10.6612
▁americano	-10.6616
▁aumenta	-10.6616
▁cade	-10.6617
▁vergine	-10.6619
▁richiamare	-10.6621
▁formula	-10.6626
▁rivedere	-10.663
▁vasto	-10.6644
▁digitale	-10.6646
▁feste	-10.6649
▁alza	-10.6652
▁razza	-10.6653
esigenza	-10.6661
mu	-10.6668
▁passata	-10.6669
▁fissare	-10.6669
▁tradizioni	-10.6677
▁normative	-10.6677
▁imparato	-10.6681
▁fondazione	-10.6682
▁motore	-10.6683
nus	-10.6695
▁agricoli	-10.6703
▁improvvisamente	-10.6706
▁addio	-10.6706
▁turba	-10.6708
▁udito	-10.6708
▁paradiso	-10.6711
▁scientifico	-10.6711
▁indicare	-10.6711
▁assistere	-10.6713
▁esistente	-10.6713
▁2007	-10.6714
▁raggiunge	-10.6716
▁probabilità	-10.6717
19	-10.6718
spo	-10.6719
▁risoluzioni	-10.672
▁2009	-10.6722
osa	-10.6724
▁cro	-10.6724
▁tentare	-10.6725
▁rimasti	-10.6726
▁we	-10.6727
▁strana	-10.6729
▁app	-10.6731
▁cellule	-10.6732
▁fedele	-10.6732
▁godere	-10.6735
▁stazione	-10.6738
▁investire	-10.674
▁introdotto	-10.674
▁potessero	-10.674
▁tradizionale	-10.6743
ndoli	-10.6746
▁scale	-10.6749
giu	-10.6753
▁papi	-10.6757
▁veloce	-10.6757
▁potendo	-10.6762
▁pericoloso	-10.6762
▁ut	-10.6764
▁suona	-10.6771
▁rifugiati	-10.6772
▁somme	-10.6773
▁calabria	-10.6775
▁amare	-10.6776
▁bosco	-10.6776
ndogli	-10.6783
▁rileva	-10.6789
▁compresa	-10.6791
▁carriera	-10.6799
▁diretti	-10.6804
▁portano	-10.6805
▁signoria	-10.6809
▁tagli	-10.6812
▁traduzione	-10.6813
▁latino	-10.6815
▁messer	-10.6817
▁cuba	-10.6821
▁marmo	-10.6826
▁periodi	-10.6827
▁polvere	-10.6831
▁uscita	-10.6837
▁aspettative	-10.6837
erano	-10.6842
▁sapendo	-10.6843
▁calo	-10.6846
▁dimostrano	-10.6846
▁medicina	-10.6851
▁arrivati	-10.6851
▁prosperità	-10.6852
▁piangere	-10.6854
▁ravenna	-10.686
▁canzone	-10.686
▁barroso	-10.686
▁corrisponde	-10.6865
▁prendendo	-10.6871
▁partecipa	-10.6874
▁dormire	-10.6874
atto	-10.6877
▁precedenza	-10.6881
▁sorti	-10.6886
▁york	-10.6887
▁farmaci	-10.6887
▁tornata	-10.6891
▁eletti	-10.6893
▁mancato	-10.6896
▁teme	-10.6897
▁incredibile	-10.6903
▁arma	-10.6903
▁ritrova	-10.6905
▁riflette	-10.6917
▁allontana	-10.6917
▁indipendenza	-10.6919
▁accosta	-10.6919
▁intellettuale	-10.6919
▁territori	-10.6923
▁allorchè	-10.6929
▁sdegno	-10.693
▁sorge	-10.6931
▁spinge	-10.6933
ari	-10.6934
▁preti	-10.6935
▁dolci	-10.6938
▁rendono	-10.6939
▁pò	-10.6941
▁gola	-10.6942
▁scar	-10.6945
▁chiamava	-10.695
	-10.6955
▁cenno	-10.6956
▁accompagna	-10.6956
▁passioni	-10.6959
▁accettabile	-10.696
etto	-10.696
▁temo	-10.6961
▁continuò	-10.6961
▁raggio	-10.6967
▁90	-10.6967
rj	-10.6969
▁profughi	-10.697
▁viaggi	-10.697
▁dedicata	-10.6973
gre	-10.6976
▁dovuta	-10.6976
▁consapevolezza	-10.6977
▁cassa	-10.6978
▁sal	-10.698
▁hu	-10.698
▁tesi	-10.6981
▁risparmio	-10.6984
▁fili	-10.6985
▁debbono	-10.6985
▁getta	-10.6989
▁serba	-10.6992
▁formulare	-10.6993
▁trovi	-10.6994
▁amo	-10.6999
▁concluso	-10.6999
▁sessuale	-10.7005
isola	-10.7008
ffo	-10.7009
▁sostanzialmente	-10.7011
▁entrate	-10.7013
▁prudenza	-10.7014
▁oramai	-10.7017
▁1996	-10.7018
▁cinquanta	-10.7018
▁contatti	-10.7023
▁andavano	-10.7027
▁avanza	-10.7027
▁concreta	-10.703
▁guardate	-10.7033
▁quarta	-10.7033
▁basato	-10.7035
hu	-10.7038
▁procede	-10.7038
▁probabile	-10.7041
▁costantino	-10.7042
▁ammettere	-10.7047
▁babbo	-10.7048
▁bagno	-10.705
▁celebre	-10.705
▁presidenti	-10.7051
000	-10.7052
▁papà	-10.7053
▁2002	-10.7054
▁sesso	-10.7056
▁cava	-10.7059
▁incontrato	-10.7064
▁respiro	-10.7065
▁cum	-10.7067
▁volse	-10.7071
▁lasci	-10.7071
▁grossa	-10.7075
▁xi	-10.7075
▁miracolo	-10.7075
▁500	-10.7077
▁sacra	-10.7077
▁uscito	-10.7078
▁partecipanti	-10.7078
▁arrivo	-10.7081
▁dimora	-10.7081
▁limitato	-10.7081
▁au	-10.7087
▁donde	-10.7087
▁acp	-10.7088
▁statistiche	-10.7088
▁degna	-10.7094
▁difende	-10.7097
▁stasera	-10.7098
▁lavorano	-10.7098
▁tengo	-10.7101
▁perche	-10.7103
▁preda	-10.7104
▁ridotta	-10.7104
▁indubbiamente	-10.7107
%	-10.711
eremo	-10.7115
▁principessa	-10.7119
▁governatore	-10.7126
esame	-10.7126
▁fia	-10.7127
▁preoccupa	-10.7128
▁vene	-10.7129
▁passava	-10.7134
_	-10.7134
▁farci	-10.7137
▁finanze	-10.7141
▁riprendere	-10.7146
▁continuerà	-10.7151
▁pura	-10.7152
▁palestinesi	-10.7153
▁acquista	-10.7153
▁batte	-10.7157
▁determinati	-10.7164
▁spirituale	-10.7165
▁cittadinanza	-10.7165
▁mistero	-10.7166
▁lungi	-10.7168
▁2006	-10.7169
▁calore	-10.717
▁zucchero	-10.7174
▁ampiamente	-10.7179
▁noti	-10.718
▁tradizionali	-10.7183
▁tempesta	-10.7187
▁statua	-10.7189
▁strasburgo	-10.7189
▁tentativi	-10.7195
▁obbliga	-10.7196
▁irlanda	-10.7197
▁agricole	-10.7198
▁dica	-10.7198
▁palestinese	-10.7199
fer	-10.7207
usa	-10.7207
anima	-10.7209
▁conseguente	-10.7212
▁secondi	-10.7223
▁dramma	-10.7224
▁elettori	-10.7227
▁dottor	-10.7236
▁diventata	-10.7238
▁occidentali	-10.7238
▁trionfo	-10.7244
▁espresse	-10.7244
▁barba	-10.7252
▁pene	-10.7253
▁inviato	-10.7259
▁guai	-10.7261
▁atte	-10.7262
▁caratteri	-10.7266
▁bontà	-10.727
▁complessiva	-10.7274
▁lunedì	-10.7281
▁costume	-10.7284
▁status	-10.7292
▁esterno	-10.7293
▁limita	-10.7295
▁fortezza	-10.7299
▁concernente	-10.7301
▁derivanti	-10.7305
tezza	-10.7305
cha	-10.7308
▁quadri	-10.731
▁butta	-10.731
▁sollevato	-10.7312
mer	-10.7313
▁capita	-10.7313
▁esterni	-10.7315
▁cambiato	-10.7316
▁verona	-10.7316
▁rifiuta	-10.7317
nio	-10.7317
umanità	-10.7318
▁lasciava	-10.732
▁categorie	-10.7324
ngi	-10.7328
▁sor	-10.733
▁rabbia	-10.733
▁inutili	-10.7331
▁odierna	-10.7335
▁sostengo	-10.7338
▁debolezza	-10.7342
opposizione	-10.7351
▁svolgimento	-10.7351
▁competenti	-10.7355
▁spazi	-10.7356
▁milione	-10.7358
▁inviare	-10.736
▁disabili	-10.736
▁frutta	-10.7361
▁farmi	-10.7361
▁valuta	-10.7363
don	-10.7363
▁corea	-10.7363
25	-10.7365
▁tentato	-10.7365
▁trovarsi	-10.7369
▁tono	-10.7372
ffa	-10.7372
▁rischia	-10.7373
entrata	-10.7374
▁attendere	-10.7378
▁concorso	-10.7383
40	-10.7387
▁bacia	-10.7389
▁dettaglio	-10.739
▁sc	-10.7397
▁guido	-10.7399
▁inghilterra	-10.74
▁tortura	-10.7405
▁contrastare	-10.7417
▁contenute	-10.742
arco	-10.7422
▁2001	-10.7422
▁organizzare	-10.7423
▁procura	-10.7424
▁luca	-10.7424
iti	-10.7438
▁straniero	-10.7438
æ	-10.7441
▁aperti	-10.7443
▁moderni	-10.7445
▁alte	-10.7447
▁pesante	-10.7448
▁portò	-10.7449
▁coda	-10.7451
▁accompagnato	-10.7457
▁moda	-10.7461
cina	-10.7466
▁raggiungimento	-10.7466
▁criminali	-10.7468
▁op	-10.747
fu	-10.7477
▁private	-10.7478
▁cio	-10.7481
▁scopri	-10.7481
▁ristrutturazion	-10.7489
▁pioggia	-10.7492
ux	-10.7493
effetto	-10.7494
▁lettore	-10.7497
▁pen	-10.7499
▁nozze	-10.75
▁territoriale	-10.7511
▁rimangono	-10.7514
▁dovette	-10.7514
▁benedetto	-10.7515
mia	-10.7519
▁rivolge	-10.7521
▁appoggiare	-10.7526
▁siti	-10.7528
▁2018	-10.7532
▁appieno	-10.7532
▁mario	-10.7533
sione	-10.7534
▁vent	-10.7535
▁inglesi	-10.7535
▁perduta	-10.755
ol	-10.7557
erò	-10.7557
▁prendiamo	-10.7558
▁sostenibilità	-10.7558
inter	-10.7559
rd	-10.7559
▁piè	-10.756
▁ghi	-10.7563
▁personaggio	-10.7564
▁scende	-10.7565
▁scriveva	-10.7569
▁tolto	-10.7569
▁parlano	-10.7574
▁conosciamo	-10.7575
esecuzione	-10.7576
▁gravità	-10.7577
▁sovente	-10.758
menta	-10.7584
▁fredda	-10.7588
▁infelice	-10.7589
▁salvaguardia	-10.7595
▁fondata	-10.7596
▁respinto	-10.7598
▁pri	-10.7599
▁stefano	-10.76
▁dipendenza	-10.7601
tor	-10.7604
▁novella	-10.7606
▁vel	-10.761
▁edifici	-10.7613
▁---	-10.7618
▁diversamente	-10.7619
▁gioca	-10.762
nci	-10.762
unità	-10.762
▁esserci	-10.7621
smi	-10.7625
▁collaborare	-10.7626
▁contrari	-10.7628
▁anzitutto	-10.7628
▁destinata	-10.7628
▁intelligente	-10.763
▁profitto	-10.763
▁commesso	-10.7631
ndone	-10.7633
▁attori	-10.7637
▁brevemente	-10.7648
▁riporta	-10.7649
▁restano	-10.7651
▁mori	-10.7654
▁vini	-10.7656
ffe	-10.7657
▁ammira	-10.7657
▁varia	-10.7661
▁deserto	-10.7662
ele	-10.7662
▁prepara	-10.7664
▁schi	-10.7664
▁foglie	-10.7665
▁attacca	-10.7667
istituto	-10.7668
▁scendere	-10.7669
▁greca	-10.7669
▁cre	-10.7671
▁comunicare	-10.7673
impressione	-10.7675
▁unita	-10.7678
▁tenne	-10.7682
▁precisamente	-10.7685
▁́	-10.7691
▁dimentica	-10.7691
▁/	-10.7692
▁vivamente	-10.7692
▁soddisfatto	-10.7695
▁forni	-10.7696
▁povere	-10.7697
▁rurali	-10.7697
▁acco	-10.7702
▁composta	-10.7707
▁nati	-10.7708
▁versa	-10.7708
▁treno	-10.7726
▁osservato	-10.7728
▁sur	-10.773
▁turno	-10.7733
▁feci	-10.7738
zzata	-10.774
▁ride	-10.774
▁tassi	-10.7742
▁dimostrazione	-10.7743
▁familiari	-10.7747
▁negoziato	-10.7748
▁efficienza	-10.7748
16	-10.7753
vamo	-10.7756
nghi	-10.7759
▁chiedono	-10.7759
▁70	-10.7761
▁lucia	-10.7762
ld	-10.7765
op	-10.7767
▁classifica	-10.7769
▁sappia	-10.7772
▁cadde	-10.7773
▁grosse	-10.7775
▁canti	-10.7776
▁religioso	-10.7778
▁professionali	-10.778
▁talmente	-10.7783
▁giornalisti	-10.7783
▁fanciullo	-10.779
▁ber	-10.7795
cla	-10.7798
▁chiedendo	-10.7799
▁obbligo	-10.78
▁resistere	-10.7801
▁lodovico	-10.7803
temporaneamente	-10.7805
▁funzionare	-10.7805
▁comp	-10.7805
▁raccolto	-10.7813
▁micro	-10.7816
▁scadenza	-10.7816
armonizzazione	-10.7819
▁credi	-10.7822
▁riferisce	-10.7826
17	-10.783
▁consiglia	-10.7833
▁elegante	-10.7833
▁stabile	-10.7833
rato	-10.7834
rse	-10.7835
14	-10.784
▁identità	-10.784
▁doppia	-10.7846
▁pil	-10.7853
▁ripeto	-10.7854
▁concerto	-10.7856
▁sveglia	-10.7859
▁sudditi	-10.7862
ottima	-10.7863
▁taglio	-10.7863
▁andati	-10.7874
▁miglioramenti	-10.7875
elaborazione	-10.7884
▁berlino	-10.789
▁marca	-10.7891
▁compra	-10.7891
▁chron	-10.7892
▁clausola	-10.7894
▁esportazioni	-10.7895
▁volontari	-10.79
▁buio	-10.79
▁decisionale	-10.7901
▁divisa	-10.7901
res	-10.7904
▁informato	-10.7907
▁utilizzando	-10.7908
▁tenuti	-10.7914
▁abbandonato	-10.7915
▁vienna	-10.7915
▁mettersi	-10.7916
▁desideri	-10.7916
▁fan	-10.7919
▁elenco	-10.792
▁raccomanda	-10.792
nali	-10.7929
▁cinese	-10.7931
▁35	-10.7938
▁gre	-10.7938
▁2020	-10.7938
▁cerchio	-10.7938
▁selezione	-10.7938
▁brucia	-10.7943
▁referendum	-10.7946
▁vende	-10.7948
▁riunioni	-10.795
▁bielorussia	-10.7951
▁apri	-10.7957
▁descrizione	-10.7961
▁cardinali	-10.7963
▁sicchè	-10.7969
▁abbandona	-10.797
▁servo	-10.797
▁usando	-10.7974
▁marchio	-10.7982
▁raccoglie	-10.7982
▁iddio	-10.7986
▁programmazione	-10.7989
rini	-10.7989
▁licenza	-10.7989
▁conservare	-10.799
▁entusiasmo	-10.799
▁fasi	-10.7995
espressione	-10.7996
▁comprese	-10.8
▁notato	-10.8006
zzati	-10.8012
▁mettono	-10.8013
▁trascina	-10.8023
▁barca	-10.8029
den	-10.8037
▁benvenuto	-10.8039
▁sedere	-10.8043
▁indagini	-10.8048
▁testimonianza	-10.8052
▁ki	-10.8062
elenco	-10.8062
▁saggio	-10.8063
▁canale	-10.8064
▁pilastro	-10.8068
▁settentrionale	-10.8075
13	-10.8077
▁gerusalemme	-10.8078
▁fiera	-10.8081
▁industrie	-10.8083
cro	-10.8085
▁fiamma	-10.8089
▁bando	-10.809
▁preparato	-10.809
▁vittorio	-10.8091
▁direi	-10.8091
▁sovvenzioni	-10.8092
▁limitata	-10.8094
▁disastro	-10.8094
▁musulmani	-10.8095
▁gratitudine	-10.8095
▁maraviglia	-10.8108
▁evidenza	-10.8109
▁tetto	-10.811
estero	-10.811
▁fenomeni	-10.8118
erebbe	-10.8122
▁margine	-10.8125
▁color	-10.8126
▁giappone	-10.8127
▁coste	-10.813
▁ceca	-10.8132
▁cri	-10.8132
ler	-10.8133
▁distinzione	-10.8135
▁brescia	-10.8135
▁mono	-10.8135
▁fermamente	-10.8137
ger	-10.8138
▁vere	-10.8139
▁descrive	-10.8141
▁adunque	-10.8142
unanimità	-10.8142
▁finisce	-10.8147
▁cerchiamo	-10.8148
ulteriore	-10.8149
offerta	-10.8149
▁rese	-10.8149
letto	-10.815
ona	-10.8155
▁alzò	-10.8155
▁fuggire	-10.8158
mpe	-10.816
▁borsa	-10.8164
▁presentano	-10.8165
▁eccellenza	-10.8166
sul	-10.8172
▁leggermente	-10.8175
▁pieni	-10.8177
▁critico	-10.8179
▁opposizione	-10.8182
▁codecisione	-10.8185
▁cifra	-10.8189
▁sesto	-10.8193
equilibrio	-10.8196
▁acquistare	-10.8197
▁cammina	-10.8197
gnano	-10.8198
▁interrogazione	-10.8198
▁vedasi	-10.8199
▁recita	-10.8203
▁blocco	-10.8206
▁move	-10.8206
▁esce	-10.8207
▁prezioso	-10.8222
▁includere	-10.8225
▁chilometri	-10.8226
▁amicizia	-10.823
▁stringe	-10.8232
ran	-10.8234
▁istituzionali	-10.8236
▁basti	-10.8239
▁ospiti	-10.8239
▁portando	-10.8242
▁stanze	-10.8243
bor	-10.8243
▁suscita	-10.8245
▁segreti	-10.8249
ë	-10.8252
mm	-10.8255
▁aerei	-10.8255
▁svedese	-10.8256
impiego	-10.8256
▁franco	-10.8262
▁correttamente	-10.8264
▁stando	-10.8266
99	-10.8273
▁contraria	-10.8274
▁legame	-10.8277
▁climatici	-10.8277
▁ke	-10.8277
▁rilevare	-10.8278
▁altamente	-10.828
▁ferito	-10.8282
▁azienda	-10.8285
ac	-10.8286
▁concetti	-10.8286
▁complessivo	-10.8289
▁pesanti	-10.8289
▁1997	-10.829
▁camere	-10.8291
▁attraversa	-10.8297
▁legali	-10.8298
▁farla	-10.8305
▁affi	-10.8306
▁sanitari	-10.8306
▁ria	-10.8308
ello	-10.8309
enza	-10.8313
▁averlo	-10.8319
▁crudele	-10.832
▁rami	-10.8325
▁messaggi	-10.8327
▁disperazione	-10.8329
▁strategico	-10.8334
▁moderno	-10.8334
▁angelo	-10.8336
▁eccita	-10.8337
▁maschera	-10.8338
▁insistere	-10.8345
estate	-10.8359
▁droga	-10.8361
ingresso	-10.8362
▁espressi	-10.837
▁precisione	-10.8372
▁laboratorio	-10.8374
nati	-10.8377
▁han	-10.8379
▁georgia	-10.8381
sì	-10.8382
▁penna	-10.8384
ya	-10.8387
ton	-10.8388
men	-10.8388
▁bacio	-10.8389
fra	-10.839
▁pas	-10.839
▁visite	-10.8392
▁sottile	-10.8392
▁bur	-10.8395
▁cattolica	-10.8396
▁ong	-10.8396
▁bianche	-10.8397
▁elettronica	-10.8398
▁ipotesi	-10.8402
▁uccide	-10.8404
oggi	-10.8405
▁andrà	-10.8409
▁prestazioni	-10.8416
▁attivi	-10.8416
cc	-10.8417
▁cookie	-10.8421
▁registrato	-10.8425
▁seduto	-10.8426
▁avventura	-10.8431
▁prossime	-10.8434
▁lottare	-10.8437
ucraina	-10.8437
▁trasmissione	-10.844
vvi	-10.8441
▁consigliere	-10.8442
▁3,	-10.8445
▁fondamento	-10.8451
▁armati	-10.8451
▁metteva	-10.8453
tine	-10.8456
▁stri	-10.8457
iraq	-10.8461
▁stavo	-10.8462
▁padroni	-10.8466
▁importazioni	-10.847
▁difetto	-10.847
▁soci	-10.8472
▁adeguatamente	-10.8472
▁stabilisce	-10.8472
▁popolari	-10.8474
▁gesti	-10.8475
▁profonde	-10.8478
nica	-10.8481
▁impedi	-10.8483
▁bro	-10.8483
▁scarsa	-10.849
▁giove	-10.8493
▁vanta	-10.8494
up	-10.8495
▁uccelli	-10.8495
stici	-10.8496
▁puro	-10.8497
▁fissato	-10.8498
▁assistito	-10.8499
05	-10.8501
stu	-10.8501
▁memorie	-10.8506
▁zia	-10.8508
▁collegamento	-10.8508
▁democratiche	-10.8513
▁rigore	-10.8514
▁minimi	-10.8514
▁lieve	-10.8515
▁maestri	-10.8518
▁espressa	-10.8518
▁asse	-10.852
▁tele	-10.8521
▁contribuenti	-10.853
▁giuridici	-10.853
▁avanzata	-10.8531
xi	-10.8535
▁peggiore	-10.8535
▁bre	-10.8538
▁ripete	-10.8538
rge	-10.8539
indipendenza	-10.8541
ese	-10.8545
▁aspettava	-10.8549
▁circostanza	-10.8551
▁it	-10.8551
inquinamento	-10.8552
▁falsa	-10.8556
▁parma	-10.8557
▁sommo	-10.8558
▁confessa	-10.8558
▁segnali	-10.8559
▁semplificazione	-10.856
▁determinare	-10.8571
▁soffrire	-10.8571
▁foreste	-10.8575
▁combatte	-10.8577
▁stette	-10.8578
▁spiaggia	-10.858
▁alternativa	-10.8583
▁complessa	-10.8586
▁rinviato	-10.8587
▁istituti	-10.8589
▁ritmo	-10.859
▁vendere	-10.8597
▁elaborato	-10.8598
č	-10.86
▁frequenti	-10.8603
▁nizza	-10.8605
▁creando	-10.8608
▁capitoli	-10.8611
cchio	-10.8611
je	-10.8612
rá	-10.8612
▁denuncia	-10.8613
▁individuale	-10.8613
esempio	-10.8614
▁pensione	-10.8615
▁confermato	-10.862
▁convergenza	-10.8621
▁liberale	-10.8623
▁spia	-10.8624
▁recupero	-10.8624
▁affetti	-10.8624
▁core	-10.8626
▁convento	-10.8628
▁sorveglianza	-10.8632
▁singolare	-10.8633
▁consola	-10.8634
▁contadini	-10.8635
▁compassione	-10.8645
▁cancro	-10.8646
▁occupato	-10.8646
î	-10.8646
▁innovazione	-10.8655
rre	-10.8656
▁serva	-10.8657
▁eccezione	-10.8659
▁diploma	-10.8661
▁quartiere	-10.8666
▁determinate	-10.8674
▁bada	-10.8677
▁cercano	-10.8682
▁tarda	-10.8685
▁registro	-10.8686
▁genera	-10.8686
▁comunicazioni	-10.8687
▁monarchia	-10.8688
▁musicale	-10.8688
▁applicato	-10.8689
▁raccolti	-10.8691
▁ritiro	-10.8694
▁falso	-10.87
▁bellissima	-10.8703
▁pesci	-10.8704
▁maestà	-10.8705
▁governance	-10.8706
▁richiedono	-10.8709
▁alpi	-10.8715
▁design	-10.8725
▁ricchezze	-10.8727
▁tranquillo	-10.873
▁scudi	-10.8732
▁spedizione	-10.8733
▁vorrà	-10.8735
▁riusciremo	-10.8737
▁catastrofe	-10.8737
▁tomo	-10.874
▁farebbe	-10.8742
▁considerati	-10.8744
▁solitudine	-10.8745
esterno	-10.8745
endo	-10.875
▁conosceva	-10.8752
▁giudicare	-10.8752
cola	-10.8752
iran	-10.8752
▁restrizioni	-10.8755
▁attivamente	-10.8766
▁you	-10.8767
▁sana	-10.8768
▁educazione	-10.8769
▁conclude	-10.877
▁specchio	-10.877
▁regimi	-10.8772
nare	-10.8772
▁energetiche	-10.8773
▁banco	-10.8775
▁sentiero	-10.8778
▁seguì	-10.878
abbiamo	-10.8782
▁facili	-10.8783
▁auspica	-10.8785
ane	-10.8786
▁imposto	-10.8791
▁imposta	-10.8792
▁decenni	-10.8794
▁dona	-10.8796
▁darsi	-10.8797
▁lettori	-10.8798
▁esercita	-10.8804
▁federigo	-10.8805
▁ciao	-10.8811
▁coperto	-10.8812
▁protegge	-10.8815
▁religiose	-10.8819
▁ostacolo	-10.882
▁schiavi	-10.8823
eccellente	-10.8824
▁garantisce	-10.8824
▁prof	-10.8825
▁fiamme	-10.8825
▁parli	-10.8826
▁mandare	-10.8826
▁scor	-10.8827
▁amante	-10.8828
▁frode	-10.8829
▁amava	-10.8829
▁ritenuto	-10.883
scia	-10.8831
▁attacco	-10.8833
▁immigrazione	-10.8834
▁calcolo	-10.8834
▁trattava	-10.8835
▁fida	-10.8835
▁cerchi	-10.8836
▁epoca	-10.8836
ffer	-10.8837
▁evidenzia	-10.885
cidi	-10.885
bre	-10.8851
rt	-10.8852
▁legata	-10.8862
▁sostanziale	-10.8866
del	-10.8867
▁gian	-10.8867
▁nasconde	-10.8868
▁medicinali	-10.8869
▁isola	-10.887
▁operato	-10.8876
▁conviene	-10.8878
▁quaranta	-10.8878
▁danza	-10.888
▁tro	-10.8883
):	-10.8888
▁spiegazione	-10.8893
▁premi	-10.8894
▁eseguire	-10.8894
▁asso	-10.8897
▁ducato	-10.8898
▁colonne	-10.8901
▁0,	-10.8902
▁interroga	-10.8903
ud	-10.8907
▁attimo	-10.8912
uro	-10.8913
hai	-10.8914
▁rappresentanza	-10.8915
▁oneri	-10.892
▁cappella	-10.8922
nale	-10.8928
▁muore	-10.8931
▁grato	-10.8932
▁misericordia	-10.8938
▁giulia	-10.894
▁frontiera	-10.8942
▁temperatura	-10.8946
▁supera	-10.8958
▁negativi	-10.8962
▁illustri	-10.8967
▁riuscì	-10.8967
▁furia	-10.8968
▁mescola	-10.8969
▁macchia	-10.8972
▁intesa	-10.8978
▁rompe	-10.8979
97	-10.8981
▁eroi	-10.8982
▁condivide	-10.8986
▁fresco	-10.8986
fat	-10.8987
▁frati	-10.8991
▁criterio	-10.8991
lato	-10.8994
▁chiamano	-10.8994
▁domina	-10.9
▁ugo	-10.9003
▁sviluppato	-10.9003
▁nominato	-10.9006
▁soddisfacente	-10.9007
▁scandalo	-10.901
▁rammenta	-10.9014
▁disponiamo	-10.9014
▁affinchè	-10.9022
▁vela	-10.9024
▁formare	-10.9028
▁vicende	-10.9029
▁umanitari	-10.9031
▁sospetti	-10.9037
▁vederlo	-10.9044
▁amica	-10.9047
▁spo	-10.905
▁trasforma	-10.9052
▁china	-10.9055
▁delicato	-10.9058
▁riguardante	-10.9062
▁offrono	-10.9063
▁successi	-10.9064
▁mantova	-10.9064
▁tenga	-10.9066
▁pericolosa	-10.9067
▁manifestazioni	-10.9069
▁elettrica	-10.9069
▁costanza	-10.907
▁affretta	-10.907
▁more	-10.9079
▁ger	-10.908
▁dibattiti	-10.908
etti	-10.9081
scu	-10.9081
▁darà	-10.9083
▁pra	-10.9088
▁sintesi	-10.9089
▁raccontare	-10.9093
▁pie	-10.9095
▁modena	-10.9096
▁suddetto	-10.9099
▁pietre	-10.9099
▁metti	-10.9101
▁ferrara	-10.9103
▁precipita	-10.9104
▁adulti	-10.9106
sk	-10.9107
▁sensibilità	-10.9109
▁inferiori	-10.911
▁negozio	-10.9111
▁tar	-10.9114
▁orgoglio	-10.9115
▁multi	-10.9116
▁clero	-10.9117
nl	-10.9118
▁rilevante	-10.9119
▁firmato	-10.912
▁catastrofi	-10.9121
▁volumi	-10.9121
nella	-10.9122
▁uniforme	-10.9124
▁legislative	-10.9128
▁sapevo	-10.9128
▁agricoltura	-10.9129
▁tristi	-10.9131
▁perseguire	-10.9132
▁elena	-10.9136
08	-10.9137
▁dicevano	-10.9139
▁eserciti	-10.9139
terà	-10.9153
▁agenti	-10.9156
▁pratico	-10.9156
▁sedi	-10.9158
▁ottima	-10.9158
▁faranno	-10.9161
▁timori	-10.9163
▁manzoni	-10.9163
tosi	-10.9164
▁rammarico	-10.9165
▁impressione	-10.9165
▁osa	-10.9165
▁pittore	-10.9168
▁maurizio	-10.9169
▁disgrazia	-10.917
▁accenna	-10.917
▁usi	-10.917
▁eccetera	-10.918
▁rivolte	-10.918
▁xiii	-10.9183
▁costruito	-10.9184
tate	-10.9186
▁chiusi	-10.919
▁diviso	-10.919
▁gamma	-10.9196
▁guardie	-10.9196
▁discutendo	-10.9199
▁rivolgere	-10.9202
▁debbo	-10.9202
▁torri	-10.9203
▁fargli	-10.9206
09	-10.9206
▁disputa	-10.9213
▁mondiali	-10.9214
▁tranquilla	-10.9215
▁stradale	-10.9217
rina	-10.9218
▁consentirà	-10.9219
▁elevata	-10.9219
▁nascere	-10.9223
▁scienziati	-10.9232
otto	-10.9235
▁trasmettere	-10.9236
▁foglio	-10.9237
▁comandante	-10.924
▁supremo	-10.9243
▁crimini	-10.9243
▁diventi	-10.9243
▁cela	-10.9244
▁spagnolo	-10.9247
▁patti	-10.925
▁parecchie	-10.925
▁divino	-10.9256
07	-10.9263
▁burocrazia	-10.9265
esercito	-10.9266
dis	-10.9267
letti	-10.9268
▁veduta	-10.9269
▁restò	-10.9272
▁ingresso	-10.9273
▁uguali	-10.9275
▁2017	-10.9278
ai	-10.9282
▁personalità	-10.9282
▁disprezzo	-10.9284
▁2016	-10.9289
▁misero	-10.9291
▁velo	-10.9294
ara	-10.9295
▁matteo	-10.9297
▁rispondeva	-10.9297
▁alleati	-10.9298
▁annunciato	-10.9299
▁cercava	-10.9299
▁massime	-10.9301
▁retro	-10.9301
▁spiriti	-10.9307
▁pareti	-10.9309
▁significativa	-10.9311
ct	-10.9311
▁distruggere	-10.9314
▁avvenne	-10.9314
▁terribili	-10.9316
▁lieti	-10.9316
▁accento	-10.9317
▁sar	-10.9319
▁nobiltà	-10.9319
▁lunghezza	-10.9321
▁vola	-10.9336
06	-10.9337
▁coro	-10.9341
uni	-10.9342
▁equo	-10.9342
▁permetta	-10.9342
regolamentazione	-10.9343
temi	-10.9343
▁quod	-10.9352
▁bon	-10.9353
tato	-10.9353
▁ampliamento	-10.9358
▁trovata	-10.936
▁ritratto	-10.9368
▁urgenza	-10.9368
▁potenze	-10.9371
▁emozioni	-10.9372
▁regolarmente	-10.9375
▁estendere	-10.9376
▁russa	-10.9376
▁lungamente	-10.938
▁team	-10.938
▁ved	-10.9381
▁svizzera	-10.9382
▁divide	-10.9385
▁duchessa	-10.9386
▁colloqui	-10.9387
▁riescono	-10.9394
▁baroni	-10.9394
alleanza	-10.9395
▁conforta	-10.9402
▁trans	-10.9405
▁carni	-10.9408
▁costruttivo	-10.9412
▁negare	-10.9413
▁vice	-10.9415
▁stanca	-10.9417
▁evoluzione	-10.9417
▁giallo	-10.9419
▁ordina	-10.9419
▁trasformare	-10.9421
▁consulta	-10.9422
▁serata	-10.9426
▁interessato	-10.943
▁vengo	-10.9435
▁ritardi	-10.9435
▁fior	-10.9435
▁luci	-10.9437
▁fermò	-10.9439
▁belgio	-10.944
▁castel	-10.944
▁cristianesimo	-10.9443
▁spagnuoli	-10.9447
▁carbone	-10.945
scio	-10.9456
▁potea	-10.9461
ampia	-10.9461
▁liberazione	-10.9461
▁)	-10.9462
▁globali	-10.9465
▁condotti	-10.9466
▁decine	-10.9467
ps	-10.9467
▁erasi	-10.947
nate	-10.9474
▁bari	-10.9477
▁giornate	-10.9477
ó	-10.9479
▁iraq	-10.948
▁trasporta	-10.9486
▁fisico	-10.9487
▁giuridiche	-10.9489
▁olandese	-10.9492
▁temporale	-10.9497
▁prender	-10.9499
▁separa	-10.95
▁monetari	-10.9506
▁quotidiana	-10.9506
cs	-10.9507
▁incomincia	-10.9509
hanno	-10.951
▁minoranza	-10.9515
ü	-10.9517
cer	-10.9519
▁croazia	-10.9519
▁ripercussioni	-10.9523
▁battaglie	-10.9523
▁mettiamo	-10.9525
▁oscura	-10.9527
▁sollevare	-10.9529
▁reati	-10.953
▁successiva	-10.9532
▁vestiti	-10.9535
▁determina	-10.9535
sen	-10.9536
▁pacifica	-10.9538
the	-10.9538
▁appartiene	-10.9538
▁cosiddetta	-10.9538
▁canali	-10.9541
▁tasca	-10.9546
▁pubblicata	-10.955
edi	-10.955
▁salta	-10.9559
▁severo	-10.9559
▁richiedere	-10.9561
▁carbonio	-10.9561
olo	-10.9563
▁coinvolgere	-10.9564
▁arrivò	-10.9565
▁feriti	-10.9567
▁applicata	-10.9569
▁interrompe	-10.957
▁contempla	-10.9571
▁sfera	-10.9572
▁radici	-10.9572
▁insegnanti	-10.9572
▁cosiddetto	-10.9573
▁bruno	-10.9574
▁ispira	-10.9575
▁cattolici	-10.958
18	-10.9581
▁club	-10.9581
▁predica	-10.9585
▁frodi	-10.9587
▁convinti	-10.9589
▁medica	-10.9592
▁pakistan	-10.9592
▁immobile	-10.9593
ah	-10.9595
▁mercoledì	-10.9596
▁cavalleria	-10.9597
▁glielo	-10.9599
▁retta	-10.96
▁temere	-10.9602
▁teresa	-10.9604
rit	-10.9605
▁tranne	-10.9607
▁formulazione	-10.9613
▁calda	-10.9614
04	-10.9614
▁lusso	-10.9617
▁resti	-10.962
▁governa	-10.962
▁pensavo	-10.962
▁diventano	-10.9629
▁provocato	-10.963
▁piange	-10.9632
▁invitato	-10.9638
ula	-10.964
▁evita	-10.9642
▁piatto	-10.9643
▁im	-10.9645
lico	-10.9649
▁ramo	-10.9651
pia	-10.9652
▁brutto	-10.9654
▁vicerè	-10.9655
▁loco	-10.9655
▁americana	-10.9655
▁dolcezza	-10.9656
▁morali	-10.9658
▁austriaci	-10.9658
▁forum	-10.9659
▁esposto	-10.9662
▁300	-10.9664
▁lord	-10.9669
rbi	-10.9669
▁india	-10.967
nici	-10.9672
▁avrete	-10.9674
▁invano	-10.9677
▁pretende	-10.9677
▁ballo	-10.9677
ola	-10.9678
▁tradimento	-10.9679
▁marino	-10.9679
▁cuori	-10.9679
bb	-10.968
bro	-10.9681
tter	-10.9681
+	-10.9682
▁cinquecento	-10.9682
▁intra	-10.9685
▁destinate	-10.9691
▁impero	-10.9694
wi	-10.9694
▁cedere	-10.9698
▁integrato	-10.97
▁riesco	-10.97
▁stacca	-10.9705
▁barriere	-10.9705
▁guadagna	-10.9705
▁esito	-10.9706
▁armate	-10.971
bil	-10.9716
▁piacevole	-10.9718
pra	-10.972
▁bilaterali	-10.9721
▁borgo	-10.9722
▁colazione	-10.9724
▁sguardi	-10.9725
▁beve	-10.9726
▁religiosi	-10.9729
▁consuma	-10.973
nesi	-10.9733
▁studente	-10.974
▁incoraggia	-10.9742
▁legami	-10.9743
▁sventura	-10.9744
▁stabili	-10.9748
▁tonnellate	-10.9748
▁4,	-10.975
▁2012	-10.975
▁arresta	-10.9751
▁dovea	-10.9755
▁comanda	-10.9755
▁riveste	-10.9759
▁desta	-10.9766
▁lasciata	-10.9768
▁registrazione	-10.9768
▁prendo	-10.9768
mica	-10.9768
▁cinema	-10.977
▁apertamente	-10.977
dire	-10.9771
▁dolori	-10.9776
nes	-10.9779
▁spoglia	-10.9781
▁colpiti	-10.9785
mbe	-10.9786
▁colonnello	-10.9789
▁professionisti	-10.9789
▁generi	-10.979
▁testimoni	-10.9791
▁coppia	-10.9792
▁conversazione	-10.9792
▁decisivo	-10.9793
▁apportare	-10.9794
▁sara	-10.9804
dri	-10.9806
▁gui	-10.9808
▁ospita	-10.9811
▁adeguati	-10.9815
▁madri	-10.9817
▁rispetta	-10.9817
les	-10.9818
▁preghiere	-10.9823
gri	-10.9824
▁ugualmente	-10.9824
shi	-10.9827
▁pericolose	-10.9828
ncia	-10.9836
▁puglia	-10.9837
ide	-10.9841
▁lucca	-10.9843
▁stretti	-10.9844
▁pensioni	-10.9848
▁aspettando	-10.9849
▁dedica	-10.985
▁menti	-10.9852
▁emergenza	-10.9852
▁sce	-10.9853
▁sosta	-10.9854
assenza	-10.9855
▁nascosto	-10.9857
▁doveri	-10.9857
asse	-10.9859
▁rallegra	-10.9859
▁accuse	-10.986
▁2.	-10.9863
samente	-10.9863
▁cominciava	-10.9865
veni	-10.9866
die	-10.9866
▁svolgono	-10.9867
esa	-10.9869
▁laggiù	-10.9871
▁assi	-10.9871
▁omaggio	-10.9875
▁spendere	-10.9876
▁conforme	-10.9876
▁meriti	-10.9878
bilmente	-10.9879
▁sieno	-10.988
▁farle	-10.9883
rica	-10.9884
▁abiti	-10.9888
▁barcellona	-10.9891
▁fornitura	-10.9896
▁investimento	-10.9903
▁splendida	-10.991
▁potevo	-10.9911
▁siena	-10.9912
▁profondità	-10.9912
esito	-10.9913
▁inclusi	-10.9914
▁distingue	-10.9916
▁legittima	-10.9922
▁uccidere	-10.9923
dor	-10.9925
▁bosnia	-10.9926
usi	-10.9928
influenza	-10.9928
▁curva	-10.9931
ude	-10.9932
▁ossa	-10.9933
▁feroce	-10.9937
21	-10.9938
▁circolo	-10.9941
▁velocemente	-10.9942
ens	-10.9944
▁radicale	-10.9945
▁pavia	-10.9948
▁tela	-10.9949
▁lodi	-10.9949
▁pericolosi	-10.9949
▁incontrare	-10.9949
▁fre	-10.9954
▁sensibile	-10.9957
▁fer	-10.9958
▁aderire	-10.996
▁dispetto	-10.9961
▁togliere	-10.9961
obs	-10.9964
▁strutturale	-10.9972
▁egualmente	-10.9979
nelli	-10.9981
ismo	-10.9984
▁capisce	-10.9985
▁richiamo	-10.9988
▁colonia	-10.9991
▁possiede	-10.9991
mpa	-10.9993
▁successivi	-10.9995
▁portoghese	-10.9995
▁consideriamo	-10.9996
80	-10.9996
▁minor	-10.9997
▁copenaghen	-10.9999
▁risolve	-11.0006
▁addietro	-11.0007
▁impegnarsi	-11.0007
▁ordinato	-11.0008
▁concittadini	-11.001
▁soddisfatti	-11.0012
▁rinunciare	-11.0013
▁ritira	-11.0015
accento	-11.0017
▁animi	-11.0018
▁mica	-11.0019
▁bretagna	-11.0023
▁capitani	-11.0025
▁notevolmente	-11.0027
insieme	-11.0028
▁sensibili	-11.0032
01	-11.0036
▁dichiarare	-11.0036
▁2014	-11.0045
▁xiv	-11.0046
▁perdite	-11.0048
▁offri	-11.0049
▁villani	-11.005
nese	-11.0053
ario	-11.0056
diamo	-11.0056
india	-11.0065
▁goti	-11.0073
▁organo	-11.0075
operazione	-11.0076
▁auguriamo	-11.0077
▁incidente	-11.008
▁tribunali	-11.0082
▁invoca	-11.0082
▁cotesto	-11.0084
cto	-11.0085
▁mossa	-11.0096
▁individuali	-11.0097
▁invidia	-11.0097
▁predi	-11.0099
▁ambedue	-11.01
▁farvi	-11.0103
etta	-11.0105
▁tristezza	-11.0108
▁impiego	-11.0108
▁preferito	-11.011
▁integrare	-11.0112
▁zelo	-11.0114
▁motori	-11.0116
▁angeli	-11.0116
nni	-11.0117
▁colloca	-11.0117
▁rivista	-11.0117
▁xv	-11.0124
▁provvedere	-11.0125
24	-11.0135
▁valutazioni	-11.0135
▁tv	-11.0139
▁analizzare	-11.014
▁commento	-11.015
▁siria	-11.015
▁amministrative	-11.0153
▁riduce	-11.0153
▁intento	-11.0153
▁ducati	-11.0154
anzi	-11.0155
▁mobile	-11.0155
▁confermare	-11.0158
▁sessanta	-11.0159
▁disegna	-11.016
▁cessa	-11.0162
mò	-11.0169
▁biglietto	-11.0169
▁febbre	-11.0169
▁nacque	-11.0169
▁operano	-11.0171
▁applicazioni	-11.0173
▁accrescere	-11.0173
ici	-11.0174
▁solida	-11.0176
▁spicca	-11.0177
▁ciononostante	-11.0177
▁sedia	-11.0181
▁registra	-11.0182
▁sp	-11.0183
▁hi	-11.0187
▁vicinato	-11.0194
▁penetra	-11.0197
▁gravemente	-11.0198
▁rilevanza	-11.0199
▁sanitario	-11.0203
▁celebra	-11.0204
▁guardi	-11.0206
▁impulso	-11.0211
▁volge	-11.0212
ucci	-11.0213
▁libere	-11.0214
▁telefono	-11.0214
▁pilota	-11.0214
arma	-11.0216
sono	-11.0217
isti	-11.0227
▁ob	-11.0229
▁reciproco	-11.0231
▁appar	-11.0231
té	-11.0234
▁laurea	-11.0235
▁credono	-11.0239
▁saluti	-11.0239
▁respingere	-11.0241
cli	-11.0241
▁copertura	-11.0243
▁contraddizione	-11.0245
▁separazione	-11.0247
▁austria	-11.0248
▁censura	-11.0251
▁famosa	-11.0251
▁puni	-11.0253
▁ambizioso	-11.0256
▁sha	-11.0261
altezza	-11.0262
▁fiumi	-11.0264
▁andarono	-11.0264
▁rassegna	-11.0266
▁caduto	-11.0268
▁equilibrata	-11.0272
▁cattura	-11.0277
ndoci	-11.0279
dem	-11.0279
▁chiamò	-11.028
▁creature	-11.0282
rri	-11.0282
tina	-11.0282
▁definiti	-11.0284
▁attribuire	-11.0285
▁informare	-11.0289
geni	-11.0289
▁parziale	-11.0293
▁avanzate	-11.0294
mb	-11.0294
▁russo	-11.0295
▁arrivano	-11.0295
meri	-11.0296
cre	-11.03
▁positivamente	-11.0306
ua	-11.0307
▁45	-11.031
▁usati	-11.0317
▁flessibile	-11.0318
▁occorrono	-11.032
▁esistere	-11.0322
▁colloquio	-11.0322
▁undici	-11.0325
▁sembrare	-11.0326
▁facciano	-11.0327
▁clemente	-11.033
▁positive	-11.033
▁pensano	-11.0331
▁superato	-11.0331
▁radice	-11.0333
▁intendono	-11.0335
▁simboli	-11.0336
▁padrona	-11.0336
▁dovessero	-11.0337
▁rivolgo	-11.0344
▁formale	-11.0347
▁brutta	-11.0348
▁z	-11.0353
▁continuava	-11.0355
uda	-11.0355
▁neo	-11.0358
▁aspettiamo	-11.0359
lone	-11.036
▁nascondere	-11.0363
▁opposto	-11.0365
98	-11.0367
▁baci	-11.0369
▁serbia	-11.0371
▁esami	-11.0375
▁porterà	-11.0378
▁passate	-11.0378
▁strategica	-11.038
▁reciproca	-11.0383
▁considero	-11.0391
▁contribuisce	-11.0393
▁scarica	-11.0396
▁les	-11.0397
▁provincie	-11.0397
alta	-11.0398
▁attiene	-11.0398
▁ami	-11.0398
▁espressamente	-11.0403
▁cata	-11.0404
ziona	-11.0407
▁suoni	-11.0407
ic	-11.0412
▁annunzia	-11.0417
▁consentono	-11.0418
▁causato	-11.0419
▁allargamento	-11.0421
▁utilizzate	-11.0424
turi	-11.0426
▁filosofo	-11.0426
▁deficit	-11.0426
▁visibile	-11.0428
▁rico	-11.0429
▁avverti	-11.0429
▁boschi	-11.043
▁levò	-11.0432
▁orecchie	-11.0433
▁avvocato	-11.0436
▁definita	-11.0439
▁gelosia	-11.0441
ten	-11.0441
elli	-11.0443
▁corti	-11.0446
▁pareri	-11.045
▁gentili	-11.045
▁80	-11.0451
▁presero	-11.0452
▁regolari	-11.0454
▁olio	-11.0456
dipendentemente	-11.0457
▁accorda	-11.046
▁convincere	-11.046
▁spagnola	-11.0464
▁singole	-11.0464
▁amministrativa	-11.0465
▁racconti	-11.0466
▁colpevole	-11.0469
▁cancelliere	-11.0469
▁bestia	-11.047
â	-11.0473
▁legittimo	-11.0473
▁avuta	-11.0473
▁mosca	-11.0473
▁rocca	-11.0473
▁adora	-11.0475
▁connessi	-11.0476
▁sollecita	-11.0478
▁ten	-11.0482
▁finalità	-11.0483
▁aggiunse	-11.0485
▁sacerdote	-11.0485
▁problematiche	-11.0485
▁pugno	-11.0487
▁rendendo	-11.0488
▁ordinò	-11.0489
▁sosteniamo	-11.0489
▁2015	-11.049
▁parlò	-11.049
ore	-11.049
▁zu	-11.0492
▁scopi	-11.0493
▁salotto	-11.0494
▁importo	-11.0495
▁pati	-11.0499
▁pausa	-11.05
▁spiegato	-11.05
▁ecu	-11.0514
▁domenico	-11.0515
▁aeree	-11.052
▁ter	-11.052
▁fanciulli	-11.0523
▁pagato	-11.0524
▁permetterà	-11.0526
▁conformemente	-11.0529
▁hist	-11.053
▁comunista	-11.0533
tino	-11.0534
▁lanciato	-11.0536
▁sostenuta	-11.0536
acquisto	-11.0538
▁terreni	-11.0541
▁corrispondenza	-11.0542
▁xvi	-11.0542
pie	-11.0543
coli	-11.0543
zzate	-11.055
cta	-11.0552
mani	-11.0553
▁archi	-11.0558
▁reputa	-11.0558
ista	-11.0558
▁diminuzione	-11.0558
nca	-11.056
▁fedeltà	-11.0562
▁magistrati	-11.0562
▁mezzogiorno	-11.0562
▁concernenti	-11.0564
▁artista	-11.0567
▁diffusa	-11.0569
▁menzionato	-11.0571
▁pazzo	-11.0574
evento	-11.0576
▁genovesi	-11.0579
▁recarsi	-11.0581
▁tomba	-11.0582
▁convinta	-11.0583
nis	-11.0585
▁bellissimo	-11.0586
▁valere	-11.0587
▁interpretazione	-11.0587
▁confida	-11.0588
▁dee	-11.0589
▁stadio	-11.0589
▁quo	-11.0592
we	-11.0596
▁mostrò	-11.0604
▁lento	-11.0605
▁diedero	-11.061
▁tommaso	-11.0613
▁ser	-11.0614
esi	-11.0614
▁rinnova	-11.0619
▁realizzati	-11.0622
▁informati	-11.0622
▁rito	-11.0627
▁trecento	-11.0627
▁somministra	-11.0627
▁ebbi	-11.0628
nk	-11.0629
▁petizioni	-11.063
▁nol	-11.0631
ley	-11.0634
▁cortile	-11.0634
gò	-11.0635
▁longobardi	-11.0639
▁troppi	-11.0639
▁google	-11.0647
▁lasciamo	-11.0648
▁comunicato	-11.0649
▁indirizzo	-11.0655
▁mancata	-11.0659
▁convenzioni	-11.066
▁ruota	-11.066
▁permettono	-11.0662
lda	-11.0665
▁muoversi	-11.0667
▁lanciare	-11.0668
▁gamba	-11.067
▁distinti	-11.0672
vansi	-11.0677
▁affermazioni	-11.0677
▁martino	-11.0682
▁compiace	-11.0683
▁disposta	-11.0686
▁fermezza	-11.0687
▁corda	-11.0689
▁realizza	-11.069
▁immediata	-11.069
gue	-11.069
ella	-11.0692
▁incremento	-11.0693
▁efficacemente	-11.0693
tano	-11.0695
▁mortale	-11.0696
logo	-11.07
▁tecnologico	-11.0703
▁coperta	-11.0703
nzia	-11.0707
▁giovanna	-11.0708
▁rimaneva	-11.071
▁precisare	-11.0712
▁attento	-11.0713
parti	-11.0713
▁traverso	-11.0714
▁grandissima	-11.0717
▁verte	-11.0718
▁medesime	-11.072
▁orientamento	-11.0721
▁generoso	-11.0721
▁salvezza	-11.0722
▁paesaggio	-11.0722
▁muri	-11.0723
▁organismo	-11.0726
▁impegnata	-11.0727
▁sofferenza	-11.0729
▁sostengono	-11.073
▁accorge	-11.0731
▁equilibrato	-11.0733
▁barone	-11.0734
▁malta	-11.0734
▁ferita	-11.0734
bia	-11.0734
35	-11.0736
▁accennato	-11.0736
▁fla	-11.0737
▁lussemburgo	-11.0738
▁curato	-11.0738
▁pittura	-11.0738
▁sacri	-11.074
▁giustificare	-11.0742
▁congiura	-11.0744
▁masse	-11.0747
▁mostrava	-11.0748
▁fantastico	-11.0751
▁bagna	-11.0751
▁semplicità	-11.0751
96	-11.0752
▁fol	-11.0753
ngono	-11.0754
▁socialisti	-11.0754
▁dargli	-11.0756
▁affaccia	-11.0757
▁gitta	-11.0758
lò	-11.0759
▁2019	-11.0761
▁occuparsi	-11.0762
▁camminare	-11.0762
▁furon	-11.0764
▁spalla	-11.0765
cra	-11.0767
ble	-11.0771
dice	-11.0771
▁suprema	-11.0772
▁esalta	-11.0775
asia	-11.0775
▁fortunatamente	-11.0776
educazione	-11.0779
▁basse	-11.0783
ite	-11.0784
▁conforto	-11.079
▁razzismo	-11.079
▁crudeltà	-11.079
▁accelerare	-11.0791
▁spinto	-11.0792
lare	-11.0792
tis	-11.0795
▁secca	-11.0796
▁francesca	-11.0797
▁obbligatoria	-11.0797
acco	-11.0799
▁abito	-11.08
▁desideriamo	-11.0802
▁q	-11.0802
▁fanti	-11.0803
▁sistematica	-11.0807
▁giardini	-11.0809
▁marittima	-11.0812
▁leggenda	-11.0814
▁vanità	-11.0818
▁ideali	-11.0821
▁nutri	-11.0822
▁veleno	-11.0827
▁applicate	-11.0829
almente	-11.083
▁inizialmente	-11.083
teristituzionale	-11.0834
▁considerate	-11.0834
▁regni	-11.0837
▁commedia	-11.0839
▁cinesi	-11.084
▁immenso	-11.0843
▁prendi	-11.0846
▁strappa	-11.085
▁tiranno	-11.0852
03	-11.0854
▁prendono	-11.0855
ab	-11.0856
ard	-11.0859
▁salita	-11.0859
▁segnatamente	-11.0862
▁mestiere	-11.0862
car	-11.0863
▁profeta	-11.0864
enorme	-11.0866
▁scorre	-11.0871
identità	-11.0871
▁evidenziato	-11.0872
▁considerevole	-11.0873
▁lode	-11.0876
▁assiste	-11.0879
▁persuade	-11.0879
▁avanzare	-11.088
▁tace	-11.0882
▁menzione	-11.0884
▁como	-11.0884
bio	-11.0884
san	-11.0887
▁rapidi	-11.0888
▁trovavano	-11.089
▁residenza	-11.0891
▁attesta	-11.0892
▁ringraziamento	-11.0892
▁intelligenza	-11.0893
▁piattaforma	-11.0895
▁dovrei	-11.0896
▁furore	-11.0896
*	-11.0897
▁cad	-11.0897
▁veneto	-11.0898
▁britannica	-11.0899
▁frequenza	-11.0899
▁striscia	-11.09
▁eterna	-11.09
rati	-11.0902
▁impegnato	-11.0903
▁tessuto	-11.0904
▁divenuto	-11.0904
▁originali	-11.0904
▁integrata	-11.0904
▁concordato	-11.0906
▁appoggiato	-11.091
▁dama	-11.0911
▁coinvolte	-11.0913
▁chiedeva	-11.0914
▁rientrano	-11.0916
▁desiderano	-11.0917
▁incentivi	-11.0917
▁divertente	-11.0918
▁diventando	-11.0919
45	-11.0919
▁illustra	-11.092
▁adopera	-11.0923
▁extra	-11.0924
▁magnifico	-11.0926
uguaglianza	-11.0928
23	-11.0933
▁dirige	-11.0933
▁egitto	-11.0934
▁ribellione	-11.0935
▁conoscono	-11.0937
▁rimette	-11.094
▁ottenuti	-11.0943
▁ambizione	-11.0944
▁operai	-11.0946
▁meritano	-11.095
▁contrasta	-11.0956
▁matematica	-11.0961
▁bor	-11.0964
tera	-11.0964
▁vizio	-11.0965
▁giá	-11.0966
nco	-11.0967
▁studia	-11.0971
▁averne	-11.0972
▁promuove	-11.0974
▁include	-11.0977
▁settimo	-11.0979
▁colpisce	-11.0981
▁ambasciatori	-11.0983
grafia	-11.0985
▁rapidità	-11.0985
▁risolto	-11.0988
▁moltitudine	-11.099
▁passano	-11.0991
▁fondato	-11.0993
▁intese	-11.0996
▁tendenze	-11.1003
▁contenere	-11.1013
▁innocenti	-11.1015
▁vieta	-11.1015
▁tornava	-11.1017
llu	-11.1018
▁ribelli	-11.102
▁prigioni	-11.1021
lità	-11.1023
▁comodo	-11.1026
▁circonda	-11.1026
▁privo	-11.1028
logia	-11.103
▁utilizzata	-11.103
▁istituito	-11.103
▁collera	-11.1031
▁spavento	-11.1031
▁fresca	-11.1038
▁muovere	-11.1039
▁rotto	-11.1041
lin	-11.1044
▁vedova	-11.1045
▁scientifici	-11.1046
▁brava	-11.1047
▁ascolto	-11.1047
▁ombre	-11.1051
▁wa	-11.1055
▁rei	-11.1057
▁determinata	-11.1059
▁finlandia	-11.1059
▁rilevato	-11.1059
▁innocente	-11.1059
▁potersi	-11.106
▁frasi	-11.1061
▁bolla	-11.1065
▁console	-11.1065
▁arco	-11.1068
▁trovarono	-11.1071
▁&-	-11.1075
▁privilegi	-11.1076
tati	-11.1077
▁tolleranza	-11.1078
▁normativo	-11.1083
▁segnala	-11.1088
▁tour	-11.1089
▁trovar	-11.109
▁sorridendo	-11.1092
▁onori	-11.1095
▁agenda	-11.1097
▁perpetua	-11.11
pp	-11.11
▁esige	-11.1101
▁alfonso	-11.1104
▁guasta	-11.1105
for	-11.1109
▁dinamica	-11.111
▁mancare	-11.111
▁adeguamento	-11.1112
▁guari	-11.1113
▁beneficiari	-11.1113
▁estremi	-11.1115
▁flusso	-11.1118
▁gue	-11.1119
▁annuncia	-11.112
▁gen	-11.1125
▁severi	-11.1126
▁fascia	-11.1127
spa	-11.1128
▁scene	-11.1129
▁fatale	-11.113
utente	-11.113
▁viviamo	-11.1131
▁vota	-11.1131
▁trattative	-11.1133
▁vincolante	-11.1133
▁ferroviario	-11.1136
▁profitti	-11.1141
▁parete	-11.1142
▁prato	-11.1146
pote	-11.1148
▁estremo	-11.1149
▁occupati	-11.1149
▁sentirsi	-11.1152
eliminazione	-11.1152
▁ann	-11.1152
remmo	-11.1153
▁località	-11.1154
▁gl	-11.1154
▁abbassa	-11.1154
22	-11.1156
▁improvvisa	-11.1158
▁leonardo	-11.116
orario	-11.1162
▁lasciano	-11.117
▁usata	-11.117
▁scientifiche	-11.1172
▁assunti	-11.1172
▁tenerezza	-11.1173
▁sinceramente	-11.1175
▁diffuso	-11.1176
▁crimine	-11.1176
▁giudiziario	-11.1181
▁scambia	-11.1183
▁negozi	-11.1186
▁sceglie	-11.1186
▁ridotti	-11.1187
▁scorta	-11.1187
▁tacere	-11.1188
▁sposta	-11.119
asilo	-11.1192
▁mostrano	-11.1198
ira	-11.1199
▁socio	-11.1199
▁canzoni	-11.1199
▁link	-11.12
▁informa	-11.12
▁federazione	-11.1203
▁rispettivi	-11.1206
▁udire	-11.1207
▁bara	-11.1208
▁inevitabile	-11.1213
universo	-11.1215
▁teste	-11.1217
▁incendi	-11.1219
▁culture	-11.1226
▁sano	-11.123
▁gar	-11.1231
▁marocco	-11.1231
▁arme	-11.1233
▁distinguere	-11.1234
▁sviluppati	-11.1237
▁concentrazione	-11.1243
rici	-11.1248
▁sentir	-11.125
▁ignorare	-11.1254
ui	-11.1255
▁compi	-11.126
▁impiegati	-11.1262
▁sospeso	-11.1263
▁milizie	-11.1263
sc	-11.1264
▁progressiva	-11.1276
▁frequenta	-11.1277
▁voli	-11.1278
▁maestra	-11.1281
▁rimasero	-11.1281
▁ambienti	-11.1281
▁troppe	-11.1282
▁disparità	-11.1286
▁rilascio	-11.1291
▁ricercatori	-11.1294
▁precede	-11.1294
▁salvaguardare	-11.1294
▁monastero	-11.1295
▁esposti	-11.1295
gen	-11.1295
▁accadere	-11.1296
▁agi	-11.1297
▁spinta	-11.1297
▁gro	-11.1297
▁beatrice	-11.1299
bat	-11.1299
▁face	-11.13
uli	-11.1303
▁tollera	-11.1304
num	-11.1309
▁cortesia	-11.1309
▁giudiziaria	-11.1309
intenzione	-11.1311
▁operativo	-11.1312
▁vulnerabili	-11.1316
por	-11.1317
▁condividiamo	-11.1318
▁motivazione	-11.1319
▁credete	-11.1322
▁rifugio	-11.1325
▁debiti	-11.1327
▁istituto	-11.1327
▁potrai	-11.1327
▁erra	-11.1333
▁enti	-11.1333
mine	-11.1333
▁dacchè	-11.1333
▁replica	-11.1334
▁gaza	-11.1335
▁britannici	-11.1336
▁care	-11.1337
▁tenore	-11.1337
▁flussi	-11.1338
▁sospensione	-11.135
▁precise	-11.1351
▁cra	-11.1351
nello	-11.1353
ot	-11.1354
▁risorsa	-11.1355
▁fermare	-11.1357
▁cortese	-11.1358
▁piene	-11.1359
sch	-11.136
▁am	-11.1361
▁riflessioni	-11.1364
▁visi	-11.1366
▁condusse	-11.1373
▁toccare	-11.1376
▁raccolte	-11.1377
▁segnalare	-11.1378
▁decimo	-11.1381
▁divario	-11.1386
▁protagonista	-11.1387
▁cantare	-11.1388
▁vangelo	-11.1392
▁5,	-11.1392
▁vicine	-11.1393
▁permettetemi	-11.1393
▁adottati	-11.1393
anche	-11.1395
▁insiste	-11.1396
▁riguardi	-11.1396
sioni	-11.1399
▁classico	-11.1401
▁modificato	-11.1402
nder	-11.1402
▁rientrare	-11.1403
▁introduzione	-11.1404
▁mancava	-11.1404
nea	-11.1405
▁ottiene	-11.1405
▁sottoposto	-11.1408
▁stabiliti	-11.141
▁legittimità	-11.1411
val	-11.1411
▁andrebbe	-11.1413
▁pacifico	-11.1415
▁timor	-11.1415
▁#	-11.1418
▁tematiche	-11.1419
▁sentivo	-11.1419
▁avvia	-11.1426
▁convegno	-11.1428
▁balla	-11.1429
▁intima	-11.143
▁martin	-11.1431
▁giuoco	-11.1433
▁comprare	-11.1435
▁creata	-11.1436
▁adatto	-11.1437
▁campione	-11.1439
▁sconfitta	-11.1442
▁bottega	-11.1443
▁descritto	-11.1443
▁afferra	-11.1445
▁milanese	-11.1448
▁amministrazioni	-11.1448
▁ur	-11.1454
▁tengono	-11.1457
▁monaco	-11.1458
▁sorprendente	-11.146
▁vincitore	-11.1462
▁associati	-11.1462
▁parametri	-11.1462
mbro	-11.1463
▁bande	-11.1465
▁virgilio	-11.1466
▁ferite	-11.1467
▁significativi	-11.147
▁televisione	-11.1471
cor	-11.1471
▁componente	-11.1473
rone	-11.1475
▁palestina	-11.1475
▁oppone	-11.148
▁pianificazione	-11.1482
▁ghiaccio	-11.1483
▁puo	-11.1485
ggiare	-11.1488
sque	-11.1488
▁inf	-11.1489
▁troppa	-11.149
tale	-11.1492
▁sospesa	-11.1494
▁quadrato	-11.1496
▁membra	-11.15
▁den	-11.15
▁illustre	-11.1502
▁maddalena	-11.1503
▁sasso	-11.1503
▁soldo	-11.1506
▁rosse	-11.1507
▁mentale	-11.151
▁contenti	-11.1513
▁giuramento	-11.1515
dono	-11.1517
▁lascio	-11.1517
▁gatto	-11.152
▁costituita	-11.1522
▁dotato	-11.1523
ag	-11.1525
▁prestito	-11.1527
▁apparire	-11.1527
bbi	-11.153
▁sopravvivenza	-11.1531
▁prestiti	-11.1535
▁avvenga	-11.1536
▁emana	-11.1536
▁dubita	-11.1543
▁sentiamo	-11.1545
▁abilità	-11.1548
▁sardegna	-11.1555
boli	-11.1555
▁peccati	-11.1555
▁federale	-11.1557
▁ritenere	-11.1557
▁spari	-11.1558
▁guidare	-11.156
▁sentenze	-11.1561
▁sentite	-11.1562
▁portati	-11.1564
▁consultazioni	-11.1571
▁golfo	-11.1573
▁solita	-11.1574
▁colli	-11.1574
▁rivelato	-11.1576
▁giovinezza	-11.1577
▁regna	-11.1577
▁kyoto	-11.1578
▁trovate	-11.158
▁venera	-11.1582
▁piů	-11.1583
▁negativa	-11.1588
▁pse	-11.1588
gg	-11.1593
versi	-11.1595
▁trasse	-11.1595
▁cal	-11.1597
▁rio	-11.1597
▁giustifica	-11.1598
▁ponti	-11.16
dò	-11.16
lis	-11.1601
▁salto	-11.1601
▁business	-11.1602
▁imprenditori	-11.1602
▁alimenta	-11.1603
▁doni	-11.1604
▁cieco	-11.1604
▁operazione	-11.1605
eli	-11.1606
▁tensione	-11.1607
▁ringraziamenti	-11.1608
▁umanità	-11.1609
autorizzazione	-11.1609
cle	-11.1611
essa	-11.1611
▁approfondire	-11.1614
▁cerimonia	-11.1621
▁violenze	-11.1621
▁privilegio	-11.1621
▁scon	-11.1622
ntu	-11.1623
mette	-11.1623
▁reagire	-11.1624
▁amanti	-11.1627
▁riga	-11.1629
▁ungherese	-11.163
▁1994	-11.1631
▁illumina	-11.1631
▁giuste	-11.1631
▁carenze	-11.1631
▁problematica	-11.1633
▁coprire	-11.1637
ap	-11.1639
torio	-11.164
▁amministrativi	-11.164
▁denari	-11.1643
isce	-11.1644
▁quinta	-11.1646
▁destinazione	-11.1646
▁lamenta	-11.1646
▁visconti	-11.1649
▁appalti	-11.1659
▁complessità	-11.166
▁onora	-11.1661
▁effettuato	-11.1661
▁milanesi	-11.1664
▁biodiversità	-11.1668
▁niccolò	-11.1668
▁quotidiano	-11.1668
▁patriarca	-11.1668
▁congratulazioni	-11.1669
▁sospetta	-11.1669
▁discute	-11.167
▁abitudini	-11.1673
▁grandissimo	-11.1675
▁costringe	-11.1675
▁quiete	-11.1675
▁adozione	-11.1678
▁rappresentata	-11.1679
▁martedì	-11.1682
▁continue	-11.1685
inclusione	-11.1685
▁opzioni	-11.1686
▁venite	-11.1687
tene	-11.1687
▁espressioni	-11.1688
nzio	-11.1691
▁esorta	-11.1692
▁calamità	-11.1692
▁semplificare	-11.1692
▁deplorevole	-11.1697
▁metter	-11.1697
▁2011	-11.1698
▁critici	-11.17
▁ac	-11.1703
▁xxi	-11.1711
▁cominciarono	-11.1711
▁vaga	-11.1711
iche	-11.1713
▁talun	-11.1718
ny	-11.172
▁riposa	-11.1721
▁avversari	-11.1723
▁rime	-11.1724
▁reato	-11.1735
▁saggi	-11.1737
esclusione	-11.1738
▁carro	-11.1738
▁riempi	-11.1739
rî	-11.1744
▁scappa	-11.1745
azioni	-11.1747
▁russi	-11.1747
▁dritto	-11.1749
ìo	-11.175
▁cuor	-11.1759
▁custodi	-11.176
▁ospite	-11.176
rgo	-11.1763
▁talento	-11.1764
▁tenebre	-11.1764
▁sottoscritto	-11.1766
infanzia	-11.1767
bbo	-11.1768
▁concludo	-11.1768
▁complessi	-11.1771
▁mostro	-11.1771
▁normali	-11.1772
▁freno	-11.1772
60	-11.1775
▁riferire	-11.1775
▁ribadito	-11.1778
▁ritirata	-11.1779
fini	-11.178
▁chiamate	-11.1781
▁videro	-11.1782
▁sacrificio	-11.1785
▁sentono	-11.1787
▁appartenenti	-11.1788
▁istruzioni	-11.1788
▁proprietari	-11.1795
▁bravi	-11.1797
▁soffre	-11.1797
▁esorto	-11.1798
▁veni	-11.1798
▁invia	-11.1798
▁calcola	-11.1802
▁senno	-11.1803
▁soffer	-11.1806
dere	-11.1807
▁difetti	-11.1807
▁altezza	-11.1807
▁brasile	-11.1812
▁estende	-11.1814
cula	-11.1814
av	-11.1816
▁imperciocchè	-11.1817
▁restava	-11.1817
▁allunga	-11.1819
▁ridicolo	-11.1822
avvio	-11.1823
▁successore	-11.1823
▁doge	-11.1824
▁terroristi	-11.1825
▁ruba	-11.1828
sal	-11.183
ň	-11.1831
▁danimarca	-11.1831
▁progettazione	-11.1833
▁commessi	-11.1834
▁compie	-11.1835
▁restitui	-11.1836
▁arca	-11.1836
▁correva	-11.1838
▁fro	-11.1839
osservazione	-11.184
▁impeto	-11.1841
▁consolidamento	-11.1842
▁decisa	-11.1845
▁32	-11.185
▁vetro	-11.185
▁confuso	-11.1851
▁facilità	-11.1853
▁eventualmente	-11.1855
▁eziandio	-11.1855
▁pronunzia	-11.1855
▁cadavere	-11.1855
▁giovanile	-11.1858
▁tornando	-11.1859
▁baltico	-11.1861
▁giurisdizione	-11.1865
▁descrivere	-11.1866
▁tolse	-11.1867
▁perdona	-11.1868
▁urbano	-11.1872
26	-11.1874
▁sacerdoti	-11.1875
▁usano	-11.1879
▁armonizzazione	-11.1886
▁sofferto	-11.1887
▁sposo	-11.1888
▁nido	-11.189
centi	-11.1892
▁complimenti	-11.1894
pul	-11.1897
▁sorpreso	-11.1899
▁cavalca	-11.19
▁battere	-11.1901
▁argento	-11.1906
▁escludere	-11.1907
cus	-11.1908
▁riscontra	-11.1911
▁ambiziosi	-11.1914
▁previsioni	-11.1914
▁scolastico	-11.1914
flu	-11.1914
▁usate	-11.1918
▁rame	-11.1919
▁massimi	-11.192
▁attenta	-11.1921
▁provinciale	-11.1925
ardo	-11.1926
▁arrigo	-11.1928
can	-11.1929
▁transito	-11.193
▁provoca	-11.1932
▁squadre	-11.1933
▁molteplici	-11.1936
▁costituzionali	-11.1938
▁palco	-11.194
▁rinuncia	-11.1941
▁folle	-11.1942
▁pallido	-11.1943
▁imita	-11.1944
▁partendo	-11.1945
▁garantito	-11.1945
▁immediato	-11.1945
▁individuo	-11.1946
▁macedonia	-11.195
▁subire	-11.1952
sità	-11.1952
▁giornalista	-11.1952
▁stanco	-11.1953
▁ambizioni	-11.1954
▁collegati	-11.1955
▁talora	-11.1958
▁eccessivo	-11.196
▁sostituzione	-11.1961
▁grano	-11.1962
▁indicati	-11.1962
▁manifesto	-11.1962
▁delicata	-11.1967
gola	-11.1969
ottica	-11.1971
▁concezione	-11.1973
▁applausi	-11.1976
▁decise	-11.1977
verso	-11.1978
▁tavole	-11.1979
▁correggere	-11.1982
tare	-11.1984
▁bicchiere	-11.1985
▁foresta	-11.1985
▁vano	-11.1986
▁discriminazioni	-11.1993
▁john	-11.1997
▁soave	-11.2
▁sapienza	-11.2002
▁vacanza	-11.2002
▁eterno	-11.2005
atteggiamento	-11.2011
▁incrementare	-11.2013
▁usciva	-11.2014
dico	-11.2015
▁dapprima	-11.2017
▁potenziali	-11.2017
▁apprezza	-11.2019
ono	-11.2022
▁dotazione	-11.2023
▁domando	-11.2025
questo	-11.2026
▁cotesta	-11.2026
▁3.	-11.2028
▁tese	-11.2029
▁proclama	-11.2029
▁pin	-11.203
oh	-11.203
▁tregua	-11.203
▁repressione	-11.2031
▁sublime	-11.2031
▁preziosi	-11.2031
▁svolte	-11.2032
▁cera	-11.2032
▁moltissimi	-11.2034
nel	-11.2034
▁riconosciuta	-11.2036
▁balza	-11.2039
▁danari	-11.204
▁auspico	-11.2041
essi	-11.2044
cità	-11.2049
▁ritirarsi	-11.2049
▁estero	-11.205
▁colpite	-11.2053
▁caratteristica	-11.2057
▁spira	-11.2059
▁ammoni	-11.2059
▁terapia	-11.2063
▁saremmo	-11.2064
▁pubblicamente	-11.2065
roni	-11.2066
▁percorrere	-11.207
▁inizi	-11.2073
▁strette	-11.2077
uccio	-11.2078
▁regge	-11.2081
▁respinge	-11.2082
ene	-11.2084
▁raggiunti	-11.2086
▁castelli	-11.2089
▁lassù	-11.2091
▁riusciva	-11.2091
▁vederla	-11.2096
▁tratte	-11.2096
▁magnifica	-11.2101
▁fes	-11.2107
▁ragion	-11.2108
▁approvati	-11.2109
▁moltiplica	-11.2111
▁delitti	-11.2113
▁impara	-11.2115
▁urgenti	-11.2117
▁veloci	-11.2123
▁cattolico	-11.2125
▁garantendo	-11.2127
▁difese	-11.2128
▁2013	-11.2129
▁pompa	-11.213
▁strinse	-11.2131
▁orribile	-11.2132
▁miss	-11.2132
▁naviga	-11.2133
▁catene	-11.2135
▁servito	-11.2136
net	-11.2138
cchè	-11.2138
abolizione	-11.2139
▁impiegato	-11.2145
▁nicola	-11.2151
▁tiranni	-11.2156
▁evidenziare	-11.2157
▁perch	-11.216
▁bandiere	-11.2161
▁studiato	-11.2164
▁stupore	-11.2165
▁motto	-11.2166
simo	-11.2168
▁controversie	-11.2168
▁seta	-11.2168
▁elezione	-11.2168
▁definisce	-11.2171
▁geni	-11.2171
chino	-11.2172
▁auspicabile	-11.2173
▁fornitori	-11.2174
▁apprezzo	-11.2175
▁propongo	-11.2176
▁ragiona	-11.2179
▁pregare	-11.2179
▁producono	-11.218
mio	-11.2183
▁appuntamento	-11.2183
▁suggerimenti	-11.2187
▁ritengono	-11.2191
▁canada	-11.2192
▁splendore	-11.2192
▁percorsi	-11.2192
▁severe	-11.2192
▁austriaca	-11.2194
ddi	-11.2196
▁polo	-11.2201
▁manovra	-11.2202
▁equivale	-11.2203
▁cede	-11.2203
▁definitivo	-11.2205
▁violenta	-11.2206
▁plebe	-11.2206
▁falli	-11.2206
▁riccardo	-11.2206
▁biglietti	-11.221
▁tariffe	-11.221
▁continuato	-11.2211
▁soffermarmi	-11.2212
▁fornite	-11.2217
▁plus	-11.2218
▁consultare	-11.222
ker	-11.2223
▁arrivata	-11.2234
▁ciel	-11.2234
▁sofferenze	-11.2236
▁vivente	-11.2238
ave	-11.2239
▁fiato	-11.2242
▁condannati	-11.2243
relli	-11.2244
▁geografica	-11.2246
▁spedi	-11.2251
▁chiamiamo	-11.2252
▁slancio	-11.2254
▁1995	-11.2256
▁consentitemi	-11.2257
▁rompere	-11.2257
cato	-11.2258
▁proroga	-11.2259
▁combinazione	-11.2259
▁necessita	-11.2259
▁proponiamo	-11.2261
rosi	-11.2264
use	-11.2266
▁simpatia	-11.2266
▁mormorò	-11.2266
▁piatti	-11.2268
▁venissero	-11.227
▁dimmi	-11.2274
▁fisso	-11.2275
▁cur	-11.228
▁albero	-11.228
▁garanti	-11.2281
▁venticinque	-11.2281
dato	-11.2284
pola	-11.2285
▁pavimento	-11.2286
▁colpe	-11.2286
ché	-11.2288
lan	-11.2288
▁eccezionale	-11.2292
oratore	-11.2296
▁continuità	-11.2299
▁panni	-11.2301
▁innamorato	-11.2302
zzò	-11.2302
▁dicevo	-11.2302
▁ripartizione	-11.2303
▁cer	-11.2305
▁singola	-11.2305
▁persecuzione	-11.2306
▁risale	-11.2307
▁davano	-11.2322
▁ripro	-11.2324
▁africani	-11.2325
▁comportamenti	-11.2327
▁insufficiente	-11.2327
▁tappa	-11.2328
▁austriaco	-11.233
▁epi	-11.2331
▁cambiate	-11.2332
▁detenuti	-11.2332
▁matura	-11.2334
▁finali	-11.2336
▁circolare	-11.2336
29	-11.2337
▁giura	-11.234
indagine	-11.234
txt	-11.2342
▁contribuirà	-11.2343
▁bona	-11.2345
approvvigionamen	-11.2347
▁ammette	-11.2349
▁completare	-11.2349
▁asia	-11.2354
eventuale	-11.2356
▁150	-11.2358
▁registrati	-11.2359
▁xx	-11.236
▁attirare	-11.2361
▁rovescia	-11.2364
▁collettiva	-11.2367
▁riferito	-11.2367
▁porge	-11.2367
▁2000,	-11.2369
▁emma	-11.237
▁fissi	-11.2372
▁vittorie	-11.2378
▁seguono	-11.2381
▁definitivamente	-11.2385
venti	-11.2389
▁graduale	-11.2389
▁risparmia	-11.2392
▁vincenzo	-11.2393
▁at	-11.2394
fici	-11.2394
▁classica	-11.2395
▁consolidare	-11.2397
▁avanzato	-11.24
denti	-11.24
▁abbandonata	-11.2402
▁interruppe	-11.2403
▁metto	-11.2404
▁governative	-11.2404
▁david	-11.2408
▁incluso	-11.2408
▁prefetto	-11.2409
iano	-11.241
;/	-11.2412
▁importi	-11.2415
▁serena	-11.2417
▁ferrovie	-11.2419
uscita	-11.2419
dano	-11.2421
▁bandi	-11.2423
▁monetario	-11.2424
▁vendite	-11.2425
rna	-11.2426
▁rimanda	-11.2429
ama	-11.2429
▁ospedali	-11.2429
▁procedimento	-11.2429
▁confessione	-11.2429
▁rilevanti	-11.2431
▁occupano	-11.2432
▁virus	-11.2436
▁documentazione	-11.2437
▁doc	-11.2437
▁distrugge	-11.244
▁arri	-11.2442
asi	-11.2443
▁cercò	-11.2444
▁automaticamente	-11.2446
ete	-11.2447
dita	-11.2447
rì	-11.2448
▁santità	-11.2448
▁delibera	-11.2448
▁mozione	-11.2449
▁uova	-11.2449
▁risa	-11.2451
▁farina	-11.2451
▁piero	-11.2451
▁estate	-11.2453
▁abbiate	-11.2454
urgenza	-11.2454
▁ghe	-11.2454
▁origini	-11.2455
▁invitare	-11.2456
▁agevolare	-11.2458
▁soffoca	-11.2459
▁potrete	-11.246
▁amministrativo	-11.246
▁tormenta	-11.2464
▁washington	-11.2465
▁evidenti	-11.2465
▁sabbia	-11.2466
▁tabella	-11.2476
▁comme	-11.2478
▁portate	-11.2479
▁profumo	-11.248
vit	-11.2482
belli	-11.2485
▁respira	-11.2488
ling	-11.2488
▁coinvolto	-11.2491
▁impedito	-11.2491
▁osservatori	-11.2496
▁ridendo	-11.2496
▁negoziare	-11.2498
▁paul	-11.25
mann	-11.25
▁dovuti	-11.2502
▁rendersi	-11.2502
▁contengono	-11.2503
▁candida	-11.2503
▁mantenuto	-11.2506
▁impedisce	-11.2508
▁insegnato	-11.2509
▁castella	-11.2509
▁fuma	-11.2509
▁augura	-11.2511
▁caratterizzato	-11.2512
▁facilitare	-11.2512
▁dispositivo	-11.2522
▁sottoposti	-11.2522
▁schema	-11.2524
▁forniti	-11.2525
▁redditi	-11.2526
lata	-11.2527
▁sapevano	-11.2529
▁assumersi	-11.2529
▁pesa	-11.2529
▁millennio	-11.2529
▁margherita	-11.2532
▁schiaccia	-11.2532
▁primaria	-11.2535
▁ò	-11.2537
▁viveva	-11.2541
▁malati	-11.2543
estensione	-11.2546
▁manfredi	-11.2547
▁disperato	-11.2549
▁abita	-11.2552
▁scomparsa	-11.2553
▁stress	-11.2553
▁revoca	-11.2554
celli	-11.2554
▁infra	-11.2559
▁guardiamo	-11.256
▁particolar	-11.2569
ye	-11.257
▁attenti	-11.2572
▁uccisi	-11.2572
▁festival	-11.2574
▁riservato	-11.2574
▁36	-11.2575
toria	-11.2576
vis	-11.2577
▁frequente	-11.2579
▁serietà	-11.2582
▁scal	-11.2582
▁risparmiare	-11.2586
▁piacerebbe	-11.2587
▁perseguita	-11.2588
▁coinvolge	-11.2589
▁fiero	-11.259
▁bimbo	-11.2591
▁sf	-11.2591
▁edificio	-11.2592
▁appo	-11.2592
▁testamento	-11.2599
▁lasciati	-11.2601
▁tassazione	-11.2601
▁diverti	-11.2602
telo	-11.2604
▁sorprende	-11.2606
▁notti	-11.2608
▁cambi	-11.2609
▁chiamo	-11.2609
▁digitali	-11.2616
▁cardinal	-11.2616
▁riscaldamento	-11.2617
▁colpevoli	-11.2621
▁mostrando	-11.2623
▁rapi	-11.2624
▁penali	-11.2625
sv	-11.2625
▁chimiche	-11.2626
nie	-11.2627
▁suonare	-11.263
▁pier	-11.2634
oggetto	-11.2638
▁benevento	-11.2638
▁precisi	-11.2638
▁mostri	-11.2639
▁solare	-11.264
▁vedrà	-11.264
▁emerso	-11.2642
interpretazione	-11.2646
atmosfera	-11.2651
▁sviluppa	-11.2651
dì	-11.2655
▁aeroporti	-11.2657
▁preceduto	-11.2662
▁vuota	-11.2662
▁claudio	-11.2662
▁esaminato	-11.2664
▁domini	-11.2665
▁preoccupante	-11.2665
▁apprezzamento	-11.2666
gui	-11.2666
▁intervenuti	-11.2668
▁pianura	-11.2668
tella	-11.2672
▁trasmette	-11.2672
▁lacune	-11.2673
▁vigilia	-11.2673
▁negative	-11.2673
▁creatività	-11.2674
▁sig	-11.2674
evole	-11.2675
▁assegnato	-11.2676
▁approvvigiona	-11.2678
▁segui	-11.2682
▁scom	-11.2683
▁irrita	-11.2683
▁fotografia	-11.2683
▁conquiste	-11.2684
▁regalo	-11.2684
▁normalmente	-11.2684
▁manutenzione	-11.2689
▁illustrato	-11.2693
▁stimolare	-11.2694
▁pronuncia	-11.2696
onore	-11.2697
▁molle	-11.2698
▁intenso	-11.27
▁provvede	-11.2701
dro	-11.2702
▁immobili	-11.2702
▁averla	-11.2705
▁tolta	-11.2705
▁fanciulle	-11.2708
▁poema	-11.271
▁accoglienza	-11.271
▁realizzata	-11.2714
▁fatiche	-11.2715
▁spezza	-11.2716
mino	-11.2718
▁formano	-11.272
▁contegno	-11.2721
▁onesto	-11.2721
verti	-11.2721
rosa	-11.2722
▁irri	-11.2723
▁salerno	-11.2726
▁prigioniero	-11.2726
▁dimanda	-11.2727
ndu	-11.2727
▁dimostrata	-11.2728
▁autonomia	-11.2728
▁cm	-11.2729
▁conosci	-11.273
▁commi	-11.2734
▁fallo	-11.2735
geri	-11.2736
ug	-11.2736
▁obbedi	-11.274
ls	-11.2741
▁preliminare	-11.2747
▁parlar	-11.2747
▁combattimento	-11.2747
▁latini	-11.2749
▁tribù	-11.2752
▁argomentazioni	-11.2753
▁prospero	-11.2758
▁mosso	-11.2758
▁esclusi	-11.2758
▁convince	-11.2759
▁capite	-11.2759
▁appariva	-11.276
▁hoc	-11.2762
▁ricusa	-11.2763
▁sorelle	-11.2764
tru	-11.2767
▁marittimo	-11.2768
▁requisito	-11.2768
▁supplica	-11.2768
▁alleanza	-11.2769
▁identifica	-11.2773
▁vincitori	-11.2775
unt	-11.2775
▁flo	-11.2777
▁parto	-11.2777
▁giacché	-11.2779
▁promette	-11.2781
▁facea	-11.2783
▁dispositivi	-11.2784
▁sarai	-11.2785
▁rispettato	-11.2786
▁condur	-11.2787
tes	-11.2787
▁ville	-11.2789
▁villaggi	-11.279
▁ginocchio	-11.2791
▁prevedono	-11.2792
▁dipendono	-11.2795
▁sogna	-11.2796
▁dieta	-11.2802
▁sensazioni	-11.2805
▁iscritti	-11.2806
▁esprimo	-11.2807
mbra	-11.2809
▁illustrazione	-11.2811
▁facilita	-11.2811
▁deroga	-11.2816
▁pilastri	-11.2816
▁marchi	-11.2817
▁lancio	-11.2821
▁cronica	-11.2822
▁comprendo	-11.2823
▁belga	-11.283
▁meraviglioso	-11.2832
3/	-11.2834
lì	-11.2834
▁concentrarsi	-11.2838
▁leggero	-11.2841
▁schermo	-11.2843
▁sapore	-11.2843
▁rinvio	-11.2843
▁acc	-11.2848
▁sereno	-11.2848
▁teo	-11.2851
▁validi	-11.2852
▁logico	-11.2853
comp	-11.2855
▁sfuggire	-11.2856
▁cugino	-11.2859
▁viste	-11.2859
▁picchia	-11.286
gh	-11.286
▁pregiudizi	-11.2863
▁curioso	-11.2865
▁pasto	-11.2866
▁volontario	-11.2867
vie	-11.2867
▁tracce	-11.2869
▁frattanto	-11.2869
▁politicamente	-11.2873
▁qualificata	-11.2874
▁cd	-11.2875
▁pasta	-11.2875
▁ottenne	-11.2875
▁partì	-11.2876
▁ardente	-11.2878
▁4.	-11.288
▁durò	-11.2882
▁potresti	-11.2886
▁lione	-11.289
▁conosciuta	-11.2891
▁affida	-11.2894
▁chimica	-11.2895
▁discutiamo	-11.2896
▁indispensabili	-11.2896
▁by	-11.2896
▁amata	-11.2897
▁avrò	-11.2898
▁torno	-11.2901
▁brevetti	-11.2906
▁citata	-11.2914
▁prenda	-11.2915
▁dormi	-11.2916
▁her	-11.2916
ace	-11.2923
▁azzurro	-11.2924
▁intendeva	-11.2925
▁stabilimento	-11.2926
▁condannare	-11.2928
▁empi	-11.2929
▁that	-11.2931
▁niuno	-11.2932
gare	-11.2933
angolo	-11.2933
▁letteraria	-11.2934
▁conveniente	-11.2934
▁parevano	-11.2936
▁scoppia	-11.2937
▁girare	-11.2937
▁trasparenti	-11.294
▁geo	-11.294
▁bce	-11.2941
▁veglia	-11.2942
▁poc	-11.2945
▁transazioni	-11.2945
▁duri	-11.2949
▁fr	-11.2951
'11	-11.2952
▁novelle	-11.2954
▁distrutto	-11.2956
des	-11.2958
27	-11.2958
▁cas	-11.2958
lecomunicazioni	-11.2958
mor	-11.2962
▁bisognerebbe	-11.2967
▁colonie	-11.2968
▁ya	-11.2969
▁monumenti	-11.2969
▁rise	-11.2969
▁ram	-11.2972
▁dolorosa	-11.2972
vere	-11.2972
▁accomoda	-11.2974
▁sorrise	-11.2983
▁ricordate	-11.2984
▁creano	-11.2985
▁reazioni	-11.2985
▁madrid	-11.2987
▁brillante	-11.2991
mico	-11.2994
▁stock	-11.2994
▁implicazioni	-11.2998
▁automobili	-11.2998
ö	-11.3003
▁cosiddetti	-11.3004
▁salvi	-11.3009
▁sepolcro	-11.301
▁controlla	-11.301
gono	-11.3013
▁consumi	-11.3016
▁cita	-11.3019
▁scenario	-11.3021
▁negoziale	-11.3023
ak	-11.3024
▁appartengono	-11.3026
▁rimprovera	-11.3029
▁illegali	-11.3035
▁rovine	-11.3035
▁sussiste	-11.3036
▁sindacati	-11.3037
▁annal	-11.3037
▁toccato	-11.3038
▁vadano	-11.3039
▁eccessivamente	-11.3042
▁volgare	-11.3042
▁agenzia	-11.3043
33	-11.3044
▁spaventa	-11.3045
▁esporre	-11.3046
▁sussidi	-11.3047
nz	-11.3049
▁episodi	-11.3053
▁esamina	-11.3054
6/	-11.3057
8/	-11.3058
▁ecclesiastici	-11.3059
▁ginocchia	-11.3063
▁concretamente	-11.3063
▁indicatori	-11.3065
▁provi	-11.3068
nsa	-11.3068
▁discesa	-11.3071
▁von	-11.3073
▁sposi	-11.3074
dici	-11.3075
▁confidenza	-11.3075
▁lontane	-11.3077
▁fissati	-11.308
▁ribadisco	-11.3081
▁continueremo	-11.3082
▁galli	-11.3087
▁proprietario	-11.3089
▁scosse	-11.3089
▁minime	-11.3089
▁sospiro	-11.3097
eu	-11.3099
▁accende	-11.31
▁ripreso	-11.3108
▁coglie	-11.3111
▁ripara	-11.3111
▁corrispondente	-11.3111
▁statue	-11.3112
▁verrebbe	-11.3112
▁reggio	-11.3115
▁ricordiamo	-11.3116
▁dipoi	-11.3117
scano	-11.3118
▁vizi	-11.312
▁obbligato	-11.312
lly	-11.312
▁episodio	-11.3121
▁archivi	-11.3125
▁compenso	-11.3125
▁maschi	-11.3131
▁occupare	-11.3131
▁calde	-11.3131
▁profondi	-11.3135
▁conferenze	-11.3138
▁guadagnare	-11.3139
dal	-11.314
vin	-11.314
▁ricompensa	-11.3141
▁assunta	-11.3141
dito	-11.3141
▁aspettano	-11.3143
▁agita	-11.3145
36	-11.3146
▁sinora	-11.3146
▁misera	-11.3146
▁riciclaggio	-11.3147
▁tenda	-11.3152
▁difficilmente	-11.3152
▁progredire	-11.3154
▁€	-11.3155
▁finì	-11.3155
▁risiede	-11.3158
▁copre	-11.3161
▁avv	-11.3162
sma	-11.3163
▁ricevuta	-11.3163
▁bilancia	-11.3165
▁infinito	-11.3166
▁messina	-11.3168
telli	-11.3168
▁preoccupati	-11.3171
▁pregio	-11.3172
▁repubblicani	-11.3173
▁differenzia	-11.3174
▁sincero	-11.3175
▁divora	-11.3178
▁citati	-11.3179
importo	-11.3179
▁sottili	-11.318
▁rica	-11.3181
▁moltissimo	-11.3182
▁400	-11.3184
▁europol	-11.3185
▁auspichiamo	-11.3185
▁competitiva	-11.3185
▁romagna	-11.3187
▁xviii	-11.3188
▁miracoli	-11.3192
▁conservatori	-11.3193
▁connessione	-11.3197
▁casca	-11.3198
▁barche	-11.3199
▁suggeri	-11.3203
▁immensa	-11.3203
▁fig	-11.3206
▁staff	-11.3208
▁diventerà	-11.3213
▁accorto	-11.3213
▁netto	-11.3217
▁disagio	-11.3217
▁altera	-11.3218
▁residenti	-11.3219
▁cancella	-11.3224
▁pugna	-11.3224
▁esclama	-11.3225
▁aspirazioni	-11.3226
▁unanime	-11.3227
▁risparmi	-11.3227
▁avvisa	-11.3228
▁accolta	-11.323
▁cautela	-11.323
ku	-11.3231
▁elettronico	-11.3231
▁affare	-11.3232
▁sarete	-11.3232
apprendimento	-11.3234
vio	-11.3235
bar	-11.3236
▁vedevano	-11.3237
▁radicali	-11.3238
▁geneticamente	-11.3239
▁dici	-11.3239
esse	-11.324
▁dichiarò	-11.3241
tario	-11.3243
▁acca	-11.3244
ena	-11.3244
olio	-11.3244
▁approfondita	-11.3245
▁valide	-11.3247
▁formulate	-11.3249
ction	-11.325
▁modesto	-11.3252
▁tranquillamente	-11.3254
▁siate	-11.3255
▁dappertutto	-11.3258
▁spiace	-11.3258
▁condivisione	-11.3258
▁semina	-11.326
▁arre	-11.3261
▁fastidio	-11.3263
▁disoccupati	-11.3263
▁fermi	-11.3264
rta	-11.3265
▁nova	-11.3266
▁presenterà	-11.3268
▁galileo	-11.3269
gie	-11.3269
gione	-11.3269
▁mela	-11.3271
▁ignora	-11.3274
▁soffri	-11.3274
▁bronzo	-11.3275
▁tirare	-11.3276
sina	-11.3276
▁ottone	-11.3279
▁innumerevoli	-11.328
▁presupposto	-11.328
▁attribuisce	-11.328
▁assicurato	-11.3282
▁legislativi	-11.3286
▁assurdo	-11.3286
▁capua	-11.3287
▁concentra	-11.3289
cee	-11.329
▁neppur	-11.3291
▁parente	-11.3293
fondamentalmente	-11.3294
▁storiche	-11.3303
▁75	-11.3305
▁gru	-11.3305
▁successive	-11.3306
▁desiderare	-11.3307
dini	-11.3311
▁aggiunta	-11.3311
gene	-11.3313
▁vivendo	-11.3317
▁trent	-11.3317
▁passiamo	-11.3317
▁comparire	-11.3317
▁campa	-11.3318
▁vece	-11.3321
▁esplicitamente	-11.3322
▁compensazione	-11.3323
▁nucleo	-11.3325
▁schiavo	-11.3325
▁bibbia	-11.3326
riamo	-11.3329
ntino	-11.333
▁dirigenti	-11.333
▁sopporta	-11.333
▁avvenuta	-11.3331
▁rado	-11.3331
▁salutare	-11.3331
▁corto	-11.3331
vola	-11.3334
▁tagliare	-11.3335
▁trovati	-11.334
▁assente	-11.3341
▁arcivescovo	-11.3343
▁ricorre	-11.3344
▁prendeva	-11.3348
▁ricche	-11.3353
▁maastricht	-11.3353
▁codici	-11.3355
▁continuiamo	-11.3358
▁celeste	-11.3359
▁tradurre	-11.3359
▁ventura	-11.336
▁attua	-11.3362
▁meco	-11.3363
▁puramente	-11.3364
▁istanze	-11.3365
▁entità	-11.3368
mici	-11.3368
▁intensificare	-11.3371
▁palle	-11.3376
▁tam	-11.3376
▁salvatore	-11.3377
▁eccezioni	-11.3381
▁<	-11.3381
▁monaci	-11.3384
dy	-11.3384
▁riducendo	-11.3386
▁contemporanea	-11.3389
▁ricava	-11.3393
▁integrati	-11.3395
rte	-11.3397
▁luisa	-11.3397
▁infantile	-11.3398
done	-11.3398
▁riusciamo	-11.3399
▁trista	-11.3403
′	-11.3404
▁multinazionali	-11.3404
▁mm	-11.3404
▁stimola	-11.3406
enne	-11.3409
▁mazzini	-11.341
▁compare	-11.341
▁tranquillità	-11.341
▁meravigliosa	-11.3411
mari	-11.3411
▁lecito	-11.3414
▁perfezione	-11.3415
▁riportato	-11.3415
▁regia	-11.3416
ther	-11.3417
▁lacera	-11.3417
cino	-11.3419
▁savoia	-11.3421
app	-11.3422
▁crediti	-11.3422
▁ringrazia	-11.3423
▁aiutato	-11.3424
▁fango	-11.3425
▁repentaglio	-11.3426
▁agevole	-11.3426
▁soddisfa	-11.3427
▁salve	-11.343
▁uh	-11.3431
▁afghanistan	-11.3431
▁giordano	-11.3432
▁protagonisti	-11.3432
▁analizza	-11.3435
▁lumi	-11.3439
▁favella	-11.3442
▁divenire	-11.3442
▁peste	-11.3443
▁pian	-11.3444
▁rie	-11.3445
▁saprà	-11.3445
▁auguri	-11.3448
▁pisani	-11.3449
▁legislatura	-11.3449
▁catalogo	-11.3449
▁fascino	-11.3451
▁irlandesi	-11.3455
▁famosi	-11.3455
▁ampliare	-11.3456
▁usci	-11.346
▁sparse	-11.3461
▁viaggiare	-11.3461
▁ec	-11.3461
rella	-11.3461
▁parimente	-11.3463
▁robot	-11.3468
occhio	-11.3471
▁33	-11.3472
▁schiavitù	-11.3472
▁recuperare	-11.3472
▁ampie	-11.3474
▁tavolino	-11.3476
▁cannoni	-11.3479
▁investitori	-11.3483
▁leggendo	-11.3489
▁dovunque	-11.3489
▁autorizzazione	-11.349
▁motivazioni	-11.349
28	-11.3491
esportazione	-11.3494
goni	-11.3497
od	-11.3498
▁malato	-11.3499
▁fantastica	-11.35
▁consoli	-11.3502
▁metallo	-11.3504
▁camicia	-11.3506
▁livorno	-11.3506
▁pallida	-11.3507
▁disordine	-11.3509
▁mestieri	-11.351
▁inquina	-11.351
▁carceri	-11.3511
▁indossa	-11.3512
▁gentiluomo	-11.3512
▁favori	-11.3514
lie	-11.3514
▁esercizi	-11.3519
▁unici	-11.352
▁armato	-11.3523
▁laura	-11.3523
▁statunitense	-11.3523
▁rubrica	-11.3523
▁doganali	-11.3524
▁loda	-11.3525
inchiesta	-11.3528
▁artistica	-11.3528
▁eccellenti	-11.3529
▁doloroso	-11.3529
▁rappresenti	-11.353
▁applicati	-11.3535
▁paglia	-11.3536
ìa	-11.3536
▁fuggi	-11.3539
appoggio	-11.354
▁domestico	-11.354
mail	-11.354
▁scatola	-11.3541
▁veda	-11.3542
▁evitando	-11.3542
tì	-11.3542
▁manifestare	-11.3543
▁dispongono	-11.3544
cosa	-11.3545
▁6,	-11.3546
▁moderne	-11.3553
▁nuvole	-11.3553
▁schiena	-11.3558
▁estensione	-11.3559
late	-11.3564
▁severa	-11.3564
▁straniera	-11.3565
▁dirvi	-11.3566
elemento	-11.3567
▁vivace	-11.3569
▁mera	-11.3569
▁strage	-11.3573
▁guardo	-11.3575
▁spettro	-11.3575
affari	-11.3579
arsi	-11.3584
▁visitatori	-11.3588
▁sperando	-11.3589
tani	-11.359
▁leggera	-11.359
▁umile	-11.3592
▁qualifica	-11.3592
▁accumula	-11.3593
▁conversione	-11.3593
by	-11.3593
▁cru	-11.3594
▁peggiori	-11.3594
ttare	-11.3595
erei	-11.3596
sin	-11.3597
▁rassicura	-11.3597
▁umanitario	-11.36
▁fabrizio	-11.3604
▁contamina	-11.3607
▁lupo	-11.3607
▁dipartimento	-11.361
▁prae	-11.361
▁my	-11.3615
▁acceso	-11.3615
▁accusato	-11.3617
▁acquisto	-11.3619
▁ricevono	-11.362
▁giurisprudenza	-11.3621
▁prudente	-11.3622
missione	-11.3622
▁rima	-11.3623
▁francamente	-11.3624
▁confonde	-11.3624
▁potreste	-11.3627
▁aspira	-11.3628
dica	-11.3632
▁ladro	-11.3633
▁occupata	-11.3637
▁consulenza	-11.3638
▁giammai	-11.3638
▁rispettati	-11.364
▁ripetutamente	-11.364
▁sam	-11.3641
zionale	-11.3644
inserimento	-11.3644
▁inevitabilmente	-11.3644
▁monumento	-11.3646
▁cazzo	-11.3648
▁notifica	-11.3651
ntur	-11.3651
▁armonia	-11.3652
arrivo	-11.3655
▁manifestato	-11.3658
▁tumulto	-11.3661
▁urbani	-11.3662
▁splendido	-11.3662
▁vincoli	-11.3662
▁sintomi	-11.3662
▁straniere	-11.3663
▁vincolanti	-11.3664
▁porgo	-11.3665
▁annuncio	-11.3665
▁degni	-11.3665
▁reputo	-11.3668
my	-11.3668
▁rare	-11.367
▁pasqua	-11.3671
messa	-11.3674
imposta	-11.3675
▁credibile	-11.3676
▁venendo	-11.3678
▁ucraina	-11.3678
▁riconciliazione	-11.3681
▁aggrava	-11.3682
ngu	-11.3686
▁fazioni	-11.3688
▁tesori	-11.3689
▁duplice	-11.3691
▁fusione	-11.3691
▁nervi	-11.3692
▁doganale	-11.3692
▁girolamo	-11.3696
▁affermazione	-11.3698
▁improvviso	-11.3701
▁pagano	-11.3704
dino	-11.3705
▁entrano	-11.3705
▁sussistono	-11.3708
▁mandati	-11.3708
▁reggimento	-11.3709
▁concepi	-11.3711
▁temporanea	-11.3715
▁bir	-11.3716
▁acquisti	-11.3717
nc	-11.372
▁effettuati	-11.3721
▁seri	-11.3724
▁organizza	-11.3725
▁letteralmente	-11.3729
▁purchè	-11.3732
▁concessioni	-11.3732
▁sfondo	-11.3733
▁compromessi	-11.3737
▁evoca	-11.3742
▁compensa	-11.3743
▁entrando	-11.3744
▁proporzioni	-11.3745
▁pretendere	-11.3746
▁collezione	-11.3748
▁rafforza	-11.3749
▁mandava	-11.3749
▁impiega	-11.3754
▁abbiam	-11.3755
rde	-11.3756
▁nazionalità	-11.3758
▁colline	-11.3758
om	-11.3759
▁capriccio	-11.3759
versa	-11.376
▁caterina	-11.3761
▁essendosi	-11.3762
▁fru	-11.3764
▁selva	-11.3768
▁determinante	-11.3774
55	-11.3774
▁dettagliata	-11.3775
▁beneficiare	-11.3776
▁condotte	-11.3784
7/	-11.3784
▁bus	-11.3785
▁diventati	-11.3785
▁prosa	-11.3789
etichettatura	-11.379
▁femmine	-11.379
▁eccessiva	-11.379
▁vani	-11.3791
▁andasse	-11.3793
▁guidato	-11.3796
▁clandestina	-11.3796
▁nodo	-11.3798
▁cattivi	-11.3799
▁cau	-11.38
▁calci	-11.3806
▁netta	-11.3806
▁scorsi	-11.3809
▁pubblicati	-11.3813
▁opposta	-11.3814
▁voteremo	-11.3814
▁passarono	-11.3814
▁ottimi	-11.3814
▁garantita	-11.3815
ronsi	-11.3818
▁irre	-11.3818
▁vinta	-11.3818
▁missioni	-11.3819
▁statali	-11.3819
▁disprezza	-11.382
▁accompagnata	-11.3822
▁sorgere	-11.3823
▁entrava	-11.3824
▁risoluto	-11.3825
▁01	-11.3827
age	-11.3827
▁metro	-11.3828
▁comparve	-11.3829
▁domestici	-11.3831
▁poltrona	-11.3831
▁resiste	-11.3833
▁viaggiatori	-11.3834
gano	-11.3836
▁vago	-11.3837
▁diagnosi	-11.3837
▁segreta	-11.3838
▁infinita	-11.3839
▁gliene	-11.3839
▁tentazione	-11.3839
▁compensare	-11.3842
▁lotte	-11.3844
▁giudizi	-11.3844
▁angoli	-11.385
und	-11.3851
rata	-11.3852
▁istanza	-11.3854
▁orrore	-11.3856
gnò	-11.3857
▁vile	-11.386
miche	-11.3861
▁droghe	-11.3861
▁stupi	-11.3862
▁fossa	-11.3866
rme	-11.3866
▁occhiali	-11.3866
▁dovevo	-11.3866
▁incaricato	-11.3869
▁utilità	-11.3872
▁appella	-11.3874
▁grasso	-11.3875
▁ultra	-11.3877
▁emanuele	-11.3879
▁violento	-11.3879
▁ricordava	-11.3884
▁ammesso	-11.3885
▁consiglieri	-11.3888
▁dott	-11.3891
▁seminario	-11.3892
▁grava	-11.3893
▁soffia	-11.3894
▁costruttiva	-11.3897
▁creati	-11.3898
▁vedersi	-11.3899
▁indicano	-11.3899
▁principato	-11.3903
▁accadendo	-11.3904
ius	-11.3906
▁provocare	-11.3906
▁valli	-11.3907
▁rendeva	-11.3907
▁avvocati	-11.3908
▁danneggia	-11.3909
▁effettivo	-11.391
lati	-11.3911
gari	-11.3913
▁hotel	-11.3921
▁guadagno	-11.3921
▁scudo	-11.3922
▁apparentemente	-11.3923
▁vigenti	-11.3924
alimentazione	-11.3926
ami	-11.3928
▁cariche	-11.3932
▁riportare	-11.3933
▁elettorali	-11.3933
▁erba	-11.3933
▁toni	-11.3935
▁rimettere	-11.3937
▁sà	-11.3937
austria	-11.3938
▁incapace	-11.3938
▁trascorso	-11.3938
▁congiunto	-11.3938
▁rimorso	-11.3938
▁sovrani	-11.3943
4/	-11.3944
▁rispecchia	-11.3944
▁protetti	-11.3944
▁semestre	-11.3945
sone	-11.3947
▁aumenti	-11.3947
▁decennio	-11.3951
▁smettere	-11.3952
▁diminuire	-11.3956
alba	-11.3957
▁messico	-11.396
▁trento	-11.3961
▁mora	-11.3961
▁ripetè	-11.3962
▁spalanca	-11.3962
▁contribuiscono	-11.3962
▁vollero	-11.3964
▁sec	-11.3964
uo	-11.3966
90	-11.3967
pla	-11.3968
▁consenti	-11.3968
▁archivio	-11.3971
▁traversa	-11.3971
▁false	-11.3972
▁privi	-11.3974
abile	-11.3975
▁sostenendo	-11.3976
▁migratori	-11.3977
▁ragionamento	-11.3977
▁desiderava	-11.3979
▁migliora	-11.398
▁bla	-11.398
▁catania	-11.3981
▁esita	-11.3985
▁tappeto	-11.3985
▁entrati	-11.3987
▁michel	-11.3987
▁regali	-11.3989
▁portar	-11.399
▁accresce	-11.3992
▁apparve	-11.3994
2/	-11.3994
▁scozia	-11.3994
▁sopravvivere	-11.3996
▁gratuito	-11.3998
▁vendica	-11.3998
▁anticipo	-11.3999
▁preservare	-11.3999
▁offrendo	-11.4
▁troverà	-11.4004
▁verificato	-11.4004
▁ruote	-11.4004
▁colto	-11.4007
▁musicali	-11.4009
▁imper	-11.401
▁1992	-11.4011
▁nudo	-11.4011
ez	-11.4013
tten	-11.4016
▁modulo	-11.4016
▁anniversario	-11.4017
▁sott	-11.4018
ule	-11.4022
▁desiderato	-11.4023
ttò	-11.4027
▁esemplare	-11.4028
▁propaganda	-11.4029
▁coordinare	-11.4029
▁borse	-11.403
rm	-11.4031
▁giocatori	-11.4033
▁odia	-11.4033
▁annali	-11.4035
▁corrado	-11.4035
lica	-11.4035
gro	-11.4036
cello	-11.4037
▁annulla	-11.4037
▁mer	-11.4039
▁eugenio	-11.404
▁agevola	-11.4041
▁raro	-11.4042
▁gridare	-11.4042
▁validità	-11.4042
▁umanitaria	-11.4042
▁recato	-11.4042
▁raimondo	-11.4046
ju	-11.4047
ms	-11.4048
▁sudan	-11.4052
▁mappa	-11.4053
▁37	-11.4054
▁trovavasi	-11.4057
▁penisola	-11.4059
mare	-11.4059
▁amori	-11.4061
▁integrante	-11.4062
▁miliardo	-11.4064
▁coperte	-11.4064
▁ammirazione	-11.4066
▁dirette	-11.4066
32	-11.4066
▁varii	-11.4067
▁conferire	-11.4067
▁difensori	-11.407
▁rilassa	-11.407
▁rigorosa	-11.4071
▁romane	-11.4072
▁udì	-11.4072
retto	-11.4072
▁vorrebbero	-11.4077
▁costanzo	-11.4078
▁dominante	-11.4079
▁sanitarie	-11.408
▁esservi	-11.4081
▁femmina	-11.4083
▁riscontro	-11.4083
▁contenuta	-11.4083
▁proteste	-11.4083
▁avrai	-11.4083
▁mine	-11.4085
cella	-11.4085
▁compiaccio	-11.4089
▁operativa	-11.4089
▁approfondito	-11.4091
▁big	-11.4093
▁zimbabwe	-11.4095
▁poesie	-11.4095
▁riscalda	-11.4096
aia	-11.4098
▁ritirare	-11.4098
▁spende	-11.41
▁vicario	-11.4101
▁incarico	-11.4105
▁acquistato	-11.4106
▁pastore	-11.4106
▁compiuta	-11.4108
▁doria	-11.4108
cum	-11.4109
tione	-11.4109
▁effettuata	-11.4109
▁introduce	-11.411
tone	-11.4111
mul	-11.4112
loni	-11.4112
▁noia	-11.4113
▁privacy	-11.4113
▁defini	-11.4113
▁tormento	-11.4114
▁produttività	-11.4114
▁pervenire	-11.4114
▁premia	-11.4116
▁godono	-11.4118
poni	-11.412
▁orientali	-11.4121
rat	-11.4121
▁accessibili	-11.4124
▁cooperare	-11.4127
▁interi	-11.4131
▁vedrete	-11.4132
▁caratterizza	-11.4132
▁cia	-11.4132
▁subi	-11.4133
▁clo	-11.4133
▁preparati	-11.4135
bbia	-11.4137
▁ponendo	-11.4138
▁manco	-11.4138
▁pelo	-11.4139
▁sopratutto	-11.414
cti	-11.414
▁trovandosi	-11.4141
ph	-11.4144
▁gallo	-11.4144
34	-11.4145
▁commette	-11.4146
▁scontro	-11.4148
▁partite	-11.415
▁galee	-11.4155
▁appreso	-11.4155
▁ple	-11.4156
dda	-11.4158
70	-11.4159
▁gatti	-11.4161
▁intelligenti	-11.4162
▁attentati	-11.4162
▁impegna	-11.4164
▁xix	-11.4167
ers	-11.4167
▁efficienti	-11.4168
▁margini	-11.4168
▁edifica	-11.4171
▁rafforzata	-11.4172
▁adriano	-11.4175
▁figlie	-11.4178
▁dimentichiamo	-11.4179
▁burro	-11.4185
--	-11.4185
▁ogm	-11.4186
▁potestà	-11.4186
▁fiorentino	-11.4186
▁follia	-11.419
▁circo	-11.419
▁donatori	-11.4193
▁generosità	-11.4193
▁eventuale	-11.4194
▁ingenti	-11.4194
▁gala	-11.4194
dina	-11.4196
▁usciti	-11.4196
▁cresciuto	-11.4198
▁pazza	-11.42
stanti	-11.4202
▁accessibile	-11.4205
▁distanze	-11.4205
▁seme	-11.4205
▁bimbi	-11.4206
▁aumentato	-11.4209
▁esatto	-11.4209
▁mortali	-11.4212
▁lenta	-11.4214
▁bastava	-11.4217
▁dovute	-11.4217
▁vinci	-11.4217
▁gabinetto	-11.4223
▁dipinto	-11.4224
affermazione	-11.4227
▁succedere	-11.4228
▁vigente	-11.423
▁sch	-11.4233
▁affa	-11.4233
▁marte	-11.4235
▁accadde	-11.4235
▁impro	-11.4236
▁render	-11.4236
▁intenda	-11.4237
▁rallegro	-11.4238
▁contrade	-11.4238
▁trovai	-11.4238
▁aumentando	-11.424
▁rivolgersi	-11.4241
▁galleria	-11.4242
▁modificati	-11.4247
▁scoperte	-11.4247
▁wo	-11.4248
▁esperimenti	-11.4248
▁arabo	-11.4254
▁delinea	-11.4254
▁intere	-11.4256
▁completamento	-11.4257
▁indice	-11.4259
▁accolti	-11.426
▁intraprese	-11.426
▁concessa	-11.426
▁esserne	-11.426
▁prati	-11.4261
▁preparativi	-11.4264
lazione	-11.4264
▁fianchi	-11.4266
orum	-11.4266
▁battista	-11.4268
ft	-11.4271
▁repubbliche	-11.4272
▁stomaco	-11.4272
uccia	-11.4273
▁divertimento	-11.4275
▁persia	-11.4277
▁crescendo	-11.4277
>	-11.4278
▁risultano	-11.4278
▁divenuta	-11.4278
▁esperto	-11.428
▁scoppio	-11.4282
udo	-11.4282
▁propriamente	-11.4283
▁prendete	-11.4285
▁ristorante	-11.4287
▁squa	-11.4288
▁attira	-11.429
▁eroe	-11.429
▁insegnamento	-11.429
▁panorama	-11.4291
▁segnato	-11.4293
▁(19	-11.4293
▁penti	-11.4294
▁qualifiche	-11.4296
▁podestà	-11.4297
▁modificata	-11.4301
▁stesura	-11.4303
▁nec	-11.4303
cata	-11.4303
▁assali	-11.4304
▁guicciardini	-11.4304
▁sponda	-11.4304
▁ridotte	-11.4304
▁gravidanza	-11.4309
▁formulato	-11.431
▁sicure	-11.431
berto	-11.4313
▁mantiene	-11.4315
▁ira	-11.4316
▁continuando	-11.4316
▁slovacchia	-11.4317
▁avi	-11.4317
▁redazione	-11.4323
▁interpreta	-11.4323
▁plastica	-11.4323
▁aziendale	-11.4325
▁oli	-11.4328
ller	-11.4332
▁dé	-11.4337
▁rari	-11.4337
▁svela	-11.4338
▁2009.	-11.434
▁aprì	-11.434
impostazione	-11.4344
▁rispetti	-11.4345
▁scherzo	-11.4346
▁tramonto	-11.4346
▁battuta	-11.4346
▁credenza	-11.4347
▁tenute	-11.4347
▁piacenza	-11.4347
▁dividere	-11.4348
▁equa	-11.4349
▁apostoli	-11.4352
▁supplementari	-11.4353
▁chiavi	-11.4353
▁grata	-11.4353
▁gare	-11.4357
iscono	-11.4359
▁sbagliata	-11.4359
▁dose	-11.436
dè	-11.4361
▁religioni	-11.4362
▁liberare	-11.4363
▁apparenza	-11.4364
▁lievi	-11.4366
▁ripiglia	-11.4368
▁superbia	-11.4372
▁stento	-11.4373
▁cittadina	-11.4376
id	-11.4377
▁banane	-11.4378
▁parea	-11.4379
▁ordinaria	-11.4379
▁disabilità	-11.4381
bel	-11.4383
▁quattordici	-11.4384
▁tecnologica	-11.4384
▁separati	-11.4384
▁fornita	-11.439
▁cito	-11.4392
▁adotta	-11.4392
▁ku	-11.4394
▁spar	-11.4395
▁12.00.	-11.4396
9/	-11.4396
▁comprensibile	-11.4396
▁sopportare	-11.4396
▁bestie	-11.4396
▁preoccupato	-11.4401
▁annuali	-11.4404
▁innalza	-11.4404
▁pratici	-11.4406
▁simula	-11.4408
▁previsione	-11.4409
▁potrò	-11.441
▁giace	-11.4412
▁album	-11.4417
▁potenzialità	-11.4417
▁psico	-11.442
▁volea	-11.4422
▁sincera	-11.4422
▁apposta	-11.4425
ï	-11.4426
▁sperava	-11.4429
▁datori	-11.443
▁pour	-11.4433
▁preziosa	-11.4434
▁palazzi	-11.4434
inc	-11.4435
▁formidabile	-11.4435
▁conciliare	-11.4435
▁professa	-11.4436
▁credendo	-11.4438
▁gridando	-11.4439
▁coperti	-11.4441
▁regio	-11.4445
mato	-11.4445
▁dottrine	-11.4446
▁fugge	-11.4448
▁certificazione	-11.4448
▁affermando	-11.4448
▁unire	-11.4449
▁comportano	-11.4452
▁femminili	-11.4453
bbero	-11.4453
▁successione	-11.4454
▁insegnare	-11.4454
▁tempera	-11.4456
▁incertezza	-11.4456
▁combattuto	-11.4459
▁riconosciuti	-11.4459
▁1993	-11.4459
▁identificare	-11.446
▁pubblicare	-11.446
▁bastone	-11.4466
▁cali	-11.4467
▁attraversando	-11.4467
▁liste	-11.4471
6-0	-11.4472
▁plu	-11.4472
▁affidato	-11.4473
ggine	-11.4474
▁collina	-11.4475
▁dubitare	-11.4476
▁differente	-11.4479
▁dottori	-11.4479
▁sedici	-11.448
▁ms	-11.4482
▁giogo	-11.4482
▁dittatura	-11.4485
reste	-11.4486
▁record	-11.4486
▁domandare	-11.4489
▁stabilite	-11.4497
▁trasformato	-11.45
▁have	-11.4503
lf	-11.4505
▁filosofi	-11.4513
31	-11.4514
▁promosso	-11.4516
netti	-11.4517
48	-11.4518
▁sed	-11.452
▁band	-11.4523
chia	-11.4526
▁piaceri	-11.4526
▁copri	-11.4526
▁romanzi	-11.4528
▁lampo	-11.4528
▁asciuga	-11.4529
▁stabilizzazione	-11.4531
▁fermarsi	-11.4531
posta	-11.4531
▁speso	-11.4531
▁scarso	-11.4535
▁sant	-11.4536
▁fieri	-11.4537
▁fle	-11.4539
gata	-11.4539
▁magistrato	-11.4541
▁mini	-11.4543
▁sollevata	-11.4545
▁ringraziando	-11.4548
▁1990	-11.4548
▁48	-11.4553
▁disturba	-11.4554
▁mantenendo	-11.4554
rale	-11.4554
▁portavano	-11.4554
▁dotata	-11.4555
▁coltivazione	-11.4556
berg	-11.4558
▁campana	-11.4559
cari	-11.4559
▁serenità	-11.4561
▁appartamento	-11.4562
▁lasciarsi	-11.4562
▁nere	-11.4566
▁onesti	-11.4569
▁imperiali	-11.4572
▁xvii	-11.4572
▁attrezzature	-11.4573
▁ammirato	-11.4574
▁stabilita	-11.4575
▁magno	-11.4576
▁udi	-11.4576
▁collaboratori	-11.4577
▁commettere	-11.4578
▁condiviso	-11.4579
▁infinite	-11.4579
▁esteso	-11.458
▁gioie	-11.4581
▁mostre	-11.4581
▁indole	-11.4584
▁torni	-11.4585
▁comitati	-11.4585
▁disordini	-11.4585
▁detenzione	-11.4585
▁commozione	-11.4585
▁richiesti	-11.4586
sero	-11.4588
▁piaceva	-11.4589
▁pulizia	-11.4592
rk	-11.4592
▁percezione	-11.4593
mon	-11.4593
▁razionale	-11.4593
▁fammi	-11.4597
▁obbligati	-11.4599
▁saperlo	-11.46
▁torrente	-11.4603
▁quam	-11.4603
▁generare	-11.4606
ottimo	-11.4609
rali	-11.4609
▁giustiniano	-11.4611
▁procedimenti	-11.4611
▁inutilmente	-11.4611
1/	-11.4612
gga	-11.4615
acquis	-11.4617
segui	-11.4617
▁eleganti	-11.4617
▁vasi	-11.4618
▁api	-11.4621
▁converti	-11.4622
▁rispettive	-11.4626
rga	-11.463
idi	-11.4634
▁pag	-11.4635
▁grigio	-11.4636
▁riferimenti	-11.4636
▁th	-11.4637
▁passeggiata	-11.4637
▁indurre	-11.4638
▁prestazione	-11.4639
▁poterono	-11.464
▁potessi	-11.464
▁sottoposta	-11.4642
▁congedo	-11.4643
gan	-11.4643
▁potenziare	-11.4643
▁invitati	-11.4645
▁cori	-11.4646
▁scheda	-11.4646
▁richiedenti	-11.4647
▁intesi	-11.4649
▁vettura	-11.465
▁cig	-11.4652
▁socialdemocrati	-11.4653
▁onesta	-11.4653
formi	-11.4655
▁piazze	-11.4655
▁vapore	-11.4656
messo	-11.4656
▁servitù	-11.4662
▁diffuse	-11.4662
▁pp	-11.4663
▁presentò	-11.4663
▁rappresentati	-11.4664
▁applicabile	-11.4666
sp	-11.4667
▁accogliamo	-11.4669
amoci	-11.4669
▁eccesso	-11.467
▁arg	-11.4675
▁gettò	-11.4676
▁consolazione	-11.4682
▁elaborazione	-11.4683
▁gettare	-11.4685
▁spiegazioni	-11.4685
▁ist	-11.4686
▁congiuntamente	-11.4687
▁vario	-11.4687
▁duramente	-11.4687
▁sche	-11.4694
▁oscuro	-11.4695
▁indifferente	-11.4696
▁2000.	-11.4697
▁criminale	-11.4701
▁cattive	-11.4703
ces	-11.4703
llini	-11.4704
mes	-11.4706
▁prodotta	-11.4707
▁cieca	-11.4709
tello	-11.4711
2000	-11.4711
▁spingere	-11.4715
▁righe	-11.4719
▁salari	-11.4719
▁precedentemente	-11.472
▁faccenda	-11.4721
▁arrestato	-11.4721
▁carenza	-11.4723
▁miele	-11.4725
▁birmania	-11.4727
▁tristo	-11.473
▁suggerito	-11.4731
▁desse	-11.4732
▁rinnovo	-11.4732
▁preferenze	-11.4733
▁sba	-11.4735
▁cop	-11.4736
cita	-11.4737
▁lombardi	-11.4738
▁spettatori	-11.4739
▁veicolo	-11.4739
▁diletto	-11.474
▁violenti	-11.4741
▁arrivi	-11.4742
▁social	-11.4742
▁temeva	-11.4743
▁setta	-11.4745
▁specificamente	-11.4747
▁esclude	-11.4749
▁impre	-11.475
▁diffondere	-11.475
camente	-11.4751
▁seduti	-11.4753
▁tocco	-11.4753
▁lituania	-11.4754
▁raccomando	-11.4755
▁opporsi	-11.4755
ep	-11.4756
▁cieli	-11.4757
▁danese	-11.4757
▁ambi	-11.4757
▁tenevano	-11.4757
▁applicano	-11.4761
▁dote	-11.4761
▁persuaso	-11.4765
▁teodosio	-11.4765
▁cavour	-11.4767
▁baronessa	-11.4767
▁alba	-11.4768
▁punte	-11.4768
acce	-11.4769
▁rai	-11.4769
▁marche	-11.4771
▁vedrai	-11.4773
▁esposizione	-11.4773
)]	-11.4775
▁attese	-11.4776
▁creda	-11.4776
▁alterna	-11.4776
▁giuro	-11.4777
▁tensioni	-11.4779
▁registri	-11.4779
▁elevate	-11.478
▁limitazione	-11.4782
▁profeti	-11.4783
▁proveniente	-11.4785
▁campionato	-11.4785
▁successori	-11.4785
▁avvenimento	-11.4792
▁ven	-11.4792
logico	-11.4794
▁proporzione	-11.4794
spor	-11.4795
-0	-11.4797
▁conseguito	-11.4798
▁irregolarità	-11.4798
▁martiri	-11.48
▁registrare	-11.4801
▁viventi	-11.4803
▁accarezza	-11.4805
ndovi	-11.4806
▁pala	-11.4809
▁senatore	-11.4811
amento	-11.4812
▁solido	-11.4812
▁crolla	-11.4813
▁sostenibili	-11.4816
▁crudeli	-11.4821
▁guide	-11.4822
▁volontaria	-11.4826
▁servigio	-11.4827
▁ripristinare	-11.4828
▁migrazione	-11.4832
▁mastro	-11.4835
▁attendiamo	-11.4837
▁basilica	-11.4837
▁merce	-11.4838
▁buco	-11.4839
ngl	-11.4841
▁misurare	-11.4843
▁compimento	-11.4847
▁apparecchia	-11.4847
▁mosè	-11.4848
▁ragionevoli	-11.485
▁statale	-11.485
▁collegamenti	-11.4851
▁fermato	-11.4853
▁apprezzato	-11.4857
▁divinità	-11.4857
ette	-11.4858
▁redatto	-11.4858
attiva	-11.4858
▁riesca	-11.486
▁giuda	-11.4862
▁pat	-11.4863
lette	-11.4863
moni	-11.4864
▁strani	-11.4865
39	-11.4867
▁fortifica	-11.4868
▁utilizzano	-11.4868
▁faccende	-11.487
▁cavi	-11.487
tari	-11.487
▁confronta	-11.4873
ossi	-11.4876
▁rimarrà	-11.4876
▁puri	-11.4877
▁corretti	-11.4878
▁duomo	-11.4879
▁mirano	-11.4879
gar	-11.488
▁pul	-11.4881
▁cangia	-11.4881
▁reg	-11.4881
▁metta	-11.4882
▁somiglia	-11.4885
▁42	-11.4885
▁aggira	-11.4888
▁perlomeno	-11.4889
▁risposi	-11.4889
▁ognuna	-11.489
▁preparando	-11.4895
ges	-11.4896
▁complesse	-11.4897
intesa	-11.4899
netto	-11.4901
▁palese	-11.4901
▁batti	-11.4903
aids	-11.4904
▁munizioni	-11.4904
▁professori	-11.4906
▁neuro	-11.4912
▁produzioni	-11.4923
▁esauri	-11.4928
▁ufficialmente	-11.4929
▁sedute	-11.4929
▁secco	-11.4931
▁cotone	-11.4931
▁calpesta	-11.4932
▁sva	-11.4934
▁virginia	-11.4936
▁prestigio	-11.4937
▁scatena	-11.4938
▁mangiato	-11.4941
▁gonfia	-11.4941
▁risveglia	-11.4941
cal	-11.4941
`	-11.4942
▁contemporanei	-11.4942
mas	-11.4943
▁mancò	-11.495
▁monopoli	-11.4951
▁decora	-11.4952
▁tunisia	-11.4953
▁av	-11.4957
▁fortunato	-11.4958
▁sorgente	-11.4959
▁carri	-11.496
▁vor	-11.4963
▁bernardo	-11.4963
▁cerco	-11.4964
▁formata	-11.4966
mbri	-11.4966
▁divise	-11.4967
▁ritornò	-11.4969
▁orario	-11.4971
▁aerea	-11.4971
▁significare	-11.4971
▁armonizzare	-11.4972
▁guidata	-11.4974
▁voluttà	-11.4975
▁giri	-11.498
▁protetto	-11.4981
▁paragone	-11.4982
▁acquisire	-11.4982
insegnamento	-11.4983
▁fazione	-11.4985
mone	-11.4986
▁amano	-11.4986
▁inventa	-11.4989
▁bush	-11.499
tutto	-11.499
▁spunta	-11.499
▁fal	-11.4991
▁effettiva	-11.4992
▁sessuali	-11.4993
ldo	-11.4994
ung	-11.4995
▁rivoluzioni	-11.4995
▁disperata	-11.4996
▁brama	-11.4997
ccie	-11.4999
tata	-11.4999
▁cent	-11.5
▁autentico	-11.5001
▁costretta	-11.5001
▁marketing	-11.5001
▁disastri	-11.5002
▁mensa	-11.5002
▁ricomp	-11.5003
nova	-11.5004
▁artistico	-11.5004
▁diciotto	-11.5004
▁tirannide	-11.5006
▁investito	-11.5008
▁effettua	-11.5009
▁nico	-11.5011
▁associa	-11.5014
▁occorra	-11.5015
▁orecchi	-11.5015
▁moro	-11.5018
▁operativi	-11.5019
▁allegato	-11.502
adeguata	-11.5022
letta	-11.5025
epi	-11.5026
▁maniere	-11.5027
▁vaticano	-11.5028
▁vibra	-11.5033
▁verbo	-11.5034
aviazione	-11.5035
▁informale	-11.5036
▁mont	-11.5039
▁succedendo	-11.5047
▁derivano	-11.5048
▁professor	-11.5049
▁appropriato	-11.5055
▁custode	-11.5055
▁feri	-11.5057
dotti	-11.5058
tch	-11.506
▁paragona	-11.506
▁nebbia	-11.5061
▁diligenza	-11.5061
▁2010.	-11.5063
▁stro	-11.5064
▁scioglie	-11.5067
llino	-11.5068
▁vacanze	-11.5068
▁dirlo	-11.5072
▁inganna	-11.5073
entità	-11.5073
▁limitazioni	-11.5073
▁lusinga	-11.5075
▁nipoti	-11.5075
▁restituire	-11.5075
▁offesa	-11.5075
▁sudafrica	-11.5077
▁culla	-11.5077
▁strane	-11.5077
là	-11.5079
▁escluso	-11.5081
▁giocattoli	-11.5081
▁battuto	-11.5082
▁coppie	-11.5082
▁risenti	-11.5084
vesti	-11.5087
▁congo	-11.5088
▁osservò	-11.5088
▁ricordando	-11.5091
▁muoiono	-11.5093
▁vena	-11.5094
▁farmaco	-11.5095
▁pulita	-11.5097
resti	-11.5099
▁ospedale	-11.5101
▁sostanziali	-11.5102
▁narrazione	-11.5102
▁65	-11.5105
▁saliva	-11.5106
▁risultare	-11.5107
▁produttore	-11.5109
▁divisioni	-11.511
▁concorda	-11.5118
aco	-11.512
retti	-11.512
▁intrapreso	-11.5122
▁provvidenza	-11.5122
met	-11.5127
▁preferenza	-11.5129
▁migranti	-11.513
▁avessimo	-11.5131
emocratizzazione	-11.5133
▁illusioni	-11.5135
▁legna	-11.5135
▁infiamma	-11.5137
▁ehi	-11.5137
▁ruina	-11.5137
▁ignoranza	-11.5138
▁definite	-11.514
▁istituisce	-11.5142
▁terremoto	-11.5142
▁palma	-11.5149
▁verifiche	-11.5149
▁spettacoli	-11.5149
▁custodia	-11.5152
▁esegui	-11.5152
▁combina	-11.5153
▁attuato	-11.5153
▁clausole	-11.5155
veri	-11.5156
▁fisiche	-11.5156
▁sete	-11.5157
▁cancellare	-11.5157
▁regala	-11.5158
▁attendono	-11.5159
▁franzesi	-11.5162
oceano	-11.5162
▁cupo	-11.5163
▁credette	-11.5163
▁osservando	-11.5163
▁autunno	-11.5166
▁mole	-11.5167
▁raramente	-11.5167
▁sacre	-11.5167
ney	-11.517
▁americane	-11.5171
^2	-11.5172
▁out	-11.5172
▁senatori	-11.5175
▁top	-11.5175
▁carabinieri	-11.5176
▁deposito	-11.5176
▁superba	-11.5176
▁scadenze	-11.5176
▁alfredo	-11.5177
▁atene	-11.5177
▁assicurarsi	-11.5178
▁quartieri	-11.5178
▁mento	-11.5179
-20	-11.5181
2,	-11.5181
▁piombo	-11.5183
▁articola	-11.5184
▁bimba	-11.5185
▁34	-11.5186
▁intensità	-11.5186
▁trascura	-11.5187
▁libia	-11.5187
2.	-11.5188
▁salda	-11.5189
▁deposita	-11.5189
▁levante	-11.5193
ú	-11.5195
▁milizia	-11.5196
▁abbi	-11.5197
▁spedito	-11.5197
▁feroci	-11.5197
37	-11.5199
▁attuate	-11.52
rch	-11.5202
▁concentrare	-11.5203
▁saraceni	-11.5203
▁forniscono	-11.5203
▁viti	-11.5205
▁divisi	-11.5206
▁esecutivo	-11.5207
▁ster	-11.5207
▁visibili	-11.521
▁sincerità	-11.5211
▁supporre	-11.5212
▁indizione	-11.5214
duci	-11.5214
▁2007,	-11.5215
▁presidio	-11.5216
▁trasferire	-11.5217
▁falsi	-11.5218
▁sapesse	-11.5218
8.	-11.5218
▁2006,	-11.5218
▁ahi	-11.522
ok	-11.5225
▁vicinanza	-11.5226
▁variazioni	-11.5229
▁abbandono	-11.523
▁fontana	-11.523
▁iscrizione	-11.523
▁larghe	-11.5232
▁fel	-11.5232
▁scrivendo	-11.5232
▁campioni	-11.5237
▁albergo	-11.5239
▁dipendente	-11.5239
▁scese	-11.5239
▁partecipano	-11.524
▁pale	-11.5241
impianto	-11.5243
▁perciocchè	-11.5243
▁quae	-11.5244
▁scusi	-11.5249
▁calcoli	-11.525
▁libano	-11.5252
▁spina	-11.5255
▁porsi	-11.5255
▁rapporta	-11.5257
▁regolamentare	-11.5259
▁iniziali	-11.526
▁morbo	-11.526
▁frena	-11.526
▁sorride	-11.526
▁tributo	-11.5261
▁illustrare	-11.5264
▁riuniti	-11.5265
▁crollo	-11.5266
▁mina	-11.5267
ttico	-11.5268
▁documenta	-11.5269
▁consistente	-11.527
▁bell	-11.5271
▁bancario	-11.5271
▁inquinamento	-11.5272
▁favorevolmente	-11.5274
▁titolare	-11.5275
▁compagna	-11.5277
▁incorpora	-11.5278
▁donato	-11.5278
▁38	-11.5282
ospedale	-11.5285
▁iran	-11.5285
▁commosso	-11.5291
▁acuto	-11.5293
▁superbo	-11.5294
▁vana	-11.5296
▁passar	-11.5297
▁farti	-11.5297
▁tessile	-11.5298
ipotesi	-11.5298
esposizione	-11.5299
▁eseguito	-11.5303
▁invero	-11.5303
▁rivolti	-11.5305
▁soccorsi	-11.5305
orientamento	-11.5305
▁occupazionale	-11.5305
▁decreti	-11.5305
▁siede	-11.5312
ala	-11.5316
▁attaccare	-11.5316
nger	-11.5317
▁lampada	-11.5318
▁sla	-11.5319
▁curare	-11.5319
pol	-11.532
▁accese	-11.532
▁discende	-11.5321
▁generosa	-11.5322
▁tentò	-11.5322
▁tirato	-11.5323
rate	-11.5324
▁complicato	-11.5324
▁conquistare	-11.5325
▁stimolo	-11.5327
▁settanta	-11.533
solo	-11.5332
▁condivisa	-11.5332
▁deroghe	-11.5332
▁intimo	-11.5335
▁ammirare	-11.5339
▁ahimè	-11.5339
mis	-11.5341
▁laboratori	-11.5342
▁up	-11.5342
▁investiga	-11.5342
▁immaginate	-11.5342
▁economicamente	-11.5344
▁combustibili	-11.5346
▁rimborso	-11.5346
▁cronaca	-11.5346
▁compia	-11.5347
▁difendersi	-11.5354
▁vestita	-11.5354
▁ancorchè	-11.5356
▁cominciano	-11.5358
▁oste	-11.5358
▁pescherecci	-11.536
▁gradualmente	-11.536
▁riti	-11.536
▁cessare	-11.5363
▁2005,	-11.537
▁nigeria	-11.5373
▁scapito	-11.5374
atti	-11.5375
▁calca	-11.5375
▁concilia	-11.5375
▁saccheggia	-11.5375
▁selvaggia	-11.5378
▁obbligatorio	-11.538
asso	-11.538
▁strategici	-11.538
▁vedute	-11.5381
▁7,	-11.5382
▁tesa	-11.5384
▁medi	-11.5385
▁rimanente	-11.5387
ins	-11.5389
▁inseri	-11.5389
▁correndo	-11.5389
uma	-11.539
▁dedicare	-11.5391
▁ton	-11.5392
emergenza	-11.5395
▁riuscirà	-11.5396
▁analogamente	-11.5397
ntò	-11.54
▁esposte	-11.5401
▁avean	-11.5402
▁connesse	-11.5403
▁assassini	-11.5405
▁aggiornamento	-11.5405
cini	-11.5406
metri	-11.5406
onda	-11.541
▁benedizione	-11.5411
/20	-11.5414
▁circondato	-11.5414
▁sottoporre	-11.5415
▁logo	-11.5416
▁pozzo	-11.5418
▁spu	-11.542
▁distrutti	-11.5421
▁indirizzi	-11.5422
▁ingredienti	-11.5422
▁rialza	-11.5423
eni	-11.5424
▁line	-11.5425
▁unitamente	-11.5427
▁correnti	-11.5428
▁pc	-11.5432
▁consentendo	-11.5433
▁marine	-11.5433
▁ispirato	-11.5433
▁vinti	-11.5434
▁gol	-11.5436
▁retribuzione	-11.5436
▁rigoroso	-11.5436
cente	-11.5436
▁giustificazione	-11.5441
▁riconobbe	-11.5443
▁affolla	-11.5443
▁us	-11.5444
▁rimaste	-11.5444
▁muni	-11.5456
▁brani	-11.5456
edificio	-11.5457
▁applicabili	-11.546
▁metalli	-11.5461
▁danubio	-11.5463
▁saggezza	-11.5463
▁rara	-11.5464
rmene	-11.5464
▁amiche	-11.5464
▁provo	-11.5465
ago	-11.5466
▁aziendali	-11.5468
ume	-11.5469
▁rivelazione	-11.5469
▁sostenitori	-11.547
▁parlerò	-11.547
▁rigida	-11.547
▁matto	-11.5472
▁proviene	-11.5478
▁lasciarono	-11.5479
▁qu	-11.5479
▁guardato	-11.5481
▁aut	-11.5481
nghe	-11.5482
▁odore	-11.5483
▁attive	-11.5484
▁odierno	-11.5486
▁fil	-11.5487
ban	-11.5487
appello	-11.5488
dura	-11.5488
▁passaggi	-11.5494
▁nemica	-11.5497
▁maschile	-11.5498
▁mantello	-11.5499
▁partigiani	-11.5499
▁leale	-11.5502
▁classici	-11.5502
▁ungheria	-11.5504
▁ferri	-11.5504
▁preserva	-11.5505
▁paragrafi	-11.5505
▁salvato	-11.5507
▁ribella	-11.5507
▁sen	-11.5507
ent	-11.5509
celle	-11.5509
▁bol	-11.5511
▁pluriennale	-11.5512
▁parrocchia	-11.5514
▁anticipa	-11.5515
▁renda	-11.5516
▁interrotta	-11.5518
▁tragico	-11.5519
arresto	-11.552
▁contrada	-11.5521
▁umore	-11.5521
▁assegna	-11.5523
▁brano	-11.5523
▁aggiungendo	-11.5524
sl	-11.5526
▁didattica	-11.5526
ficazione	-11.5528
▁rimanga	-11.5528
▁sospira	-11.5529
▁scuse	-11.5529
▁allor	-11.5531
▁bas	-11.5533
▁fornendo	-11.5533
▁damiano	-11.5533
▁riservata	-11.5535
▁autonomi	-11.5536
▁passavano	-11.5538
▁ecologica	-11.554
▁pani	-11.5541
▁levato	-11.5545
▁nettamente	-11.5547
▁agito	-11.5548
▁cagion	-11.5549
▁2008,	-11.555
eco	-11.5552
▁bacino	-11.5553
▁sostenuti	-11.5554
▁devozione	-11.5556
▁puntare	-11.5559
ô	-11.5559
tini	-11.556
▁potenzialmente	-11.5561
urs	-11.5562
▁colpire	-11.5563
▁rota	-11.5564
▁avevan	-11.5565
▁facessero	-11.5565
▁soliti	-11.5567
diti	-11.5568
▁bloccare	-11.5568
mati	-11.5568
▁seg	-11.5569
▁mandar	-11.557
perché	-11.5571
▁der	-11.5572
▁avermi	-11.5572
▁dublino	-11.5575
▁scema	-11.5581
bis	-11.5582
ade	-11.5583
▁roccia	-11.5586
▁autentica	-11.5586
▁seggio	-11.5587
▁claudia	-11.5589
▁attaccato	-11.5591
▁concordia	-11.5591
▁contesta	-11.5596
▁===	-11.5596
▁raffigura	-11.5596
▁concerti	-11.5597
▁ida	-11.5597
▁piove	-11.5598
▁andranno	-11.5598
▁ricevette	-11.5599
▁coltura	-11.5602
▁orari	-11.5603
▁grassi	-11.5603
▁seguiva	-11.5603
▁pensionati	-11.5603
effettiva	-11.5604
▁monitorare	-11.5604
▁esplora	-11.5606
▁rock	-11.5606
▁dicesse	-11.5609
▁paro	-11.5609
▁gino	-11.5611
▁sfa	-11.5611
▁socialismo	-11.5611
▁angoscia	-11.5612
rita	-11.5615
▁scrivo	-11.5616
▁mercurio	-11.5617
▁55	-11.5619
▁dame	-11.5625
▁considerano	-11.5627
▁venere	-11.5627
▁espansione	-11.5628
emo	-11.5628
▁conservato	-11.5629
▁medita	-11.563
▁esilio	-11.5631
▁leadership	-11.5632
▁multilaterale	-11.5632
▁cellulare	-11.5633
▁serviva	-11.5634
▁stende	-11.5637
▁grafico	-11.5637
▁gloriosa	-11.5639
allegato	-11.5639
▁cereali	-11.5639
▁cattedrale	-11.5644
▁spirituali	-11.5644
▁durare	-11.5645
▁soddisfatta	-11.5649
▁allarga	-11.5649
▁ardi	-11.5649
▁renderà	-11.5649
▁strato	-11.5653
▁cristalli	-11.5653
▁temendo	-11.5653
▁territoriali	-11.5653
▁addetti	-11.5654
aldo	-11.5655
▁residui	-11.566
▁addormenta	-11.5662
off	-11.5662
▁barbaro	-11.5664
▁ammazza	-11.5665
▁esclusiva	-11.5667
▁ran	-11.5668
ν	-11.5671
▁sorprese	-11.5674
▁dogma	-11.5675
▁poggia	-11.5676
invito	-11.5676
▁maschio	-11.5678
▁teso	-11.5679
▁sessi	-11.5679
▁corridoio	-11.5681
ultraperiferiche	-11.5681
▁precoce	-11.5681
▁elaborata	-11.5682
▁suggerisce	-11.5683
▁ansia	-11.5687
▁visitato	-11.5688
▁eccezionali	-11.5688
▁cecenia	-11.569
▁tibet	-11.5692
▁tredici	-11.5695
▁inverno	-11.5695
▁composti	-11.5695
▁esp	-11.5699
▁doti	-11.57
▁trovando	-11.5701
▁collettivo	-11.5703
▁siffatta	-11.5703
ville	-11.5703
▁cospetto	-11.5703
ring	-11.5705
cono	-11.5705
▁chiarito	-11.5706
▁sacrifica	-11.5707
▁disturbi	-11.571
▁conseguimento	-11.571
▁•	-11.571
▁deplora	-11.5716
▁gentiluomini	-11.5717
▁avanzi	-11.5718
▁abolire	-11.5718
▁tunisi	-11.572
▁infelici	-11.5722
▁riproduzione	-11.5724
▁strepito	-11.5724
▁elementare	-11.5724
▁continueranno	-11.5727
▁accorse	-11.5727
rpi	-11.5735
▁rovescio	-11.5736
▁confesso	-11.5737
▁eccolo	-11.5737
▁pubblicò	-11.5738
▁svizzeri	-11.5738
1,	-11.5738
rve	-11.5739
▁dichiarata	-11.5741
▁bestiame	-11.5741
▁avvicinarsi	-11.5742
▁comprendono	-11.5743
▁affrontando	-11.5743
forme	-11.5743
▁coltello	-11.5744
▁imputa	-11.5744
quo	-11.5745
▁rivale	-11.5745
▁viceversa	-11.5746
▁limitarsi	-11.5746
discussione	-11.5746
imposizione	-11.5746
▁batteria	-11.5748
cole	-11.5748
▁conformi	-11.5749
▁calunnia	-11.5752
▁gertrude	-11.5752
▁attribuito	-11.5753
tela	-11.5756
▁corri	-11.5757
▁2009,	-11.5758
▁colombia	-11.5758
▁ante	-11.5759
▁finlandese	-11.576
▁mercè	-11.576
▁sottolineo	-11.576
▁cattedra	-11.5761
▁ottanta	-11.5762
ε	-11.5762
gnolo	-11.5763
▁riesci	-11.5764
dite	-11.5765
▁interrogativi	-11.5767
▁modesta	-11.577
▁sella	-11.5773
▁foro	-11.5773
▁trama	-11.5776
▁abitazioni	-11.5777
▁attuata	-11.578
rello	-11.578
▁misteriosa	-11.5781
▁comparto	-11.5782
▁esigere	-11.5782
▁solenni	-11.5782
▁purché	-11.5784
▁rotte	-11.5785
▁farli	-11.5786
▁opportuni	-11.5788
▁turca	-11.5789
▁trattamenti	-11.579
▁dubito	-11.5791
fin	-11.5793
▁proibi	-11.5794
▁accettata	-11.5795
▁biologica	-11.5796
▁tenersi	-11.5798
▁fascio	-11.58
▁dotti	-11.58
▁brevetto	-11.5801
▁fondamenta	-11.5802
▁medaglia	-11.5803
▁polli	-11.5807
▁scaccia	-11.5811
▁eretici	-11.5812
▁peda	-11.5813
▁unitaria	-11.5813
▁galere	-11.5815
▁individua	-11.5817
▁stamattina	-11.5817
visi	-11.5817
38	-11.5818
▁bergamo	-11.5818
▁batteri	-11.582
▁unirsi	-11.582
▁server	-11.5822
gente	-11.5822
▁normanni	-11.5825
▁commenta	-11.5827
▁riuni	-11.5828
▁torniamo	-11.5828
▁funzionano	-11.583
▁presentarsi	-11.5831
▁consentano	-11.5832
▁andarsene	-11.5832
▁propositi	-11.5832
▁soffio	-11.5834
▁suscitato	-11.5835
pide	-11.5836
▁emissione	-11.5836
▁chiamavano	-11.5837
▁decisiva	-11.5837
▁crema	-11.5837
▁vinse	-11.584
▁incerto	-11.5847
cho	-11.5847
▁dispensa	-11.5848
iii	-11.585
▁ferra	-11.5853
let	-11.5853
▁disfa	-11.5853
▁costruita	-11.5854
▁primario	-11.5855
▁gettato	-11.5857
▁provenza	-11.586
▁aderenti	-11.5861
sis	-11.5861
▁sentendo	-11.5863
▁stre	-11.5865
rin	-11.5868
▁larghi	-11.5869
ciò	-11.5869
▁rifiutato	-11.5872
amente	-11.5875
▁monarca	-11.5875
▁nominare	-11.5876
▁dotati	-11.5877
'8	-11.5878
▁darle	-11.588
▁adottando	-11.5885
▁foggia	-11.5885
▁www	-11.5888
▁mantener	-11.5888
roma	-11.5888
▁sg	-11.5889
▁introdotta	-11.5889
▁pianoforte	-11.5891
▁prevale	-11.5891
▁estesa	-11.5891
▁ces	-11.5892
▁diego	-11.5894
▁dna	-11.5895
▁cano	-11.5897
▁diocesi	-11.5897
▁campane	-11.5898
▁tru	-11.5898
sson	-11.5902
▁punizione	-11.5903
sola	-11.5904
▁savi	-11.5905
cl	-11.5905
▁diffonde	-11.5906
▁mobilitazione	-11.5906
due	-11.5909
▁immaginazione	-11.5909
▁ripa	-11.5911
▁impianto	-11.5911
▁email	-11.5913
ccu	-11.5913
▁livia	-11.5913
▁semplifica	-11.5915
▁distacca	-11.5915
▁investi	-11.5918
ä	-11.5918
▁ghibellini	-11.5918
▁ridi	-11.5919
cchino	-11.5922
sum	-11.5923
mano	-11.5924
▁esaminando	-11.5925
▁moti	-11.5929
▁finta	-11.5929
▁codesto	-11.5932
▁dure	-11.5934
▁docenti	-11.5935
▁controversia	-11.5938
▁chissà	-11.594
▁stanchezza	-11.5941
▁imbarcazioni	-11.5943
▁sorridere	-11.5943
▁lavorativa	-11.5943
▁visse	-11.5948
▁ricci	-11.5949
logica	-11.595
▁savio	-11.5954
▁piacciono	-11.5955
▁trasportare	-11.5961
▁spegne	-11.5962
▁vigili	-11.5962
▁sconosciuto	-11.5962
▁transeuropee	-11.5962
▁confido	-11.5962
▁suddetti	-11.5962
▁lavoratore	-11.5963
▁seguaci	-11.5964
▁sollevate	-11.5964
▁segrete	-11.5967
43	-11.5968
▁competizione	-11.597
▁glorioso	-11.597
▁ridur	-11.597
▁testimonianze	-11.597
▁concessi	-11.5971
▁bovina	-11.5972
▁sentita	-11.5972
▁testimone	-11.5972
▁oratore	-11.5974
▁esserlo	-11.5974
▁salito	-11.5974
gel	-11.5974
▁usiamo	-11.5975
▁sassi	-11.5977
▁bisognerà	-11.5977
▁delegazioni	-11.5979
otti	-11.5979
▁card	-11.598
▁pretese	-11.5987
▁(1	-11.5988
▁porgere	-11.5989
pio	-11.599
▁pertinenti	-11.5992
▁effettuate	-11.5994
▁intitolato	-11.5994
▁dans	-11.5994
85	-11.5995
▁arrestare	-11.5997
▁soleva	-11.5997
▁proliferazione	-11.5999
▁africana	-11.5999
▁mirabile	-11.6003
▁affidata	-11.6003
▁corde	-11.6004
▁prussia	-11.6007
▁2008.	-11.6007
▁sezioni	-11.6008
occhi	-11.6008
▁limitati	-11.6008
▁ostacola	-11.6009
▁fallito	-11.6009
▁generato	-11.601
▁morir	-11.6012
▁guelfi	-11.6014
▁barbara	-11.6014
▁imbarca	-11.6015
▁acciaio	-11.6017
41	-11.6018
ight	-11.602
▁intermedia	-11.6021
▁decisionali	-11.6021
▁maternità	-11.6021
▁preziose	-11.6021
▁valentino	-11.6021
▁favorito	-11.6023
▁magia	-11.6024
▁pensai	-11.6025
▁riconoscendo	-11.6025
grandi	-11.6025
▁abba	-11.6026
▁2007.	-11.6027
▁rendo	-11.6028
▁riconosco	-11.6031
▁quotidianamente	-11.6031
▁siciliani	-11.6032
▁letti	-11.6034
▁architettura	-11.6034
://	-11.6036
▁colmare	-11.6036
▁agostino	-11.6036
▁opportuna	-11.604
▁approvate	-11.6041
anco	-11.6042
▁diffidenza	-11.6043
▁rinnovare	-11.6045
cher	-11.6045
▁mutato	-11.6046
▁eguale	-11.6047
▁entrarono	-11.6047
▁spaziale	-11.6047
▁teatri	-11.605
▁battesimo	-11.6051
▁esista	-11.6051
▁concorrenti	-11.6053
zionali	-11.6054
▁distante	-11.6055
▁off	-11.6061
▁uscir	-11.6061
▁copie	-11.6062
▁vul	-11.6063
▁assomiglia	-11.6065
▁retorica	-11.6065
▁pot	-11.6067
▁lenti	-11.6068
rano	-11.607
▁120	-11.607
▁conoscendo	-11.607
▁forno	-11.6071
▁elimina	-11.6071
▁misterioso	-11.6073
▁vetri	-11.6075
▁trae	-11.6075
▁spara	-11.6078
▁doversi	-11.6078
▁ratificato	-11.6079
scre	-11.6079
▁♪	-11.608
▁lidia	-11.6082
▁diamo	-11.6082
▁intensa	-11.6084
▁bombe	-11.6085
▁scava	-11.6085
▁atterra	-11.6086
lari	-11.6087
▁scritture	-11.6087
▁dorme	-11.609
▁sani	-11.6091
▁fantasma	-11.6095
▁stampe	-11.6096
▁prioritario	-11.6096
▁pregiudizio	-11.6097
▁bagni	-11.6098
▁persuadere	-11.6099
▁riformare	-11.6106
▁nubi	-11.6109
ji	-11.6113
▁largamente	-11.6116
▁salone	-11.6116
▁israeliani	-11.6117
▁balena	-11.6118
▁docente	-11.6119
dul	-11.612
▁esprimersi	-11.612
▁misto	-11.6121
46	-11.6121
ità	-11.6122
▁atleti	-11.6125
ombra	-11.6126
rc	-11.6127
▁ted	-11.6127
▁apporta	-11.6128
▁tremante	-11.6129
▁vous	-11.613
▁domestica	-11.6132
▁offerti	-11.6132
▁dossier	-11.6132
▁banchi	-11.6133
▁risarcimento	-11.6133
forma	-11.6135
▁gigante	-11.6136
▁alice	-11.6137
▁richiamato	-11.6138
▁comportare	-11.6139
▁sospendere	-11.6139
▁abuso	-11.614
lismo	-11.614
▁volare	-11.6143
▁orecchio	-11.6143
posto	-11.6143
▁set	-11.6144
▁caratterizzata	-11.6144
▁complementare	-11.6147
▁salì	-11.6148
▁preveda	-11.6148
▁intro	-11.6149
▁caos	-11.6152
▁omc	-11.6152
▁avvio	-11.6153
▁impressioni	-11.6154
▁obiezioni	-11.6154
▁confessare	-11.6158
▁consacra	-11.6161
▁rivolse	-11.6161
inflazione	-11.6163
▁provengono	-11.6165
▁pecca	-11.6167
▁concordi	-11.6168
▁ventre	-11.6169
fiche	-11.6169
▁curiosi	-11.617
▁avverrà	-11.617
▁disegnare	-11.6172
▁appoggiamo	-11.6173
▁continuazione	-11.6175
▁topo	-11.6176
▁sollievo	-11.6176
▁cremona	-11.6177
▁pensionistici	-11.6177
▁ministeriale	-11.6177
▁fogli	-11.6178
▁gabriele	-11.618
▁ostante	-11.618
gato	-11.6183
▁indicata	-11.6183
▁menzogna	-11.6184
▁introdotti	-11.6184
▁stiano	-11.6185
▁preventiva	-11.6186
▁successe	-11.6187
▁44	-11.6188
▁0.	-11.6189
yer	-11.6191
▁aste	-11.6195
▁scontra	-11.6195
▁saltare	-11.6196
▁gal	-11.6197
mmer	-11.6199
▁convenuto	-11.6199
▁silvio	-11.6199
▁morde	-11.6201
▁ruppe	-11.6202
▁mettete	-11.6203
▁facce	-11.6205
▁portale	-11.6206
▁trasmesso	-11.6206
▁pazzi	-11.6207
rare	-11.6207
▁equi	-11.6208
▁attendo	-11.6208
▁geme	-11.6209
▁credevo	-11.6209
▁costituisca	-11.6209
▁esponenti	-11.621
▁ardenti	-11.6211
▁guardano	-11.6212
▁sentii	-11.6212
▁espone	-11.6213
▁umili	-11.6213
▁grati	-11.6214
▁picco	-11.6216
▁pres	-11.6219
▁duo	-11.6221
95	-11.6221
▁nino	-11.6222
▁idro	-11.6222
ada	-11.6223
▁brigata	-11.6223
▁eleva	-11.6224
▁olandesi	-11.6229
▁discussa	-11.6229
▁impostazione	-11.6229
▁flu	-11.623
47	-11.6231
▁ambasciatore	-11.6231
▁tendono	-11.6232
zu	-11.6232
▁poterlo	-11.6233
▁superiorità	-11.6234
▁guerrieri	-11.6236
▁provenienza	-11.6236
▁introdotte	-11.6236
▁contadino	-11.6237
▁comparsa	-11.6238
▁integra	-11.6238
▁sponde	-11.6238
▁mangimi	-11.6238
▁propor	-11.624
etica	-11.624
▁gel	-11.624
▁cc	-11.6241
▁variabile	-11.6241
▁vili	-11.6242
▁previdenza	-11.6244
▁vietare	-11.6245
▁compone	-11.6246
ione	-11.6249
▁vigilare	-11.6249
volta	-11.6249
▁soffrono	-11.6249
▁vaso	-11.6249
▁oppressi	-11.6251
scie	-11.6251
▁bottiglia	-11.6252
▁combattenti	-11.6252
▁chimici	-11.6253
▁scintilla	-11.6254
▁nonna	-11.6254
ridi	-11.6255
▁pista	-11.6256
▁decoro	-11.6256
esimo	-11.6257
▁atteso	-11.6259
ardi	-11.6261
▁annovera	-11.6262
▁popola	-11.6262
▁palme	-11.6266
▁cotesti	-11.6266
▁negato	-11.6268
▁8,	-11.6268
logici	-11.6271
▁udiva	-11.6272
▁pregi	-11.6273
▁shi	-11.6273
▁ricrea	-11.6276
dit	-11.6277
▁gon	-11.6277
▁inclusa	-11.6281
▁attribuita	-11.6282
▁aduna	-11.6283
▁allevatori	-11.6284
▁scorge	-11.6285
▁mutare	-11.6286
▁limitate	-11.6287
▁gallia	-11.6288
▁pecore	-11.6291
▁fonde	-11.6295
stina	-11.6297
▁duchi	-11.6297
▁pongono	-11.6299
▁inserita	-11.6299
▁colture	-11.6302
▁vele	-11.6303
▁candela	-11.6304
▁sbarca	-11.6304
▁facciata	-11.6305
▁mercanti	-11.6308
▁competitivo	-11.6312
afghanistan	-11.6313
▁pig	-11.6313
ham	-11.6315
▁250	-11.6317
▁segnalato	-11.6318
▁urla	-11.6319
▁delusione	-11.632
▁tasche	-11.6322
psi	-11.6323
▁darò	-11.6324
cate	-11.6325
▁accessori	-11.6327
▁carburante	-11.6327
▁perugia	-11.6327
▁interiore	-11.6327
▁diplomazia	-11.6328
▁raccontato	-11.633
▁affianca	-11.6335
▁promise	-11.6335
▁donazione	-11.6335
▁bomba	-11.6337
▁ph	-11.634
volmente	-11.6341
▁cercar	-11.6341
▁manuale	-11.6343
▁drammatica	-11.6346
▁tematica	-11.6346
▁occidente	-11.6347
▁frazione	-11.6347
▁destinare	-11.6348
▁suddetta	-11.635
bbio	-11.6356
);	-11.6357
▁rafforzato	-11.6358
▁ampi	-11.6361
▁anello	-11.6361
▁blocca	-11.6361
▁legittimi	-11.6364
▁importantissimo	-11.6366
presso	-11.6368
▁indovina	-11.6369
▁casse	-11.637
▁sultano	-11.6373
▁stime	-11.6374
tele	-11.6375
▁doma	-11.6377
lici	-11.6377
sciu	-11.638
▁dolcemente	-11.6382
▁suggerimento	-11.6383
▁realizzate	-11.6385
▁diviene	-11.6386
ang	-11.6387
▁dionisio	-11.6388
▁penalizza	-11.6391
▁eredità	-11.6392
▁stradali	-11.6392
▁alessandria	-11.6395
▁inganno	-11.6396
▁600	-11.6396
▁indifferenza	-11.6397
▁entri	-11.6398
▁solitamente	-11.6398
▁troverete	-11.6399
▁scorgere	-11.64
▁conclusi	-11.6401
▁costrui	-11.6402
operato	-11.6402
▁liberato	-11.6406
▁terminato	-11.6408
▁capri	-11.6409
▁fiorini	-11.641
▁ambiziosa	-11.6411
▁editori	-11.6411
▁riputa	-11.6415
▁nozione	-11.6416
▁cameriere	-11.6418
▁malinconia	-11.6418
▁prerogative	-11.6418
▁discepoli	-11.6418
▁imperatori	-11.6419
▁delicati	-11.642
▁tacque	-11.6422
▁robert	-11.6426
▁network	-11.6426
▁esporta	-11.6426
▁teorie	-11.6427
▁manager	-11.6428
▁provvisorio	-11.6429
▁situato	-11.6431
▁rimuovere	-11.6433
▁porpora	-11.6433
▁piangeva	-11.6434
▁ottime	-11.6434
44	-11.6435
▁cornice	-11.6435
▁duello	-11.6435
logi	-11.6437
nn	-11.6437
▁riconoscenza	-11.6438
-1	-11.6438
▁finanziato	-11.6439
▁redigere	-11.6441
▁orizzontale	-11.6441
▁sporge	-11.6442
▁elenca	-11.6442
▁contraddizioni	-11.6443
▁rimprovero	-11.6443
▁conobbe	-11.6444
▁verun	-11.6445
▁lontananza	-11.6445
▁raccolse	-11.6445
▁was	-11.6447
▁governare	-11.6447
▁sbaglia	-11.6449
▁viale	-11.6452
vità	-11.6452
▁offende	-11.6453
▁bocche	-11.6453
anda	-11.6454
▁nascosta	-11.6454
▁direzioni	-11.6461
▁parlarne	-11.6461
▁scuro	-11.6462
▁cimitero	-11.6464
▁raduna	-11.6467
▁fog	-11.6468
▁fasce	-11.6468
▁riparo	-11.6469
▁niuna	-11.647
▁sma	-11.6474
▁edizioni	-11.6474
▁tralascia	-11.6475
pita	-11.6476
▁possedere	-11.6477
▁nominati	-11.6478
▁urta	-11.6479
▁competere	-11.6479
▁cadaveri	-11.648
▁sfortunatamente	-11.648
▁decisi	-11.648
▁ros	-11.6483
▁rinunzia	-11.6485
▁doha	-11.6485
care	-11.6486
▁emozione	-11.6486
▁pesi	-11.6487
▁affonda	-11.6487
.1	-11.6488
▁pittori	-11.6489
2003	-11.6491
▁raddoppia	-11.6494
▁implora	-11.6495
▁affermano	-11.6496
▁attraversare	-11.6499
▁sostenute	-11.6503
▁darmi	-11.6503
▁marta	-11.6504
▁occorrerà	-11.6507
erete	-11.6508
▁aderito	-11.6511
▁pontefici	-11.6512
▁dotto	-11.6512
▁piemontese	-11.6512
▁ispirazione	-11.6512
▁fortezze	-11.6513
▁cibi	-11.6515
zzu	-11.6516
▁scoraggia	-11.6517
▁sindacali	-11.6518
▁mezzanotte	-11.6518
▁colpita	-11.652
▁riparare	-11.6521
▁scaglia	-11.6521
▁esclusione	-11.6522
bit	-11.6523
▁massimamente	-11.6525
▁respinta	-11.6526
▁sovietica	-11.6526
▁meccanica	-11.6527
▁chiederle	-11.6528
rbo	-11.6528
▁imminente	-11.653
▁intervista	-11.653
▁instaurare	-11.653
▁manipola	-11.6533
▁migliorato	-11.6533
▁pių	-11.6534
▁metropoli	-11.6534
▁provò	-11.6535
aci	-11.654
ordina	-11.6543
?!	-11.6543
▁prestato	-11.6547
▁impiegare	-11.6548
▁dianzi	-11.6549
▁marittimi	-11.6549
▁supervisione	-11.6549
▁coerenti	-11.6549
▁ritirò	-11.6551
fonda	-11.6552
dare	-11.6555
▁cameriera	-11.6557
▁vertici	-11.6558
▁insinua	-11.6562
▁flessibili	-11.6563
▁arde	-11.6563
▁nancy	-11.6565
▁esercitato	-11.6566
eh	-11.6569
▁birra	-11.6569
▁pepe	-11.6571
▁terroristici	-11.6571
▁polacchi	-11.6572
▁saprei	-11.6573
▁originaria	-11.6574
▁fotografie	-11.6576
▁garantisca	-11.6578
antica	-11.6579
▁sollevati	-11.658
▁intenti	-11.658
▁giudicato	-11.658
▁cavo	-11.6582
▁celebrare	-11.6584
▁real	-11.6584
zzano	-11.6587
▁causare	-11.6587
out	-11.6587
▁ripetuto	-11.6588
▁compromettere	-11.6589
▁splende	-11.6591
▁replicò	-11.6596
▁jacopo	-11.6596
▁sportive	-11.6596
▁possedeva	-11.6596
fl	-11.6598
▁pol	-11.6598
sei	-11.6598
▁ritirato	-11.6599
▁coordinata	-11.66
▁esisteva	-11.66
▁formalmente	-11.6602
▁pubblicate	-11.6603
▁proteine	-11.6603
▁labbro	-11.6604
▁ss	-11.6605
▁prossimità	-11.6606
▁interrompere	-11.661
▁viaggia	-11.661
▁avvolge	-11.6611
alità	-11.6612
▁basate	-11.6614
nno	-11.6617
▁misteri	-11.6619
▁smi	-11.662
▁demonio	-11.662
▁costei	-11.6622
uff	-11.6623
▁monopolio	-11.6624
▁calza	-11.6625
▁procuratore	-11.6626
▁precauzione	-11.6627
▁invisibile	-11.6627
▁dichiaro	-11.6627
▁comandi	-11.6627
▁tipico	-11.6628
▁quattrocento	-11.6628
▁emergere	-11.6628
▁parlate	-11.6629
▁generosi	-11.663
▁assedio	-11.6632
▁frega	-11.6634
▁clinica	-11.6635
▁turche	-11.6635
▁firmare	-11.6637
▁jean	-11.6638
▁rinvia	-11.6639
▁autobus	-11.6639
▁isabella	-11.6642
▁brutale	-11.6643
▁mediazione	-11.6643
assunzione	-11.6644
▁accada	-11.6644
▁affrontati	-11.6646
▁ripigli	-11.6647
cos	-11.6647
▁contrariamente	-11.6647
▁servitore	-11.6648
▁inspira	-11.6648
▁riferiscono	-11.6649
▁cacciato	-11.6653
▁god	-11.6653
▁coincide	-11.6654
▁papato	-11.6655
islam	-11.6656
▁incarna	-11.6659
▁dissimula	-11.6659
ggono	-11.666
▁sottrarsi	-11.6661
▁diventava	-11.6661
▁illusione	-11.6662
▁derivati	-11.6665
▁cel	-11.6666
tal	-11.6669
▁ottenuta	-11.6674
▁compatibile	-11.6675
▁casta	-11.6675
▁indotto	-11.6676
▁cicli	-11.6676
▁gestito	-11.6681
▁appaiono	-11.6682
▁imposti	-11.6682
▁gratuita	-11.6684
▁gialla	-11.6687
▁inquinanti	-11.6687
▁persecuzioni	-11.669
▁elementari	-11.669
▁traduce	-11.669
▁moltissime	-11.669
alternativa	-11.6691
investimento	-11.6691
52	-11.6692
▁visibilità	-11.6692
▁suppone	-11.6693
▁allievi	-11.6697
▁sperimentazione	-11.6701
▁fondatore	-11.6702
▁omai	-11.6702
tio	-11.6704
▁ultimamente	-11.6706
▁impazienza	-11.6706
▁discrimina	-11.6707
▁conoscete	-11.6707
▁autorizzato	-11.6708
▁sb	-11.671
▁dirigente	-11.6714
▁apparecchi	-11.6715
▁sparti	-11.6715
▁levare	-11.6716
▁assalto	-11.6722
▁moderazione	-11.6723
▁dazi	-11.6725
▁leoni	-11.6726
▁collegato	-11.6727
▁browser	-11.6729
▁clandestini	-11.6729
▁ostilità	-11.673
▁allinea	-11.6733
▁quarti	-11.6734
▁gazzetta	-11.6737
▁celesti	-11.6737
▁preparata	-11.6737
▁cotanto	-11.6738
▁presti	-11.6738
indicazione	-11.674
▁apprendere	-11.674
data	-11.674
▁ponga	-11.6741
▁compara	-11.6745
▁vietato	-11.6746
▁prelati	-11.6746
aeroporto	-11.6746
▁separate	-11.6748
▁goccia	-11.6749
teremo	-11.6749
gis	-11.6749
▁dec	-11.675
▁poetica	-11.6751
▁cresciuta	-11.6753
▁inseriti	-11.6754
▁contatta	-11.6757
▁complementari	-11.6759
vene	-11.6759
▁panno	-11.676
venga	-11.6761
▁fur	-11.6761
▁produttivo	-11.6761
▁inanzi	-11.6762
▁bionda	-11.6764
lum	-11.6765
cte	-11.6766
▁moli	-11.6768
▁vietnam	-11.6768
▁tradotto	-11.6768
▁coppa	-11.6769
=	-11.677
▁fisici	-11.6772
▁nodi	-11.6773
▁ordinario	-11.6777
▁esemplari	-11.6784
▁rispettivamente	-11.6784
▁contenente	-11.6784
▁giuoca	-11.6784
ldi	-11.6785
▁santuario	-11.6786
▁incontrano	-11.6786
▁corrispondenti	-11.6787
vu	-11.6788
▁ag	-11.6789
▁conteneva	-11.679
▁mos	-11.679
▁duecento	-11.679
▁pulito	-11.6791
avanguardia	-11.6792
▁parzialmente	-11.6792
▁emilio	-11.6792
▁friuli	-11.6793
▁ripeteva	-11.6793
af	-11.6793
▁allargata	-11.6794
▁ridusse	-11.6795
▁5.	-11.6796
▁dea	-11.6796
▁grotta	-11.6796
▁nutro	-11.6798
▁affrontata	-11.6799
sha	-11.68
▁gusti	-11.6801
▁collabora	-11.6802
della	-11.6805
▁causati	-11.6805
▁compera	-11.6806
vita	-11.6808
▁alunni	-11.6808
autonomia	-11.681
▁rifiutare	-11.681
intento	-11.681
▁one	-11.6811
▁versioni	-11.6812
par	-11.6812
▁condiziona	-11.6815
▁inerenti	-11.6817
49	-11.6817
59	-11.6818
▁modernizzazione	-11.6818
▁prevalentemente	-11.6818
▁piaga	-11.6819
▁varca	-11.682
ulo	-11.6821
▁proc	-11.6822
▁stupefacenti	-11.6824
▁insulta	-11.6826
▁versante	-11.6828
▁formulata	-11.6829
▁tornano	-11.683
▁amaro	-11.683
ride	-11.6831
▁innovative	-11.6832
▁postali	-11.6832
▁monitor	-11.6838
▁umilia	-11.6842
▁ricordano	-11.6843
▁ottimale	-11.6844
▁psicologia	-11.6844
▁vedevo	-11.6845
▁volontariato	-11.6847
▁congiuntura	-11.6848
▁israeliano	-11.6848
▁interrotto	-11.6848
▁invecchia	-11.6848
▁ecclesiastica	-11.6848
▁simone	-11.685
▁master	-11.685
▁mais	-11.6852
▁necessitano	-11.6855
gere	-11.6856
▁soverchia	-11.6856
▁finanza	-11.6858
▁nascono	-11.6859
▁pochino	-11.6859
▁maniche	-11.686
▁tentando	-11.6861
han	-11.6862
ré	-11.6863
ggiato	-11.6863
▁induce	-11.6865
▁avanzati	-11.6866
bba	-11.6868
▁legalità	-11.6869
▁posiziona	-11.687
▁legni	-11.6871
▁indirizza	-11.6872
tiamo	-11.6873
llò	-11.6873
▁cit	-11.6874
▁lordo	-11.6876
▁approfitta	-11.6879
▁energetici	-11.688
▁spagnoli	-11.688
▁conosciuti	-11.688
▁unisce	-11.6881
▁pastori	-11.6883
▁interpretare	-11.6885
▁cella	-11.6885
▁artificiale	-11.6888
▁circuito	-11.6888
▁avventure	-11.6888
▁difeso	-11.6889
▁soppressione	-11.6889
▁discordia	-11.6892
▁iscrizioni	-11.6892
▁denominazione	-11.6896
▁divergenze	-11.6896
▁punire	-11.6896
▁inondazioni	-11.6897
▁veneti	-11.6899
▁genetica	-11.6899
▁stringendo	-11.6899
▁beati	-11.6902
elezione	-11.6903
▁balcone	-11.6904
▁lavorazione	-11.6905
▁muto	-11.6906
▁tradito	-11.691
▁barbe	-11.6911
▁fattispecie	-11.6912
▁autonoma	-11.6915
▁teologia	-11.6916
inte	-11.6917
▁commercializza	-11.6919
▁chiedersi	-11.6919
▁ricercare	-11.6919
iana	-11.6919
▁scomunica	-11.692
▁1991	-11.6921
▁cosimo	-11.6921
▁interessata	-11.6922
▁addita	-11.6923
▁busto	-11.6924
α	-11.6925
▁corro	-11.6928
▁rimini	-11.6928
▁venduto	-11.6928
▁taci	-11.6929
▁tuono	-11.6931
dati	-11.6933
verse	-11.6935
▁giustificato	-11.6935
▁comunione	-11.6935
▁verts	-11.6937
▁principii	-11.6941
▁quant	-11.6942
▁rettifica	-11.6944
▁mostrarsi	-11.6944
▁vettori	-11.6944
▁incominciò	-11.6945
▁supporta	-11.6946
▁trovasi	-11.6947
▁talenti	-11.6948
▁significative	-11.695
▁dispiacere	-11.695
▁prolunga	-11.695
ologia	-11.6952
▁borghese	-11.6952
▁declina	-11.6953
▁nunzio	-11.6953
cin	-11.6954
▁reputazione	-11.6959
▁reame	-11.6959
'1	-11.6961
▁accontenta	-11.6962
▁automobilistica	-11.6963
stato	-11.6964
▁esigenza	-11.6964
▁confina	-11.6964
▁tessuti	-11.6968
▁apprendimento	-11.697
▁vicinanze	-11.6971
niche	-11.6972
▁rap	-11.6974
▁bastano	-11.6976
▁sembravano	-11.6977
▁viltà	-11.6978
▁favorisce	-11.6978
▁niun	-11.698
▁proponendo	-11.6981
▁arrivando	-11.6981
▁permettendo	-11.6981
▁configura	-11.6983
▁onu	-11.6985
gina	-11.6986
▁flotte	-11.6988
▁creatore	-11.6989
▁finiscono	-11.699
▁uscite	-11.6991
▁not	-11.6991
▁abb	-11.6991
▁gesuiti	-11.6993
▁insufficienti	-11.6993
▁municipio	-11.6993
attacco	-11.6993
▁trema	-11.6994
mene	-11.6994
▁onestà	-11.6995
▁indagine	-11.6995
▁caduti	-11.7002
▁troveremo	-11.7002
▁glo	-11.7003
esso	-11.7004
▁seguite	-11.7008
▁ricade	-11.7009
▁piacque	-11.701
▁cile	-11.7011
▁gomma	-11.7012
▁confusa	-11.7012
ion	-11.7012
ov	-11.7015
▁tho	-11.7015
▁suppli	-11.7015
▁mormora	-11.7017
▁legislatore	-11.7017
▁liquido	-11.7017
onere	-11.702
▁infanzia	-11.702
▁indicazione	-11.7022
▁ricomincia	-11.7023
▁distorsioni	-11.7025
▁sterline	-11.7025
▁ascoltando	-11.7027
▁contemplare	-11.7031
▁peter	-11.7032
▁but	-11.7033
▁facebook	-11.7033
▁oltrepassa	-11.7033
▁legalmente	-11.7035
▁spento	-11.7036
vò	-11.7038
▁95	-11.704
▁presupposti	-11.7041
▁cosě	-11.7042
▁croci	-11.7042
opzione	-11.7044
▁tieni	-11.7047
▁parallelo	-11.705
▁recepimento	-11.705
▁cognizione	-11.705
▁elettriche	-11.705
▁ritrovare	-11.705
▁prodotte	-11.7051
▁allegro	-11.7052
▁allah	-11.7052
▁caldi	-11.7052
affi	-11.7054
▁consolida	-11.7055
▁pal	-11.7055
▁green	-11.7055
▁43	-11.7056
▁osato	-11.7056
▁rigido	-11.7058
▁affidabili	-11.7058
▁numerosa	-11.7058
▁quand	-11.7059
▁diana	-11.7059
▁corrono	-11.706
stò	-11.7061
rcu	-11.7063
▁tronco	-11.7065
53	-11.7065
▁coalizione	-11.7066
▁audace	-11.7066
▁opprime	-11.7066
▁vige	-11.7066
▁dispera	-11.7067
messe	-11.7068
▁professioni	-11.7069
▁ubi	-11.7071
▁dedicati	-11.7072
▁tornarono	-11.7073
▁ricevuti	-11.7074
▁propose	-11.7074
▁apparecchiature	-11.7075
▁terrestre	-11.7076
▁accerta	-11.7076
▁quarant	-11.7079
▁temp	-11.7081
▁tragica	-11.7081
corre	-11.7082
▁offeso	-11.7082
▁veniamo	-11.709
▁prontamente	-11.7093
▁miserabile	-11.7093
▁rigetta	-11.7093
▁freme	-11.7096
▁avviata	-11.7096
▁dirle	-11.7096
min	-11.7097
▁rinviare	-11.7097
▁indicate	-11.7098
▁certificato	-11.71
▁ubbidi	-11.7102
iscrizione	-11.7104
gor	-11.7104
▁acquis	-11.7105
▁turisti	-11.711
▁ovest	-11.7112
▁create	-11.7112
▁scu	-11.7115
▁sofferma	-11.7119
▁accompagnare	-11.7119
lus	-11.712
▁concordiamo	-11.7121
▁raggruppa	-11.7123
scri	-11.7127
▁parcheggio	-11.7127
▁ruggiero	-11.7129
▁constatato	-11.713
▁monsignor	-11.7131
▁uscendo	-11.7131
▁patologie	-11.7131
terebbe	-11.7132
▁correzione	-11.7134
▁canoni	-11.7136
▁valga	-11.7136
▁martirio	-11.7137
▁delega	-11.7137
▁segretamente	-11.7139
vir	-11.7139
▁trascorsi	-11.714
▁parso	-11.714
▁curiosa	-11.7144
▁menzionare	-11.7144
▁paesaggi	-11.7145
▁9,	-11.7146
▁paure	-11.7146
2004	-11.7147
▁perocchè	-11.7148
indirizzo	-11.715
▁laghi	-11.715
▁attra	-11.7152
▁diletta	-11.7153
▁comunemente	-11.7154
▁fronti	-11.7155
ç	-11.7156
▁posteriore	-11.7156
▁restando	-11.7157
▁davide	-11.7159
▁cominciando	-11.7159
▁pagani	-11.716
▁inferno	-11.7161
eta	-11.7163
▁aprendo	-11.7164
tan	-11.7164
▁spedì	-11.7165
▁avvertire	-11.7171
▁resterà	-11.7173
integrità	-11.7174
▁decima	-11.7176
▁darvi	-11.718
▁barbarie	-11.718
▁immagino	-11.7181
▁stupido	-11.7184
▁concordare	-11.7184
▁stanziati	-11.7184
▁erbe	-11.7185
▁traditore	-11.7188
▁legislazioni	-11.7189
▁guadagni	-11.7189
▁torta	-11.7189
▁gridava	-11.719
rni	-11.7191
▁malizia	-11.7191
▁rilasciato	-11.7192
▁mogli	-11.7195
▁consegue	-11.7195
▁seguiti	-11.72
▁dimostrazioni	-11.7202
▁rif	-11.7202
▁carto	-11.7204
▁paterna	-11.7204
▁contribuendo	-11.7206
▁discipline	-11.7206
▁sufficienza	-11.7206
▁triangolo	-11.7206
▁blog	-11.7212
▁navale	-11.7214
▁consolato	-11.7216
▁free	-11.722
▁iniziata	-11.722
▁pop	-11.7222
▁rim	-11.7223
▁russe	-11.7223
▁marchesi	-11.7224
500	-11.7225
▁stimato	-11.7225
▁rivede	-11.7226
▁meditazione	-11.7226
▁celebri	-11.7229
▁ferme	-11.723
▁bilaterale	-11.723
▁consorte	-11.7231
▁pronunciato	-11.7233
▁arresti	-11.7235
▁trovasse	-11.7237
▁ardore	-11.724
▁giocatore	-11.7241
▁stupida	-11.7242
vel	-11.7243
▁avversario	-11.7244
▁calcolare	-11.7244
▁maometto	-11.7247
▁risalto	-11.7247
pos	-11.7248
▁canne	-11.7249
▁ripi	-11.7249
▁pesticidi	-11.7255
▁raggiunta	-11.7256
▁beato	-11.7256
▁agio	-11.7257
▁castro	-11.7258
▁protestanti	-11.726
rose	-11.7262
▁parroco	-11.7264
▁scelti	-11.7264
▁innovazioni	-11.7264
▁comunali	-11.7264
▁pagi	-11.7264
▁2004.	-11.7265
▁etichettatura	-11.7265
artista	-11.7268
▁cuci	-11.727
assegnazione	-11.727
▁attore	-11.727
▁aldo	-11.7271
▁performance	-11.7272
▁stoccolma	-11.7272
▁supplementare	-11.7272
▁licenze	-11.7272
▁recessione	-11.7272
tria	-11.7272
▁nerone	-11.7273
▁buonaparte	-11.7273
rida	-11.7274
▁affidabile	-11.7274
▁riputazione	-11.7276
▁consegnato	-11.7277
aggio	-11.7278
▁cominciamo	-11.7279
▁andremo	-11.7279
▁parleremo	-11.728
aba	-11.7281
▁macchie	-11.7282
ense	-11.7285
▁disgusto	-11.7289
▁ricetta	-11.7289
▁conferito	-11.7289
architettura	-11.7291
ndere	-11.7291
▁carichi	-11.7292
▁aperse	-11.7293
▁abbandonati	-11.7295
grafo	-11.7295
▁stringere	-11.7295
▁rendiamo	-11.7295
▁indugio	-11.7295
▁tronca	-11.7296
▁finanzia	-11.7296
▁associato	-11.7297
▁gonzaga	-11.7297
▁acciocchè	-11.7297
▁impor	-11.7297
▁sacrifici	-11.7298
cura	-11.7299
elettricità	-11.73
▁brok	-11.7301
este	-11.7305
▁avvertito	-11.7307
▁incluse	-11.7314
▁ristretto	-11.7314
▁rondini	-11.7314
▁this	-11.7317
▁treni	-11.7318
appa	-11.7319
▁coll	-11.732
▁sorrideva	-11.7323
▁invitiamo	-11.7324
tasi	-11.7325
▁esperimento	-11.7326
▁perdendo	-11.7326
time	-11.7327
▁fissata	-11.7328
cht	-11.7329
▁disarmo	-11.733
▁contemporaneo	-11.733
▁udienza	-11.7332
▁intreccia	-11.7334
▁mancavano	-11.7335
▁tollerare	-11.7338
▁scontri	-11.7339
▁convinzioni	-11.7339
▁ricon	-11.7339
▁bull	-11.7342
▁scatta	-11.7342
▁sper	-11.7343
ttato	-11.7345
▁arresto	-11.7348
▁cambiata	-11.735
▁intervengo	-11.7353
▁part	-11.7354
▁congiunti	-11.7356
▁separato	-11.7357
▁patten	-11.7357
▁sparge	-11.7359
▁esercitata	-11.7359
▁cagiona	-11.736
▁presentava	-11.7362
▁haiti	-11.7364
▁insino	-11.7364
▁insegne	-11.7364
▁trieste	-11.7365
egli	-11.7366
importazione	-11.7367
▁saldo	-11.7369
▁devasta	-11.7369
vre	-11.7372
▁rating	-11.7373
▁indur	-11.7376
▁scan	-11.7377
▁visioni	-11.7378
atura	-11.7378
nsibilizzazione	-11.7379
▁denunce	-11.7381
75	-11.7382
▁vigila	-11.7383
▁armamenti	-11.7385
▁vitali	-11.7385
▁st	-11.7386
nosa	-11.7387
attesa	-11.7387
▁possede	-11.7389
▁manodopera	-11.7389
▁slovenia	-11.7389
▁valoroso	-11.7389
▁2006.	-11.739
▁giovinetta	-11.7391
▁blocchi	-11.7391
▁larghezza	-11.7391
▁nos	-11.7392
▁mortalità	-11.7392
▁domin	-11.7394
media	-11.7394
▁raccomandato	-11.7396
▁stipendio	-11.7399
▁accelera	-11.7399
▁blo	-11.7402
▁recò	-11.7403
▁bugia	-11.7403
▁giunsero	-11.7404
▁combustibile	-11.7406
▁dovettero	-11.7408
▁ferroviaria	-11.7408
▁mutamento	-11.7408
▁paghe	-11.741
▁rideva	-11.741
▁prenderà	-11.7411
▁giuridicamente	-11.7414
▁arrabbia	-11.7414
▁imperio	-11.742
▁cl	-11.7422
▁fazzoletto	-11.7423
▁unilaterale	-11.7423
▁avresti	-11.7423
▁distinto	-11.7424
▁lutto	-11.7424
▁spade	-11.7424
▁migliorata	-11.7424
▁rispondono	-11.7425
▁stanziamento	-11.7425
▁rifa	-11.7426
▁atomi	-11.7427
▁rinnovato	-11.7429
▁ragionare	-11.743
▁ottener	-11.7432
▁fabbriche	-11.7433
▁andai	-11.7434
▁domandava	-11.7438
▁riparti	-11.744
▁ricevute	-11.744
▁rischiano	-11.744
▁gita	-11.7441
▁mito	-11.7441
▁intensi	-11.7442
?”	-11.7446
▁char	-11.7446
▁intui	-11.7449
▁prosegui	-11.7449
▁fucile	-11.7449
▁mary	-11.7449
▁strati	-11.7449
▁esauriente	-11.745
▁popul	-11.7456
▁applaudi	-11.7457
▁ecologico	-11.7457
▁accampa	-11.7457
▁fuochi	-11.7457
▁parimenti	-11.7458
monte	-11.7459
▁restituzione	-11.7461
▁alzando	-11.7461
▁39	-11.7462
▁giunte	-11.7464
▁degrada	-11.7466
gestione	-11.7468
atore	-11.7469
rsela	-11.747
rno	-11.7471
▁bellezze	-11.7471
▁(2	-11.7474
▁trasferimenti	-11.7474
▁direbbe	-11.7474
▁solennità	-11.7476
▁seppelli	-11.7476
▁indirettamente	-11.7477
set	-11.7477
▁giovinetto	-11.7481
▁comprato	-11.7483
▁infame	-11.7483
▁rottura	-11.7483
lui	-11.7484
▁mosche	-11.7486
▁coltiva	-11.7486
▁libra	-11.7487
ère	-11.7487
mal	-11.7487
democratici	-11.7488
fia	-11.7489
▁time	-11.749
▁pasquale	-11.7491
▁automatico	-11.7491
▁cassi	-11.7491
▁pon	-11.7492
▁insegui	-11.7494
▁favola	-11.7494
▁penetrare	-11.7496
▁erede	-11.7496
▁cairo	-11.7496
▁solite	-11.7497
▁giustificata	-11.7498
▁specialisti	-11.7499
▁renderlo	-11.7507
cone	-11.7507
▁num	-11.7507
▁cristina	-11.7508
▁delegato	-11.7509
▁funzionalità	-11.751
▁postale	-11.751
▁ron	-11.7513
▁universali	-11.7515
har	-11.7519
▁travaglia	-11.752
▁percepi	-11.7521
▁servigi	-11.7521
▁selvaggi	-11.7522
grafica	-11.7523
▁sap	-11.7523
▁consueto	-11.7525
▁decadenza	-11.7526
▁schifo	-11.7527
ttura	-11.7531
ς	-11.7535
teli	-11.7542
▁grafica	-11.7542
▁istinto	-11.7542
▁world	-11.7543
bello	-11.7543
▁toccò	-11.7543
▁dra	-11.7544
▁carezze	-11.7544
▁proviamo	-11.7544
▁sven	-11.755
▁sy	-11.755
▁autonomo	-11.7551
▁polacco	-11.7551
▁perplessità	-11.7551
ek	-11.7552
▁disarma	-11.7552
▁dirgli	-11.7554
scritto	-11.7555
sus	-11.7556
▁compari	-11.7557
simi	-11.7558
▁volevamo	-11.756
▁mentalità	-11.7561
▁sibi	-11.7562
ance	-11.7564
▁fragile	-11.7568
▁riviste	-11.7569
▁convien	-11.757
▁autorizzati	-11.757
umi	-11.757
accademia	-11.757
▁abbina	-11.7572
▁tenea	-11.7574
bbie	-11.7576
▁assicurazione	-11.7576
ê	-11.7576
▁napoletani	-11.7576
▁capiva	-11.7578
▁uccise	-11.758
▁liquida	-11.7581
▁pigliare	-11.7582
▁2005.	-11.7584
▁schulz	-11.7585
▁analogo	-11.7585
▁urgentemente	-11.7587
sy	-11.7588
ub	-11.7589
detto	-11.759
vero	-11.7591
para	-11.7591
▁puntuali	-11.7594
▁sudore	-11.7596
▁orna	-11.7598
▁tormenti	-11.76
▁volgo	-11.7602
▁disciplinare	-11.7602
▁giapponese	-11.7602
▁aggiugne	-11.7602
vale	-11.7603
▁firme	-11.7603
goli	-11.7607
odio	-11.7608
▁aspettato	-11.7609
▁fiere	-11.7609
rus	-11.7611
▁bambine	-11.7611
▁2001,	-11.7611
▁adagio	-11.7611
▁selvaggio	-11.7614
▁ricordati	-11.7617
▁soggetta	-11.7619
▁muscoli	-11.762
▁stili	-11.762
ungheria	-11.7622
▁prendersi	-11.7625
▁etnica	-11.7625
▁dicea	-11.7626
▁sostitu	-11.7627
▁leggeva	-11.7629
▁carrozze	-11.7629
▁trombe	-11.7637
▁permetto	-11.7638
▁riduzioni	-11.7645
glione	-11.7647
▁classificazione	-11.7647
56	-11.7648
▁adoperarsi	-11.7649
▁dí	-11.7652
▁elettricità	-11.7654
▁analoghe	-11.7654
▁cerimonie	-11.7654
▁ebreo	-11.7655
▁svolgendo	-11.7656
▁vocazione	-11.7657
▁apprezzare	-11.7659
▁comporre	-11.7659
▁gratuitamente	-11.766
▁ant	-11.7662
erzegovina	-11.7663
▁denunciare	-11.7666
▁ingannato	-11.7666
▁assimila	-11.7667
chiamo	-11.7668
▁pressi	-11.7669
▁urbana	-11.7669
zj	-11.767
▁riunire	-11.7671
▁consentirebbe	-11.7672
▁dovresti	-11.7672
▁spostare	-11.7673
ngue	-11.7673
▁carezza	-11.7674
▁trattandosi	-11.7677
ttero	-11.7677
▁fiorentina	-11.768
▁andrò	-11.7682
▁ritra	-11.7683
▁intimi	-11.7688
▁veruna	-11.769
▁formaggio	-11.7693
bert	-11.7694
aveva	-11.7695
▁svolti	-11.7697
▁ammessi	-11.7698
▁gusta	-11.7698
▁specula	-11.7699
▁mc	-11.7699
dd	-11.77
▁schiere	-11.77
▁paris	-11.7703
▁esclusivo	-11.7703
▁toccava	-11.7703
▁alzato	-11.7703
..."	-11.7704
▁collegi	-11.7705
▁camminava	-11.7705
▁leon	-11.7705
▁inaccettabili	-11.7706
▁scolastica	-11.7706
▁sparsi	-11.7707
▁guasto	-11.7709
▁mondi	-11.771
▁lasciatemi	-11.7711
▁bolle	-11.7711
▁tazza	-11.7712
cati	-11.7714
altronde	-11.7714
▁opposti	-11.7715
ssione	-11.7717
▁travi	-11.7718
▁tene	-11.772
▁gentilezza	-11.7721
▁fossimo	-11.7722
▁assoggetta	-11.7723
▁napoletano	-11.7723
▁rinforza	-11.7724
▁compiendo	-11.7726
▁stante	-11.7728
zzando	-11.7728
gon	-11.7728
▁pun	-11.7728
42	-11.773
00.000	-11.773
ctus	-11.773
▁linguistica	-11.7732
▁virtú	-11.7732
▁sbarra	-11.7733
▁rivelarsi	-11.7733
▁terrazza	-11.7733
▁um	-11.7734
▁foco	-11.7735
edizione	-11.7736
grafico	-11.7738
▁piaciuto	-11.7741
▁milita	-11.7741
▁novanta	-11.7742
▁louis	-11.7742
messi	-11.7743
▁cominci	-11.7744
▁concentrarci	-11.7744
▁modella	-11.7745
tana	-11.7746
tas	-11.7749
▁bestemmia	-11.775
▁martire	-11.7751
▁pr	-11.7752
metti	-11.7753
▁compila	-11.7757
▁pistola	-11.7758
▁fide	-11.7762
▁vegetali	-11.7762
▁evangeli	-11.7764
▁miserie	-11.7766
sol	-11.7769
rmoni	-11.7771
▁2020.	-11.7772
▁emergenti	-11.7772
▁percorre	-11.7772
▁insegnamenti	-11.7772
▁sperimenta	-11.7773
▁berlusconi	-11.7776
▁soggette	-11.7776
▁isolato	-11.7776
▁cime	-11.7777
▁muratori	-11.7777
▁2002,	-11.778
▁tenera	-11.7781
▁spre	-11.7781
▁costanti	-11.7785
▁sciopero	-11.7785
▁sportivi	-11.7785
▁stampato	-11.7789
▁teniamo	-11.7789
▁distrutta	-11.7794
ou	-11.7794
▁agisce	-11.7796
▁terze	-11.7796
▁rocce	-11.7797
▁fummo	-11.78
▁anzichè	-11.7801
▁innovativi	-11.7802
▁mele	-11.7802
▁ironia	-11.7804
▁colora	-11.7805
riche	-11.7807
▁anton	-11.7808
▁rigorosamente	-11.781
spiega	-11.7814
nì	-11.7815
organismo	-11.7816
▁etichetta	-11.7817
dar	-11.7818
lfi	-11.7818
▁show	-11.7819
▁bartolomeo	-11.782
▁trattata	-11.782
invecchiamento	-11.7822
▁tornati	-11.7822
▁dominato	-11.7822
zar	-11.7825
▁angola	-11.7828
▁basati	-11.7829
▁reno	-11.7829
accio	-11.7831
▁tribuna	-11.7831
▁artiglierie	-11.7831
▁aggiuntivi	-11.7831
pidi	-11.7831
▁specificità	-11.7836
rb	-11.7837
▁centesimi	-11.7837
▁ashton	-11.7837
ncino	-11.7838
▁pechino	-11.7839
votazione	-11.784
▁approvo	-11.784
mata	-11.7841
▁scarse	-11.7842
▁opportunamente	-11.7844
▁ricupera	-11.7845
ía	-11.7846
▁accadrà	-11.7846
▁proruppe	-11.7846
▁acquisito	-11.7847
▁confuse	-11.7847
▁accompagnati	-11.7847
fan	-11.7849
tŕ	-11.7849
▁reggia	-11.7854
▁00	-11.7855
▁dintorni	-11.7855
olaf	-11.7855
▁sportello	-11.7856
▁perduti	-11.7857
▁rubi	-11.7863
▁onorato	-11.7863
▁melo	-11.7864
▁genocidio	-11.7864
▁presuppone	-11.7864
▁eccetto	-11.7865
▁apriva	-11.7867
▁scossa	-11.7869
▁chiami	-11.7873
▁apparisce	-11.7873
ques	-11.7873
▁segreteria	-11.7875
▁contorni	-11.7876
▁acciò	-11.7877
▁opportune	-11.7882
▁sclamò	-11.7882
▁sigarette	-11.7882
▁riconosciamo	-11.7882
▁dominazione	-11.7884
▁fabio	-11.7888
▁affidamento	-11.7888
▁petrarca	-11.789
▁vincolo	-11.789
▁fossili	-11.7891
▁prostra	-11.7892
▁mercante	-11.7894
▁ristabilire	-11.7894
riani	-11.7894
▁canna	-11.7895
▁dormiva	-11.7895
▁ista	-11.7896
▁variazione	-11.7899
▁statistica	-11.7902
▁cate	-11.7905
▁mutamenti	-11.7906
▁allarme	-11.7908
▁commesse	-11.7909
▁yo	-11.791
▁ricostruire	-11.7912
cale	-11.7912
▁congela	-11.7914
▁marittime	-11.7917
▁mischia	-11.7917
▁stazioni	-11.7918
ggiò	-11.792
▁benedetta	-11.7921
▁curia	-11.7923
▁rispondo	-11.7924
▁feconda	-11.7926
▁ispezioni	-11.7926
▁pronte	-11.7926
▁tranquilli	-11.7927
▁delirio	-11.7928
▁qualcun	-11.7928
▁contado	-11.7929
▁magna	-11.7929
▁negoziazione	-11.7931
▁formati	-11.7932
▁rivesti	-11.7933
▁solana	-11.7933
▁proseguì	-11.7935
▁rientro	-11.7935
▁infino	-11.7935
▁scontato	-11.7936
▁vegga	-11.7937
▁cagioni	-11.7937
▁informatica	-11.7937
▁pensarci	-11.7938
65	-11.7939
▁arrivava	-11.794
lles	-11.794
▁tinta	-11.7941
▁tè	-11.7942
▁dimostrando	-11.7943
ef	-11.7943
ā	-11.7943
▁assicurando	-11.7943
▁azzurri	-11.7944
▁rigorosi	-11.7944
hotel	-11.7944
▁1989	-11.7945
▁flora	-11.7945
▁ferrovia	-11.7946
▁laonde	-11.7946
▁brand	-11.7946
▁sciocca	-11.7947
▁balia	-11.7948
▁parlavano	-11.7948
▁cadenza	-11.7948
▁plan	-11.7951
▁eleganza	-11.7954
▁potenziamento	-11.7955
▁cam	-11.7955
▁particolarità	-11.7955
▁differi	-11.7955
▁operative	-11.7957
▁godeva	-11.7958
▁marcello	-11.7958
▁approfittare	-11.796
▁totali	-11.796
▁aggiungo	-11.796
▁approcci	-11.7962
▁fio	-11.7963
▁gliela	-11.7964
cché	-11.7965
ssimamente	-11.7966
▁affetta	-11.7971
▁direttivo	-11.7971
▁foglia	-11.7971
▁migliorando	-11.7973
▁trascurare	-11.7973
▁life	-11.7974
▁corna	-11.7975
incidente	-11.7977
▁bevande	-11.7979
▁accesa	-11.798
▁testimonia	-11.798
▁ozio	-11.7981
▁ruoli	-11.7981
▁straordinarie	-11.7984
▁guerriero	-11.7986
▁mel	-11.7988
▁stanchi	-11.7989
▁ul	-11.7989
▁scaricare	-11.7991
▁allegra	-11.7992
▁mona	-11.7994
▁sfila	-11.7995
▁impugna	-11.7997
▁mantenuta	-11.7997
▁pellegrini	-11.7997
▁quesito	-11.7998
▁affatica	-11.7998
▁uffiziali	-11.7998
▁renzo	-11.8
▁brilla	-11.8
▁complicata	-11.8005
▁rispettano	-11.8006
▁cittá	-11.8007
ec	-11.8007
▁scarsi	-11.8008
▁xenofobia	-11.8008
▁affascinante	-11.8009
▁facevo	-11.8013
▁disturbo	-11.8015
▁smaltimento	-11.8016
▁colei	-11.8017
▁entrerà	-11.8017
inverno	-11.8018
▁interessano	-11.8018
immissione	-11.802
[...]
