<unk>	0
<s>	0
</s>	0
▁di	-3.48059
,	-3.54708
▁e	-3.72188
.	-3.80897
▁che	-3.94342
▁la	-4.06324
▁il	-4.19597
'	-4.26692
▁in	-4.28613
▁a	-4.32297
▁per	-4.51849
▁un	-4.58841
▁non	-4.63353
▁è	-4.82128
▁del	-4.84985
▁si	-4.90783
▁le	-4.9262
▁i	-4.95102
▁della	-5.01824
▁una	-5.05443
▁l	-5.0768
▁con	-5.19336
▁da	-5.37654
▁al	-5.45262
:	-5.46179
▁ma	-5.55389
▁dei	-5.62286
▁come	-5.70872
▁sono	-5.71514
▁più	-5.72158
▁gli	-5.73403
▁alla	-5.75299
▁se	-5.7646
▁dell	-5.76733
▁questo	-5.77655
▁nel	-5.78934
▁delle	-5.80416
▁ha	-5.96126
▁*	-5.96998
▁anche	-6.00939
▁o	-6.0184
▁lo	-6.03936
▁.	-6.10468
re	-6.11562
▁ad	-6.15071
i	-6.15418
▁mi	-6.18784
▁ed	-6.20037
o	-6.20721
no	-6.21334
a	-6.30634
▁nella	-6.31538
e	-6.31906
▁ci	-6.33024
▁questa	-6.33095
▁commissione	-6.33709
to	-6.38416
▁all	-6.4307
▁dal	-6.45796
▁essere	-6.46059
ta	-6.47543
’	-6.48034
▁era	-6.4925
▁cui	-6.4975
te	-6.52541
▁loro	-6.52789
ti	-6.53767
▁-	-6.54621
▁tutti	-6.56105
▁sua	-6.5672
▁su	-6.60966
▁suo	-6.61856
▁alle	-6.63121
va	-6.63889
▁degli	-6.65675
▁ai	-6.66095
s	-6.67506
chi	-6.68662
▁sia	-6.70144
▁d	-6.70409
▁(	-6.70724
▁tra	-6.7076
▁io	-6.70791
▁de	-6.71292
?	-6.73161
▁presidente	-6.74073
▁ne	-6.75244
▁vi	-6.75262
▁stato	-6.75336
mot	-6.76158
▁dalla	-6.79443
▁quanto	-6.80623
▁tutto	-6.81121
▁parte	-6.81568
▁due	-6.83698
▁sul	-6.84694
▁stati	-6.85382
▁fatto	-6.86004
▁cosa	-6.87019
▁così	-6.87059
▁ho	-6.87336
▁quando	-6.8766
▁europea	-6.88464
▁signor	-6.89136
▁molto	-6.90175
▁solo	-6.91909
▁sulla	-6.93042
▁parlamento	-6.93842
r	-6.9409
▁quale	-6.94826
▁prima	-6.94969
▁"	-6.96311
ndo	-6.9728
▁hanno	-6.97309
▁modo	-6.97349
▁ancora	-6.9915
▁senza	-6.99591
▁ciò	-7.01023
▁quella	-7.0115
▁poi	-7.01712
▁perché	-7.02647
▁può	-7.04434
;	-7.04751
▁ogni	-7.05012
▁noi	-7.05718
▁	-7.06077
▁abbiamo	-7.06715
▁?	-7.06814
▁mio	-7.0741
▁relazione	-7.07427
▁altri	-7.08474
▁uno	-7.08924
▁consiglio	-7.09094
▁quello	-7.09535
▁sempre	-7.10071
▁c	-7.1018
▁tempo	-7.11154
▁fare	-7.11197
▁me	-7.1146
▁già	-7.1365
▁fu	-7.14179
▁fa	-7.14397
▁qui	-7.14422
▁questi	-7.16364
unione	-7.17148
si	-7.1759
▁quindi	-7.20516
▁nell	-7.20802
▁nei	-7.21387
▁anni	-7.21663
-	-7.21675
▁tale	-7.22051
▁politica	-7.22079
▁ora	-7.22291
▁dopo	-7.2541
)	-7.25832
▁quali	-7.26143
▁,	-7.27169
▁quel	-7.29372
▁nelle	-7.3008
▁egli	-7.30589
▁chi	-7.32462
▁paesi	-7.33407
▁aveva	-7.33788
!	-7.33909
▁fra	-7.34081
rsi	-7.35081
▁mia	-7.35345
▁lavoro	-7.38953
▁vita	-7.39571
▁dove	-7.40052
▁tutte	-7.40225
▁ti	-7.4032
vano	-7.40612
▁lui	-7.41318
è	-7.41553
ni	-7.41931
▁volta	-7.42116
▁europeo	-7.42296
▁secondo	-7.42711
▁altro	-7.43537
▁re	-7.44345
ne	-7.44783
▁punto	-7.44955
▁suoi	-7.45615
mente	-7.46726
▁membri	-7.47508
sse	-7.48273
▁deve	-7.48515
▁contro	-7.49008
▁dall	-7.49144
▁queste	-7.49429
▁nostro	-7.49706
▁no	-7.49938
▁perchè	-7.49995
le	-7.50993
▁proprio	-7.52602
▁bene	-7.53282
▁mai	-7.538
▁tanto	-7.5394
▁grande	-7.54148
t	-7.55053
▁li	-7.55061
▁lei	-7.557
▁oggi	-7.56007
▁tu	-7.56774
▁siamo	-7.57181
▁dire	-7.57413
▁col	-7.57979
▁giorno	-7.58914
ro	-7.58992
▁sarà	-7.60862
▁sotto	-7.61427
▁allora	-7.61747
▁tre	-7.61866
▁primo	-7.62649
▁nostra	-7.62783
▁fine	-7.64166
▁stesso	-7.64177
na	-7.64735
▁alcuni	-7.65248
▁qualche	-7.65437
▁però	-7.65469
m	-7.66449
▁sarebbe	-7.66527
▁detto	-7.66595
▁via	-7.66854
▁cose	-7.67249
▁agli	-7.67581
li	-7.68144
▁far	-7.68334
▁stata	-7.68594
▁voi	-7.6863
"	-7.69209
▁mondo	-7.69357
n	-7.69515
▁proposta	-7.6987
▁dai	-7.70435
▁caso	-7.70452
ò	-7.7059
ri	-7.70837
▁vorrei	-7.70838
▁sì	-7.7104
▁s	-7.71232
▁va	-7.71555
nte	-7.72671
...	-7.73504
▁sta	-7.73625
▁problema	-7.74326
▁te	-7.74675
▁sue	-7.76083
▁po	-7.76347
▁forse	-7.76481
▁onorevole	-7.76572
▁nome	-7.77184
▁meno	-7.77213
▁erano	-7.77251
▁altre	-7.77922
la	-7.77983
▁dalle	-7.78258
▁tuttavia	-7.78378
▁tratta	-7.79747
▁casa	-7.79898
rono	-7.80612
▁importante	-7.81083
▁gruppo	-7.81499
▁fosse	-7.81787
▁signora	-7.8193
ci	-7.82512
▁poco	-7.82572
▁persone	-7.82814
▁verso	-7.83038
▁momento	-7.83264
▁paese	-7.83795
▁dobbiamo	-7.84277
▁nuovo	-7.84658
▁commissario	-7.85342
▁tutta	-7.86273
▁molti	-7.86623
l	-7.86631
▁possibile	-7.86705
nti	-7.869
▁sulle	-7.86942
▁quelle	-7.87915
onorevole	-7.8822
▁diritti	-7.8906
▁so	-7.89376
▁questione	-7.89545
▁avere	-7.89905
▁gran	-7.90402
vi	-7.90523
▁particolare	-7.91939
▁et	-7.92063
▁luogo	-7.92344
▁mentre	-7.92673
▁ben	-7.93039
▁città	-7.93368
▁sviluppo	-7.93737
▁esempio	-7.93895
▁nostri	-7.93916
▁livello	-7.94075
▁comune	-7.94981
▁situazione	-7.95245
rlo	-7.95316
zione	-7.9616
▁viene	-7.96386
▁vero	-7.96396
▁invece	-7.96676
▁rispetto	-7.96825
lo	-7.96887
▁“	-7.97276
▁sui	-7.97504
▁quasi	-7.97663
▁certo	-7.97837
▁governo	-7.98255
▁dello	-7.98281
mi	-7.98379
▁sistema	-7.99458
▁cittadini	-7.99617
▁sull	-7.99638
mo	-8.01085
▁inoltre	-8.01167
▁possono	-8.02057
▁fino	-8.03603
▁diritto	-8.04222
▁settore	-8.04528
▁base	-8.04632
▁mercato	-8.04789
vo	-8.0482
▁mano	-8.05301
▁!	-8.05391
se	-8.05482
▁tali	-8.06369
▁troppo	-8.07202
▁sopra	-8.07495
▁materia	-8.07956
▁credo	-8.08089
▁nè	-8.0842
▁aver	-8.09595
▁sicurezza	-8.09642
▁volte	-8.10203
▁sa	-8.10617
▁problemi	-8.1205
▁soltanto	-8.12893
▁allo	-8.13103
▁«	-8.13194
▁programma	-8.14474
▁parole	-8.1499
▁sei	-8.15066
▁negli	-8.1541
rà	-8.1546
▁unione	-8.15825
▁siano	-8.16436
▁quelli	-8.16459
▁pertanto	-8.16686
▁n	-8.17021
▁terra	-8.1764
co	-8.17719
▁stessa	-8.17809
▁dice	-8.17825
▁processo	-8.18268
ca	-8.18399
▁oltre	-8.18643
x	-8.19066
▁discussione	-8.19202
▁riguarda	-8.19327
▁dato	-8.19965
▁roma	-8.20156
▁generale	-8.20311
▁anno	-8.20765
▁conto	-8.20801
▁meglio	-8.21381
▁favore	-8.21484
europa	-8.21558
▁colleghi	-8.21662
▁possiamo	-8.21857
▁necessario	-8.21914
▁nuova	-8.22223
▁sociale	-8.22493
▁occhi	-8.23015
▁uomini	-8.23699
c	-8.24053
▁soprattutto	-8.24215
▁dio	-8.24387
▁grandi	-8.25034
▁guerra	-8.25106
▁alcune	-8.25108
▁ri	-8.25296
▁vedere	-8.2544
▁nulla	-8.25576
rla	-8.26255
▁dunque	-8.2628
▁numero	-8.26466
▁possa	-8.26477
▁quest	-8.27471
▁senso	-8.27618
▁vista	-8.27746
▁infatti	-8.27749
▁insieme	-8.27834
▁donne	-8.28057
ʼ	-8.28731
rmi	-8.2877
▁trattato	-8.29075
▁europa	-8.29133
▁donna	-8.29262
di	-8.29287
▁maggiore	-8.29329
so	-8.29453
▁emendamenti	-8.30172
▁né	-8.30377
▁futuro	-8.30508
▁direttiva	-8.30662
▁avrebbe	-8.30704
▁porta	-8.30709
▁essi	-8.30728
▁mezzo	-8.30803
▁bilancio	-8.30895
▁dare	-8.31013
sti	-8.3133
▁morte	-8.31502
▁essa	-8.317
▁lungo	-8.31846
d	-8.32053
▁cioè	-8.32099
▁possibilità	-8.32847
▁posizione	-8.32982
ra	-8.33501
▁campo	-8.33812
▁potrebbe	-8.33896
▁bisogno	-8.34103
▁uomo	-8.34404
▁disse	-8.34578
▁onorevoli	-8.3483
sa	-8.35212
▁giorni	-8.35449
▁sembra	-8.35486
▁presente	-8.35562
▁legge	-8.35797
▁fuori	-8.36091
▁posto	-8.36113
▁ella	-8.36292
▁parti	-8.36297
▁=	-8.36306
▁abbia	-8.3635
rci	-8.36351
▁società	-8.36604
▁co	-8.38051
▁grazie	-8.38092
▁devono	-8.3814
▁ecco	-8.38416
de	-8.38652
▁forma	-8.38786
▁tal	-8.38974
ssero	-8.3905
▁popolo	-8.39091
▁storia	-8.39252
▁proposte	-8.39332
▁corso	-8.39554
▁ricerca	-8.39742
▁cuore	-8.39915
▁spesso	-8.40113
▁causa	-8.40573
▁ragione	-8.40818
▁visto	-8.41258
▁posso	-8.4151
▁risposta	-8.41749
▁nostre	-8.41869
▁ce	-8.41921
▁principio	-8.41993
▁pure	-8.42152
▁dovrebbe	-8.42158
anno	-8.42176
▁forza	-8.42418
▁molte	-8.42439
▁passo	-8.42669
▁merito	-8.43089
▁pace	-8.43153
▁state	-8.43465
ma	-8.4367
▁grado	-8.43748
▁buona	-8.43831
mento	-8.44206
▁capo	-8.44354
▁poter	-8.44437
▁propria	-8.44666
▁pur	-8.44725
▁adesso	-8.44873
▁presso	-8.45437
altro	-8.46058
▁fronte	-8.46145
▁libertà	-8.4656
ve	-8.46896
▁parola	-8.46912
▁misure	-8.47089
▁controllo	-8.47149
▁necessità	-8.47354
▁buon	-8.47618
▁appena	-8.47657
tta	-8.47826
▁hai	-8.47942
▁condizioni	-8.48058
sta	-8.48117
amo	-8.48291
▁là	-8.4841
y	-8.48668
▁fece	-8.48871
▁domanda	-8.48913
▁seconda	-8.48916
▁realtà	-8.48963
▁voglio	-8.49035
▁desidero	-8.49342
▁circa	-8.49914
▁padre	-8.49956
▁avuto	-8.50124
▁accordo	-8.50353
ndosi	-8.50707
▁piano	-8.51189
▁dagli	-8.51244
▁piú	-8.51374
▁tuo	-8.514
▁attività	-8.52185
”	-8.52531
▁qualità	-8.52536
▁gente	-8.52627
▁occorre	-8.52761
▁san	-8.52911
▁cooperazione	-8.53026
).	-8.53153
▁vengono	-8.53161
▁quei	-8.53693
rne	-8.5377
▁voce	-8.53798
▁2	-8.53821
▁mani	-8.53977
▁tempi	-8.54105
▁tipo	-8.54117
▁quadro	-8.54469
▁quattro	-8.54557
▁esso	-8.54709
▁diversi	-8.54954
zioni	-8.55353
ssi	-8.55646
▁davvero	-8.56088
▁saranno	-8.56473
▁nuove	-8.56499
▁subito	-8.56635
▁qual	-8.56649
▁italia	-8.57176
/	-8.57639
▁servizi	-8.57751
▁prodotti	-8.5782
▁miei	-8.58086
▁regolamento	-8.58216
▁europei	-8.5824
▁qualcosa	-8.58268
▁risoluzione	-8.58451
▁1	-8.58617
▁forte	-8.58734
ce	-8.58918
▁politiche	-8.59333
▁comunque	-8.59387
▁attraverso	-8.59406
▁andare	-8.59411
▁comunità	-8.59861
in	-8.60198
▁progetto	-8.60264
▁male	-8.60374
accordo	-8.60837
che	-8.6092
▁strada	-8.61096
▁durante	-8.61243
▁internazionale	-8.6183
▁termine	-8.61899
▁nuovi	-8.61956
▁fatti	-8.62056
▁fondo	-8.62538
▁persona	-8.62831
▁pare	-8.63204
▁luce	-8.63237
▁son	-8.63705
▁presidenza	-8.6409
▁ruolo	-8.64105
▁seguito	-8.6415
▁milioni	-8.64491
gli	-8.64616
▁oh	-8.64909
▁qua	-8.64943
▁libro	-8.65003
▁regno	-8.65347
▁nazionali	-8.65349
▁nazionale	-8.65518
tti	-8.6555
▁decisione	-8.65733
▁nessuno	-8.65964
▁informazioni	-8.66026
▁riguardo	-8.66154
b	-8.66299
▁ritengo	-8.66745
▁infine	-8.66935
▁proposito	-8.67241
▁altra	-8.6737
da	-8.67409
▁maggior	-8.67453
▁responsabilità	-8.6751
▁natura	-8.6809
▁avevano	-8.68345
ssimo	-8.68378
rli	-8.6853
▁anzi	-8.68557
▁prendere	-8.68577
▁parlare	-8.68766
▁pubblica	-8.69101
tte	-8.69158
▁poiché	-8.69433
.)	-8.69616
▁almeno	-8.69633
me	-8.69649
▁potuto	-8.69801
▁punti	-8.69832
▁aiuti	-8.69838
▁bisogna	-8.69893
▁coloro	-8.69974
▁imprese	-8.69994
▁fanno	-8.70116
▁bella	-8.70231
▁tua	-8.70251
tà	-8.7049
▁furono	-8.70779
&	-8.70957
ranno	-8.71414
▁signore	-8.7148
▁parere	-8.71557
▁fin	-8.71614
▁3	-8.71903
▁corte	-8.72051
▁relatore	-8.72122
▁papa	-8.72518
p	-8.72547
▁diverse	-8.72789
▁relazioni	-8.7282
▁sede	-8.72968
▁fondi	-8.73011
▁avanti	-8.73061
rò	-8.73193
rle	-8.73446
▁francia	-8.73452
▁guarda	-8.73459
io	-8.73924
»	-8.74177
▁corpo	-8.74495
▁sapere	-8.74737
▁vuole	-8.74965
▁mesi	-8.74982
▁pubblico	-8.7525
▁famiglia	-8.75279
▁ore	-8.75549
▁dati	-8.75579
▁eh	-8.75796
us	-8.75869
▁testa	-8.75888
▁chiesa	-8.76009
bile	-8.76015
▁intorno	-8.76085
▁trovare	-8.76107
altra	-8.76297
tto	-8.76324
g	-8.76955
▁politico	-8.77007
▁veramente	-8.77017
azione	-8.77065
".	-8.77072
▁testo	-8.77077
▁motivo	-8.77499
um	-8.77566
▁economica	-8.77832
▁giovani	-8.78269
▁mare	-8.78401
▁assai	-8.78598
▁garantire	-8.78607
▁vostra	-8.7873
▁breve	-8.7879
▁difficile	-8.78844
▁do	-8.78855
▁tema	-8.79215
▁autorità	-8.79261
▁procedura	-8.79375
▁lettera	-8.79459
▁notte	-8.79543
▁faccia	-8.79579
▁pari	-8.79648
▁effetti	-8.79677
▁affinché	-8.80077
▁soluzione	-8.80128
▁periodo	-8.80329
▁mettere	-8.80395
interno	-8.8062
▁prova	-8.80683
▁v	-8.80731
ria	-8.80749
▁alcun	-8.80825
▁casi	-8.80866
▁dibattito	-8.8119
▁ve	-8.81245
rvi	-8.81281
▁misura	-8.81646
zza	-8.81692
▁sera	-8.81783
▁5	-8.81798
▁terzo	-8.81907
▁pro	-8.81971
▁dentro	-8.82299
▁an	-8.82645
▁norme	-8.82663
▁poteva	-8.82685
▁avesse	-8.82837
▁giustizia	-8.82901
ste	-8.8294
▁significa	-8.83168
▁deputati	-8.83193
▁lotta	-8.83302
▁spero	-8.83597
▁rappresenta	-8.83723
▁dietro	-8.83785
▁attenzione	-8.84163
ga	-8.84278
▁cinque	-8.8461
▁salute	-8.84661
▁studio	-8.84778
lla	-8.848
do	-8.84836
▁nello	-8.84877
▁piuttosto	-8.84973
▁ah	-8.84974
▁vogliamo	-8.85239
▁pochi	-8.85256
▁penso	-8.85278
▁bambini	-8.85733
▁risorse	-8.85752
▁avete	-8.85785
▁vostro	-8.86125
il	-8.86205
▁sola	-8.86283
▁ii	-8.86424
▁migliore	-8.86522
▁data	-8.86604
▁principi	-8.86647
▁alcuna	-8.86734
▁colla	-8.86818
uomo	-8.86931
▁stiamo	-8.87001
▁servizio	-8.87007
▁successo	-8.87041
▁maniera	-8.87057
▁ultimi	-8.87127
▁potere	-8.8721
▁trova	-8.87213
go	-8.87228
era	-8.87237
▁chiaro	-8.87518
▁linea	-8.87548
▁valore	-8.87732
▁uniti	-8.87762
▁richiesta	-8.87994
▁serie	-8.8828
▁sostegno	-8.88321
u	-8.88433
f	-8.88544
▁confronti	-8.88595
▁madre	-8.88723
▁passato	-8.88857
▁istituzioni	-8.88881
▁questioni	-8.89005
▁programmi	-8.89016
▁4	-8.89058
▁importanti	-8.89666
▁sole	-8.89791
▁x	-8.89881
▁aspetti	-8.89904
▁fatta	-8.8991
▁regioni	-8.90222
▁partito	-8.90676
bili	-8.90786
▁tanti	-8.90859
▁amore	-8.90901
h	-8.91038
▁primi	-8.91175
ambiente	-8.91177
▁spirito	-8.91259
▁euro	-8.91562
▁pesca	-8.91577
▁contrario	-8.91579
▁occasione	-8.91706
▁conte	-8.91774
▁titolo	-8.91861
que	-8.91872
▁posti	-8.91878
▁stessi	-8.9196
▁sociali	-8.92224
▁b	-8.9225
▁parla	-8.92431
▁produzione	-8.92562
v	-8.92712
▁resto	-8.92742
▁spazio	-8.92752
▁protezione	-8.93019
▁sè	-8.93075
▁umani	-8.93155
tori	-8.93325
▁creare	-8.93534
▁atto	-8.93631
▁importanza	-8.93657
▁naturalmente	-8.9373
▁obiettivi	-8.93784
▁facendo	-8.94132
▁que	-8.94204
▁piedi	-8.94336
▁nonché	-8.94518
▁qualsiasi	-8.94731
▁niente	-8.94859
▁fede	-8.94999
▁difficoltà	-8.951
mmo	-8.95231
▁ordine	-8.9533
▁vale	-8.95555
▁articolo	-8.9571
▁consumatori	-8.95867
▁perciò	-8.96227
▁dì	-8.9624
▁el	-8.96591
▁sangue	-8.96636
▁risultati	-8.96822
▁musica	-8.97037
▁presto	-8.97273
▁termini	-8.97486
▁preso	-8.97886
▁tutela	-8.9791
ambito	-8.98041
▁lì	-8.982
▁formazione	-8.98434
▁amici	-8.98535
on	-8.98854
▁semplice	-8.99079
▁centro	-8.99202
▁essendo	-8.99326
▁armi	-8.99343
▁dovuto	-8.9936
▁regione	-8.99634
▁esser	-8.99892
▁riforma	-9.00091
▁pi	-9.00092
(	-9.0017
menti	-9.0034
▁cura	-9.00783
▁votazione	-9.00839
▁onde	-9.00853
▁innanzi	-9.01019
▁gestione	-9.01275
▁venga	-9.01283
▁10	-9.01438
articolo	-9.01494
▁giusto	-9.01835
▁opera	-9.02007
ato	-9.02024
nt	-9.02184
▁azioni	-9.02206
▁stanno	-9.02325
▁comunicazione	-9.02338
▁difesa	-9.03089
▁personale	-9.03106
02	-9.03134
▁interno	-9.03143
▁sappiamo	-9.03285
▁mente	-9.0334
),	-9.03444
▁debba	-9.0372
▁devo	-9.03756
▁commercio	-9.03927
▁esiste	-9.03972
▁volontà	-9.03978
▁interessi	-9.0413
▁specie	-9.0417
▁finalmente	-9.04172
▁aspetto	-9.04533
▁domani	-9.04539
▁ringrazio	-9.04643
▁venne	-9.04647
▁ormai	-9.04749
▁ottenere	-9.04816
▁dovrà	-9.04824
▁pel	-9.04842
▁mamma	-9.0493
▁presentato	-9.05017
▁potrà	-9.05134
▁unico	-9.05531
▁politici	-9.06001
▁repubblica	-9.06002
▁fossero	-9.06013
▁mese	-9.06261
▁ove	-9.06339
▁carlo	-9.06357
▁vera	-9.06691
▁collega	-9.06809
▁economico	-9.06919
▁vede	-9.06933
▁letto	-9.06995
▁scuola	-9.07096
▁avendo	-9.07178
▁ebbe	-9.07452
▁crisi	-9.07506
▁bel	-9.07588
▁alto	-9.07718
▁pensiero	-9.07729
▁milano	-9.07749
▁or	-9.07876
▁presentata	-9.08072
▁mie	-9.08098
▁assolutamente	-9.08143
▁grave	-9.08425
nza	-9.08474
tore	-9.08493
▁animali	-9.08539
▁accordi	-9.08727
▁conferenza	-9.08895
▁centrale	-9.08957
▁avea	-9.09096
▁presenza	-9.09145
▁vuoi	-9.09207
▁progetti	-9.09269
▁settori	-9.09558
rti	-9.09593
▁mezzi	-9.09795
▁mondiale	-9.09809
▁proprie	-9.09874
▁scopo	-9.09881
▁piccolo	-9.09881
▁attualmente	-9.10148
▁presenti	-9.10202
▁moglie	-9.10208
▁tante	-9.10569
▁lato	-9.10583
▁tratto	-9.10732
▁figlio	-9.10745
▁entro	-9.11052
▁ministro	-9.11104
▁vari	-9.11223
ordine	-9.11305
▁risultato	-9.11501
inv	-9.11552
▁affrontare	-9.11562
▁popolazione	-9.11817
▁fondamentale	-9.11934
▁pratica	-9.12436
▁gruppi	-9.12671
▁dubbio	-9.12703
▁dieci	-9.13008
▁pre	-9.13112
ha	-9.13136
▁spese	-9.13313
▁possano	-9.13425
un	-9.13743
▁forze	-9.13793
▁intende	-9.13812
▁rispose	-9.13999
▁continua	-9.14031
▁disposizione	-9.14097
▁verità	-9.14129
▁genere	-9.14232
▁farlo	-9.14269
tu	-9.14339
▁vanno	-9.14452
▁sugli	-9.14561
▁davanti	-9.1475
▁rischio	-9.14896
▁riferimento	-9.14927
▁secolo	-9.14992
▁interesse	-9.15039
▁decisioni	-9.15116
▁concorrenza	-9.15344
▁obiettivo	-9.15588
▁mal	-9.15643
▁pensare	-9.15795
tá	-9.15805
z	-9.15815
».	-9.15835
fi	-9.15864
▁prese	-9.16009
▁duca	-9.16121
▁en	-9.16157
▁cos	-9.16264
▁sistemi	-9.16386
▁principe	-9.16523
▁purtroppo	-9.16602
▁–	-9.167
▁rende	-9.1684
sca	-9.16926
▁considerazione	-9.16953
▁libera	-9.16992
▁nota	-9.17306
bc	-9.17442
▁giovanni	-9.17531
▁lavori	-9.17608
▁carattere	-9.17744
▁+	-9.17879
is	-9.17978
▁seno	-9.18059
▁sinistro	-9.18136
are	-9.18316
ssa	-9.18329
▁pena	-9.18337
▁faceva	-9.18392
▁passi	-9.18549
▁cielo	-9.18665
▁6	-9.18694
▁m	-9.18698
▁certamente	-9.18778
▁settimana	-9.18802
▁strumenti	-9.18803
▁venire	-9.18852
▁rendere	-9.18938
▁crescita	-9.19371
▁dialogo	-9.19495
occupazione	-9.19543
▁gioco	-9.19543
▁voluto	-9.1962
▁scritto	-9.19639
▁voto	-9.19649
▁seguente	-9.19812
▁napoli	-9.19892
▁prossimo	-9.19892
▁lunga	-9.19917
▁camera	-9.19928
▁ra	-9.19958
▁15	-9.19992
▁paura	-9.19996
▁direzione	-9.20067
▁oggetto	-9.20103
▁messo	-9.20156
▁sé	-9.20246
▁poichè	-9.20353
▁esse	-9.20464
lli	-9.20594
▁vicino	-9.20615
emendamento	-9.20634
▁vecchio	-9.20725
▁siete	-9.20743
▁conseguenze	-9.21073
▁20	-9.21095
▁basta	-9.21165
▁democrazia	-9.21175
▁francese	-9.21202
▁stava	-9.21238
▁giovane	-9.21303
▁amico	-9.21357
▁leggi	-9.21429
▁francesco	-9.21455
▁speranza	-9.21559
▁maggioranza	-9.21582
▁doveva	-9.21691
▁lavoratori	-9.21927
rie	-9.21957
▁europee	-9.21965
▁coi	-9.22042
▁intervento	-9.22095
▁chiedere	-9.22142
▁trasporto	-9.22498
▁scorso	-9.22582
▁destro	-9.22667
▁costi	-9.22843
▁creazione	-9.22877
▁evitare	-9.22895
▁cultura	-9.22912
rio	-9.23099
▁canto	-9.23103
▁membro	-9.23124
▁mostra	-9.23152
▁comunitario	-9.23207
▁qualcuno	-9.23208
▁naturale	-9.23303
▁affari	-9.23626
▁disposizioni	-9.23761
▁ca	-9.23853
▁maggio	-9.23881
rgli	-9.23924
sco	-9.23931
▁sostenere	-9.24015
▁avviso	-9.24031
▁tenere	-9.2406
▁comuni	-9.24101
▁percento	-9.2415
▁nazioni	-9.24168
▁to	-9.2437
▁varie	-9.24445
▁popoli	-9.24454
#	-9.24535
▁strumento	-9.24547
▁comitato	-9.24727
▁fase	-9.24748
▁facile	-9.24779
▁qualunque	-9.25042
▁tanta	-9.25346
▁resta	-9.25392
▁valutazione	-9.25395
▁...	-9.25395
▁capacità	-9.25678
▁partire	-9.25804
▁vivere	-9.25945
▁19	-9.26143
▁sai	-9.26237
▁rispondere	-9.2625
▁ragioni	-9.26321
▁territorio	-9.26332
bi	-9.26427
ano	-9.26477
▁chiama	-9.26547
▁capire	-9.26603
▁fiducia	-9.26604
▁ovviamente	-9.26637
▁patria	-9.26666
▁simile	-9.26676
▁elementi	-9.269
▁contesto	-9.27069
▁marzo	-9.27088
ate	-9.27089
▁voleva	-9.27236
▁regole	-9.27278
▁giudizio	-9.27326
▁sito	-9.27329
▁verrà	-9.27367
▁nonostante	-9.27382
▁don	-9.27474
ssima	-9.27542
▁fondamentali	-9.27567
▁firenze	-9.27597
rebbe	-9.2781
▁opere	-9.27844
▁propri	-9.2795
▁compito	-9.28106
▁ricordare	-9.28111
▁avevo	-9.28226
▁tom	-9.28328
▁diceva	-9.28351
▁par	-9.28536
▁carta	-9.28631
▁cento	-9.28635
▁mille	-9.28817
▁dà	-9.28842
▁principali	-9.28852
▁2000	-9.28899
▁ricordo	-9.28954
▁negoziati	-9.2899
▁colle	-9.2903
▁prodotto	-9.29065
▁emendamento	-9.2924
▁ambito	-9.29281
▁quanti	-9.29475
sce	-9.29502
▁ossia	-9.29725
▁abbastanza	-9.2975
▁giuridica	-9.29775
▁mette	-9.2978
▁viaggio	-9.29959
▁figli	-9.30005
▁semplicemente	-9.30049
▁certa	-9.301
▁cosí	-9.30168
▁lingua	-9.30183
▁atti	-9.30183
llo	-9.30193
▁dico	-9.30307
▁verde	-9.30471
▁danno	-9.30517
▁portare	-9.30528
▁gravi	-9.30996
▁seduta	-9.31082
▁documento	-9.31277
▁migliori	-9.3129
▁medesimo	-9.31417
▁vigore	-9.31523
▁destra	-9.31558
▁fuoco	-9.3156
▁aiuto	-9.31637
▁positivo	-9.31642
▁migliorare	-9.31674
▁carica	-9.31686
er	-9.31844
▁piccole	-9.3188
▁piccoli	-9.31889
▁esprimere	-9.32136
▁oppure	-9.32233
▁piccola	-9.32268
ba	-9.32337
▁dicembre	-9.32433
▁dovrebbero	-9.32445
▁ieri	-9.32473
▁chiedo	-9.32571
▁conseguenza	-9.3263
▁particolarmente	-9.32636
▁reca	-9.327
▁chiaramente	-9.32702
▁turchia	-9.3281
▁sto	-9.32811
▁nemmeno	-9.33145
▁pericolo	-9.33255
▁sinistra	-9.33314
▁à	-9.33373
inizio	-9.33406
▁scelta	-9.33569
ue	-9.33693
ere	-9.33711
▁capi	-9.33726
ia	-9.33727
▁raggiungere	-9.33747
▁pieno	-9.33796
▁intanto	-9.33801
▁giugno	-9.33886
▁chiede	-9.34039
▁visita	-9.34073
▁:	-9.34237
▁probabilmente	-9.34287
▁necessaria	-9.34343
▁riduzione	-9.34346
▁esame	-9.34351
▁moneta	-9.34595
▁uso	-9.34681
▁collaborazione	-9.34782
▁vedi	-9.34787
▁estremamente	-9.34799
▁ultimo	-9.34826
pi	-9.34869
▁libri	-9.35217
▁gennaio	-9.35418
ho	-9.35546
▁dichiarazione	-9.35548
▁mo	-9.35555
▁nessun	-9.35792
idea	-9.35815
▁bocca	-9.3586
ge	-9.35861
▁studi	-9.35925
▁7	-9.35925
▁sicuramente	-9.35935
▁piena	-9.36055
▁chiesto	-9.36062
▁lettura	-9.36143
▁18	-9.36182
pa	-9.36209
▁attuale	-9.363
▁bensì	-9.36304
▁idea	-9.36457
▁reale	-9.36611
▁progressi	-9.36688
▁ministri	-9.3671
▁sufficiente	-9.36768
▁passare	-9.36858
▁modello	-9.36918
▁sicuro	-9.36984
▁fortuna	-9.37114
▁vediamo	-9.37123
▁amsterdam	-9.37302
▁impegno	-9.37313
▁sottolineare	-9.37379
▁continuare	-9.37459
▁partecipazione	-9.37547
",	-9.37867
ora	-9.37972
▁azione	-9.3805
▁civile	-9.38089
rai	-9.38128
euro	-9.38188
▁sí	-9.38247
industria	-9.38412
▁rapporto	-9.38468
▁forme	-9.38546
▁maggiori	-9.3871
▁cercare	-9.38749
▁nord	-9.38768
▁maria	-9.38807
▁libero	-9.38917
▁motivi	-9.38956
▁trovato	-9.38977
smo	-9.39136
▁media	-9.39248
▁bello	-9.3932
▁fini	-9.3934
▁avrà	-9.39529
▁lettere	-9.39652
▁vuol	-9.39679
obiettivo	-9.39683
▁carne	-9.40007
▁deciso	-9.40013
▁presentare	-9.40023
▁santa	-9.40136
▁iniziative	-9.40137
tura	-9.40204
gi	-9.4022
”.	-9.40475
▁anch	-9.40478
▁piacere	-9.40587
▁priorità	-9.40811
▁rete	-9.40839
▁parlato	-9.41105
▁facciamo	-9.41106
j	-9.41135
▁principale	-9.41248
▁quegli	-9.41455
▁economici	-9.41492
▁strategia	-9.41768
▁lor	-9.41803
▁risulta	-9.41897
po	-9.42076
▁svolto	-9.42189
▁piace	-9.42278
▁zona	-9.42288
▁dovremmo	-9.42298
▁affatto	-9.42331
fa	-9.42509
▁mattina	-9.42524
▁fratello	-9.42559
k	-9.42575
▁soldati	-9.42744
▁prezzo	-9.42747
glia	-9.42792
lle	-9.42842
▁governi	-9.42994
▁bianco	-9.4302
▁ancor	-9.43087
▁idee	-9.43148
▁massima	-9.4319
▁contributo	-9.43302
▁potrebbero	-9.43327
▁acqua	-9.43403
▁sarebbero	-9.43426
ale	-9.43576
▁sette	-9.43712
▁conoscenza	-9.43721
▁dimostra	-9.43723
▁legislazione	-9.43777
▁desiderio	-9.43777
▁ovvero	-9.43786
▁conti	-9.43886
▁volto	-9.43936
en	-9.4396
▁porre	-9.44138
w	-9.44225
pe	-9.44242
▁voglia	-9.44441
▁posta	-9.44461
▁concetto	-9.44509
▁convenzione	-9.44608
▁efficace	-9.44616
▁condizione	-9.44637
▁relativa	-9.44707
▁trasporti	-9.44798
▁vengano	-9.44849
▁vertice	-9.44892
▁silenzio	-9.44981
▁utile	-9.45053
▁tardi	-9.45063
▁banca	-9.45107
▁opportunità	-9.45221
▁internazionali	-9.45312
▁costituisce	-9.45472
▁caro	-9.45544
erà	-9.4558
▁seguire	-9.45582
▁pietro	-9.4573
▁luglio	-9.45828
bo	-9.45875
▁sebbene	-9.45881
▁pe	-9.46031
▁castello	-9.46031
▁simili	-9.46073
▁dicendo	-9.46146
per	-9.46154
▁appunto	-9.46316
▁p	-9.46332
▁12	-9.46381
▁marito	-9.46398
▁umana	-9.46414
▁bi	-9.46426
2	-9.46548
▁cerca	-9.46648
▁indietro	-9.46706
▁u	-9.46719
▁morto	-9.46725
▁guida	-9.46746
▁accettare	-9.46758
▁coscienza	-9.4677
ultimo	-9.4695
eri	-9.46952
▁certi	-9.47039
▁ringraziare	-9.47398
▁regime	-9.47451
▁strutturali	-9.47508
▁ba	-9.476
▁alta	-9.47642
es	-9.47702
▁r	-9.47718
▁violenza	-9.47723
▁settembre	-9.47754
▁bo	-9.47798
▁sentire	-9.47831
▁direttamente	-9.47848
ati	-9.47924
▁ridurre	-9.47949
▁italiano	-9.47989
ata	-9.48095
▁trasparenza	-9.4825
▁puoi	-9.48293
▁stampa	-9.48321
▁est	-9.48357
▁opportuno	-9.48449
▁rimane	-9.4858
▁nessuna	-9.48757
▁molta	-9.48824
▁relative	-9.48882
acqua	-9.48888
▁stesse	-9.48929
zzazione	-9.48963
▁memoria	-9.49083
oni	-9.49139
▁novembre	-9.49183
▁italiana	-9.49236
▁lontano	-9.49253
▁monte	-9.49272
▁esperienza	-9.49323
▁riteniamo	-9.49383
▁grazia	-9.49422
▁vogliono	-9.49425
▁passa	-9.49603
▁abbiano	-9.49669
▁lavorare	-9.49754
uso	-9.49758
▁voler	-9.49762
▁struttura	-9.49784
▁mantenere	-9.4982
▁conoscere	-9.49858
▁ero	-9.49916
▁germania	-9.49999
▁precedente	-9.50039
▁prezzi	-9.50065
▁30	-9.50082
▁dolore	-9.50094
▁iii	-9.50176
▁nato	-9.50232
▁modifica	-9.50245
gna	-9.50338
▁pubblici	-9.50411
trice	-9.50421
▁sensi	-9.50426
▁regionale	-9.5043
▁sforzi	-9.50603
▁discorso	-9.50632
▁valori	-9.50737
▁funzione	-9.50739
▁prende	-9.5074
▁fe	-9.5077
▁auto	-9.50797
be	-9.50874
▁pareva	-9.51079
▁sala	-9.51277
▁entrare	-9.51358
▁campagna	-9.51383
▁fiori	-9.51428
ndi	-9.5154
▁proposto	-9.51554
ì	-9.51823
▁metà	-9.51843
▁quell	-9.51852
▁ambiente	-9.51928
▁somma	-9.51953
rum	-9.52061
▁ambientale	-9.52171
▁effetto	-9.52195
nda	-9.52199
it	-9.52242
▁cristo	-9.52254
▁terzi	-9.5235
▁8	-9.52402
▁lascia	-9.52484
▁applicazione	-9.525
▁procedere	-9.52527
▁presenta	-9.5254
▁palazzo	-9.52588
economia	-9.52639
▁case	-9.52718
▁pensa	-9.52727
▁argomento	-9.52828
▁capitolo	-9.52852
▁solamente	-9.52907
▁conclusione	-9.52933
▁minuti	-9.53107
▁avrebbero	-9.5314
▁maestro	-9.53176
▁credere	-9.53192
▁siccome	-9.53246
▁procedure	-9.53281
▁stabilità	-9.53376
▁virtù	-9.53385
▁segno	-9.53422
▁--	-9.53474
▁tenuto	-9.53483
▁mancanza	-9.5357
▁innanzitutto	-9.53666
▁militare	-9.53687
▁informazione	-9.53769
▁faccio	-9.53801
▁febbraio	-9.5384
▁denaro	-9.5384
▁risolvere	-9.53869
▁sapete	-9.5398
▁umano	-9.53986
▁essenziale	-9.5402
▁stare	-9.54044
▁on	-9.5406
▁internet	-9.54073
▁prevede	-9.541
▁vino	-9.54128
▁mandato	-9.54187
▁domande	-9.54193
▁capitano	-9.5421
▁documenti	-9.54473
ultima	-9.54714
▁energia	-9.5472
▁luoghi	-9.5472
▁organizzazioni	-9.54723
zze	-9.54727
▁figura	-9.54735
▁g	-9.5474
▁venuto	-9.54761
▁promuovere	-9.54768
4-0	-9.54841
▁fi	-9.54874
▁ta	-9.54924
▁necessarie	-9.55035
▁unica	-9.55052
▁piazza	-9.55079
▁propone	-9.55288
▁candidati	-9.55553
▁ricevuto	-9.55573
▁differenza	-9.55608
▁presa	-9.55641
▁parlamentari	-9.55715
▁signori	-9.55729
▁felice	-9.55767
ar	-9.55776
▁messa	-9.55803
▁criteri	-9.56013
▁regola	-9.56052
▁nemico	-9.56055
▁modi	-9.5614
▁prime	-9.56232
an	-9.56287
▁investimenti	-9.56326
tra	-9.56335
▁chiara	-9.56395
informazione	-9.56457
▁opinione	-9.56539
▁parlamentare	-9.56649
▁comunitaria	-9.56695
▁com	-9.56716
▁totale	-9.568
▁soli	-9.56802
▁incontro	-9.56887
▁portato	-9.56911
▁terza	-9.56945
▁dovere	-9.57077
▁fai	-9.5708
▁t	-9.57097
▁dinanzi	-9.57337
▁locali	-9.57555
▁adottare	-9.57627
▁temi	-9.57638
▁giù	-9.57665
▁altresì	-9.5771
▁inter	-9.57727
▁massimo	-9.5777
▁aggiungere	-9.57798
▁9	-9.578
ssimi	-9.57809
▁ro	-9.57896
nze	-9.58032
▁tramite	-9.58102
▁farai	-9.58181
▁scrivere	-9.58212
gt	-9.58374
▁detta	-9.58591
▁paragrafo	-9.58762
▁iniziativa	-9.5877
▁francesi	-9.58808
▁anima	-9.58863
▁aziende	-9.58872
com	-9.59013
▁aprile	-9.59086
▁battaglia	-9.59094
▁regina	-9.59254
▁sud	-9.59401
▁contenuto	-9.59538
ch	-9.59623
▁braccia	-9.59634
▁fornire	-9.59642
▁pa	-9.59972
▁completamente	-9.60248
▁santo	-9.60378
▁giusta	-9.60407
▁car	-9.60418
▁tener	-9.60476
sso	-9.60513
▁basso	-9.60517
▁potesse	-9.60533
▁č	-9.60604
▁definizione	-9.60626
▁serve	-9.60661
▁14	-9.60846
▁avrei	-9.60849
▁zone	-9.60987
▁votato	-9.61074
al	-9.61091
st	-9.61116
▁ulteriori	-9.61222
chè	-9.6125
▁interventi	-9.61261
agricoltura	-9.61288
▁rapporti	-9.61336
▁venezia	-9.61598
▁evidente	-9.61662
▁relatrice	-9.61714
▁coraggio	-9.6174
▁contra	-9.61822
ur	-9.62238
▁potete	-9.62286
é	-9.62297
▁codice	-9.62366
▁necessari	-9.62398
▁relativi	-9.62438
▁giornata	-9.62514
▁italiani	-9.62549
▁vantaggio	-9.62631
▁vive	-9.62768
▁farà	-9.62896
▁concerne	-9.62912
▁giro	-9.63089
▁cavallo	-9.6311
▁favorevole	-9.63139
▁occupazione	-9.63282
▁ex	-9.63284
▁ragazzi	-9.6332
▁sentito	-9.63321
▁peso	-9.63487
▁%	-9.63492
▁na	-9.63555
▁poche	-9.63581
▁fatte	-9.63602
▁kosovo	-9.63629
▁previsto	-9.63629
▁riconoscimento	-9.6363
▁scrive	-9.63653
lt	-9.63678
▁chiamato	-9.63718
▁diverso	-9.63745
▁dallo	-9.63746
fo	-9.63914
▁competenze	-9.63939
▁economiche	-9.64017
▁colore	-9.64033
▁anco	-9.64085
▁farsi	-9.6433
▁manca	-9.64458
▁commerciali	-9.64519
▁go	-9.64536
▁costruzione	-9.64914
▁otto	-9.65034
ter	-9.65047
▁costo	-9.65313
▁bambino	-9.65701
▁neppure	-9.65727
▁ama	-9.65825
ggio	-9.65875
importanza	-9.6593
▁aumento	-9.66012
applicazione	-9.66088
▁assicurare	-9.66157
▁ga	-9.66283
▁veniva	-9.66364
▁povero	-9.66401
▁esistono	-9.66412
▁ital	-9.66462
▁forti	-9.66471
▁chiusa	-9.66508
▁ritiene	-9.66532
du	-9.66592
▁superiore	-9.6666
▁polizia	-9.66694
▁rer	-9.66819
▁trattamento	-9.6691
▁troviamo	-9.6694
▁nemici	-9.66971
▁be	-9.67047
ver	-9.67057
ant	-9.67226
▁accesso	-9.67242
▁chiese	-9.67279
▁altrimenti	-9.67415
▁aperto	-9.67421
▁osservazioni	-9.67461
▁addirittura	-9.67492
▁diventa	-9.67566
_	-9.67571
▁acque	-9.67666
▁disoccupazione	-9.67699
▁16	-9.67822
▁intervenire	-9.67854
▁navi	-9.67903
▁globale	-9.67981
ns	-9.6799
▁zi	-9.68148
▁elezioni	-9.68222
▁nero	-9.68224
▁elemento	-9.68235
▁comincia	-9.68236
▁numerosi	-9.68243
▁porto	-9.68278
▁scala	-9.6828
▁za	-9.6832
con	-9.68371
▁aria	-9.68396
▁scienza	-9.6863
▁dar	-9.68662
▁generali	-9.68741
▁vide	-9.68964
▁figliuolo	-9.68967
remo	-9.69016
at	-9.69053
▁ultima	-9.69072
▁dovranno	-9.69125
▁recente	-9.69236
▁mercati	-9.69237
▁ottobre	-9.69244
nsi	-9.69303
iamo	-9.69412
attività	-9.69469
ck	-9.69542
▁impossibile	-9.69606
obs	-9.69691
▁quantità	-9.69916
▁finora	-9.69917
▁monetaria	-9.69937
▁spagna	-9.70061
▁scena	-9.70112
▁morire	-9.70198
▁approvato	-9.70201
▁crede	-9.70248
▁inglese	-9.70271
▁spalle	-9.70311
▁diventare	-9.70377
▁usare	-9.70445
▁richiede	-9.70479
▁paolo	-9.70513
▁vedo	-9.70666
tur	-9.70805
sto	-9.70842
▁usa	-9.70872
zzi	-9.7097
▁effettivamente	-9.70977
▁realizzazione	-9.70981
▁morti	-9.71062
▁stanza	-9.71095
▁capitale	-9.71118
▁parigi	-9.71118
ero	-9.71217
▁belle	-9.71267
▁17	-9.71304
▁ch	-9.71503
▁talvolta	-9.71555
▁finale	-9.71575
▁coordinamento	-9.71598
▁trattati	-9.7176
▁dicono	-9.71806
▁famiglie	-9.71812
▁movimento	-9.71844
non	-9.7185
▁esigenze	-9.72225
▁afferma	-9.72234
▁sguardo	-9.72307
▁vostri	-9.72395
▁ritorno	-9.72559
▁unito	-9.72616
▁fiscale	-9.7273
▁du	-9.72792
▁braccio	-9.72832
▁compagnia	-9.72877
organizzazione	-9.73002
▁bilanci	-9.73027
▁fo	-9.7305
▁leggere	-9.73108
▁trovano	-9.73132
▁andò	-9.73227
▁medio	-9.73317
▁speciale	-9.7347
▁richieste	-9.73666
▁unite	-9.73717
▁arte	-9.7378
▁entrambi	-9.73796
▁andava	-9.73958
gno	-9.73976
cco	-9.73984
iniziativa	-9.74094
▁soldi	-9.74102
▁aspetta	-9.74108
▁reti	-9.7413
▁finanziario	-9.74209
▁età	-9.74221
▁discutere	-9.74269
▁realizzare	-9.74283
▁limiti	-9.74359
▁senti	-9.74486
energia	-9.74554
▁permette	-9.74706
▁dimostrato	-9.74756
▁figlia	-9.74835
▁parlando	-9.74879
▁buono	-9.74909
▁ni	-9.74985
▁volle	-9.74986
▁culturale	-9.75048
▁condotta	-9.75087
▁ricorda	-9.75259
▁pienamente	-9.75388
▁consenso	-9.75652
▁provvedimenti	-9.75652
▁teatro	-9.75652
▁tri	-9.75667
▁potranno	-9.75739
one	-9.75777
▁considerare	-9.75878
▁svolgere	-9.75925
▁dolce	-9.76016
▁interessante	-9.76073
▁sino	-9.76112
▁responsabile	-9.76222
▁costa	-9.76393
zzo	-9.76399
ru	-9.76451
▁1999	-9.76503
▁rappresentanti	-9.76536
man	-9.76594
▁video	-9.76724
▁linee	-9.76732
▁van	-9.76768
▁25	-9.76884
▁finanziari	-9.76893
▁iv	-9.76918
▁affermato	-9.76925
za	-9.76952
▁prossima	-9.77068
▁poveri	-9.77144
▁circolazione	-9.77149
▁buoni	-9.77235
▁riconoscere	-9.77313
▁russia	-9.77323
▁anti	-9.77434
▁the	-9.77452
cca	-9.77461
▁definire	-9.77612
nta	-9.77616
▁risponde	-9.77627
▁vecchia	-9.77673
sci	-9.77705
▁ciascuno	-9.77828
▁festa	-9.77883
▁metodo	-9.78033
tico	-9.78254
▁produttori	-9.78259
▁&-	-9.78269
▁fecero	-9.78272
▁ognuno	-9.78273
▁aree	-9.78307
▁raggiunto	-9.78347
▁diversa	-9.78382
▁accanto	-9.78397
▁viso	-9.78433
ccio	-9.78543
▁miglioramento	-9.78577
▁vittime	-9.78617
fat	-9.78659
▁porte	-9.78681
▁analisi	-9.78846
ampliamento	-9.78936
▁altrettanto	-9.79035
▁carico	-9.79053
▁colpa	-9.79055
▁diede	-9.79055
▁errore	-9.79084
▁offre	-9.79094
▁particolari	-9.79109
▁marco	-9.79117
▁vie	-9.79144
▁sapeva	-9.7915
▁quarto	-9.79205
attuale	-9.79207
▁soluzioni	-9.79247
▁orientale	-9.79259
▁materiale	-9.79326
▁preoccupazione	-9.79372
▁dover	-9.79397
don	-9.79606
▁religione	-9.79615
▁devi	-9.7963
▁[	-9.79656
▁f	-9.7966
▁vento	-9.79792
▁sullo	-9.79864
▁controlli	-9.79967
▁rischi	-9.79988
▁riforme	-9.79995
▁cavalli	-9.80007
▁competenza	-9.8002
▁campi	-9.80045
▁vittoria	-9.80068
▁arriva	-9.80069
▁cercando	-9.80073
▁contribuire	-9.80244
ture	-9.80348
opinione	-9.80389
▁sforzo	-9.80443
▁espresso	-9.80476
ng	-9.80501
▁tratti	-9.80571
▁esattamente	-9.80575
▁portata	-9.8061
stra	-9.80615
▁capelli	-9.80616
▁ru	-9.80653
▁11	-9.80664
▁danni	-9.80674
à	-9.8068
▁note	-9.80702
am	-9.80717
assemblea	-9.80756
▁appoggio	-9.80798
▁marchese	-9.80803
▁bellezza	-9.80858
."	-9.80859
00	-9.80927
nto	-9.80961
cci	-9.81
▁13	-9.81275
▁combattere	-9.813
▁modalità	-9.81534
▁bar	-9.81738
▁volete	-9.81753
▁aperta	-9.81757
▁viva	-9.81792
▁certe	-9.81803
▁assemblea	-9.81805
▁colpo	-9.81833
▁agire	-9.81848
▁finanziamento	-9.81909
▁finanziaria	-9.81912
▁collo	-9.81988
▁agricola	-9.8209
▁sin	-9.82231
▁guardare	-9.8224
▁chiave	-9.82246
▁relativo	-9.82276
▁venti	-9.8243
▁disponibili	-9.82446
▁tuoi	-9.82511
▁pone	-9.82578
▁torna	-9.82603
zio	-9.82652
▁buone	-9.82668
▁guardia	-9.82735
▁sostanze	-9.82792
▁lasciato	-9.82799
▁tecnologia	-9.82837
cu	-9.82841
▁sfida	-9.82893
▁gioia	-9.8296
ali	-9.82961
▁arrivare	-9.82969
▁mu	-9.83028
▁importa	-9.83079
▁perdere	-9.83127
▁vivo	-9.83253
▁funzionamento	-9.83274
▁ferma	-9.83368
▁concludere	-9.83449
▁lasciare	-9.83541
▁tornare	-9.83644
▁cap	-9.83744
▁prove	-9.83813
▁monete	-9.83874
▁utilizzare	-9.83883
▁locale	-9.83907
ndolo	-9.83964
▁livelli	-9.83972
▁origine	-9.84053
▁cor	-9.84061
▁peraltro	-9.84083
▁miliardi	-9.84252
▁classe	-9.84308
▁indispensabile	-9.84493
▁distanza	-9.84543
▁spetta	-9.84548
▁morale	-9.84601
▁patto	-9.84697
attenzione	-9.84833
▁medico	-9.8485
▁compromesso	-9.84871
▁mediante	-9.85037
▁potenza	-9.85063
▁manda	-9.8524
▁verranno	-9.85267
▁fratelli	-9.85389
▁1998	-9.85508
▁critica	-9.85688
bu	-9.85713
▁ampio	-9.8573
nd	-9.85768
essere	-9.85895
▁noto	-9.85949
▁uscire	-9.85983
▁massa	-9.85998
ana	-9.86055
▁ambientali	-9.86074
▁popolare	-9.86098
▁50	-9.8613
▁provincia	-9.86156
▁commerciale	-9.8622
▁migliaia	-9.86272
▁solidarietà	-9.86316
▁fiume	-9.86366
▁partecipare	-9.86395
▁conosce	-9.86415
▁normativa	-9.86417
▁luigi	-9.86456
▁cara	-9.86636
▁possibili	-9.86739
as	-9.86792
▁coesione	-9.86802
▁cittadino	-9.86802
▁giungere	-9.86881
▁cambiamento	-9.86962
▁partiti	-9.8698
tri	-9.86985
▁singoli	-9.87145
tica	-9.87179
▁tecnologie	-9.87193
ss	-9.87215
ccia	-9.87282
gne	-9.87295
▁votare	-9.87359
qui	-9.87409
▁peccato	-9.8743
▁limite	-9.87521
»,	-9.87593
zi	-9.87605
▁andrea	-9.87685
▁pubbliche	-9.87733
▁cause	-9.87745
▁gloria	-9.87831
▁terreno	-9.87873
▁parve	-9.87923
▁vai	-9.8797
▁rispettare	-9.88092
▁errori	-9.88135
▁sento	-9.88162
▁stabilire	-9.88254
tro	-9.88256
▁facoltà	-9.88722
▁settimane	-9.88729
▁dura	-9.88747
▁rapidamente	-9.88757
▁nazione	-9.88762
▁tavola	-9.88773
▁ricevere	-9.88809
▁punta	-9.88958
▁auguro	-9.88977
”,	-9.88982
▁vol	-9.89153
▁proprietà	-9.89262
nde	-9.89336
▁solito	-9.89355
5	-9.89424
▁novità	-9.89432
art	-9.89466
▁scuole	-9.8947
▁petto	-9.89526
▁prossimi	-9.89674
▁passione	-9.89836
▁percorso	-9.89839
▁alcuno	-9.89932
▁mira	-9.89981
▁pagare	-9.89994
▁é	-9.90002
▁progresso	-9.90123
▁vostre	-9.90176
▁facilmente	-9.90476
ente	-9.90489
▁antichi	-9.90666
▁comunitarie	-9.90687
▁andiamo	-9.90691
▁utili	-9.90701
▁traffico	-9.90729
▁stima	-9.90872
▁nuovamente	-9.90886
▁sorta	-9.90988
▁salva	-9.91037
▁conflitto	-9.91085
▁strutture	-9.91087
▁cammino	-9.91107
ghi	-9.91125
▁film	-9.91198
▁passaggio	-9.91232
▁riunione	-9.91334
ing	-9.91349
▁visione	-9.9156
▁decidere	-9.91624
▁bologna	-9.91646
▁rosso	-9.91662
▁sanità	-9.91707
▁complesso	-9.91749
]	-9.91865
introduzione	-9.91972
▁beni	-9.92007
▁immediatamente	-9.92021
pro	-9.92111
▁strade	-9.92151
▁mar	-9.92195
▁impegni	-9.92263
▁notizia	-9.92264
▁dov	-9.92326
ino	-9.92343
▁venisse	-9.92379
▁eppure	-9.92417
▁precedenti	-9.92427
▁serio	-9.92443
▁responsabili	-9.92455
▁applicare	-9.9258
area	-9.92588
▁capito	-9.92626
▁vendita	-9.92752
▁rifiuti	-9.92765
▁cambiare	-9.92822
▁aumentare	-9.92826
▁tocca	-9.92878
ggi	-9.92892
▁assistenza	-9.92927
▁bu	-9.92966
gni	-9.9297
▁trovo	-9.93008
▁medici	-9.9301
▁pagina	-9.93145
▁succede	-9.9315
▁democratico	-9.93193
▁pensato	-9.93277
▁quindici	-9.93292
▁prego	-9.93292
▁tecnica	-9.93295
▁comporta	-9.93311
▁esistenti	-9.93338
▁caccia	-9.93361
▁insomma	-9.93401
▁padrone	-9.93412
▁notevole	-9.93456
occasione	-9.93471
▁web	-9.93474
▁mura	-9.93493
▁terre	-9.93496
▁dimensione	-9.93511
▁tribunale	-9.93515
▁agricoltori	-9.93557
▁colori	-9.93604
▁militari	-9.93681
▁affermare	-9.93728
▁sentimento	-9.93743
▁cari	-9.93759
▁studenti	-9.93767
▁sicilia	-9.93825
▁antonio	-9.93827
▁sentiva	-9.93836
▁esperti	-9.93875
▁giunto	-9.93926
▁poeta	-9.94083
▁cervello	-9.94133
▁dovesse	-9.94166
▁nucleare	-9.94238
▁spesa	-9.94258
stica	-9.94277
▁volume	-9.94291
▁storico	-9.94298
▁partenza	-9.94391
▁foto	-9.94506
▁deputato	-9.94711
▁giuridico	-9.94764
▁giustamente	-9.94792
▁povera	-9.94898
▁tosto	-9.94952
▁100	-9.94956
▁creato	-9.95011
▁ricordato	-9.95026
▁onore	-9.95039
▁chiari	-9.95045
▁persino	-9.95171
▁spiega	-9.95223
▁sol	-9.95302
▁chiarezza	-9.95302
▁medesima	-9.954
▁genitori	-9.95404
▁consentire	-9.95438
▁approccio	-9.95446
▁avviene	-9.95506
▁messaggio	-9.95532
▁gesù	-9.95559
▁turismo	-9.95564
bbe	-9.95606
▁modifiche	-9.95613
▁finanziarie	-9.95673
▁pezzo	-9.9568
▁conclusioni	-9.9572
▁andato	-9.95775
▁compagni	-9.95785
▁comprendere	-9.95841
▁seguenti	-9.95967
▁macchina	-9.95972
▁mila	-9.95976
▁contiene	-9.95989
▁y	-9.96068
aula	-9.9607
▁lib	-9.96088
▁peggio	-9.96188
▁voti	-9.96189
▁ottenuto	-9.96521
▁debito	-9.96546
▁enorme	-9.96596
▁vescovo	-9.96629
▁versione	-9.96647
▁articoli	-9.96686
▁naturali	-9.96849
▁autore	-9.96874
▁gi	-9.96906
▁revisione	-9.96952
▁permesso	-9.96973
▁ricorso	-9.97008
bus	-9.9701
▁rafforzare	-9.9702
▁sanno	-9.97042
▁voci	-9.97088
▁24	-9.97158
▁stile	-9.97192
▁notizie	-9.97223
▁genova	-9.97385
▁pronto	-9.97402
▁veduto	-9.9744
▁lega	-9.97481
▁estera	-9.97523
▁appare	-9.97529
▁tecniche	-9.97547
▁ordini	-9.97605
▁porti	-9.97607
▁cosi	-9.97611
zia	-9.97611
▁scambio	-9.97633
▁neanche	-9.97804
▁significato	-9.97836
▁entra	-9.97883
▁comma	-9.979
▁corona	-9.97911
tt	-9.97912
▁agosto	-9.97933
intera	-9.97948
italia	-9.97961
▁toscana	-9.97982
▁completa	-9.98125
hi	-9.98251
▁romani	-9.98268
tamente	-9.98282
gia	-9.98415
▁pelle	-9.98468
▁contenuti	-9.98474
unica	-9.98528
▁conferma	-9.98535
▁ponte	-9.98694
▁alimentare	-9.98752
ssime	-9.98812
▁monti	-9.98835
▁vieni	-9.98934
▁sub	-9.98936
▁lorenzo	-9.9904
▁mangiare	-9.99066
3	-9.99235
▁situazioni	-9.99246
gra	-9.99286
▁attorno	-9.99304
▁gas	-9.99462
▁offrire	-9.99544
▁sale	-9.99573
▁eventi	-9.9962
▁consigli	-9.99665
▁pu	-9.99695
▁profondo	-9.99743
▁dichiarazioni	-9.99757
▁des	-9.9978
▁corre	-10.0003
▁ufficio	-10.0011
▁aiutare	-10.0015
aria	-10.0017
▁promozione	-10.0019
▁bassi	-10.0022
▁k	-10.0029
▁ché	-10.0031
▁fate	-10.0034
cchi	-10.0038
▁aula	-10.0038
▁sente	-10.0043
ry	-10.0048
▁colui	-10.005
▁ge	-10.0058
▁inizio	-10.0061
▁consiste	-10.0061
▁quivi	-10.0066
4	-10.0074
▁sogno	-10.0074
▁moto	-10.0085
▁quante	-10.0089
▁immagini	-10.0096
▁specialmente	-10.0098
▁intenzione	-10.0099
▁presentazione	-10.0103
▁vedete	-10.0104
▁avessero	-10.0109
▁uguale	-10.0109
▁industriale	-10.0124
▁saputo	-10.0125
▁pressione	-10.0125
▁vecchi	-10.0126
▁rimanere	-10.013
▁attuali	-10.0131
▁crea	-10.0134
▁♫	-10.0138
▁»	-10.014
▁dignità	-10.0142
▁nove	-10.0144
▁verbale	-10.0148
▁invito	-10.0151
▁maggiormente	-10.0164
▁sorriso	-10.017
▁economia	-10.0174
▁pane	-10.0175
▁animo	-10.0181
▁svolgerà	-10.0184
▁metodi	-10.0188
▁consente	-10.0192
▁consumatore	-10.0196
eranno	-10.0206
▁cina	-10.0212
▁rappresentano	-10.0218
▁finito	-10.0219
▁triste	-10.0222
esperienza	-10.0225
▁cane	-10.0228
rebbero	-10.0231
▁rosa	-10.0241
▁labbra	-10.025
▁disegno	-10.0256
▁mon	-10.026
▁tiene	-10.0267
▁sviluppare	-10.0268
▁diciamo	-10.0269
▁contempo	-10.0273
▁desidera	-10.0277
▁torre	-10.0279
▁malattia	-10.0284
▁tasso	-10.0289
▁appello	-10.0292
▁funzioni	-10.0296
▁villa	-10.0302
7	-10.0303
▁fianco	-10.0307
▁alquanto	-10.031
▁grecia	-10.0315
▁soggetti	-10.0319
▁grosso	-10.0319
▁ufficiale	-10.0319
▁fonte	-10.0332
risate	-10.0334
▁comunitari	-10.0337
▁disciplina	-10.0337
▁lieto	-10.0342
▁croce	-10.0343
ll	-10.0344
▁21	-10.0348
▁americani	-10.0352
1	-10.0363
▁segue	-10.0368
▁secoli	-10.0368
▁sonno	-10.0372
▁pietra	-10.0376
▁minimo	-10.0378
interesse	-10.0379
▁costruire	-10.0379
▁perfettamente	-10.039
▁minaccia	-10.0403
▁servi	-10.0404
▁ministero	-10.0405
▁quantunque	-10.0405
▁raccolta	-10.0411
▁universale	-10.0411
▁democratica	-10.0417
▁contatto	-10.0418
su	-10.0419
▁compiti	-10.0422
▁soddisfazione	-10.0424
▁merita	-10.0424
▁ferro	-10.0425
lu	-10.0426
▁racconta	-10.0428
▁compiere	-10.0435
▁nomi	-10.0443
▁liberalizzazion	-10.045
▁impresa	-10.0455
tici	-10.0457
▁considerato	-10.0466
▁bianca	-10.0475
▁regionali	-10.0481
▁professionale	-10.0487
▁presentati	-10.0489
▁basi	-10.0491
▁costituzione	-10.0498
▁debbano	-10.0506
▁sc	-10.0506
▁1997	-10.0507
est	-10.0516
▁successivamente	-10.0518
▁legno	-10.0521
▁je	-10.0526
▁sottolineato	-10.0527
▁circostanze	-10.0527
▁&	-10.0529
▁consumo	-10.0539
▁ulteriore	-10.0543
nu	-10.0545
▁sport	-10.0545
▁men	-10.0547
▁intendo	-10.0548
▁metri	-10.0553
▁attuazione	-10.0554
rá	-10.0557
▁lire	-10.056
▁numerose	-10.0564
▁scegliere	-10.0567
▁stai	-10.0573
▁adottato	-10.0579
▁testi	-10.0587
pre	-10.0588
▁ab	-10.0598
▁poesia	-10.0598
una	-10.0601
▁partner	-10.0604
▁verifica	-10.0605
▁posizioni	-10.061
▁vo	-10.0618
▁carte	-10.062
?"	-10.0627
▁nobili	-10.0636
▁atteggiamento	-10.0637
▁chiunque	-10.064
▁sostanza	-10.064
▁messi	-10.0644
adesione	-10.0648
▁intergovernativ	-10.0657
▁equilibrio	-10.0657
▁super	-10.0661
▁sorte	-10.0663
or	-10.0679
▁rivoluzione	-10.0682
▁valle	-10.0692
▁he	-10.0698
▁volevo	-10.07
▁campanella	-10.0711
▁vada	-10.0712
▁reali	-10.0713
▁spa	-10.0718
▁cibo	-10.0726
▁interessati	-10.0728
▁potremmo	-10.0735
▁ecu	-10.0736
▁fenomeno	-10.0741
▁prospettiva	-10.0741
tivo	-10.0742
ando	-10.0746
et	-10.0753
▁dimostrare	-10.0759
▁sostenibile	-10.0765
▁preoccupazioni	-10.0766
▁potevano	-10.0768
▁ricordi	-10.0768
▁pagamento	-10.0785
nna	-10.0788
▁riesce	-10.0789
▁tecnico	-10.0789
▁ultime	-10.0795
▁emissioni	-10.0795
▁discussioni	-10.0795
▁rimasto	-10.0795
30	-10.0815
▁rimase	-10.0815
▁magari	-10.0819
▁specifico	-10.0825
▁argomenti	-10.0825
▁sorella	-10.0832
▁primavera	-10.0833
▁taluni	-10.0836
▁piede	-10.0838
▁impedire	-10.085
▁espressione	-10.0853
▁1,	-10.0857
▁interna	-10.0868
▁tentativo	-10.0886
▁fatica	-10.0891
▁condurre	-10.0894
▁riceve	-10.0894
▁vantaggi	-10.0897
▁domenica	-10.0898
esercizio	-10.0907
▁prevenzione	-10.091
▁segreto	-10.0916
▁spada	-10.0922
▁occupa	-10.0924
▁requisiti	-10.0928
▁finestra	-10.0935
▁constatare	-10.094
▁finire	-10.0945
▁introdurre	-10.0946
▁terribile	-10.0947
▁personalmente	-10.0948
▁civili	-10.0957
▁paio	-10.0966
▁operazioni	-10.097
▁chiediamo	-10.0972
▁risposte	-10.0983
nne	-10.0984
▁indi	-10.0988
▁pensieri	-10.0999
▁beh	-10.1007
▁quota	-10.1007
▁pratiche	-10.1008
▁direttive	-10.1009
▁lu	-10.1017
▁versi	-10.102
▁mangia	-10.1025
▁tenendo	-10.1037
▁cambio	-10.1039
▁materiali	-10.1043
nia	-10.1044
▁tabacco	-10.1045
▁perch	-10.1046
▁valutare	-10.1059
fe	-10.1068
▁sentenza	-10.1071
▁categoria	-10.1076
▁profonda	-10.1082
zzare	-10.1083
▁garanzia	-10.1088
▁facevano	-10.109
▁trovava	-10.1098
▁pagine	-10.1107
▁malgrado	-10.1119
▁aprire	-10.1122
▁interni	-10.1124
sh	-10.1133
▁merci	-10.1136
▁fame	-10.114
▁favorire	-10.1144
▁condanna	-10.1147
▁veri	-10.115
▁esteri	-10.1152
▁potremo	-10.1157
▁ver	-10.1162
▁opinioni	-10.1176
▁ue	-10.1176
▁piè	-10.1181
▁specifica	-10.1182
▁fonti	-10.1184
▁reso	-10.1191
opera	-10.1193
▁<	-10.1194
▁venuta	-10.1195
▁40	-10.1196
▁sposa	-10.1198
lia	-10.1199
▁perdita	-10.1201
glio	-10.1202
▁computer	-10.1207
▁orientamenti	-10.1213
▁standard	-10.1222
▁parco	-10.1223
▁dimensioni	-10.1233
▁por	-10.1234
attuazione	-10.1236
▁art	-10.1244
ire	-10.1245
▁gara	-10.1245
▁congratularmi	-10.1245
▁dipende	-10.1245
▁confini	-10.1249
▁piu	-10.1257
▁poteri	-10.1266
▁legato	-10.1271
°	-10.1279
▁divieto	-10.1282
▁continuo	-10.1289
▁malattie	-10.1289
▁autori	-10.1294
▁esperienze	-10.1301
▁test	-10.1302
tion	-10.1306
▁speriamo	-10.1308
▁strano	-10.1308
▁nasce	-10.1313
anni	-10.133
▁copia	-10.1335
▁adesione	-10.1342
▁sci	-10.1342
▁sanzioni	-10.1342
gio	-10.1348
▁stra	-10.1352
▁vedendo	-10.1357
▁venerdì	-10.1358
▁norma	-10.1359
▁piani	-10.1362
▁scusa	-10.1369
▁momenti	-10.1388
accesso	-10.1388
▁giardino	-10.1391
▁difendere	-10.1394
▁capace	-10.1397
th	-10.1402
▁statuto	-10.1403
▁segnale	-10.1405
▁dev	-10.1413
integrazione	-10.1414
▁vicini	-10.1419
▁verificare	-10.142
▁riflessione	-10.1423
eremo	-10.1443
▁interrogazioni	-10.1449
mpi	-10.1453
impegno	-10.1459
▁dodici	-10.1461
▁squadra	-10.1471
▁esempi	-10.1473
▁pei	-10.1475
▁roberto	-10.1486
▁vado	-10.149
▁esercito	-10.1491
▁statua	-10.15
▁od	-10.15
▁tue	-10.15
▁organi	-10.1505
▁scritta	-10.1507
▁semplici	-10.1516
▁nondimeno	-10.1519
▁funzionari	-10.1525
ghe	-10.1528
ina	-10.1532
▁spettacolo	-10.1532
▁cagione	-10.1539
▁for	-10.1544
▁costui	-10.1545
▁sabato	-10.1547
▁bruxelles	-10.1551
▁durata	-10.1552
▁medie	-10.1556
▁attiva	-10.1558
▁dovremo	-10.1559
▁asilo	-10.1569
▁miglior	-10.1571
▁dichiarato	-10.1573
▁dimenticare	-10.1576
▁ragazza	-10.1577
▁qualora	-10.1582
▁vergogna	-10.1584
▁freddo	-10.1591
▁caratteristiche	-10.1604
▁condotto	-10.1604
▁tradizione	-10.1605
▁numeri	-10.1607
▁leone	-10.1608
▁ufficiali	-10.1613
▁funziona	-10.1621
istruzione	-10.1622
▁paga	-10.1622
▁stia	-10.1623
▁professore	-10.1623
▁ampliamento	-10.1623
▁destinati	-10.1626
▁povertà	-10.163
▁sà	-10.1643
▁gusto	-10.1643
▁altrove	-10.1648
vasi	-10.1651
▁clima	-10.1651
▁raccomandazione	-10.1651
nga	-10.1657
▁2,	-10.1659
schi	-10.1661
▁senz	-10.1661
ad	-10.1662
▁frutto	-10.1663
▁attesa	-10.1665
▁1996	-10.1681
mina	-10.1682
▁torino	-10.1683
▁centrali	-10.1684
▁nn	-10.1698
▁avremo	-10.1702
▁cosiddett	-10.1708
▁avviare	-10.1711
▁disponibilità	-10.1711
▁val	-10.1711
▁rumore	-10.1717
▁approvazione	-10.1718
ja	-10.1719
▁iniziare	-10.1721
▁contratto	-10.1724
▁accade	-10.1725
stico	-10.1736
▁aiuta	-10.1747
tevi	-10.1748
▁inutile	-10.1748
▁diretta	-10.1755
▁ritardo	-10.1755
▁unità	-10.1755
▁filo	-10.1777
▁modificare	-10.1778
▁eccellente	-10.1778
▁unicamente	-10.1779
▁luna	-10.1779
>	-10.1786
▁minori	-10.1795
▁operatori	-10.1799
▁para	-10.1802
▁considerando	-10.1808
▁file	-10.1816
▁corretto	-10.183
▁comportamento	-10.1831
tò	-10.1835
▁convinto	-10.1835
▁teneva	-10.1839
▁specifiche	-10.1841
▁svezia	-10.1841
▁fermo	-10.1843
▁ut	-10.1848
▁notare	-10.1852
▁industria	-10.1853
zo	-10.1854
▁lingue	-10.1856
▁cominciò	-10.1856
trici	-10.1857
▁costituiscono	-10.1861
▁tira	-10.1875
▁criminalità	-10.1876
▁missione	-10.1877
▁comprende	-10.188
▁esclamò	-10.1895
▁tende	-10.1898
▁evidentemente	-10.1905
▁preparazione	-10.1911
▁spe	-10.1912
▁accogliere	-10.1916
▁ja	-10.1925
▁pan	-10.1937
▁positiva	-10.1943
▁premio	-10.1948
▁giuseppe	-10.1949
▁umane	-10.1951
▁sospetto	-10.1954
▁diretto	-10.1957
unico	-10.1957
amore	-10.1958
▁chiamata	-10.1961
▁prospettive	-10.1963
▁processi	-10.1967
dio	-10.1977
▁scarpe	-10.1977
▁morta	-10.1982
▁giunta	-10.1983
enti	-10.1984
▁latte	-10.1987
▁prevista	-10.199
▁ulteriormente	-10.199
▁abitanti	-10.1991
ufficio	-10.1995
▁logica	-10.2002
▁esercitare	-10.2007
á	-10.2013
▁cambiamenti	-10.2018
arte	-10.2021
▁riguardano	-10.2023
▁profughi	-10.2024
▁organizzazione	-10.2026
▁cavaliere	-10.2026
uti	-10.203
cce	-10.2037
▁cardinale	-10.2039
scono	-10.204
▁professione	-10.2044
▁competitività	-10.2044
▁pensi	-10.2046
▁pò	-10.2047
▁alimentari	-10.2047
▁vennero	-10.2062
▁lista	-10.2067
anti	-10.2076
▁potente	-10.2078
▁riuscire	-10.2079
▁semi	-10.2107
▁linguaggio	-10.2109
▁mise	-10.2117
▁dollari	-10.2119
erò	-10.2131
▁22	-10.2136
▁dominio	-10.2143
▁tedesco	-10.2147
▁ebbene	-10.2147
▁veste	-10.2147
▁romano	-10.2152
▁osservazione	-10.2153
▁considerazioni	-10.2156
▁esseri	-10.2158
ggia	-10.2176
▁relativamente	-10.218
▁poli	-10.2183
os	-10.2183
▁riconosce	-10.2187
▁prodi	-10.22
▁considera	-10.2204
▁guerre	-10.2206
▁tipi	-10.2209
▁lasciò	-10.2212
▁vedeva	-10.2223
5-0	-10.2229
▁condivido	-10.2231
▁permettere	-10.2235
▁storie	-10.224
ster	-10.2241
▁sembrava	-10.2242
▁previsti	-10.2244
▁protocollo	-10.2244
▁matrimonio	-10.2248
▁riusciti	-10.2248
▁ar	-10.2249
▁minore	-10.2269
▁intero	-10.2279
▁ragazzo	-10.2279
▁ivi	-10.2279
▁inteso	-10.2281
ndola	-10.2285
▁benessere	-10.2291
▁speciali	-10.2302
intero	-10.2312
▁svolta	-10.2314
▁sarei	-10.2316
▁differenze	-10.2321
▁giornale	-10.2323
▁avranno	-10.2328
▁avevamo	-10.2331
ed	-10.2332
mma	-10.2338
▁arti	-10.2339
▁legati	-10.2339
▁divina	-10.2346
▁presi	-10.2351
▁ampia	-10.2352
▁narra	-10.2352
▁esprime	-10.2363
txt	-10.2363
▁muta	-10.2363
bilità	-10.2363
▁parecchi	-10.2364
▁timore	-10.2366
▁fama	-10.2373
▁corsi	-10.2373
▁23	-10.2374
▁sembrano	-10.2374
▁man	-10.238
intervento	-10.2383
▁previste	-10.2384
▁detti	-10.2385
▁produrre	-10.2394
gu	-10.2399
▁richiesto	-10.2412
▁messer	-10.2414
▁benissimo	-10.2415
▁stabilito	-10.2417
▁giacomo	-10.242
▁annuale	-10.242
▁lume	-10.2422
▁giovine	-10.2426
▁cercato	-10.2426
▁servire	-10.2432
ven	-10.2438
▁dava	-10.2447
▁compiuto	-10.2448
▁cristiani	-10.2455
▁lancia	-10.2464
▁integrazione	-10.2465
▁commissari	-10.247
▁cucina	-10.2472
tre	-10.2477
▁vivi	-10.2482
▁gradi	-10.2484
▁avvenire	-10.2491
▁patrimonio	-10.2492
tiche	-10.2496
▁ostacoli	-10.2498
▁avremmo	-10.2505
▁rurale	-10.2505
▁trovò	-10.2505
▁farò	-10.2507
▁trattare	-10.2507
▁istruzione	-10.2517
▁quinto	-10.2518
cche	-10.2529
▁positivi	-10.2529
▁potè	-10.2533
▁nobile	-10.2535
▁fuor	-10.2537
▁nomina	-10.2541
▁pla	-10.2544
▁riconosciuto	-10.2555
▁stagione	-10.2564
▁ottimo	-10.2565
▁gio	-10.2567
▁inferiore	-10.2569
ffi	-10.2571
zion	-10.2571
▁elevato	-10.2574
▁dette	-10.2577
▁rientra	-10.2579
▁operare	-10.258
▁aggiunto	-10.2584
▁istituzione	-10.2589
ura	-10.2589
▁approva	-10.2589
▁sforza	-10.259
▁muove	-10.2603
▁frontiere	-10.2606
▁and	-10.2606
ante	-10.2608
▁palla	-10.2616
▁esclusivamente	-10.2621
▁istituzionale	-10.2627
▁riserve	-10.2629
▁vivono	-10.2629
▁ste	-10.263
▁intendere	-10.2631
▁realizzato	-10.2637
erebbe	-10.264
ù	-10.2643
▁bassa	-10.2653
▁flessibilità	-10.2656
▁stretta	-10.2658
▁cadere	-10.2659
▁riflettere	-10.2665
▁influenza	-10.2666
auto	-10.2668
ita	-10.2668
▁scoprire	-10.2675
opportunità	-10.2676
▁minuto	-10.2678
▁dante	-10.2682
▁personali	-10.2686
ke	-10.2691
▁direttore	-10.2702
▁sviluppi	-10.2703
▁babbo	-10.2722
▁dispone	-10.2722
▁lavora	-10.2725
▁proporre	-10.2731
▁comando	-10.2731
▁h	-10.2735
▁iniziato	-10.2735
▁delegazione	-10.2737
6	-10.2737
▁penale	-10.2738
▁dichiara	-10.2738
▁rappresentante	-10.274
▁imp	-10.2748
▁entrambe	-10.2751
▁pronti	-10.2752
▁banche	-10.2753
▁lasciando	-10.2763
▁difficili	-10.2765
▁genti	-10.2767
uto	-10.2768
▁eventuali	-10.2771
▁corrente	-10.2779
▁tutt	-10.278
▁greco	-10.2782
▁consentito	-10.2783
▁privato	-10.2791
▁giá	-10.2795
▁pietà	-10.2797
▁sostenuto	-10.281
▁velocità	-10.281
▁amor	-10.2811
▁fanciulla	-10.2814
▁sostiene	-10.2817
▁riserva	-10.2817
▁resistenza	-10.2825
▁guisa	-10.2825
▁tengo	-10.2832
▁sacco	-10.2836
ment	-10.2859
▁distribuzione	-10.2862
▁indicato	-10.2867
▁associazione	-10.2869
▁capitali	-10.2873
▁recenti	-10.2879
▁prete	-10.2883
▁lunghi	-10.2887
▁aspettare	-10.2899
▁ricco	-10.2904
▁principalmente	-10.2906
▁venir	-10.2913
▁alessandro	-10.2913
▁altrui	-10.2914
▁inserire	-10.2926
▁insegna	-10.293
▁vite	-10.2932
applausi	-10.2934
tum	-10.2942
▁riso	-10.2944
▁assumere	-10.2946
▁decreto	-10.2952
▁accolto	-10.2958
ka	-10.2962
▁frase	-10.2963
▁greci	-10.2964
▁partita	-10.2966
▁ragionevole	-10.2967
▁montagna	-10.2974
▁possesso	-10.298
▁provenienti	-10.298
▁interrogazione	-10.2983
ani	-10.2984
▁riferisco	-10.2991
▁credito	-10.2995
▁poca	-10.3002
interrogazione	-10.3017
▁gambe	-10.3018
▁pranzo	-10.3019
▁volentieri	-10.3025
▁appresso	-10.3025
nce	-10.3027
▁fuga	-10.303
sia	-10.3032
▁conta	-10.3035
▁cani	-10.3035
▁fila	-10.304
▁assieme	-10.3041
ppo	-10.3041
▁andando	-10.3055
iva	-10.306
▁chiuso	-10.3063
tus	-10.3064
cio	-10.3068
▁imporre	-10.3069
▁conciliazione	-10.3072
▁sentimenti	-10.3073
▁superare	-10.3076
▁cavalieri	-10.3081
hai	-10.3083
ppi	-10.3093
der	-10.3093
▁odio	-10.3098
▁giochi	-10.31
▁cesare	-10.31
▁originale	-10.3103
▁of	-10.3103
glie	-10.3105
▁oro	-10.3108
rsene	-10.3109
▁esaminare	-10.3109
▁trarre	-10.3111
▁aggiunge	-10.3113
▁londra	-10.3113
▁inizia	-10.3119
▁sezione	-10.3128
▁pianta	-10.3131
▁osservare	-10.3144
▁determinato	-10.3147
▁viola	-10.3151
tive	-10.3151
▁eliminare	-10.3158
▁volendo	-10.3162
▁denti	-10.3167
▁giornali	-10.3168
▁pontefice	-10.317
▁disposto	-10.317
▁pose	-10.3187
ava	-10.3194
▁popolazioni	-10.32
▁parità	-10.3201
▁addosso	-10.3208
▁carcere	-10.3208
▁definitiva	-10.3208
cia	-10.3214
▁oggetti	-10.3218
▁verdi	-10.3221
▁risposto	-10.3223
▁pezzi	-10.3225
▁dubbi	-10.3228
stri	-10.3228
▁tecnici	-10.3238
▁chiarire	-10.3249
▁figliuoli	-10.3251
▁seguita	-10.3254
▁normale	-10.3261
▁sca	-10.3262
▁consultazione	-10.3263
▁finchè	-10.3265
▁prevedere	-10.3276
▁suono	-10.3278
▁segretario	-10.328
▁costante	-10.328
▁cu	-10.3283
▁cum	-10.3285
▁cominciare	-10.3289
▁ecc	-10.3291
▁impianti	-10.3292
▁interessa	-10.3294
▁date	-10.33
▁nave	-10.3303
▁recentemente	-10.3303
▁disponibile	-10.3308
▁barba	-10.3309
▁corsa	-10.3315
▁scelto	-10.3316
▁venivano	-10.332
▁felici	-10.332
ndomi	-10.3323
▁passò	-10.3325
▁soggiunse	-10.3325
▁realmente	-10.3328
▁riprese	-10.3328
▁muro	-10.334
▁ascolta	-10.3341
adozione	-10.3354
▁efficacia	-10.3361
▁pacchetto	-10.3362
▁speranze	-10.3363
▁spi	-10.3364
▁fiore	-10.3367
▁perde	-10.3371
el	-10.3373
▁mezza	-10.3373
▁serra	-10.3376
rra	-10.3377
▁imparare	-10.3383
▁concrete	-10.3392
▁amministrazione	-10.3393
▁animale	-10.3394
nse	-10.3404
▁enormi	-10.3405
▁raccogliere	-10.3408
utilizzo	-10.3414
▁centinaia	-10.3417
▁riuscito	-10.3421
analisi	-10.3424
▁arrivato	-10.343
▁stavano	-10.3436
▁santi	-10.3437
▁presta	-10.3437
▁cambia	-10.3439
▁papà	-10.3448
▁filippo	-10.345
▁brevi	-10.345
▁area	-10.3456
▁culturali	-10.3456
▁manifesta	-10.3457
▁privati	-10.346
▁volesse	-10.3461
▁nucleari	-10.3464
▁volere	-10.3469
▁fattori	-10.3473
▁antico	-10.3476
▁leader	-10.348
▁utenti	-10.348
ico	-10.3485
▁associazioni	-10.3488
▁contento	-10.349
▁sco	-10.3492
▁oriente	-10.3496
▁volo	-10.3498
▁conflitti	-10.3503
▁ò	-10.3506
▁chiamare	-10.351
▁fretta	-10.3512
▁giunti	-10.3514
▁pio	-10.3515
▁mala	-10.3519
▁bra	-10.352
▁israele	-10.3522
▁correre	-10.3522
▁indipendente	-10.3525
▁gira	-10.3527
▁confronto	-10.3535
▁precisa	-10.3541
▁traccia	-10.3543
▁scambi	-10.3556
▁post	-10.3568
▁incontra	-10.3569
▁avvenuto	-10.3575
▁presentate	-10.3575
▁filosofia	-10.3588
epoca	-10.359
▁approvare	-10.3591
▁stranieri	-10.3599
▁conquista	-10.3606
▁vicenda	-10.3607
▁andar	-10.3608
▁scrisse	-10.3613
tiva	-10.3616
▁rapida	-10.3618
uno	-10.3619
▁costituire	-10.3621
ndogli	-10.3623
▁stanziamenti	-10.3623
▁leva	-10.3623
▁pomeriggio	-10.3623
▁sussidiarietà	-10.3631
▁bis	-10.3633
▁potrei	-10.3639
immagine	-10.3646
▁1995	-10.3649
▁crescente	-10.3658
▁britannico	-10.3663
▁conosciuto	-10.3663
▁svolge	-10.3666
▁ascoltare	-10.3669
▁assunto	-10.3671
▁frate	-10.3681
▁27	-10.369
▁colpi	-10.3691
mus	-10.3692
▁mediterraneo	-10.3695
zzato	-10.3701
ex	-10.3704
▁dedicato	-10.3706
ché	-10.3727
▁romana	-10.3733
sque	-10.374
▁regolamentazion	-10.3742
▁ka	-10.3742
▁congresso	-10.3759
▁raccomandazioni	-10.3761
▁rilievo	-10.3776
ngo	-10.3776
▁saremo	-10.3782
stro	-10.3782
▁pubblicato	-10.3784
ser	-10.3784
▁modelli	-10.3784
▁giudice	-10.3786
▁controllare	-10.3786
▁discusso	-10.38
▁dissi	-10.3801
▁gra	-10.3801
▁proseguire	-10.3802
▁andata	-10.3807
▁edizione	-10.3811
▁larga	-10.3816
nato	-10.3821
▁ok	-10.3824
8	-10.3833
▁spiegare	-10.3833
▁capisco	-10.384
▁firma	-10.3846
spi	-10.3847
▁poscia	-10.3851
▁parlava	-10.3851
▁pensando	-10.3853
▁inghilterra	-10.3858
▁parliamo	-10.3859
▁osserva	-10.3863
▁critiche	-10.3865
▁inaccettabile	-10.3865
▁tavolo	-10.3865
▁composizione	-10.3866
autore	-10.387
he	-10.3878
▁tenuta	-10.3882
▁aereo	-10.3884
▁debbono	-10.3888
via	-10.3894
▁soggetto	-10.3895
▁perduto	-10.3898
▁accetta	-10.3901
▁bravo	-10.3903
▁corretta	-10.3904
▁riposo	-10.3906
▁totalmente	-10.3906
▁compreso	-10.3907
▁immagine	-10.391
▁star	-10.3911
▁madonna	-10.3911
▁profondamente	-10.3922
▁composto	-10.3923
▁consenta	-10.3927
▁giudici	-10.3932
▁occasioni	-10.3933
▁favorevoli	-10.3933
▁pubblicità	-10.3935
▁60	-10.3935
▁scoperto	-10.3939
▁discarico	-10.3947
▁grido	-10.3949
▁attuare	-10.3954
lmente	-10.3966
▁estrema	-10.3968
aiuto	-10.3978
▁ricerche	-10.398
▁alberi	-10.3981
▁stretto	-10.3981
▁liberi	-10.3985
▁organizzata	-10.3986
vol	-10.3986
▁fiscali	-10.3987
▁discriminazione	-10.399
▁facesse	-10.3994
▁trasferimento	-10.4005
▁scrittore	-10.4007
ris	-10.4009
▁calma	-10.401
▁deriva	-10.4012
jo	-10.4019
▁accaduto	-10.4022
▁restare	-10.4023
▁caldo	-10.4026
▁disporre	-10.4033
▁concilio	-10.4039
▁posa	-10.4042
0	-10.4044
▁specifici	-10.4045
▁commissioni	-10.4051
▁ritorna	-10.4053
ito	-10.4053
▁appoggia	-10.4055
▁natale	-10.4061
▁scientifica	-10.4064
▁colà	-10.4065
▁perfino	-10.4068
▁lunghe	-10.4068
▁intendiamo	-10.4075
▁mattino	-10.4076
▁cena	-10.4076
▁dovevano	-10.4077
▁futura	-10.4077
▁turchi	-10.4078
▁poste	-10.4083
▁new	-10.4085
▁mandò	-10.4089
▁usato	-10.409
▁adottate	-10.4094
▁destino	-10.4099
▁generazione	-10.4099
▁mosse	-10.4102
bat	-10.4103
▁gentile	-10.4106
▁parlamenti	-10.4111
▁26	-10.412
▁sicura	-10.413
▁certezza	-10.4133
▁pensiamo	-10.4138
▁passati	-10.4138
▁seguendo	-10.4139
▁sottolinea	-10.414
▁contrasto	-10.414
▁eravamo	-10.4143
▁rivolta	-10.4144
▁efficaci	-10.4146
▁famoso	-10.4156
▁accusa	-10.4159
▁provare	-10.4164
▁eletto	-10.4182
▁vendetta	-10.4183
▁marchesa	-10.4199
▁riprende	-10.4206
9	-10.4217
▁profilo	-10.4224
▁fornito	-10.4225
▁antica	-10.423
▁racconto	-10.4232
▁imposte	-10.4232
▁concedere	-10.4242
▁chè	-10.4243
▁collegio	-10.4246
▁radio	-10.4254
▁contare	-10.4256
▁bianchi	-10.4275
▁dettagli	-10.4276
▁tuttora	-10.4279
▁perso	-10.4282
▁beneficio	-10.4286
▁storica	-10.4287
▁neri	-10.4288
▁prega	-10.4295
▁ciascun	-10.4296
▁lussemburgo	-10.43
ul	-10.4307
▁fiorentini	-10.4309
▁indica	-10.4309
▁adatta	-10.431
etto	-10.4323
▁chiare	-10.4324
▁vincere	-10.4327
▁superiori	-10.4337
▁pas	-10.4343
▁rafforzamento	-10.4344
▁gu	-10.4344
▁pura	-10.4344
▁debole	-10.4349
▁andate	-10.4351
argomento	-10.4353
▁assicura	-10.4353
▁farne	-10.4356
▁grida	-10.4358
▁adeguato	-10.436
▁rappresentato	-10.4364
▁blu	-10.437
▁anna	-10.4386
fica	-10.439
▁alza	-10.4391
▁piglia	-10.4394
▁infrastrutture	-10.4395
▁bordo	-10.4397
▁piante	-10.4399
▁apertura	-10.4401
▁veicoli	-10.4403
▁tedeschi	-10.4412
▁stelle	-10.4414
▁effettuare	-10.442
▁vidi	-10.4421
van	-10.4426
▁tedesca	-10.4429
▁competente	-10.443
▁metti	-10.4431
▁berlino	-10.4432
▁elaborare	-10.4433
▁benché	-10.4433
▁adottata	-10.4435
▁impatto	-10.4436
▁largo	-10.4439
▁oratori	-10.4444
▁ricchezza	-10.4456
▁28	-10.4457
▁apre	-10.4458
▁concreti	-10.4462
▁diavolo	-10.4469
▁compiuti	-10.4473
▁valida	-10.4473
▁superficie	-10.4478
▁intera	-10.4492
▁jo	-10.4493
▁scrittori	-10.4495
▁segni	-10.4496
▁materie	-10.4499
▁zio	-10.451
▁reddito	-10.4516
▁agricoltura	-10.4519
▁scopri	-10.4519
▁destinato	-10.4519
▁butta	-10.4523
▁pianeta	-10.4525
aspetto	-10.4526
▁vuoto	-10.4526
▁chiamati	-10.4527
▁agenda	-10.4532
▁torto	-10.4532
▁soccorso	-10.4534
ine	-10.4535
▁sarò	-10.4536
ini	-10.4537
▁sfide	-10.4544
nzi	-10.4546
bra	-10.4551
▁anziani	-10.4553
▁giulio	-10.4554
▁proposti	-10.456
azienda	-10.456
▁anzitutto	-10.4561
▁getta	-10.4561
▁studiare	-10.4568
▁vicina	-10.4574
ron	-10.4579
▁calcio	-10.4579
▁acp	-10.458
▁ricchi	-10.4583
▁veder	-10.4585
età	-10.4589
▁guardando	-10.4591
▁dando	-10.4595
▁finanziamenti	-10.4596
▁enrico	-10.4596
▁tornò	-10.4597
▁frattempo	-10.4604
▁approvata	-10.4605
▁africa	-10.4606
▁reazione	-10.461
▁gioventù	-10.4614
q	-10.4614
▁confusione	-10.4616
▁continui	-10.4618
ze	-10.4618
▁ricca	-10.4623
▁doppio	-10.4626
▁scienze	-10.4631
▁utilizzo	-10.4632
▁canta	-10.4633
▁proteggere	-10.4634
tque	-10.4637
associazione	-10.464
▁meccanismi	-10.4648
▁sessione	-10.465
▁cima	-10.465
▁salvo	-10.4651
▁sovra	-10.4657
▁ze	-10.4658
ppe	-10.4659
▁fri	-10.4662
▁concessione	-10.4666
▁necessariamente	-10.4666
▁dottore	-10.4668
osa	-10.4669
▁vorrebbe	-10.467
▁letteratura	-10.467
▁pesce	-10.4681
▁mostrare	-10.4682
▁concreto	-10.4684
▁democratici	-10.4685
▁tendenza	-10.4685
line	-10.4687
▁31	-10.4687
▁urgente	-10.4688
▁rappresentare	-10.4689
▁ideale	-10.4693
▁scoperta	-10.4693
▁droga	-10.4693
▁organismi	-10.4693
evoluzione	-10.4693
▁perdono	-10.4695
▁figliuola	-10.4698
▁uffici	-10.4702
nata	-10.4702
▁vecchie	-10.4711
▁gode	-10.4713
istituzione	-10.4713
▁nera	-10.4714
son	-10.4714
▁toglie	-10.4716
▁scelte	-10.4719
▁produce	-10.4728
▁rovina	-10.4728
▁notevoli	-10.4729
▁ppe	-10.4735
▁continente	-10.4737
▁clienti	-10.4739
▁quanta	-10.474
▁alberto	-10.4744
▁votazioni	-10.4747
▁fattore	-10.475
▁esercizio	-10.475
▁cade	-10.4753
▁truppe	-10.4755
▁cava	-10.4755
▁avessi	-10.4762
▁prigione	-10.4764
▁futuri	-10.4764
▁essenziali	-10.4764
▁rivela	-10.4771
▁schi	-10.4779
▁sufficienti	-10.4782
obbligo	-10.4782
▁cominciato	-10.4784
▁permanente	-10.4792
approvazione	-10.48
▁concernente	-10.4801
10	-10.4802
▁fumo	-10.4805
▁padri	-10.4806
▁conosco	-10.4807
▁alti	-10.4809
▁alimenti	-10.481
▁ebbero	-10.481
▁esecuzione	-10.4815
▁mantenimento	-10.4818
▁entrò	-10.4818
▁pressioni	-10.4818
▁promessa	-10.4818
▁spera	-10.4823
▁partenariato	-10.4827
▁vedremo	-10.4827
america	-10.4829
▁cogli	-10.4835
▁concesso	-10.4836
▁scrittura	-10.4836
▁cattiva	-10.4839
amente	-10.4849
tz	-10.4854
▁arrivati	-10.4856
▁occhio	-10.4857
nge	-10.4861
11	-10.4861
▁rossi	-10.4863
▁compagnie	-10.4867
▁benchè	-10.4872
▁eran	-10.4872
▁quarta	-10.4873
▁caduta	-10.4873
▁museo	-10.4876
rri	-10.4878
▁differenti	-10.4879
▁pericoli	-10.4881
▁isole	-10.4886
▁dottrina	-10.489
▁straordinaria	-10.4892
▁giocare	-10.4894
▁decide	-10.4903
▁sperare	-10.4904
▁trovi	-10.491
▁utilizzati	-10.4912
▁vesti	-10.4914
▁frodi	-10.4918
▁ridotto	-10.4919
▁rotta	-10.4925
▁definito	-10.4928
▁fortemente	-10.4938
▁partecipato	-10.4938
cchè	-10.4942
xi	-10.4942
▁meccanismo	-10.4945
▁contributi	-10.4945
▁moderna	-10.4954
▁centri	-10.4957
▁pensava	-10.4959
▁ribadire	-10.4964
▁pisa	-10.4967
▁personaggi	-10.4973
▁ciascuna	-10.4973
▁fonda	-10.4974
▁gestire	-10.4976
▁discorsi	-10.4978
ki	-10.4992
▁diversità	-10.5002
▁accettato	-10.5002
▁bisogni	-10.5004
▁adunque	-10.5011
▁trenta	-10.5016
î	-10.5016
▁industriali	-10.5017
▁mor	-10.5021
▁ritornare	-10.5025
▁lavorato	-10.5032
▁america	-10.5035
▁sorpresa	-10.5036
omc	-10.5042
▁taglia	-10.5044
▁belli	-10.5044
▁costretto	-10.5046
▁fisica	-10.505
▁completo	-10.5056
▁coerente	-10.5058
▁impone	-10.5062
▁monta	-10.5063
▁legislativo	-10.5064
esistenza	-10.5071
▁università	-10.5073
▁occidentale	-10.5083
▁scorsa	-10.5085
▁calabria	-10.5092
▁felicità	-10.5094
▁j	-10.5094
▁anime	-10.5094
▁costoro	-10.5094
▁michele	-10.5098
▁ginevra	-10.5101
▁scritti	-10.5103
uri	-10.5103
▁rilevare	-10.5104
▁saluto	-10.5104
▁lago	-10.5106
▁utilizzato	-10.511
menta	-10.511
▁costituito	-10.5114
mini	-10.5116
▁esterne	-10.512
▁ricostruzione	-10.512
▁lontani	-10.5121
8.	-10.5127
rre	-10.5135
etti	-10.5135
▁arrivo	-10.5135
▁garibaldi	-10.5138
▁ragazze	-10.5138
▁comunica	-10.514
▁dispiace	-10.5145
▁nipote	-10.5147
▁teoria	-10.5147
▁plenaria	-10.5148
▁soddisfare	-10.5149
num	-10.5151
▁rimedio	-10.5153
▁iniziale	-10.5155
▁offerta	-10.5163
▁agricolo	-10.5166
▁ucciso	-10.5166
▁finché	-10.5177
▁dipendenti	-10.519
▁femminile	-10.5194
▁bal	-10.5197
▁mena	-10.5201
▁scientifico	-10.5204
▁legale	-10.5204
▁immaginare	-10.5205
▁vestito	-10.5213
rgi	-10.5213
▁rinnovabili	-10.5215
▁tornata	-10.5216
▁morì	-10.5216
▁fissa	-10.5217
vit	-10.5218
▁nata	-10.5222
▁assume	-10.5222
▁sostanzialmente	-10.5222
nus	-10.5223
▁vinto	-10.5231
▁ovunque	-10.5232
▁percentuale	-10.5232
ose	-10.5233
▁pia	-10.5236
▁preghiera	-10.5241
▁delitto	-10.5242
▁naso	-10.5243
▁valuta	-10.5245
▁faremo	-10.5256
università	-10.5261
▁determinazione	-10.5264
▁evento	-10.5268
▁fantasia	-10.5269
▁appoggiare	-10.5275
▁pazienti	-10.5279
bri	-10.5281
men	-10.5285
▁venuti	-10.5288
▁folla	-10.5295
▁elettorale	-10.5298
▁procede	-10.5298
▁rossa	-10.5306
colo	-10.5307
amministrazione	-10.5308
▁mostrato	-10.5311
▁neve	-10.5313
▁ovvio	-10.5316
unanimità	-10.5317
▁creatura	-10.5318
oli	-10.5326
▁istituzionali	-10.5327
vole	-10.5332
▁vasta	-10.5333
▁limitare	-10.5335
▁pronta	-10.5342
▁tutelare	-10.5353
▁meraviglia	-10.5356
▁rileva	-10.5358
▁interessanti	-10.5358
▁crescere	-10.5364
▁gridò	-10.5364
rda	-10.5364
▁bei	-10.537
▁ripresa	-10.5373
▁obblighi	-10.5374
▁austria	-10.5375
▁ducati	-10.5379
▁volti	-10.5381
▁esistenza	-10.5387
▁giorgio	-10.5392
50	-10.5393
▁lord	-10.5394
▁assoluta	-10.5398
ly	-10.54
▁biblioteca	-10.5401
▁nascita	-10.5402
▁contenta	-10.5403
▁adeguata	-10.5409
ppa	-10.5423
▁seco	-10.5436
20	-10.5438
▁diffusione	-10.544
▁salire	-10.5442
▁scriveva	-10.5451
voli	-10.5454
▁caffè	-10.5459
▁ricorrere	-10.5462
▁bere	-10.5469
▁ingegno	-10.5469
▁passando	-10.548
▁straordinario	-10.5483
▁risoluzioni	-10.5488
▁sensazione	-10.5488
▁vince	-10.5489
▁praticamente	-10.5493
▁mettiamo	-10.5493
▁miseria	-10.5496
▁disposti	-10.5498
▁corrisponde	-10.5507
▁comunale	-10.5508
▁trasformazione	-10.551
▁is	-10.5511
▁contribuito	-10.5511
▁organizzato	-10.5515
▁pac	-10.5515
▁signoria	-10.5516
▁giusti	-10.5516
▁costumi	-10.5517
▁preciso	-10.5518
▁tor	-10.5518
▁disegni	-10.5522
▁vienna	-10.5523
▁sostituire	-10.5528
▁temo	-10.5532
▁1.	-10.5534
▁tempio	-10.5534
▁cad	-10.5535
▁richiama	-10.5546
▁giu	-10.5546
▁mancano	-10.5547
▁cattivo	-10.5548
▁tentare	-10.5551
▁ciclo	-10.5553
▁nu	-10.5557
▁lentamente	-10.5558
▁violazione	-10.556
▁benefici	-10.5561
▁indipendenti	-10.5566
▁mali	-10.5569
▁promesse	-10.5576
▁potenziale	-10.5577
▁diventato	-10.5577
▁romanzo	-10.5578
▁zero	-10.5585
▁conserva	-10.5593
▁invita	-10.5594
▁legislativa	-10.5595
▁movimenti	-10.5595
▁turco	-10.5595
▁dovete	-10.5597
▁lontana	-10.5599
dia	-10.5602
▁categorie	-10.5604
▁laddove	-10.5604
▁istante	-10.5612
▁termina	-10.5614
▁portogallo	-10.5614
▁offerte	-10.5614
▁negativo	-10.5615
▁pazienza	-10.5616
!"	-10.5622
▁riuscita	-10.563
▁bimbo	-10.5634
▁29	-10.5635
▁frutti	-10.5635
▁donde	-10.5635
▁aveano	-10.5639
▁assenza	-10.564
cioché	-10.564
▁promesso	-10.5644
lino	-10.5645
▁significativo	-10.5646
▁visitare	-10.565
▁compagno	-10.5651
▁fossi	-10.5651
▁andati	-10.5652
▁titoli	-10.5653
▁ebrei	-10.5654
æ	-10.5654
▁italiane	-10.5657
▁tenta	-10.5661
▁implica	-10.5671
▁solleva	-10.568
▁vien	-10.5682
▁pubblicazione	-10.5685
▁salvare	-10.5686
▁pensate	-10.5693
▁bambina	-10.5693
▁concede	-10.5693
▁perfetto	-10.5698
ai	-10.57
▁medesimi	-10.5702
▁sti	-10.5703
▁cardinali	-10.5704
▁giova	-10.5704
endo	-10.5708
▁avviato	-10.5723
▁tornato	-10.5723
▁considerata	-10.5725
▁continuamente	-10.5726
▁km	-10.5732
▁parenti	-10.5736
▁ugo	-10.5737
sche	-10.5739
▁timor	-10.5757
ut	-10.576
▁valido	-10.5762
▁pagamenti	-10.5763
▁terrore	-10.5772
tivi	-10.5776
▁medicina	-10.5782
etta	-10.5783
▁portava	-10.5791
▁intenzioni	-10.5791
▁sicuri	-10.5794
spo	-10.5796
▁difende	-10.5799
▁singolo	-10.5801
▁continuano	-10.5806
▁ber	-10.5814
▁#	-10.5814
▁dimenticato	-10.5816
▁viii	-10.5822
▁mettendo	-10.5824
ber	-10.5824
▁soglia	-10.5828
▁tesi	-10.583
▁basa	-10.5834
▁contratti	-10.5836
▁incontri	-10.5837
▁servono	-10.5838
▁coerenza	-10.5841
▁socialista	-10.5842
ori	-10.5843
▁gioca	-10.5847
▁immagina	-10.585
▁prescindere	-10.5851
▁stando	-10.5856
▁pescatori	-10.5858
▁messe	-10.5859
▁sostituito	-10.5859
▁figure	-10.5861
▁software	-10.5861
tate	-10.5865
▁amo	-10.5868
▁quo	-10.588
mu	-10.588
▁scadenza	-10.5881
▁cala	-10.5888
▁minima	-10.5888
▁ju	-10.5889
▁chiusura	-10.5891
▁riva	-10.5891
▁prassi	-10.5892
nico	-10.5893
▁rischia	-10.5899
▁ritrova	-10.5899
▁bagno	-10.5906
▁consegna	-10.5907
▁artisti	-10.592
▁estero	-10.592
▁allontana	-10.5925
▁gesto	-10.5927
▁volontari	-10.593
▁poeti	-10.5932
▁bandiera	-10.5932
▁terrà	-10.5933
stiche	-10.5954
▁soldato	-10.5954
▁emerge	-10.596
▁citato	-10.5961
▁applica	-10.5964
▁governatore	-10.5966
▁deboli	-10.5967
▁bosco	-10.5967
▁energie	-10.5972
▁potrai	-10.5972
▁assoluto	-10.5972
▁privata	-10.5977
cchia	-10.5983
▁saper	-10.599
▁soggiorno	-10.5992
▁entrata	-10.5997
ndoli	-10.5997
▁cresce	-10.5998
▁sorti	-10.6
▁degno	-10.6
▁prigionieri	-10.6002
▁danari	-10.6006
▁preparare	-10.601
▁conduce	-10.6011
▁manfredi	-10.6012
autorità	-10.6014
▁successivo	-10.6014
▁conservazione	-10.6016
▁provvedimento	-10.6022
▁formula	-10.6023
▁congiunta	-10.6027
▁giunge	-10.6029
▁concluso	-10.6032
▁utilizza	-10.6034
▁vii	-10.6035
▁attendere	-10.6036
▁salta	-10.605
▁crediamo	-10.6055
▁corse	-10.6061
▁dormire	-10.6062
▁obbligo	-10.6063
mp	-10.6066
▁attende	-10.6067
▁indipendenza	-10.6068
erano	-10.6072
▁rifiuto	-10.6075
▁calendario	-10.6075
▁angelo	-10.6075
▁chiude	-10.6076
▁saluta	-10.608
sio	-10.6081
▁dirò	-10.6082
▁familiare	-10.6083
▁storici	-10.6084
▁online	-10.6084
▁interne	-10.6086
▁noti	-10.6086
▁abbraccia	-10.6087
▁inserito	-10.609
▁rimasta	-10.6095
▁amato	-10.61
▁rivolto	-10.6101
▁colpito	-10.6105
▁lezione	-10.6106
▁seriamente	-10.6109
▁capaci	-10.611
▁future	-10.6111
▁luca	-10.6113
▁individui	-10.6114
▁svedese	-10.6114
▁ripeto	-10.6114
▁presidenti	-10.6115
▁incidenti	-10.6115
▁simbolo	-10.6115
▁conoscenze	-10.6115
▁cappello	-10.6117
▁chiudere	-10.612
▁agricole	-10.6124
▁catena	-10.6126
▁3,	-10.6128
mpo	-10.6131
▁regolare	-10.6136
▁componenti	-10.6136
▁ghe	-10.6144
▁liberali	-10.6149
▁arma	-10.6149
▁pesante	-10.6152
ndole	-10.6156
ica	-10.6159
▁quote	-10.616
▁quod	-10.6162
ens	-10.6171
▁volevano	-10.6183
▁relatori	-10.6186
▁inglesi	-10.6196
▁tradizionale	-10.6196
▁convergenza	-10.6197
ty	-10.6199
▁latina	-10.6202
▁formato	-10.6204
▁genio	-10.6212
▁fabbrica	-10.6212
▁suona	-10.6215
em	-10.6216
▁creduto	-10.6217
▁affetto	-10.6218
▁giudica	-10.6222
▁scende	-10.6227
▁civiltà	-10.6228
▁esistente	-10.6228
▁garanzie	-10.6238
▁accettabile	-10.624
ari	-10.6251
▁indicazioni	-10.6261
▁spinge	-10.6261
▁ripetere	-10.6266
▁stasera	-10.6269
▁coda	-10.627
▁pianto	-10.6273
▁veloce	-10.6275
▁consapevole	-10.6278
▁negoziato	-10.6285
▁roba	-10.6291
armonizzazione	-10.6292
í	-10.6292
uta	-10.63
▁avvicina	-10.6303
▁rimasti	-10.6304
▁schiera	-10.6305
▁potendo	-10.6306
▁costume	-10.6311
▁batte	-10.6312
▁accoglie	-10.6315
▁/	-10.6317
▁rapido	-10.6322
▁compra	-10.6327
▁censura	-10.6332
▁pretesto	-10.6333
origine	-10.6334
▁tasse	-10.6339
ffer	-10.6352
▁cerchio	-10.6354
▁grandezza	-10.6356
▁ridere	-10.6358
▁finita	-10.6358
▁restano	-10.6359
▁cure	-10.636
▁villaggio	-10.6363
▁zo	-10.6367
▁transizione	-10.6374
je	-10.6375
mmi	-10.6375
▁gian	-10.6377
stre	-10.6379
▁wi	-10.6382
▁provato	-10.6384
▁schengen	-10.6384
▁fui	-10.6386
▁amare	-10.6391
▁sorge	-10.6393
▁sovranità	-10.6395
▁indicare	-10.6401
▁virtú	-10.6417
▁traduzione	-10.6417
▁sentì	-10.6417
▁lettori	-10.6417
▁sicchè	-10.6418
▁mozione	-10.6418
▁farci	-10.6419
▁polvere	-10.642
▁eletti	-10.6421
poli	-10.6421
gg	-10.6422
▁cinquanta	-10.6422
▁disco	-10.6425
▁tiro	-10.6425
▁evoluzione	-10.6437
▁grossa	-10.6438
▁cifre	-10.6448
lio	-10.6449
▁resi	-10.6451
▁0	-10.6463
temi	-10.6464
▁lasci	-10.6469
▁manifestazione	-10.6474
▁colonna	-10.6479
▁fissare	-10.6483
nzo	-10.6485
▁essersi	-10.6486
▁condannato	-10.6488
gge	-10.6489
▁bio	-10.6493
▁corruzione	-10.6501
▁stadio	-10.6503
▁mobilità	-10.6504
▁canzone	-10.6511
▁pilastro	-10.6511
▁vini	-10.6514
ner	-10.6519
▁supporto	-10.6522
▁protesta	-10.6523
mbi	-10.6531
udi	-10.6533
mme	-10.654
▁vedono	-10.6542
▁turba	-10.6543
▁congratulo	-10.6543
▁guglielmo	-10.6543
▁ritenuto	-10.6543
▁carità	-10.6548
alto	-10.6552
▁azienda	-10.6553
▁4,	-10.6557
▁resa	-10.6557
ts	-10.656
▁marina	-10.6561
▁cogliere	-10.6565
esame	-10.6567
▁sig	-10.6569
ello	-10.657
▁ratifica	-10.657
▁stella	-10.6572
▁ampiamente	-10.6574
▁sacro	-10.6577
▁irlanda	-10.6584
▁sapendo	-10.6587
irlanda	-10.6589
▁vent	-10.659
▁probabilità	-10.6597
vir	-10.6599
assistenza	-10.6599
▁corpi	-10.6599
oso	-10.66
▁affrontato	-10.6603
▁riprendere	-10.6606
▁comprensione	-10.6608
▁sed	-10.6611
▁antiche	-10.6615
▁ong	-10.6618
▁cipro	-10.6624
▁+/	-10.6625
▁avvenimenti	-10.6629
▁competenti	-10.663
land	-10.6634
▁strasburgo	-10.664
▁guardava	-10.664
▁curiosità	-10.6641
impatto	-10.6643
▁duro	-10.6643
▁nega	-10.6646
▁commesso	-10.6652
▁parlo	-10.6654
▁dono	-10.6656
▁solenne	-10.6659
▁razzismo	-10.6662
▁determinati	-10.6662
▁formulare	-10.6663
agenda	-10.6664
▁americano	-10.6665
▁grosse	-10.6665
▁desideri	-10.6668
▁trono	-10.6669
cò	-10.6675
▁avventura	-10.6675
▁pmi	-10.6676
▁frode	-10.6685
▁riguardanti	-10.6685
▁regolamenti	-10.6698
▁inviato	-10.6705
▁uolta	-10.671
▁concreta	-10.671
▁veneziani	-10.6712
▁citare	-10.6714
▁consiglia	-10.6715
▁portano	-10.6722
▁sbagliato	-10.6723
▁raggiunge	-10.6735
▁vende	-10.6735
▁vittima	-10.6738
▁miglia	-10.6739
▁giovanna	-10.6742
▁giulia	-10.6746
12	-10.6747
▁osa	-10.6748
▁maestà	-10.6749
▁gri	-10.6749
▁‘	-10.675
40	-10.6752
vamo	-10.6752
▁liberale	-10.6753
zie	-10.6755
▁canti	-10.6756
▁scudi	-10.676
ario	-10.6766
▁difetto	-10.6775
▁negozio	-10.6776
▁andavano	-10.6781
▁imparato	-10.6781
▁costretti	-10.6782
▁amicizia	-10.6787
asse	-10.679
▁lasciate	-10.679
▁seria	-10.6792
▁entrato	-10.6794
impresa	-10.6795
▁les	-10.6796
▁sce	-10.6796
▁condividere	-10.6797
rdo	-10.6799
▁apri	-10.6801
▁entrate	-10.6802
▁eccetera	-10.6804
▁tassi	-10.681
▁maestra	-10.6813
iti	-10.6814
▁bretagna	-10.6815
▁codecisione	-10.6815
▁campagne	-10.6815
▁ascoltato	-10.6816
gua	-10.6817
▁treno	-10.6824
▁misericordia	-10.6826
▁tradizioni	-10.6829
▁potessero	-10.6829
▁prendiamo	-10.683
▁retro	-10.6831
▁doppia	-10.6832
▁lieve	-10.6837
▁alternative	-10.6837
▁piega	-10.6837
▁dimora	-10.6838
▁vorrà	-10.6838
olo	-10.6843
▁priva	-10.6844
▁uscì	-10.6848
mba	-10.6856
▁mobili	-10.686
▁profitto	-10.6861
▁giunse	-10.6865
▁essenzialmente	-10.687
▁culto	-10.687
▁attivo	-10.6874
▁raccoglie	-10.6875
▁can	-10.6878
▁spazi	-10.6882
▁undici	-10.6883
▁addio	-10.6883
▁preoccupa	-10.6884
▁status	-10.6887
▁somme	-10.6889
▁vissuto	-10.6892
▁bellissima	-10.6893
▁siena	-10.6895
▁novella	-10.6897
▁angolo	-10.6897
▁sal	-10.6898
▁senato	-10.6899
▁scia	-10.69
▁domandò	-10.6903
▁trasparente	-10.6903
▁decisamente	-10.6906
▁viaggi	-10.6909
▁baroni	-10.691
▁chiuse	-10.6915
▁partecipanti	-10.6917
tor	-10.692
▁ottima	-10.6922
rdi	-10.6924
▁agricoli	-10.6925
▁lisbona	-10.6925
▁lagrime	-10.6925
▁limita	-10.6927
▁signorina	-10.6936
▁vorremmo	-10.6936
▁credibilità	-10.6937
▁grossi	-10.6937
▁generalmente	-10.6938
▁liberamente	-10.694
▁energetica	-10.6947
▁inanzi	-10.6949
▁---	-10.6952
▁prender	-10.6954
▁scale	-10.6956
pu	-10.6957
▁efficiente	-10.6959
▁piero	-10.6961
▁ko	-10.6964
▁classi	-10.6969
▁abbandona	-10.6983
▁britannica	-10.6992
▁attentamente	-10.6996
ndone	-10.6997
▁padova	-10.6997
▁loco	-10.6999
▁tetto	-10.7001
▁uh	-10.7002
▁rose	-10.7002
▁sfruttamento	-10.7004
▁rive	-10.7009
▁metto	-10.7015
▁accompagna	-10.7017
▁brevemente	-10.702
▁sara	-10.7023
▁scor	-10.7026
▁cassa	-10.7031
▁camere	-10.7035
▁operato	-10.7038
▁selezione	-10.7038
▁finestre	-10.7042
▁ride	-10.7048
▁violazioni	-10.7051
▁dedicata	-10.7059
▁udito	-10.7067
▁sacra	-10.7069
▁tesoro	-10.7072
▁strutturale	-10.7078
▁cliente	-10.7078
▁bri	-10.7078
▁province	-10.7082
rse	-10.7083
▁talmente	-10.7085
▁elena	-10.7086
oggi	-10.7093
▁sur	-10.7093
▁capita	-10.7094
▁richiamare	-10.7096
▁stazione	-10.7105
mar	-10.7107
▁nido	-10.7109
▁interamente	-10.7113
▁precedenza	-10.7117
▁dolci	-10.7126
▁espresse	-10.7127
▁transfrontalier	-10.7127
apertura	-10.7127
rica	-10.7129
ff	-10.713
▁cammina	-10.7132
nica	-10.7138
▁navigazione	-10.7141
▁core	-10.7142
oro	-10.7142
▁strana	-10.7143
▁territori	-10.7148
▁consapevoli	-10.715
▁contessa	-10.7157
▁raggio	-10.7157
ya	-10.7158
▁ved	-10.716
▁affronta	-10.7165
▁informato	-10.7166
▁rivedere	-10.7167
utf	-10.7178
▁barca	-10.7183
▁gl	-10.7188
▁dramma	-10.7193
▁dovuta	-10.7196
▁aperte	-10.7196
▁prof	-10.7197
▁versa	-10.7197
▁averlo	-10.72
gre	-10.72
▁banda	-10.7205
▁pericoloso	-10.7206
▁blocco	-10.7207
▁feste	-10.7211
▁sali	-10.7215
▁ipotesi	-10.7222
▁seppe	-10.7224
▁tassa	-10.7228
au	-10.7229
▁raccomanda	-10.723
rato	-10.7231
mila	-10.7234
▁gola	-10.7235
▁serba	-10.7237
▁condivide	-10.7238
▁lucca	-10.7238
mbo	-10.7242
▁concorso	-10.7249
▁preme	-10.725
▁distruzione	-10.7251
▁finlandia	-10.7253
▁contrari	-10.7253
▁move	-10.7254
▁tentato	-10.7257
▁tradizionali	-10.7264
▁rendono	-10.7275
▁castel	-10.7276
▁ferdinando	-10.7276
▁incredibile	-10.7278
▁uscita	-10.7278
▁premi	-10.7279
▁dica	-10.728
▁rigore	-10.728
▁accosta	-10.7286
▁cristiano	-10.7289
▁scarsa	-10.729
▁preti	-10.7294
▁esterno	-10.7296
▁convinzione	-10.7299
come	-10.73
▁monetari	-10.7301
-0	-10.7305
▁bon	-10.7314
▁conseguire	-10.7315
▁rabbia	-10.7315
▁perche	-10.7319
▁pene	-10.732
▁2000.	-10.7321
cre	-10.7321
▁decisionale	-10.7322
▁borsa	-10.7324
ista	-10.7324
▁meta	-10.7324
▁brucia	-10.7326
▁90	-10.7327
▁mettono	-10.7331
▁musicale	-10.7333
▁indubbiamente	-10.7334
▁aumenta	-10.7334
▁cal	-10.7335
▁accompagnato	-10.7336
▁mario	-10.7337
▁marmo	-10.7342
▁ambiti	-10.7344
▁vergine	-10.7345
▁lieta	-10.7349
bb	-10.7361
▁ammettere	-10.7363
▁interessate	-10.7367
▁arabi	-10.7367
▁esportazioni	-10.7369
▁ciao	-10.7371
▁istituire	-10.7376
▁sventura	-10.738
▁precisione	-10.7392
▁testimonianza	-10.7392
▁cur	-10.7399
▁complessiva	-10.7399
▁problematica	-10.7402
▁0,	-10.7403
rico	-10.7403
▁macchine	-10.7403
▁esterni	-10.7404
▁guardò	-10.7405
▁applausi	-10.7405
▁contatti	-10.7407
▁prendo	-10.7407
abbiamo	-10.7408
dra	-10.7412
▁paradiso	-10.7415
▁serva	-10.7415
16	-10.7426
▁fondamento	-10.7429
▁derivanti	-10.7432
▁sindaco	-10.7438
▁conformità	-10.7439
▁limitato	-10.7445
▁lavorando	-10.7447
▁insistere	-10.745
▁sieno	-10.7451
▁guadagna	-10.7452
▁imperatore	-10.7452
▁mancato	-10.7452
rete	-10.7452
▁marcia	-10.7452
▁diversamente	-10.7453
▁sogni	-10.746
▁risparmio	-10.746
▁suscita	-10.7461
▁milione	-10.7462
▁sovente	-10.7462
▁bovina	-10.7462
▁montagne	-10.7462
▁vasto	-10.7463
▁perfetta	-10.7465
▁gravità	-10.7469
dis	-10.7477
▁nasconde	-10.7482
▁individuare	-10.7482
▁giovedì	-10.7485
▁rinvio	-10.7486
▁lasciar	-10.7486
▁rassegna	-10.7488
▁raggi	-10.7488
▁tolto	-10.7493
▁farla	-10.7493
▁terrorismo	-10.7497
15	-10.7499
▁mediatore	-10.7502
fu	-10.7504
▁penna	-10.7507
▁latino	-10.7508
▁flotta	-10.751
▁mandare	-10.7514
▁guardate	-10.7514
ici	-10.7517
▁moderni	-10.7518
▁varietà	-10.7518
▁testimoni	-10.752
▁divenne	-10.7521
▁tomo	-10.7522
▁tenga	-10.7522
▁cre	-10.7523
▁bro	-10.7524
▁sesso	-10.7525
▁introdotto	-10.7532
▁maastricht	-10.7532
▁tragedia	-10.7532
▁digitale	-10.7536
▁servo	-10.754
▁esterna	-10.7541
▁portoghese	-10.7544
▁2018	-10.7546
▁generazioni	-10.7546
▁abusi	-10.7547
aumento	-10.755
mer	-10.7552
▁capitani	-10.7558
▁secondi	-10.7569
▁conforme	-10.7576
▁sappia	-10.7576
▁costantemente	-10.7577
▁quae	-10.7579
▁lezioni	-10.7581
▁suolo	-10.7582
▁caratteri	-10.7582
▁elettronica	-10.7582
ran	-10.7586
▁gua	-10.7589
▁app	-10.759
▁governa	-10.7591
▁comunicazioni	-10.7594
▁bisognava	-10.7594
▁tagli	-10.76
enza	-10.76
▁chiamava	-10.7603
▁teme	-10.7604
▁esserci	-10.7604
▁andrebbe	-10.7604
stici	-10.7607
▁lombardia	-10.7609
▁opposizione	-10.761
▁balcani	-10.7613
▁impegnati	-10.7614
lecomunicazioni	-10.7615
▁bre	-10.7616
▁vitale	-10.7616
▁funzionare	-10.762
▁nati	-10.7621
▁degna	-10.7627
▁fedeli	-10.7632
▁2001	-10.7632
▁darà	-10.7636
▁tecnologico	-10.7639
▁piangere	-10.7642
▁potenti	-10.7642
▁eccezione	-10.7644
▁strettamente	-10.7649
▁celebre	-10.765
▁collegamento	-10.7651
▁york	-10.7651
onu	-10.7656
▁sosta	-10.7656
▁contenute	-10.7663
▁́	-10.7663
▁stefano	-10.7666
▁identità	-10.7668
▁35	-10.7672
▁virgilio	-10.7675
▁tenuti	-10.7675
▁cenno	-10.7688
▁imposta	-10.7689
ct	-10.769
ore	-10.7691
▁cappella	-10.7691
▁sedere	-10.7697
▁organizzare	-10.7699
▁rifugiati	-10.7702
▁basata	-10.7706
▁criterio	-10.7707
▁direi	-10.7718
ure	-10.772
▁acquista	-10.772
▁parma	-10.7722
▁iddio	-10.7723
▁trattava	-10.7726
impressione	-10.7727
▁rivolge	-10.7728
gri	-10.7729
▁dettaglio	-10.7729
▁inalbor	-10.7733
▁giudicare	-10.7746
▁spiaggia	-10.7748
▁statistiche	-10.7748
%	-10.775
▁accedere	-10.7753
▁corea	-10.7755
▁avanza	-10.7755
▁finanziare	-10.7755
▁70	-10.7757
▁programmazione	-10.7759
▁ospiti	-10.7759
▁ripartizione	-10.7761
▁guai	-10.7763
▁oneri	-10.7763
▁cambiato	-10.7763
▁miracolo	-10.777
▁cotesto	-10.7772
▁vere	-10.7773
▁feci	-10.7776
▁op	-10.778
▁sommo	-10.7782
▁stu	-10.7782
▁moda	-10.7792
▁acquistare	-10.7794
op	-10.7794
▁uscito	-10.7794
▁cer	-10.7795
▁chiedono	-10.7796
▁elenco	-10.7803
mò	-10.7804
▁sostanziale	-10.7808
▁prendi	-10.7808
▁visti	-10.7808
▁divisione	-10.7808
ute	-10.7809
▁cerchi	-10.7819
▁rifiuta	-10.7823
lini	-10.7824
▁confine	-10.7824
▁assistere	-10.7832
▁soddisfatto	-10.7833
▁han	-10.7835
▁stavo	-10.7836
sono	-10.7838
spe	-10.7842
▁fortezza	-10.7846
▁dimentica	-10.7849
▁giacch	-10.7851
incontro	-10.7853
▁serata	-10.7857
▁prevenire	-10.7858
▁frutta	-10.7861
▁comunicare	-10.7861
▁cha	-10.7863
▁ac	-10.7863
san	-10.7865
nca	-10.7865
▁giallo	-10.7867
▁licenza	-10.7869
▁farmi	-10.787
▁andrà	-10.7874
▁chiamano	-10.7875
▁fiamma	-10.7881
▁affi	-10.7884
inquinamento	-10.7885
▁espressa	-10.7888
rino	-10.7891
▁falsa	-10.7894
▁sentiero	-10.7895
▁dimostrano	-10.7897
25	-10.7898
▁armata	-10.79
▁tempesta	-10.7907
nare	-10.7907
▁bada	-10.7912
▁svolgimento	-10.7918
▁concordo	-10.7918
▁vola	-10.792
▁scendere	-10.7922
▁mappamondo	-10.793
▁diminuzione	-10.7931
▁diretti	-10.7934
▁determinate	-10.7934
▁rese	-10.7936
▁sveglia	-10.7936
▁candidato	-10.7937
isola	-10.7937
▁nec	-10.7938
▁improvvisamente	-10.7946
isce	-10.7947
▁rompe	-10.7948
▁dimostrazione	-10.7956
▁iscritto	-10.7957
ottima	-10.796
▁ombra	-10.7962
pri	-10.7962
▁ferrara	-10.7968
▁vel	-10.797
cha	-10.7972
▁procura	-10.7973
cola	-10.7974
efficacia	-10.7975
▁200	-10.7976
▁utilizzando	-10.7977
▁appieno	-10.7979
▁conosciamo	-10.7981
▁ritiro	-10.7986
▁uccide	-10.7986
▁passata	-10.7987
nzia	-10.7987
qua	-10.7988
▁multi	-10.799
▁pensò	-10.7993
▁concerto	-10.7995
▁patti	-10.7995
▁organo	-10.7996
▁passioni	-10.7996
africa	-10.7998
elo	-10.8007
▁usando	-10.8007
▁quam	-10.8013
▁saggio	-10.8013
▁criminali	-10.8015
▁fenomeni	-10.8016
▁prudenza	-10.8016
▁spagnolo	-10.8017
▁calcolo	-10.8017
▁bontà	-10.8018
▁incontrato	-10.8021
nò	-10.8023
▁carrozza	-10.803
▁richiamo	-10.803
▁lavorano	-10.8038
▁indagini	-10.8041
▁raccolto	-10.8041
▁deserto	-10.8041
▁rami	-10.8042
▁den	-10.8044
▁ricordiamo	-10.8046
▁colonia	-10.8048
▁plus	-10.805
▁olandese	-10.8054
▁attiene	-10.8055
cri	-10.8055
▁mori	-10.8061
▁lasciava	-10.8064
▁foglio	-10.8065
▁lacrime	-10.8066
▁legate	-10.8067
▁vendere	-10.8071
▁segna	-10.8074
▁saggi	-10.8074
▁segnala	-10.8077
▁abbandonare	-10.8078
▁giuridici	-10.8079
▁offerto	-10.8079
ah	-10.8079
▁cancelliere	-10.808
▁spirituale	-10.8091
▁provvedere	-10.8091
▁colonnello	-10.8092
▁vene	-10.8102
nis	-10.8104
▁gregorio	-10.8104
▁evidenza	-10.8105
▁gatto	-10.8111
▁comanda	-10.8112
▁maraviglia	-10.8113
▁domina	-10.8115
▁industrie	-10.8116
▁professionali	-10.8117
▁danaro	-10.8117
▁prepara	-10.812
res	-10.8122
anima	-10.8124
▁correttamente	-10.8125
▁religiosa	-10.8129
▁tentativi	-10.8129
▁lungi	-10.8129
▁genera	-10.813
▁retta	-10.8131
▁ria	-10.8133
▁basti	-10.8133
13	-10.8134
▁razza	-10.8136
▁banco	-10.8139
feri	-10.8142
▁lettore	-10.8143
▁calore	-10.8151
▁lunedì	-10.8154
▁margine	-10.8154
▁continuerà	-10.8156
▁individuale	-10.8156
▁paziente	-10.8161
▁immigrazione	-10.8161
col	-10.8163
▁esposto	-10.8167
▁delicato	-10.8167
▁convinti	-10.8167
▁bando	-10.8168
▁conseguente	-10.8168
importante	-10.8171
▁fondazione	-10.8171
▁personaggio	-10.8175
▁fedele	-10.8176
	-10.8179
▁bosnia	-10.8179
▁esce	-10.8182
esterno	-10.8183
▁limitata	-10.8184
▁distinzione	-10.8192
▁sollevato	-10.8192
▁buio	-10.8195
▁destinata	-10.8198
▁credeva	-10.82
▁prendendo	-10.8202
rini	-10.8202
▁laboratorio	-10.8202
▁radicale	-10.8206
▁veritá	-10.8206
▁brutta	-10.8207
▁sensibilità	-10.8207
insieme	-10.8208
▁sfruttare	-10.821
▁belgio	-10.821
ac	-10.821
▁rondini	-10.8211
▁impressione	-10.8213
▁quaranta	-10.8217
▁finanze	-10.8217
▁entusiasmo	-10.8218
▁notato	-10.822
effetto	-10.8221
▁introduzione	-10.8225
▁strategie	-10.823
lata	-10.8231
ono	-10.8231
▁consapevolezza	-10.8232
▁divide	-10.8238
▁minoranze	-10.8242
▁spagnuol	-10.8247
▁umanitari	-10.825
▁riferisce	-10.8255
smi	-10.8256
▁foglie	-10.8257
▁frati	-10.8265
▁cancro	-10.827
▁orientamento	-10.8271
▁affinchè	-10.828
▁giuridiche	-10.828
▁allorchè	-10.8281
▁benvenuto	-10.8281
▁ripete	-10.8283
▁trovarsi	-10.8292
▁straniero	-10.8293
▁salvaguardia	-10.8294
▁federico	-10.8294
▁stanze	-10.8296
▁ser	-10.83
▁carni	-10.8301
entrata	-10.8302
▁mettersi	-10.8303
▁riunioni	-10.8306
▁concetti	-10.8306
▁probabile	-10.8306
▁conforta	-10.8307
ud	-10.831
▁giappone	-10.8319
nes	-10.8326
▁credi	-10.8327
tis	-10.8329
▁soddisfacente	-10.8331
0.000	-10.8333
pra	-10.8343
▁impedi	-10.8343
▁ridotta	-10.8345
▁denuncia	-10.835
sione	-10.8357
▁fiera	-10.8357
▁incoraggiare	-10.8359
stu	-10.8365
▁ristrutturazion	-10.8366
▁cookie	-10.837
▁critico	-10.837
rit	-10.8377
▁orale	-10.8382
up	-10.8384
▁informa	-10.8386
▁compresi	-10.8391
▁rimangono	-10.84
▁vengo	-10.8406
▁brava	-10.8407
▁ida	-10.8409
ffa	-10.841
▁chron	-10.841
▁conservare	-10.8412
▁gia	-10.8412
▁spia	-10.8416
▁darsi	-10.8417
▁respiro	-10.8421
▁ritardi	-10.8421
▁grandissima	-10.8422
▁fornisce	-10.8422
▁passava	-10.8422
▁pensione	-10.8423
▁conclude	-10.8426
▁ghi	-10.8427
▁rivolte	-10.8433
▁registrato	-10.8433
▁andarono	-10.8437
▁rilevante	-10.844
ffe	-10.8441
▁dovette	-10.8441
▁motore	-10.8443
▁vieusseux	-10.8447
zzati	-10.845
▁vizio	-10.8456
▁aperti	-10.8462
▁portò	-10.8462
ucci	-10.8471
▁brutto	-10.8475
▁matteo	-10.8475
▁faranno	-10.8475
▁)	-10.8478
▁legata	-10.8479
▁dottor	-10.8479
▁furia	-10.848
▁tv	-10.848
▁bari	-10.8484
▁taglio	-10.8485
▁1994	-10.8487
▁confessa	-10.8487
▁resistere	-10.8488
temporaneamente	-10.8492
▁applicato	-10.8494
▁fior	-10.8498
▁carriera	-10.85
▁modena	-10.8501
▁epoca	-10.8501
▁piemonte	-10.8501
▁calo	-10.8503
▁recita	-10.8505
zzata	-10.8505
▁guido	-10.8505
▁volse	-10.8506
▁nonna	-10.8506
05	-10.8512
▁frontiera	-10.8513
14	-10.8516
▁cio	-10.8517
▁preparato	-10.852
▁asso	-10.8521
▁normative	-10.8526
▁prestare	-10.8526
19	-10.8528
▁rotto	-10.8533
▁mari	-10.8533
▁tenne	-10.8534
▁puro	-10.8534
▁inutili	-10.8538
▁tranquillo	-10.8538
▁profeta	-10.8538
▁seduto	-10.8539
▁cerchiamo	-10.8542
▁francesca	-10.8542
▁lucia	-10.8544
▁spo	-10.8546
ps	-10.8546
▁cittadinanza	-10.8552
▁aspettative	-10.8552
▁segnatamente	-10.8553
▁attimo	-10.8554
den	-10.8566
▁odierna	-10.8566
▁debbo	-10.8567
▁debolezza	-10.8567
▁determinare	-10.8567
istituto	-10.8569
▁stor	-10.8572
lare	-10.8573
▁ix	-10.8574
nati	-10.8575
ld	-10.8576
▁coinvolgimento	-10.8577
▁w	-10.8584
lato	-10.8585
▁pie	-10.859
▁commenti	-10.8591
▁passeggeri	-10.8591
▁ripercussioni	-10.8591
rt	-10.8591
▁puglia	-10.8593
▁pesanti	-10.8593
▁forni	-10.8596
▁cro	-10.8596
car	-10.8601
▁sovvenzioni	-10.8604
▁zucchero	-10.8604
▁contraddizione	-10.8604
nio	-10.8611
▁coro	-10.8612
▁maestri	-10.8612
▁lottare	-10.8613
▁circolo	-10.8619
▁pieni	-10.8628
▁elegante	-10.8631
tezza	-10.8631
esecuzione	-10.8635
▁ami	-10.8642
▁oramai	-10.8643
▁dona	-10.8644
unt	-10.865
▁fissato	-10.8654
▁respinto	-10.8656
▁ambedue	-10.8657
▁banane	-10.8657
▁adeguate	-10.8657
▁benedetto	-10.8659
▁geneticamente	-10.866
cc	-10.8663
▁presentano	-10.8667
ir	-10.8668
▁cadde	-10.867
▁bimba	-10.8671
▁anziché	-10.8672
▁prosegue	-10.8674
▁specchio	-10.8677
▁americana	-10.8678
▁vela	-10.8682
▁avuta	-10.8683
▁talun	-10.8684
ngu	-10.8684
rei	-10.8684
▁cristiana	-10.8686
▁amica	-10.8688
rd	-10.8695
▁coinvolti	-10.8696
▁trattative	-10.8697
03	-10.8698
▁zu	-10.8711
▁pubblicata	-10.8712
▁stabile	-10.8712
▁scarica	-10.8715
▁parlano	-10.8717
atto	-10.8721
▁quinta	-10.8722
▁verona	-10.8724
ulteriore	-10.8728
▁parli	-10.8728
▁capitoli	-10.8728
▁piange	-10.8731
▁fredda	-10.8731
▁obbliga	-10.8733
▁chiedendo	-10.8734
▁popolari	-10.8736
▁inde	-10.8736
▁attento	-10.8737
▁avanzata	-10.874
▁grato	-10.8741
▁villani	-10.8743
rbo	-10.8744
▁falso	-10.8749
▁geografo	-10.8749
▁elevati	-10.8751
▁quadri	-10.8751
▁milosevic	-10.8763
▁sottile	-10.8763
▁farebbe	-10.8764
▁abbandonato	-10.8769
elaborazione	-10.8771
sc	-10.8772
▁franchi	-10.8776
▁raccolti	-10.8776
▁fan	-10.878
▁danza	-10.878
▁combatte	-10.8783
▁marca	-10.8788
▁ravenna	-10.879
▁clemente	-10.879
▁vendite	-10.8795
▁finisce	-10.8795
▁partecipa	-10.8796
▁complessa	-10.8803
▁globalizzazione	-10.8803
▁povere	-10.8804
▁inviare	-10.8805
▁riporta	-10.8806
▁formulazione	-10.8807
agenzia	-10.8808
▁affretta	-10.8808
offerta	-10.8809
▁permetta	-10.881
▁nozze	-10.8811
▁unita	-10.8812
▁menti	-10.8814
▁deficit	-10.8817
▁aerei	-10.882
impiego	-10.8821
▁reputa	-10.8827
▁prezioso	-10.883
▁intra	-10.8832
esigenza	-10.8835
ncia	-10.8836
▁collaborare	-10.8837
▁veni	-10.8841
▁trasforma	-10.8849
▁godere	-10.885
▁elettori	-10.8851
▁gesti	-10.8852
▁armonizzazione	-10.8855
▁livorno	-10.8857
dor	-10.8859
▁aspettiamo	-10.8862
▁familiari	-10.8863
▁persia	-10.8876
▁rappresentanza	-10.8879
▁danimarca	-10.8884
▁ritmo	-10.8884
▁diana	-10.8884
bor	-10.8885
▁perduta	-10.8886
▁asse	-10.8887
▁lieti	-10.8887
arco	-10.8889
ph	-10.8894
▁raccontare	-10.8894
▁tranne	-10.8897
▁nascere	-10.8897
▁rocca	-10.8903
▁intesa	-10.8906
▁mica	-10.8907
fer	-10.8908
▁morali	-10.8909
▁aloise	-10.8911
▁austriaca	-10.8915
letto	-10.8917
▁periodi	-10.8919
▁basato	-10.892
▁eseguire	-10.8922
▁bce	-10.8924
▁racconti	-10.8924
ler	-10.8927
▁trascina	-10.8931
▁sapevo	-10.8938
▁stri	-10.894
▁padroni	-10.8941
▁preda	-10.8943
▁misero	-10.8951
▁leggermente	-10.8952
▁singolare	-10.8952
▁foreste	-10.8953
ger	-10.8954
espressione	-10.8957
▁bacia	-10.8959
▁trovata	-10.896
▁ferito	-10.8961
▁intellettuale	-10.8965
▁pioggia	-10.8966
▁creature	-10.8967
▁precisamente	-10.8975
▁imposto	-10.8979
▁tortura	-10.898
▁contraria	-10.898
▁corda	-10.8983
cum	-10.8991
▁costituzionale	-10.8993
▁cercano	-10.8994
rro	-10.8994
eh	-10.8996
▁scappa	-10.8998
▁concernenti	-10.8999
▁cera	-10.9001
▁visite	-10.9001
▁eserciti	-10.9003
té	-10.9007
▁ringraziamento	-10.9008
▁considerati	-10.9008
mpa	-10.9009
▁riguardante	-10.9017
▁istituti	-10.902
▁bimbi	-10.9021
▁isola	-10.9029
▁valere	-10.903
▁invidia	-10.9036
▁metteva	-10.9038
mm	-10.9039
▁armati	-10.904
▁sesto	-10.9045
▁chilometri	-10.9047
hanno	-10.9049
▁vivamente	-10.9051
▁bru	-10.9055
▁infelice	-10.9058
▁richiedono	-10.9061
▁affetti	-10.9061
▁pour	-10.9068
▁soci	-10.9074
▁conviene	-10.9076
▁riflette	-10.908
▁interpretazione	-10.9084
▁omc	-10.9088
▁cellule	-10.9089
▁telefono	-10.9089
▁vescovi	-10.9089
▁cosiddetto	-10.909
▁manifestazioni	-10.9092
▁dicevano	-10.9092
▁au	-10.9099
▁fili	-10.91
▁motivazione	-10.9103
▁canale	-10.9104
▁ospita	-10.9108
▁urgenza	-10.911
▁nacque	-10.9112
▁diventata	-10.9115
▁amava	-10.9116
▁svizzera	-10.9116
ko	-10.9117
▁veduta	-10.9117
▁destinate	-10.9121
rbi	-10.9124
umanità	-10.9124
ìo	-10.9126
▁stabili	-10.9127
▁definita	-10.9127
▁tarda	-10.913
teristituzionale	-10.913
▁importo	-10.9143
▁rurali	-10.9144
▁resti	-10.9144
▁2017	-10.9146
ese	-10.9148
▁piatto	-10.9151
▁spiegazione	-10.9153
▁wa	-10.9155
▁espressi	-10.9157
▁eccellenza	-10.9159
▁meriti	-10.9172
▁500	-10.9172
▁firmato	-10.9173
▁vous	-10.9176
▁franco	-10.9176
▁capisce	-10.9177
ffo	-10.9177
▁disabili	-10.9184
▁scienziati	-10.9188
▁pesci	-10.9197
▁elaborato	-10.9197
▁conosci	-10.9198
▁congiura	-10.9199
ismo	-10.92
▁composta	-10.92
▁elettronico	-10.9201
▁classifica	-10.9203
▁espressamente	-10.9206
▁fargli	-10.9208
▁riesco	-10.9209
▁interroga	-10.921
the	-10.921
▁religioso	-10.9214
▁tonnellate	-10.9214
▁capriola	-10.9214
▁indirizzo	-10.9218
ula	-10.9219
▁occupato	-10.9223
▁lasciamo	-10.9225
▁intraprendere	-10.9228
▁ugualmente	-10.9228
▁5,	-10.9231
▁successi	-10.9233
cer	-10.9233
▁supera	-10.9233
▁gitta	-10.9238
▁inizi	-10.9241
▁fallimento	-10.9243
▁doc	-10.9244
▁federale	-10.9244
▁adopera	-10.9247
lina	-10.9249
elli	-10.9251
ua	-10.9252
isti	-10.9255
▁moderno	-10.9256
01	-10.9264
▁cinquecento	-10.9266
▁strappa	-10.9266
▁prae	-10.9268
▁usi	-10.9276
ui	-10.9284
▁santer	-10.9284
▁mistero	-10.9288
▁avrete	-10.9298
▁rito	-10.93
▁economie	-10.9301
▁segnali	-10.9302
▁rivolgere	-10.9303
▁xi	-10.9303
ona	-10.9305
▁sessuale	-10.9312
inter	-10.9324
▁pratico	-10.9329
cchio	-10.9331
ó	-10.9332
▁educazione	-10.9333
▁cortesia	-10.9336
▁tono	-10.934
▁facili	-10.9342
▁nutri	-10.9343
mb	-10.9351
▁legame	-10.9352
21	-10.9353
▁esclusi	-10.9353
▁portando	-10.9353
nelli	-10.9353
rat	-10.9354
▁recupero	-10.9356
▁negozi	-10.9362
▁bellissimo	-10.9371
▁como	-10.9373
▁genovesi	-10.9383
▁alfonso	-10.9383
▁fisico	-10.9385
▁spedizione	-10.9386
▁dimanda	-10.9387
▁team	-10.9397
▁palermo	-10.9397
▁tommaso	-10.9397
▁adulti	-10.9397
▁esercita	-10.9397
▁uccelli	-10.9399
▁trasporta	-10.9399
▁uguali	-10.94
▁sar	-10.9402
▁minor	-10.9403
uni	-10.9403
sp	-10.9409
lis	-10.9411
▁milizie	-10.9411
▁cifra	-10.9413
▁beve	-10.9417
▁papi	-10.9419
▁merc	-10.942
▁gerusalemme	-10.9426
▁corrispondenza	-10.9427
▁ordinato	-10.943
▁varia	-10.943
▁auspica	-10.9433
▁private	-10.9434
cla	-10.9437
▁bacio	-10.9444
▁omaggio	-10.9448
wi	-10.9449
▁accolgo	-10.9454
▁eventualmente	-10.9454
▁personalità	-10.9459
▁dovessero	-10.9461
▁accento	-10.9461
unità	-10.9463
▁ordina	-10.9465
▁modificato	-10.9468
▁riflessioni	-10.9469
▁volumi	-10.9469
▁massime	-10.9469
▁tristi	-10.9471
▁interessato	-10.9472
▁avvenne	-10.9474
▁togliere	-10.9477
▁farvi	-10.9479
▁eccita	-10.948
▁maschera	-10.9483
▁lunghezza	-10.9485
▁micro	-10.9487
▁sedia	-10.9489
▁pericolosi	-10.9491
sen	-10.9495
▁sic	-10.9495
▁segreti	-10.9497
▁quartiere	-10.9501
▁ritira	-10.9503
▁pil	-10.9503
▁riusciremo	-10.9504
cto	-10.9507
ndoci	-10.9512
▁argento	-10.9519
▁1993	-10.9526
▁denari	-10.953
estero	-10.953
▁imperciocch	-10.9532
▁urbano	-10.9533
▁macchia	-10.954
▁elettrica	-10.954
▁parziale	-10.954
▁pericolosa	-10.9545
▁minimi	-10.9545
esi	-10.955
▁sanitaria	-10.9551
▁democratiche	-10.9555
▁ostacolo	-10.9556
▁80	-10.9557
▁divisa	-10.9559
▁consigliere	-10.9559
▁cessa	-10.9561
▁mantova	-10.9563
▁gre	-10.9567
▁attacca	-10.9569
▁sorveglianza	-10.957
▁color	-10.957
▁adozione	-10.9572
ane	-10.9577
onda	-10.9579
▁guardi	-10.9579
▁alte	-10.9583
▁silvio	-10.9584
▁dotazione	-10.9584
▁miglioramenti	-10.9585
▁stringe	-10.9585
▁incomincia	-10.9588
tare	-10.959
▁2005	-10.959
▁tieni	-10.9597
▁biglietti	-10.9598
▁clausola	-10.9598
▁costantinopoli	-10.9598
▁minacce	-10.9599
▁gamba	-10.9599
nci	-10.9603
▁esito	-10.9607
▁cortese	-10.9608
▁colloqui	-10.9609
▁segnalare	-10.9609
▁colonne	-10.9613
▁riveste	-10.9615
▁intendono	-10.9616
▁2003	-10.9618
▁turno	-10.962
▁alternativa	-10.9621
▁vederlo	-10.9627
giu	-10.9627
▁pagato	-10.9627
▁vigilanza	-10.9628
uro	-10.9629
▁2016	-10.9629
▁impulso	-10.9629
uem	-10.9631
▁velocemente	-10.9635
mia	-10.964
▁catastrofe	-10.9642
▁assistito	-10.9642
▁presero	-10.9644
▁scritte	-10.9645
▁radice	-10.9645
▁ritenere	-10.9646
▁incidente	-10.9646
▁frequenti	-10.9647
▁penetra	-10.9647
▁separa	-10.9651
spa	-10.9652
▁fasi	-10.9657
▁avvocato	-10.9659
▁fol	-10.966
▁riescono	-10.9663
elenco	-10.9664
▁talora	-10.9668
rs	-10.9684
▁medica	-10.9686
▁petrolio	-10.9687
bre	-10.9688
▁appuntamento	-10.9688
▁applicazioni	-10.9689
▁tranquilla	-10.9695
▁impiego	-10.9696
▁costruito	-10.9696
▁evidenzia	-10.9697
ux	-10.9699
▁uccidere	-10.97
▁cruciale	-10.9701
▁domenico	-10.9701
▁sdegno	-10.9701
▁stabilisce	-10.9702
▁trionfo	-10.9702
▁russa	-10.9707
▁efficienza	-10.9708
▁dionisio	-10.9715
▁osservato	-10.9719
▁crudele	-10.9722
▁esige	-10.9722
▁qualificata	-10.9724
▁stette	-10.9729
▁zia	-10.973
▁striscia	-10.973
▁pietre	-10.973
▁comme	-10.9733
▁segui	-10.974
▁olio	-10.974
▁grandissimo	-10.9741
sina	-10.9743
▁regolarmente	-10.9745
▁auspicabile	-10.9746
▁assiste	-10.9749
▁rammenta	-10.975
▁monarchia	-10.9751
▁tradimento	-10.9751
▁applicata	-10.9752
▁sintesi	-10.9761
▁trasmettere	-10.9763
▁prato	-10.9763
▁rallegra	-10.9764
▁intento	-10.9764
▁ballo	-10.9765
▁confermato	-10.9766
▁associati	-10.9769
▁avvi	-10.9772
▁avvenga	-10.9774
▁cinema	-10.9775
▁peggiore	-10.9775
▁autorizzazione	-10.9784
▁ossa	-10.9787
▁energetico	-10.9789
▁pittore	-10.9789
▁sudafrica	-10.979
▁disgrazia	-10.979
▁accenna	-10.9796
▁udi	-10.9797
▁precipita	-10.98
07	-10.98
▁dé	-10.9803
▁formale	-10.9803
▁positive	-10.9804
▁ricchezze	-10.9804
▁regimi	-10.9806
▁cedere	-10.9808
▁domando	-10.9809
▁organismo	-10.9809
▁pareti	-10.981
▁2.	-10.9811
▁comprare	-10.9812
▁spendere	-10.9816
▁legislative	-10.9819
▁disposta	-10.9819
▁rinunciare	-10.9819
▁saluti	-10.9819
▁coppia	-10.982
▁pericolose	-10.982
▁rilevanza	-10.982
▁animi	-10.9821
vansi	-10.9824
č	-10.9824
▁logico	-10.9825
▁consola	-10.9826
▁ribelli	-10.9831
▁circostanza	-10.9833
▁muore	-10.9834
▁perseguire	-10.9835
equilibrio	-10.9837
▁rispondeva	-10.9837
▁diviso	-10.9839
▁dama	-10.984
▁studia	-10.9841
▁annuncio	-10.9845
▁attribuire	-10.9846
▁spiriti	-10.9849
▁assi	-10.9862
▁consulta	-10.9862
▁divino	-10.9862
▁tengono	-10.9863
▁toccare	-10.9864
▁monetario	-10.9865
▁suoni	-10.9866
▁veneto	-10.9868
▁realizzati	-10.9871
▁dinamica	-10.9878
▁descrizione	-10.988
esb	-10.9881
▁sana	-10.9884
▁pacifica	-10.9885
▁potersi	-10.9887
▁ingresso	-10.9887
▁precisare	-10.989
▁evita	-10.9891
▁farle	-10.9893
▁alzò	-10.9893
▁cavalleria	-10.9894
les	-10.9895
ble	-10.9895
▁archivio	-10.9897
▁trans	-10.9898
▁superato	-10.9899
universo	-10.99
▁parecchie	-10.9902
▁hoc	-10.9905
▁seguì	-10.9908
cino	-10.991
▁compresa	-10.991
▁disperazione	-10.991
▁prossime	-10.9912
▁spicca	-10.9919
▁lamenta	-10.9919
▁mono	-10.9922
sì	-10.9922
▁comprese	-10.9922
▁profonde	-10.9923
▁club	-10.9924
tene	-10.9926
▁tasca	-10.9928
coli	-10.993
▁giornate	-10.9938
▁raggiungimento	-10.9938
letti	-10.9939
▁contenti	-10.9939
▁cittá	-10.9939
▁potea	-10.9943
immigrazione	-10.9945
▁accorge	-10.9949
▁appartiene	-10.9953
▁carenze	-10.9954
▁insegnanti	-10.9961
▁formare	-10.9964
▁convenzioni	-10.9969
▁disegna	-10.997
▁lungamente	-10.9973
fini	-10.9973
vvi	-10.9974
▁sensibile	-10.9975
▁successiva	-10.9977
▁aggiunse	-10.9978
▁informare	-10.9979
nate	-10.998
ol	-10.998
▁confermare	-10.9983
▁kyoto	-10.9983
▁lodovico	-10.9983
▁laggiù	-10.9983
▁affermazioni	-10.999
▁fondata	-10.9991
▁at	-10.9991
mbe	-10.9994
▁facciano	-10.9999
▁nol	-10.9999
▁lanciare	-11
▁caduto	-11.0001
▁registrazione	-11.0002
▁decine	-11.0006
▁brescia	-11.0009
▁incontrare	-11.001
▁design	-11.001
▁gar	-11.0012
▁piacevole	-11.0013
▁marocco	-11.0029
▁amministrative	-11.0029
▁insufficiente	-11.003
▁complessivo	-11.0031
▁siti	-11.0031
▁qu	-11.0032
▁ap	-11.0034
ide	-11.0042
▁sollecita	-11.0042
▁1992	-11.0044
▁xii	-11.0046
▁2006	-11.0048
▁coste	-11.0048
inchiesta	-11.005
mor	-11.0051
▁temere	-11.0055
▁positivamente	-11.0057
▁continuò	-11.0059
▁occuparsi	-11.006
▁calda	-11.0061
▁preferito	-11.0064
▁esalta	-11.0065
estate	-11.007
▁venite	-11.0074
wa	-11.0075
ley	-11.0079
▁distingue	-11.0083
▁scandalo	-11.0085
▁niun	-11.0085
amp	-11.0088
▁decimo	-11.009
▁prestazioni	-11.0093
▁frasi	-11.0098
▁ispira	-11.0103
▁laurea	-11.0104
lità	-11.0105
▁matematica	-11.0105
▁vestiti	-11.0109
alba	-11.011
ingresso	-11.0111
▁legittima	-11.0112
▁colpevole	-11.012
▁concezione	-11.012
▁amministrazioni	-11.0121
▁mosca	-11.0122
ten	-11.0124
▁trovate	-11.0128
▁rilevato	-11.0128
▁feroce	-11.013
▁amante	-11.0131
▁monitoraggio	-11.0135
▁uniforme	-11.0136
▁2002	-11.0139
▁sembrare	-11.014
▁dolcezza	-11.0141
rina	-11.0148
▁pensavo	-11.015
▁sospetti	-11.0151
▁edifici	-11.0154
▁severi	-11.0154
▁conoscono	-11.0154
▁attacco	-11.0158
▁addietro	-11.0166
▁fresco	-11.0167
▁soddisfatti	-11.0168
▁supremo	-11.0168
▁scal	-11.0173
=	-11.0173
▁giudiziaria	-11.0173
use	-11.0176
▁messaggi	-11.0179
▁mescola	-11.018
▁fanciullo	-11.0181
▁disponiamo	-11.0182
▁consuma	-11.0183
▁giornalisti	-11.0183
▁baci	-11.0184
mica	-11.0185
▁ter	-11.0186
▁ki	-11.0187
▁angeli	-11.0189
▁negare	-11.0191
▁sviluppato	-11.0191
por	-11.0195
▁irlandese	-11.0197
▁volge	-11.02
▁colloquio	-11.0203
▁fre	-11.0205
▁soffrire	-11.0206
▁disputa	-11.0212
▁vittorio	-11.0215
▁cela	-11.0218
▁trascura	-11.0221
fr	-11.0222
▁attivamente	-11.0226
▁inferiori	-11.0228
▁federigo	-11.0228
▁canzoni	-11.0228
▁emozioni	-11.0229
▁guasta	-11.0231
▁45	-11.0237
▁attraversa	-11.0238
▁avverti	-11.024
▁sessanta	-11.0241
▁ruota	-11.0243
vis	-11.0244
▁suddetto	-11.0244
▁borgo	-11.0246
▁vanta	-11.025
▁liberazione	-11.0251
▁nominato	-11.0251
▁fuggire	-11.0253
▁estendere	-11.0258
ntur	-11.026
eccellente	-11.0266
▁annunciato	-11.0271
ggiare	-11.0273
▁bla	-11.0273
▁connessi	-11.0273
▁negativi	-11.0274
▁presupposto	-11.0274
▁chiusi	-11.0274
▁troppi	-11.0275
▁dici	-11.0277
ab	-11.0277
regolamentazione	-11.0289
▁diventano	-11.029
▁tessuto	-11.029
▁fida	-11.029
▁arco	-11.0294
▁cuori	-11.0294
nici	-11.03
▁tour	-11.0303
tosi	-11.0303
▁esb	-11.0305
▁ritratto	-11.0306
▁conversazione	-11.0306
▁sottoposto	-11.0308
▁spalla	-11.0309
▁esistere	-11.0313
▁attenta	-11.0319
▁dargli	-11.0319
▁bur	-11.0321
▁intelligente	-11.0321
▁vicende	-11.0321
▁sp	-11.0323
▁tornando	-11.0333
▁definitivamente	-11.0333
▁comunicato	-11.0336
▁pazzo	-11.0339
▁definitivo	-11.034
▁rin	-11.0344
▁distinguere	-11.0344
▁creando	-11.035
▁rimaneva	-11.0352
▁temperatura	-11.0353
▁desta	-11.0355
▁curva	-11.0357
▁foresta	-11.0358
▁pra	-11.036
tter	-11.0361
im	-11.0361
▁cinese	-11.0368
▁splendida	-11.0368
▁salerno	-11.037
▁intelligenza	-11.0371
▁corti	-11.0372
▁ordinò	-11.0384
▁attacchi	-11.0385
▁registra	-11.0388
▁erasi	-11.0388
▁individuali	-11.0392
▁evidenziato	-11.0394
▁modificati	-11.0394
▁ebbi	-11.0396
▁300	-11.0397
▁dibattiti	-11.0399
▁fantastico	-11.0399
▁coperto	-11.0399
▁diventi	-11.04
▁celebra	-11.04
▁legali	-11.04
▁aspettando	-11.0401
dica	-11.0403
▁apertamente	-11.0403
▁tro	-11.0414
▁risolto	-11.0415
▁pen	-11.0415
▁revoca	-11.042
▁tele	-11.0423
▁nino	-11.0424
▁annunzia	-11.0429
▁privilegi	-11.043
▁assunta	-11.0431
▁battaglie	-11.0431
▁convento	-11.0433
▁estremo	-11.0436
▁utilizzate	-11.044
▁arresta	-11.0441
▁condotti	-11.0443
▁richiedere	-11.0443
▁sentiamo	-11.0444
▁definiti	-11.0445
▁stradale	-11.0446
▁scientifici	-11.0447
▁riguardi	-11.0447
▁sostituzione	-11.0447
▁diedero	-11.0449
▁provocato	-11.0456
nella	-11.0458
▁dolori	-11.0459
▁12.00.	-11.0461
▁lode	-11.0462
▁2004	-11.0465
▁nascosto	-11.0466
▁credono	-11.047
▁scorta	-11.0471
▁prendono	-11.0474
▁us	-11.0475
uda	-11.0475
06	-11.0476
▁altezza	-11.0476
▁contempla	-11.0477
▁dichiarare	-11.0478
17	-11.0478
▁meridionale	-11.0478
▁solitudine	-11.0479
stante	-11.048
▁gamma	-11.048
▁rinnova	-11.048
▁ignora	-11.0492
▁salto	-11.0494
▁trasmissione	-11.0494
▁crimine	-11.0494
▁uova	-11.0494
▁occupazionale	-11.0495
▁consideriamo	-11.0495
▁abita	-11.0498
ap	-11.0501
dem	-11.0501
▁z	-11.0503
cente	-11.0504
▁includere	-11.0505
▁gratitudine	-11.0512
▁incremento	-11.0513
▁extra	-11.0513
▁boschi	-11.0516
▁lascio	-11.0518
▁pati	-11.0519
▁fiamme	-11.0524
▁lasciano	-11.0524
▁maddalena	-11.0526
▁rivista	-11.0527
▁operazione	-11.0528
▁arrivò	-11.0528
▁rimette	-11.0531
▁muovere	-11.0536
▁riuscì	-11.0542
▁averne	-11.0544
▁decisivo	-11.0544
cta	-11.0545
▁tristezza	-11.0546
▁offrono	-11.0547
▁caratterizza	-11.0549
▁hi	-11.0554
anche	-11.0554
▁religiosi	-11.0558
▁sollevare	-11.0562
glielo	-11.0563
▁conosceva	-11.0565
▁colloca	-11.0566
▁dans	-11.0567
▁regni	-11.0568
▁lasciata	-11.0569
▁mondiali	-11.057
assenza	-11.0572
▁fathma	-11.0574
▁settentrionale	-11.0574
▁finalità	-11.0576
▁padrona	-11.0579
▁abbi	-11.0581
▁trasformare	-11.0584
▁generi	-11.06
tino	-11.0605
▁contadini	-11.0606
gola	-11.0606
▁buonarroti	-11.0607
▁scorre	-11.0608
▁mancare	-11.0614
logo	-11.0617
rj	-11.0619
▁stanca	-11.0619
▁helsinki	-11.0622
▁ribadito	-11.0622
▁cavalca	-11.0622
▁tendenze	-11.0624
▁terreni	-11.0625
nz	-11.0627
▁geni	-11.0628
▁comandante	-11.0628
▁avanzate	-11.0629
▁attori	-11.063
stanti	-11.0633
▁raccolte	-11.0638
▁rammarico	-11.0638
▁campione	-11.064
▁concentrazione	-11.0641
▁elevata	-11.0649
▁giuoco	-11.0654
▁lusso	-11.0656
ene	-11.0659
▁differenzia	-11.066
innovazione	-11.0661
▁alfredo	-11.0663
▁peccati	-11.0663
▁giove	-11.0664
▁coinvolgere	-11.0666
▁orecchie	-11.0667
▁atte	-11.0668
▁sistematica	-11.0669
▁concittadini	-11.0671
▁pugno	-11.0672
nghi	-11.0674
▁registro	-11.0674
▁adeguatamente	-11.068
▁aggrava	-11.0683
git	-11.0683
▁costruttivo	-11.0687
▁palestinesi	-11.0687
▁sospesa	-11.0687
cle	-11.0687
▁abiti	-11.0688
▁divertente	-11.0688
▁orgoglio	-11.0689
▁china	-11.069
▁temporale	-11.0691
esempio	-11.0694
▁veleno	-11.0698
▁more	-11.0699
▁bottega	-11.0703
▁territoriale	-11.0704
▁metter	-11.0707
▁apprezza	-11.071
▁bona	-11.0722
ità	-11.0722
almente	-11.0725
▁progressiva	-11.0726
▁attivi	-11.0727
▁istruzioni	-11.073
ite	-11.0731
04	-11.0732
▁verrebbe	-11.0733
▁porge	-11.0733
▁barone	-11.0734
fra	-11.0735
▁vacanza	-11.0735
▁terribili	-11.0736
▁fermezza	-11.0736
arsi	-11.0739
▁determinante	-11.0739
▁investimento	-11.0741
▁dimmi	-11.0741
▁piatti	-11.0742
efficienza	-11.0743
▁circonda	-11.0746
▁adatto	-11.0746
▁descrive	-11.0751
▁memorie	-11.0752
▁occorrono	-11.0754
rici	-11.0754
▁battista	-11.0755
▁importazioni	-11.0758
▁paesaggio	-11.0762
▁rica	-11.0765
▁analizzare	-11.0766
▁ira	-11.0767
▁passano	-11.0768
▁televisione	-11.0768
▁meco	-11.0771
rta	-11.0781
dro	-11.0784
▁mezzogiorno	-11.0785
▁2015	-11.0786
▁comodo	-11.0786
del	-11.0789
gano	-11.079
▁spoglia	-11.0793
▁vadano	-11.0794
▁protegge	-11.0794
▁6,	-11.0799
▁spinta	-11.0802
nco	-11.0808
ira	-11.0813
▁attesta	-11.0816
▁multinazionali	-11.0817
▁polonia	-11.0817
▁approvati	-11.0819
▁giustificare	-11.082
cus	-11.0821
▁mobile	-11.0826
▁gui	-11.0826
▁feriti	-11.0828
▁capua	-11.0829
80	-11.083
▁aspettava	-11.0832
▁redditi	-11.0833
▁cattolica	-11.0834
▁condividiamo	-11.0834
▁aderire	-11.0834
▁pensioni	-11.0835
▁abilitante	-11.0836
▁tribunali	-11.0836
ude	-11.0838
bis	-11.084
dri	-11.0842
▁mortale	-11.0844
nale	-11.0846
▁realizza	-11.0847
▁commento	-11.0848
▁velo	-11.0848
▁sasso	-11.0852
gh	-11.0852
▁quotidiana	-11.0861
▁farmaci	-11.0863
orario	-11.0863
▁abito	-11.0863
scio	-11.0866
▁bor	-11.0866
▁religiose	-11.0866
▁singole	-11.0867
▁precise	-11.0868
▁puo	-11.0869
▁membra	-11.0872
▁passate	-11.0872
▁enti	-11.0873
▁arrivano	-11.0878
▁vota	-11.0879
▁informati	-11.0881
▁opposto	-11.0885
▁estremi	-11.0885
gen	-11.0886
▁sovrano	-11.0887
▁agenti	-11.0889
▁doveri	-11.0893
▁dispetto	-11.0895
▁guardie	-11.0896
asilo	-11.0897
▁invitato	-11.0898
▁custodi	-11.0903
▁albero	-11.0905
▁invano	-11.0905
▁dedica	-11.0905
▁leonardo	-11.0906
▁regna	-11.0907
▁transito	-11.0909
▁appariva	-11.0915
▁copertura	-11.0916
▁rom	-11.0916
▁respingere	-11.0917
▁usati	-11.0919
▁bestia	-11.092
ssu	-11.0921
▁provoca	-11.0921
▁lanciato	-11.0925
▁pilota	-11.0933
▁volontario	-11.0935
▁semplicità	-11.0937
▁marchio	-11.0945
▁rappresentata	-11.0945
▁interrompe	-11.0947
▁consentono	-11.0949
▁filosofo	-11.0949
▁impero	-11.095
▁sudditi	-11.095
▁ragiona	-11.095
▁doganale	-11.0951
ella	-11.0952
ngi	-11.0952
▁von	-11.0955
▁pregio	-11.0959
▁timori	-11.0961
▁magnifico	-11.0967
▁accennato	-11.0968
ola	-11.0969
cina	-11.0972
tano	-11.0979
ele	-11.098
▁auguriamo	-11.0982
▁auspichiamo	-11.0983
▁biglietto	-11.0983
▁originali	-11.0983
▁bagna	-11.0984
▁sha	-11.0989
▁gentili	-11.0991
▁gravemente	-11.0992
dit	-11.0992
▁problematiche	-11.0993
▁compassione	-11.0996
▁tace	-11.0998
▁contenere	-11.0999
▁troppe	-11.1
▁spiegato	-11.1004
▁viviamo	-11.1008
▁ragion	-11.101
▁veda	-11.1013
▁replica	-11.1014
▁schema	-11.1014
▁illumina	-11.1014
▁immigrati	-11.1016
▁droghe	-11.1016
▁cotesta	-11.1016
▁difese	-11.1017
▁stretti	-11.1018
▁gustavo	-11.1018
▁seguono	-11.1019
▁salita	-11.1022
▁professionisti	-11.1024
▁equivale	-11.1025
▁desiderano	-11.1025
▁operano	-11.1026
▁avvisa	-11.1026
▁riduce	-11.1027
▁nascondere	-11.1028
▁pensano	-11.1029
▁deroga	-11.1033
▁pareri	-11.1034
▁convincere	-11.1037
▁costringe	-11.104
olio	-11.1041
▁autonomia	-11.1047
▁legittimo	-11.1049
▁tenebre	-11.105
▁doge	-11.1058
pia	-11.1064
▁ricevuta	-11.1066
▁lupo	-11.1067
▁provinciale	-11.1068
▁offri	-11.1073
scia	-11.1078
▁compiace	-11.1078
atteggiamento	-11.108
gue	-11.1083
▁radici	-11.1086
gui	-11.109
▁muoversi	-11.1098
▁ferrovie	-11.11
▁rientrare	-11.1101
▁2019	-11.1101
▁avvia	-11.1103
▁preceduto	-11.1103
▁insiste	-11.1113
▁john	-11.1117
ü	-11.1117
▁motori	-11.112
▁bicchiere	-11.112
▁colazione	-11.1122
▁cig	-11.1124
altezza	-11.1126
▁passiamo	-11.1132
cor	-11.1132
▁svolgono	-11.1134
▁girolamo	-11.1134
▁petizioni	-11.1134
▁altera	-11.1134
▁esaminato	-11.1137
▁utilizzata	-11.1143
verso	-11.1144
▁contribuenti	-11.1151
▁occidentali	-11.1151
▁preliminare	-11.1151
▁guardiamo	-11.1159
▁ger	-11.1166
▁impegnato	-11.1166
▁rio	-11.1166
▁alleanza	-11.1167
▁accolti	-11.1168
▁disoccupati	-11.1168
▁scientifiche	-11.1168
▁schiavi	-11.1168
▁sposta	-11.1168
▁mostrava	-11.1168
▁dipendenza	-11.1171
▁sorprendente	-11.1171
96	-11.1172
▁integrare	-11.1179
▁leggenda	-11.118
br	-11.1181
▁sacerdoti	-11.1185
▁chiamò	-11.1185
▁conforto	-11.1185
▁troppa	-11.1185
▁carbone	-11.1187
▁considerate	-11.1189
▁accoglienza	-11.119
▁scar	-11.1191
▁confronta	-11.1191
09	-11.1191
ara	-11.1192
▁lodi	-11.1192
▁occupati	-11.1194
▁artista	-11.1195
▁delibera	-11.1197
▁1999.	-11.1198
▁obbligatoria	-11.1199
▁notevolmente	-11.1202
▁proponiamo	-11.1202
▁accuse	-11.1204
▁mucca	-11.1204
net	-11.1208
logia	-11.1217
▁approfondire	-11.1218
▁studente	-11.1218
▁dispositivo	-11.1219
▁residenza	-11.1219
▁immobile	-11.122
▁mostro	-11.1221
▁sinceramente	-11.1223
▁rifugio	-11.1224
▁dubita	-11.1227
▁impe	-11.1235
▁prosperità	-11.1236
▁bisognerebbe	-11.1237
▁umanità	-11.1244
▁agenzia	-11.1247
▁superbia	-11.1247
▁chiedeva	-11.1248
rba	-11.125
▁diverti	-11.125
uli	-11.1251
ampia	-11.1251
nsa	-11.1253
▁lento	-11.1257
▁rame	-11.126
▁risolve	-11.126
▁catastrofi	-11.127
▁convegno	-11.127
geni	-11.1271
▁percorsi	-11.1272
dipendentemente	-11.1274
rone	-11.1275
▁miss	-11.1276
urgenza	-11.1279
uccio	-11.1281
▁sacrifica	-11.1281
▁tam	-11.1282
-20	-11.1284
▁metta	-11.1285
▁reati	-11.1286
ï	-11.1288
▁tappa	-11.129
▁significativa	-11.129
▁rallegro	-11.1291
▁portate	-11.1291
approccio	-11.1296
▁siate	-11.1297
▁sedi	-11.1297
▁adora	-11.1299
▁somministra	-11.1299
▁distruggere	-11.1302
▁determinata	-11.1303
▁sospensione	-11.1305
▁confida	-11.1306
▁fascia	-11.1307
▁scon	-11.1308
▁udire	-11.1311
▁principessa	-11.1312
▁riferito	-11.1317
▁collegati	-11.1321
▁concessa	-11.1322
▁chiamate	-11.1322
▁rafforza	-11.1322
▁rispetta	-11.1322
▁ridotti	-11.1324
▁mosè	-11.1326
torio	-11.1327
▁armate	-11.1327
▁ista	-11.1334
▁decenni	-11.1336
▁oscura	-11.1339
▁dapprima	-11.1339
▁energetiche	-11.1339
▁investire	-11.1339
▁privo	-11.1342
▁fia	-11.1343
▁correggere	-11.1344
▁cingar	-11.1345
▁senno	-11.1347
▁alpi	-11.1357
▁riciclaggio	-11.1357
tina	-11.1357
▁dovuti	-11.1358
▁commessi	-11.1365
▁colombia	-11.1369
▁ottenuti	-11.1374
▁tariffe	-11.1374
▁britannici	-11.1374
▁amministrativa	-11.1375
▁pretende	-11.138
anzi	-11.1386
▁delicata	-11.1386
▁ur	-11.1391
▁discute	-11.1391
▁scatola	-11.1391
▁austriaco	-11.1396
▁marino	-11.1396
▁attenti	-11.1397
▁castella	-11.14
▁luci	-11.1402
interpretazione	-11.1404
lico	-11.1405
▁washington	-11.1409
▁potenze	-11.1409
▁potevo	-11.1409
▁rimessa	-11.1412
▁arrivata	-11.1416
▁applicate	-11.1417
▁sano	-11.1417
appoggio	-11.1417
+	-11.142
▁david	-11.1421
dere	-11.1421
▁estende	-11.1421
▁afferra	-11.1423
▁annal	-11.1424
▁socio	-11.1424
▁palco	-11.1427
▁consentirà	-11.1427
▁soffermarmi	-11.1427
▁contrastare	-11.1429
▁classico	-11.143
▁equo	-11.1437
▁comitati	-11.1444
▁ambienti	-11.1444
▁onori	-11.1444
▁sorelle	-11.1444
val	-11.1449
cula	-11.1449
▁forum	-11.1451
▁sensibili	-11.1451
▁legami	-11.1455
▁2010	-11.1455
ngono	-11.1456
▁cercava	-11.1456
sal	-11.1458
▁salotto	-11.1461
▁garantisce	-11.1462
▁egualmente	-11.1462
▁semplificazione	-11.1463
▁xiv	-11.1465
▁recarsi	-11.1465
▁cd	-11.1469
ung	-11.1472
▁illustrato	-11.1474
▁piene	-11.1474
▁parete	-11.1476
▁sacerdote	-11.1478
▁famosa	-11.1478
▁crimini	-11.1479
▁secca	-11.1479
▁sottoscritto	-11.1485
▁evidenziare	-11.1487
▁ricordate	-11.1488
ule	-11.1489
▁causato	-11.1493
▁sostengono	-11.1494
▁annuncia	-11.1496
▁governative	-11.1496
▁codici	-11.1498
▁urgenti	-11.1498
▁voli	-11.15
▁impegnarsi	-11.1502
▁perdite	-11.1504
▁bianche	-11.1505
▁negativa	-11.1508
mine	-11.151
▁riempi	-11.1511
▁hu	-11.1511
tione	-11.1513
▁michelangelo	-11.1514
▁considerevole	-11.1514
▁esposti	-11.1514
▁visibile	-11.1515
24	-11.1515
▁russo	-11.1516
tine	-11.1518
azioni	-11.1521
▁spari	-11.1522
▁spedi	-11.1523
▁prigioni	-11.1527
▁accadere	-11.1529
utente	-11.153
▁indispensabili	-11.1531
▁concludo	-11.1531
gie	-11.1532
▁portati	-11.1533
▁render	-11.1534
▁rosse	-11.1539
▁ammira	-11.1546
▁tomba	-11.1546
scano	-11.1547
▁sguardi	-11.1549
acquisto	-11.1553
▁etichettatura	-11.1558
etichettatura	-11.1558
▁porterà	-11.156
otti	-11.156
▁edificio	-11.156
▁improvvisa	-11.1561
ton	-11.1562
▁rientrano	-11.1563
▁medesime	-11.1566
▁congratulazioni	-11.1567
▁tenore	-11.1568
▁tassazione	-11.1572
▁predica	-11.1572
▁spavento	-11.1575
osservazione	-11.1576
▁aut	-11.1578
dice	-11.1581
▁rivolgo	-11.1582
▁martino	-11.1584
▁eziandio	-11.1584
▁ribadisco	-11.1584
▁sostenuta	-11.1584
bbo	-11.1588
▁lasciarono	-11.1588
▁mestiere	-11.1588
▁vetro	-11.1589
▁ramo	-11.1589
▁xvi	-11.1591
lica	-11.1592
▁giura	-11.1593
▁quadrato	-11.1593
zzate	-11.1593
▁regolari	-11.16
▁intendeva	-11.16
ardo	-11.16
▁accolta	-11.1602
▁google	-11.1602
▁istanze	-11.1603
▁profondità	-11.1603
▁chiamiamo	-11.1603
▁disprezzo	-11.1604
▁persuade	-11.1607
▁costituita	-11.1609
▁proroga	-11.1615
▁provvede	-11.1616
▁cata	-11.1617
▁distinti	-11.1618
▁erra	-11.1619
▁raimondo	-11.162
▁ambasciatori	-11.162
▁rima	-11.1621
▁componente	-11.1622
▁canali	-11.1626
▁pian	-11.1626
▁balza	-11.1626
▁austriaci	-11.1627
▁squadre	-11.1627
▁cito	-11.1627
▁falli	-11.1628
▁scambia	-11.163
▁carceri	-11.1636
▁talento	-11.1638
▁illustra	-11.164
▁affermazione	-11.1641
▁regge	-11.1642
▁greca	-11.1643
▁tacere	-11.1643
▁mais	-11.1644
cella	-11.1644
▁bravi	-11.1647
▁intese	-11.1648
▁odia	-11.165
▁mostrano	-11.165
acco	-11.1654
▁mancata	-11.1654
▁ottiene	-11.1655
▁sarai	-11.1655
▁ruba	-11.1656
▁avanzare	-11.1656
▁fresca	-11.1656
▁beneficiari	-11.1657
▁sfera	-11.1658
▁comportamenti	-11.1659
▁risultano	-11.1663
▁care	-11.1663
▁dirige	-11.1664
▁esporre	-11.1665
sum	-11.1669
mone	-11.1671
▁mh	-11.1672
▁intervenuti	-11.1673
▁espressioni	-11.1674
▁santità	-11.1677
▁moltitudine	-11.1679
▁menzionato	-11.1679
▁spinto	-11.1682
▁infra	-11.1684
▁elaborazione	-11.1686
▁decise	-11.1686
▁cuor	-11.1687
▁mostrando	-11.1692
▁pausa	-11.1692
▁generoso	-11.1692
▁serena	-11.1693
▁determina	-11.1695
▁fortunatamente	-11.1695
▁frequenta	-11.1696
▁domini	-11.1705
▁ferita	-11.1708
▁novelle	-11.1709
▁previsioni	-11.1709
▁simpatia	-11.1709
cee	-11.1709
▁fermò	-11.1709
▁contribuisce	-11.1709
▁vincenzo	-11.1709
▁dovrei	-11.171
▁2014	-11.171
▁socialisti	-11.1718
gan	-11.1722
▁credete	-11.1722
▁apprezzamento	-11.173
▁sacri	-11.1732
bar	-11.1733
▁ombre	-11.1733
onardo	-11.1735
▁prestito	-11.1739
▁permettono	-11.1742
▁mm	-11.1742
operazione	-11.1744
▁deplorevole	-11.1745
▁saremmo	-11.1748
▁comp	-11.175
▁regia	-11.1752
▁mossa	-11.1753
indipendenza	-11.1754
▁libere	-11.1754
▁sor	-11.1754
edi	-11.1756
▁effettuato	-11.1759
▁empi	-11.1761
▁fischler	-11.1763
▁equilibrato	-11.1763
▁potrete	-11.1763
▁minoranza	-11.1763
08	-11.1763
▁adeguati	-11.1763
▁rendersi	-11.1764
▁rapidi	-11.1765
▁calcola	-11.1766
▁separazione	-11.1767
▁riservato	-11.1768
▁perdona	-11.1771
▁cantare	-11.1773
▁fiorini	-11.1777
▁levò	-11.1781
▁appartamento	-11.1783
▁cadenza	-11.1784
▁eterna	-11.1784
▁tormento	-11.1785
▁mostri	-11.1786
▁respinge	-11.1787
▁regalo	-11.1789
▁impiegati	-11.179
▁oppone	-11.1793
bilmente	-11.1795
▁realizzata	-11.1798
▁cioccolato	-11.1799
▁scene	-11.18
▁destinazione	-11.18
▁innalza	-11.1801
▁auspico	-11.1802
▁india	-11.1805
▁considero	-11.1805
▁concretamente	-11.1809
▁importi	-11.1814
agi	-11.1814
▁musulmani	-11.1817
▁plebe	-11.1818
▁argomentazioni	-11.1818
▁cel	-11.1819
▁veloci	-11.182
▁onora	-11.1822
▁emergenza	-11.1824
▁creata	-11.1835
nie	-11.1835
▁sentono	-11.1836
▁cominciarono	-11.1837
▁illustre	-11.1839
▁tela	-11.184
▁leggendo	-11.1841
▁nizza	-11.1842
▁mosso	-11.1843
can	-11.1845
▁tar	-11.185
nese	-11.1851
▁sceglie	-11.1852
▁camminare	-11.1853
▁disparità	-11.1853
denti	-11.1858
▁sentir	-11.186
▁furore	-11.1861
▁abbiate	-11.1866
▁rimasero	-11.1869
▁allegato	-11.187
▁reciproco	-11.1872
▁frattanto	-11.1872
▁pasto	-11.1872
▁escludere	-11.1874
▁rispettivi	-11.1875
▁doria	-11.1879
▁accelerare	-11.1882
▁tollera	-11.1886
▁molteplici	-11.1888
▁principato	-11.189
▁costanza	-11.1895
▁intima	-11.1897
accento	-11.19
▁gro	-11.1901
▁torri	-11.1909
▁fer	-11.1909
▁partendo	-11.1909
▁redazione	-11.1909
▁colpisce	-11.191
▁documentazione	-11.1911
▁venendo	-11.1911
▁fiumi	-11.1916
▁link	-11.1916
▁innovazione	-11.1918
erai	-11.192
▁cru	-11.192
▁assegnato	-11.1921
▁fammi	-11.1922
▁impegnata	-11.1923
▁ascolto	-11.1929
▁sabbia	-11.193
ré	-11.1934
rata	-11.1936
▁fuma	-11.1938
▁cattura	-11.1944
â	-11.1945
▁commedia	-11.1946
gga	-11.1946
▁mostrò	-11.1947
▁simboli	-11.1947
▁salve	-11.1949
▁successivi	-11.195
▁archivi	-11.1951
gono	-11.1952
▁soddisfa	-11.1954
▁continue	-11.1957
▁mercoledì	-11.1963
▁eccezioni	-11.1965
▁spu	-11.1966
▁averla	-11.1967
▁estate	-11.1967
▁vuota	-11.1968
▁ringrazia	-11.197
▁torno	-11.1973
▁schiaccia	-11.1977
▁riconosciuta	-11.1982
▁difetti	-11.1982
▁suggerimenti	-11.1983
des	-11.1984
90	-11.1989
▁muri	-11.1992
▁trovavano	-11.1993
▁ritengono	-11.1993
▁ideali	-11.1994
▁soldo	-11.1995
cra	-11.1995
▁immediata	-11.1996
▁sentirsi	-11.1999
▁coperta	-11.2
▁parlò	-11.2001
▁loda	-11.2002
▁castelli	-11.2002
▁eccessivo	-11.2003
▁capite	-11.2003
▁bruno	-11.2003
centi	-11.2005
▁incaricato	-11.2005
▁riferire	-11.2006
▁acciò	-11.2007
▁località	-11.2009
opposizione	-11.201
▁affaccia	-11.2011
esa	-11.2014
▁serietà	-11.2017
▁normali	-11.2017
▁ripreso	-11.2019
▁colpe	-11.2021
essa	-11.2022
▁amanti	-11.2022
▁stabiliti	-11.2024
▁meritano	-11.2027
▁2008	-11.2028
▁geo	-11.2028
▁restitui	-11.2033
▁acquisto	-11.2035
▁monastero	-11.2037
▁eccolo	-11.204
rì	-11.2044
▁cri	-11.2048
app	-11.2051
▁incoraggia	-11.2052
▁rimanda	-11.2054
▁usate	-11.2055
▁febbre	-11.2056
▁ottenne	-11.2056
▁tensione	-11.2056
60	-11.2057
▁aggira	-11.2057
▁continuità	-11.2059
▁adeguamento	-11.206
▁ammoni	-11.2067
▁bara	-11.2073
▁frequenza	-11.2074
geri	-11.2077
▁manifesto	-11.2078
26	-11.2083
▁sussidi	-11.209
▁immobili	-11.2091
▁diploma	-11.2091
▁notifica	-11.2091
▁fiorentino	-11.2093
▁falco	-11.2094
▁istanza	-11.2095
▁2013	-11.2096
▁provvisorio	-11.2096
▁aggiunta	-11.2097
▁vedrà	-11.2098
bro	-11.2099
▁cambi	-11.2107
▁impara	-11.2109
▁dí	-11.211
▁critici	-11.211
▁flessibile	-11.2111
▁quattordici	-11.2111
▁scapito	-11.2111
ena	-11.2112
▁ob	-11.2113
▁2012	-11.2113
▁minime	-11.2113
tera	-11.2114
▁individuo	-11.2115
▁desideriamo	-11.2115
▁rilevanti	-11.2119
▁eventuale	-11.212
▁fanti	-11.2124
▁fallo	-11.2127
▁matura	-11.2128
dini	-11.2129
▁chiamo	-11.2129
▁incentivi	-11.213
▁digitali	-11.213
▁ribellione	-11.2131
erei	-11.2132
▁facilità	-11.2132
▁vincolante	-11.2133
iche	-11.2133
▁iscritti	-11.2133
▁eterno	-11.2134
▁impegna	-11.2134
▁operai	-11.2135
cità	-11.2136
▁pri	-11.2136
evento	-11.2136
▁we	-11.2138
▁sentite	-11.214
▁letteraria	-11.2147
▁impeto	-11.2148
▁potresti	-11.2149
▁possiede	-11.2149
▁sott	-11.2149
cidi	-11.2151
▁facea	-11.2154
▁scrivi	-11.2155
▁phare	-11.2155
▁arme	-11.2166
▁irregolarità	-11.2168
nali	-11.2169
▁salvezza	-11.2169
▁caterina	-11.217
▁accorda	-11.217
▁apportare	-11.2174
▁battere	-11.2174
▁vano	-11.2176
▁modificata	-11.2177
▁menzione	-11.2179
▁perpetua	-11.2181
▁dovea	-11.2183
gene	-11.2186
▁gue	-11.2187
^	-11.2187
▁rapidità	-11.2188
▁gett	-11.2189
▁vicine	-11.2195
▁manco	-11.2198
▁ris	-11.2199
▁agita	-11.2199
▁impostazione	-11.22
▁palle	-11.2201
▁manifestare	-11.2201
▁usano	-11.2203
▁stacca	-11.2204
▁preghiere	-11.2205
▁azzurro	-11.2206
▁nobiltà	-11.2206
▁fiato	-11.2207
▁eroi	-11.2208
▁sogna	-11.221
▁occupano	-11.221
▁romagna	-11.2213
▁riposa	-11.2215
▁fatale	-11.2216
▁solida	-11.2217
▁motto	-11.2218
▁essendosi	-11.2218
▁discutendo	-11.2222
▁convinta	-11.2224
▁automaticamente	-11.2226
▁giustifica	-11.2227
▁compensazione	-11.2227
▁teste	-11.2228
▁fermamente	-11.2228
▁promette	-11.2229
▁prenda	-11.2229
▁danesi	-11.2231
▁indicati	-11.2233
nello	-11.2233
▁sará	-11.2234
▁utilità	-11.2235
▁scopi	-11.2236
▁decisa	-11.2237
segui	-11.2238
▁traverso	-11.2238
goni	-11.2239
▁sentivo	-11.2239
▁propongo	-11.2242
▁referendum	-11.2243
▁sospeso	-11.2243
die	-11.2243
▁risultare	-11.2243
▁auguri	-11.2246
▁dormi	-11.2248
▁classica	-11.2253
▁ven	-11.2257
▁apparire	-11.2259
▁equilibrata	-11.2262
▁amministrativo	-11.2262
▁sopravvivenza	-11.2262
▁normanni	-11.2262
imp	-11.2263
▁fornite	-11.2268
▁appoggiamo	-11.2271
▁disastro	-11.2271
dì	-11.2274
▁sanitario	-11.2277
▁validi	-11.2281
▁sofferenza	-11.2281
▁illegale	-11.2281
▁sviluppa	-11.2282
▁rispetti	-11.2283
▁rap	-11.2284
▁trovarono	-11.2286
▁parto	-11.2287
▁appartenenti	-11.229
/20	-11.2296
▁tampere	-11.23
▁pavimento	-11.23
▁napoleone	-11.23
▁ruggiero	-11.23
▁integrato	-11.23
▁imperiale	-11.23
▁produzioni	-11.23
▁contengono	-11.2302
▁scudo	-11.2302
▁ricercatori	-11.2304
▁lecito	-11.2304
▁37	-11.2305
▁pappa	-11.2305
rati	-11.2306
▁imb	-11.2306
▁istituito	-11.2309
pie	-11.2313
▁sorridendo	-11.2314
▁aquilino	-11.2319
▁inizialmente	-11.232
▁infinito	-11.2323
▁reazioni	-11.2326
▁vieta	-11.2327
▁bus	-11.2329
▁vice	-11.233
▁dicevo	-11.2332
▁dá	-11.2334
▁parametri	-11.2338
▁pittura	-11.2339
▁immenso	-11.2339
▁caratteristica	-11.2339
▁privilegio	-11.2347
▁esorta	-11.2348
▁studiato	-11.2349
▁cattolici	-11.2349
▁fermi	-11.235
▁cortile	-11.235
▁guari	-11.235
70	-11.2352
alta	-11.2352
cte	-11.2356
▁divenuto	-11.2359
▁terapia	-11.236
▁suprema	-11.2363
▁riga	-11.2365
▁contrasta	-11.2365
lone	-11.2365
▁giardini	-11.2366
▁conformemente	-11.2367
lus	-11.2368
cro	-11.2372
▁coprire	-11.2372
▁crediti	-11.2373
▁trento	-11.2376
▁amata	-11.2376
scu	-11.2376
▁elementare	-11.2376
▁risiede	-11.2376
▁vicario	-11.2376
gò	-11.2377
▁invoca	-11.2378
samente	-11.2379
▁ke	-11.238
▁restò	-11.238
▁q	-11.2388
▁usciti	-11.239
▁pala	-11.239
▁cautela	-11.2396
▁scolastico	-11.2396
▁laura	-11.2396
▁piacerebbe	-11.2397
▁malati	-11.2399
▁somiglia	-11.24
▁osservatori	-11.2403
▁fondato	-11.2407
▁diffusa	-11.2409
▁concentra	-11.2409
▁negative	-11.2415
▁pastore	-11.2416
▁macedonia	-11.2417
▁delitti	-11.2418
▁150	-11.242
▁freno	-11.242
▁vizi	-11.2425
▁pasta	-11.2425
▁hotel	-11.2425
enorme	-11.2426
iano	-11.2429
▁cra	-11.2429
▁colpiti	-11.2432
▁moltiplica	-11.2433
▁arca	-11.2433
▁evidenti	-11.2434
▁motivazioni	-11.2435
▁scomparsa	-11.2435
▁ospite	-11.2435
▁risale	-11.2436
ami	-11.2436
▁tilde	-11.2437
▁avvio	-11.2441
▁verificato	-11.2446
▁impiegato	-11.2446
▁condusse	-11.2449
▁girare	-11.245
sch	-11.245
▁esercizi	-11.2452
▁trecento	-11.2453
▁veglia	-11.2453
▁sconfitta	-11.2453
▁sorpreso	-11.2453
▁32	-11.2455
▁pag	-11.2455
▁servito	-11.2457
▁messico	-11.2463
▁constatato	-11.2467
▁sacrificio	-11.2468
▁usata	-11.247
▁riscontro	-11.2473
erebbero	-11.2473
▁esami	-11.2475
▁galee	-11.2477
▁quiete	-11.2481
▁vedova	-11.2496
▁riportato	-11.2499
▁stanco	-11.2499
▁testamento	-11.2499
▁rei	-11.2502
esercito	-11.2503
dico	-11.2503
▁dec	-11.2505
▁inquinamento	-11.2508
▁consulenza	-11.2512
▁confuso	-11.2512
▁culture	-11.2512
▁cereali	-11.2512
▁palestinese	-11.2512
▁pugna	-11.2513
▁esplicitamente	-11.2515
▁accomoda	-11.2518
▁bolla	-11.2524
▁genetica	-11.2526
▁mancava	-11.2526
▁risparmia	-11.2527
ama	-11.2528
▁tolse	-11.2529
▁abilità	-11.253
▁nucleo	-11.2531
▁prudente	-11.2531
▁descritto	-11.2532
▁bandiere	-11.2532
▁avrai	-11.2532
▁scheda	-11.2533
▁tratte	-11.2535
▁verte	-11.254
22	-11.2541
▁xv	-11.2542
▁cambiate	-11.255
▁agenzie	-11.255
▁quotidiano	-11.255
▁emilio	-11.2551
▁vangelo	-11.2551
▁cuba	-11.2555
▁mestieri	-11.2555
▁autunno	-11.2556
remmo	-11.2556
str	-11.2558
▁7,	-11.2558
▁precisi	-11.2559
▁xiii	-11.2561
roni	-11.2561
ottica	-11.2563
▁illustri	-11.2564
▁piattaforma	-11.257
▁sottoposti	-11.257
▁xxi	-11.2574
▁ros	-11.2575
▁giornalista	-11.2575
▁vaga	-11.2578
autorizzazione	-11.2581
23	-11.2583
▁sant	-11.2585
▁abba	-11.2587
▁profumo	-11.259
▁diffuso	-11.259
▁repressione	-11.259
sioni	-11.259
▁tirare	-11.2591
▁madri	-11.2593
▁marchi	-11.2594
par	-11.2596
▁quand	-11.2596
▁progredire	-11.2596
enne	-11.2602
mque	-11.2603
▁bande	-11.2605
▁alba	-11.2608
▁abitudini	-11.2609
▁vincoli	-11.2609
▁irrita	-11.2609
flu	-11.261
▁bibbia	-11.261
▁manovra	-11.2611
▁vollero	-11.2613
▁€	-11.2614
▁maschi	-11.2622
▁insegnato	-11.2623
ada	-11.2623
▁viste	-11.2626
▁rendendo	-11.2628
▁pretendere	-11.2629
▁dovute	-11.263
▁inevitabile	-11.263
▁ristorante	-11.2631
▁diminuire	-11.2632
▁profitti	-11.2634
▁vole	-11.2634
▁fossa	-11.2634
imposta	-11.2637
▁zelo	-11.2637
mani	-11.2638
mpe	-11.2642
▁ferite	-11.2642
▁pubblicamente	-11.2645
▁acquisti	-11.2645
▁dimostrata	-11.2645
▁previdenza	-11.2649
▁ridicolo	-11.2649
▁ventura	-11.265
off	-11.2654
▁mini	-11.2656
ges	-11.2658
ntes	-11.2659
▁magnifica	-11.2659
bio	-11.2662
cate	-11.2663
▁garantito	-11.2663
pp	-11.2663
▁grava	-11.2667
▁salvatore	-11.2668
▁procedimento	-11.2668
▁perfezione	-11.2668
uo	-11.2668
▁esperimenti	-11.2669
▁andasse	-11.2669
▁agi	-11.2671
▁implicazioni	-11.2672
▁pompeo	-11.2675
▁severe	-11.2675
▁innamorato	-11.2679
▁folle	-11.268
▁rapi	-11.268
▁carro	-11.2681
▁furon	-11.2686
▁mangiato	-11.2687
▁coinvolte	-11.2688
▁conferenze	-11.2688
▁raggiunti	-11.2688
▁scritture	-11.2688
▁fedeltà	-11.2689
▁valide	-11.2689
▁quid	-11.269
▁sarete	-11.2694
▁professor	-11.2699
▁formulate	-11.2699
ent	-11.27
▁1998.	-11.2706
▁serenità	-11.2708
put	-11.2708
sul	-11.2709
45	-11.271
▁archi	-11.2711
▁giovinezza	-11.2712
ros	-11.2715
diamo	-11.2716
▁consultare	-11.2717
;/	-11.2718
▁her	-11.2719
▁reciproca	-11.2722
▁libra	-11.2727
▁barcellona	-11.2728
▁mantenuto	-11.2728
▁assunti	-11.2728
▁gentiluomo	-11.2728
▁reg	-11.2728
erete	-11.2729
▁nanna	-11.2731
▁esecutivo	-11.2731
▁cominciava	-11.2733
▁staff	-11.2735
▁predi	-11.2735
▁tornava	-11.2735
▁guadagno	-11.2737
▁giuste	-11.2738
avvio	-11.274
tten	-11.274
vidi	-11.2743
▁inferno	-11.2746
▁ahi	-11.2747
▁solita	-11.2749
▁dettagliata	-11.275
mann	-11.2753
▁stro	-11.2756
arrivo	-11.2756
abolizione	-11.2759
▁naviga	-11.2763
▁tracce	-11.2764
▁spaventa	-11.2765
▁discutiamo	-11.2767
▁mormorò	-11.2768
▁complessità	-11.2769
▁am	-11.2769
▁gelosia	-11.2771
▁festival	-11.2774
▁professori	-11.2775
rk	-11.2779
eventuale	-11.2779
▁compie	-11.2779
▁avanzato	-11.2781
rno	-11.2783
dici	-11.2784
▁punte	-11.2787
▁dossier	-11.2787
▁fanciulli	-11.2787
▁fattispecie	-11.2787
mbra	-11.2788
▁cronica	-11.2788
▁normalmente	-11.2788
▁assurdo	-11.2789
▁buonarrot	-11.2789
▁ultra	-11.2789
ione	-11.2793
▁im	-11.2795
for	-11.28
▁complessi	-11.2805
▁complimenti	-11.2807
▁voteremo	-11.2808
▁vigilia	-11.2808
▁modesto	-11.2808
▁emerso	-11.2808
▁scozia	-11.2809
▁riusciamo	-11.2809
▁saprà	-11.2809
▁operativo	-11.2812
▁percorrere	-11.2812
▁sve	-11.2812
▁serbia	-11.2813
▁sentendo	-11.2818
▁ampliare	-11.2819
▁frequente	-11.282
pao	-11.282
▁difficilmente	-11.2827
▁geografica	-11.2828
▁nunzio	-11.2828
▁vincitore	-11.2828
▁armato	-11.2829
▁mela	-11.2831
▁pronunzia	-11.2831
ocialdemocratici	-11.2832
▁ridendo	-11.2834
ker	-11.2836
rge	-11.2836
▁seppur	-11.284
▁adottati	-11.2841
▁metalli	-11.2842
▁rompere	-11.2842
▁business	-11.2848
▁contenuta	-11.2848
▁combattimento	-11.2848
▁cadavere	-11.2848
▁residenti	-11.2848
▁vedrai	-11.2849
▁soave	-11.2851
▁st	-11.2852
▁tormenta	-11.2856
▁balla	-11.2858
esportazione	-11.2859
infanzia	-11.2859
▁oratore	-11.2862
▁paragona	-11.2865
▁controlla	-11.2865
bia	-11.2866
▁rime	-11.2867
telo	-11.2868
▁sottopiede	-11.2868
▁tradurre	-11.2868
▁mentale	-11.2868
▁appoggiato	-11.2869
▁perseguita	-11.2872
▁verbo	-11.2872
▁esamina	-11.2873
shi	-11.2874
▁continuava	-11.2881
▁pat	-11.2883
▁cas	-11.2884
▁riti	-11.2884
▁creati	-11.2885
▁cominci	-11.2886
▁violenta	-11.2889
sin	-11.289
tato	-11.2891
▁grassi	-11.2893
▁trovar	-11.2895
▁repubblicani	-11.2899
▁virus	-11.29
▁forniti	-11.2901
▁invia	-11.2902
▁approfondita	-11.2906
▁viveva	-11.2906
▁kinnock	-11.2908
▁birmania	-11.2908
cato	-11.2909
▁armonia	-11.291
▁imita	-11.291
▁collaboratori	-11.2911
▁trent	-11.2911
▁dispongono	-11.2912
ère	-11.2913
▁accende	-11.2914
▁nunc	-11.2915
▁riscalda	-11.2916
▁savio	-11.2917
▁registrati	-11.2924
▁efficacemente	-11.2924
we	-11.2925
▁ciel	-11.2925
ìa	-11.2928
▁ingredienti	-11.2928
▁lassù	-11.2928
▁innocenti	-11.2929
▁unanime	-11.2929
▁1990	-11.2929
▁favella	-11.2931
▁ordinaria	-11.2931
▁big	-11.2931
▁controversie	-11.2932
av	-11.2933
▁compi	-11.2934
▁entità	-11.2937
▁prestiti	-11.294
tati	-11.2941
▁gatti	-11.2941
▁obbligato	-11.2946
▁accrescere	-11.2947
▁compenso	-11.2949
▁federazione	-11.2949
▁risposi	-11.295
▁accorse	-11.295
▁vivente	-11.2954
▁suonare	-11.2955
▁giovanile	-11.2955
▁usci	-11.2956
▁pazza	-11.2958
▁ferroviario	-11.2958
▁concordato	-11.2961
▁pregare	-11.2961
lin	-11.2962
▁mensa	-11.2966
▁lacune	-11.2969
▁intenso	-11.297
▁sorprende	-11.2972
▁fatiche	-11.2974
▁scrivo	-11.2974
▁passeggio	-11.2976
▁alimenta	-11.2977
▁fusse	-11.2977
▁chimica	-11.2978
▁accorto	-11.298
▁risa	-11.2984
▁cit	-11.2984
▁tribù	-11.2989
▁conosciuta	-11.299
ers	-11.2992
▁(1	-11.2993
▁giuda	-11.2994
pul	-11.2995
▁pompa	-11.2996
▁socialismo	-11.2998
▁xx	-11.2999
▁seta	-11.3001
met	-11.3002
▁cop	-11.3005
tissimo	-11.3009
▁vicepresidente	-11.301
▁subi	-11.301
▁orribile	-11.3012
▁paul	-11.3012
▁lasciati	-11.3013
▁raccomando	-11.3014
▁videro	-11.3015
▁tenda	-11.3022
▁incendi	-11.3028
▁lione	-11.3028
chino	-11.3029
grafia	-11.3029
▁finlandese	-11.303
▁interruppe	-11.303
▁sapienza	-11.303
▁sublime	-11.303
▁impedisce	-11.3032
▁doganali	-11.3032
▁immediato	-11.3033
arma	-11.3033
▁spira	-11.3035
▁incarico	-11.3035
▁brilla	-11.3036
▁divenire	-11.3037
▁attualità	-11.3038
atmosfera	-11.3042
▁toccato	-11.3042
▁reato	-11.3049
▁conveniente	-11.3051
▁fantastica	-11.3051
▁maurizio	-11.3051
▁niccolò	-11.3051
▁prospettiua	-11.3051
▁piombo	-11.3055
ace	-11.3056
▁limitazione	-11.3057
▁giuramento	-11.3057
tes	-11.3059
▁guidare	-11.3062
▁75	-11.3069
▁svolte	-11.3071
▁poema	-11.3071
▁reagire	-11.3071
▁consolidamento	-11.3072
▁prevedono	-11.3074
▁abbassa	-11.3081
▁lumi	-11.3082
▁tavolino	-11.3082
rella	-11.3087
▁poesie	-11.3092
▁soffre	-11.3092
▁dirigenti	-11.3096
▁ghiaccio	-11.3097
▁preoccupante	-11.31
▁riscontra	-11.3102
▁tappeto	-11.3103
▁insegnamento	-11.3105
nghe	-11.3105
▁formulato	-11.3107
▁impar	-11.3107
▁spende	-11.3109
▁ante	-11.311
▁schermo	-11.3112
▁rapporta	-11.3112
▁colpevoli	-11.3113
▁sottoposta	-11.3116
▁riusciva	-11.3117
▁stre	-11.3122
▁descrivere	-11.3128
▁massimi	-11.3128
▁ple	-11.3128
▁inclusi	-11.3133
▁protagonisti	-11.3133
▁vacanze	-11.3133
▁innocente	-11.3133
▁faccenda	-11.3133
▁severo	-11.3137
parti	-11.3138
sson	-11.3138
▁collezione	-11.3138
▁malta	-11.3139
▁convince	-11.314
▁tranquillamente	-11.3141
sma	-11.3142
▁debiti	-11.3143
▁trasse	-11.3143
▁fotografia	-11.3144
bbi	-11.3146
▁correva	-11.3149
▁protagonista	-11.3154
▁savoia	-11.3154
▁eccezionale	-11.3155
▁paoli	-11.3156
▁apparentemente	-11.3157
▁lá	-11.3158
▁parente	-11.3159
uscita	-11.316
▁simone	-11.3163
▁circolare	-11.3165
▁creda	-11.3166
▁rimettere	-11.3166
▁rovescia	-11.3167
▁fusione	-11.3168
▁presenterà	-11.3168
▁nicola	-11.3168
▁grano	-11.3169
▁singola	-11.3169
impostazione	-11.3169
lie	-11.3172
18	-11.3173
▁sedute	-11.3175
▁consumi	-11.3177
▁ducato	-11.3177
▁green	-11.3177
dano	-11.3178
rma	-11.3181
▁vigenti	-11.3184
▁prosa	-11.3184
▁pesa	-11.3187
▁fle	-11.3188
sone	-11.319
dino	-11.3194
▁producono	-11.3196
▁you	-11.3202
ddi	-11.3202
▁musicali	-11.3205
▁reggio	-11.3206
▁imprenditori	-11.3211
▁occorra	-11.3216
▁discriminazioni	-11.3217
▁valutazioni	-11.322
▁loris	-11.3222
▁degni	-11.3223
▁compare	-11.3226
▁my	-11.3229
messa	-11.3231
▁pp	-11.3231
▁spingere	-11.3232
rgo	-11.3235
▁continuato	-11.3236
▁burocrazia	-11.3237
▁avvenuta	-11.3238
lò	-11.3239
▁progettazione	-11.324
▁sperando	-11.3242
▁ripara	-11.3242
▁4.	-11.3243
▁condannati	-11.3244
▁assumersi	-11.3251
▁abbandonata	-11.3253
asia	-11.3253
▁infinita	-11.3254
dire	-11.3254
ntino	-11.3255
▁mirano	-11.3255
▁manutenzione	-11.3258
▁potreste	-11.3258
▁cerimonia	-11.3258
▁moltissimi	-11.3259
▁rappresenti	-11.326
▁grasso	-11.326
▁curato	-11.3261
▁barbari	-11.3262
▁partecipano	-11.3268
▁2007	-11.327
identità	-11.327
35	-11.3273
▁corto	-11.3276
▁ravenswood	-11.3279
▁infantile	-11.3279
▁bronzo	-11.3279
▁rispettato	-11.328
▁definisce	-11.328
▁proporzione	-11.3282
▁cosà	-11.3284
▁poc	-11.3284
alimentazione	-11.3286
dy	-11.3287
▁barche	-11.3287
▁integrata	-11.3289
indagine	-11.3291
ling	-11.3292
tani	-11.3294
▁solare	-11.3295
▁vivendo	-11.3297
▁trovati	-11.3298
▁raffaello	-11.33
▁femmine	-11.33
▁accadde	-11.33
▁urbani	-11.33
▁crudeltà	-11.3301
▁impedito	-11.3306
ttò	-11.3308
cos	-11.3309
▁salvaguardare	-11.3309
▁masse	-11.331
▁sostitui	-11.3311
▁desiderare	-11.3316
mos	-11.3317
▁tradi	-11.332
▁opzioni	-11.3324
▁stomaco	-11.3325
bit	-11.3331
intenzione	-11.3333
▁ten	-11.3334
▁commette	-11.3335
rm	-11.3338
▁costituzionali	-11.3342
▁restrizioni	-11.3342
▁completare	-11.3342
▁bisognerà	-11.3342
nzio	-11.3343
▁assicurato	-11.3344
▁consultazioni	-11.3345
▁europol	-11.3346
▁comparire	-11.3347
▁sfondo	-11.335
▁disperato	-11.3353
▁fru	-11.3354
▁dame	-11.3356
▁riportare	-11.3356
imento	-11.3361
ller	-11.3362
▁provincie	-11.3363
▁perlomeno	-11.3363
▁carducci	-11.3364
otto	-11.3365
▁coltivazione	-11.3366
▁apparecchia	-11.3368
▁vece	-11.3368
metri	-11.3369
▁approfondito	-11.337
▁elezione	-11.3372
dono	-11.3373
▁manifestato	-11.3375
▁parlar	-11.3376
▁permetterà	-11.3377
▁temporanea	-11.3379
▁strinse	-11.338
▁michelagnio	-11.338
▁criminale	-11.3384
▁ginocchio	-11.3384
mon	-11.3386
▁scritt	-11.3386
▁gabriele	-11.3386
▁intenda	-11.3387
dò	-11.3391
▁mortali	-11.3394
▁corrispondente	-11.3394
▁eccellenti	-11.3396
▁effettuati	-11.3398
affari	-11.3401
▁ville	-11.3405
▁stupore	-11.3406
▁1991	-11.3406
▁picchia	-11.3406
▁settimo	-11.3407
▁tavole	-11.3407
▁cede	-11.3407
▁sorgere	-11.341
▁marmi	-11.3411
▁golfo	-11.3413
▁lomé	-11.3417
▁cita	-11.3424
▁stimola	-11.3427
▁trascorso	-11.3427
aggio	-11.3432
▁seggio	-11.3432
▁duri	-11.3434
▁invitati	-11.3437
▁recuperare	-11.3439
▁cieco	-11.344
evole	-11.344
▁istituto	-11.3441
▁compensa	-11.3443
▁vigilare	-11.3444
nni	-11.3445
▁curioso	-11.3448
▁statue	-11.3449
▁legittimità	-11.3449
celli	-11.345
▁toni	-11.3453
▁alli	-11.3453
▁fla	-11.3454
▁statali	-11.3455
ls	-11.3456
▁appella	-11.3457
▁giudiziario	-11.3458
▁calci	-11.346
▁delinea	-11.346
austria	-11.3461
99	-11.3463
▁pse	-11.3464
▁ghibellini	-11.347
▁sardegna	-11.347
▁tullio	-11.347
▁flusso	-11.347
▁sapore	-11.3471
▁dua	-11.3471
▁sentenze	-11.3472
logico	-11.3473
▁francamente	-11.3473
▁sposo	-11.3474
stato	-11.3474
zionale	-11.3475
by	-11.3476
▁tregua	-11.3479
oggetto	-11.348
▁passe	-11.348
▁cattivi	-11.3484
▁torn	-11.3484
▁metro	-11.3486
gare	-11.3489
▁carri	-11.349
▁esemplare	-11.3491
▁avrò	-11.3493
▁doti	-11.3493
▁metallo	-11.3494
▁ambizione	-11.3496
▁piacenza	-11.3499
▁giuliano	-11.3509
▁diletto	-11.3509
▁tribu	-11.3511
▁episodio	-11.3511
ö	-11.3512
▁onesto	-11.3513
▁faccende	-11.3513
▁distanze	-11.3513
▁violenze	-11.3513
▁risparmiare	-11.3516
▁tredici	-11.3518
▁invitare	-11.3518
mail	-11.3518
bil	-11.3519
▁vederla	-11.3526
▁rinuncia	-11.3531
▁facilitare	-11.3532
▁proprietario	-11.3533
▁dichiarò	-11.3534
▁troverà	-11.3534
▁storiche	-11.3535
▁caratterizzato	-11.3535
▁spar	-11.3536
▁lontane	-11.3537
▁artiglierie	-11.3537
▁2011	-11.3538
▁fastidio	-11.3538
▁sospetta	-11.3539
▁appartengono	-11.3543
▁fissati	-11.3544
ficazione	-11.3547
▁leggero	-11.3549
▁have	-11.3551
▁tese	-11.3555
▁pronuncia	-11.3555
▁pulizia	-11.3556
▁straniera	-11.3557
▁tolleranza	-11.3557
▁indossa	-11.3557
▁seme	-11.3559
▁taci	-11.3559
▁aggiornamento	-11.356
▁pale	-11.3561
▁ginocchia	-11.3562
cosa	-11.3564
▁leggera	-11.3564
▁diamo	-11.3565
ak	-11.3566
▁sopporta	-11.3566
▁tenerezza	-11.3568
▁catene	-11.3568
▁guerrazzi	-11.3569
▁creano	-11.3569
▁noia	-11.3571
▁piaceri	-11.3571
boli	-11.3572
▁36	-11.3573
▁vani	-11.3576
▁traversa	-11.3578
▁succedere	-11.358
▁bilancia	-11.3583
▁sch	-11.3586
essi	-11.3587
angolo	-11.359
▁asia	-11.3594
▁attirare	-11.3594
▁appar	-11.3597
▁ciononostante	-11.3599
▁legislazioni	-11.3599
▁dispositivi	-11.3599
▁dritto	-11.3599
▁migliora	-11.3601
▁ambasciatore	-11.3601
▁divertimento	-11.3601
▁precede	-11.3601
▁augura	-11.3602
▁esposizione	-11.3606
▁provocare	-11.3606
▁ottimi	-11.3607
anza	-11.3613
▁esigenza	-11.3614
pc	-11.3617
▁reggimento	-11.362
▁attribuisce	-11.3621
▁mine	-11.3621
▁casca	-11.3626
▁sapevano	-11.363
/1	-11.3631
▁soffia	-11.3631
28	-11.3633
▁ponti	-11.3634
▁cm	-11.3639
▁inquina	-11.3642
▁complementare	-11.3642
▁previsione	-11.3642
▁sofferenze	-11.3642
▁sosteniamo	-11.3642
▁venticinque	-11.3642
▁puni	-11.3644
▁torniamo	-11.3645
▁ragionamento	-11.3645
▁sibi	-11.3645
▁ricevono	-11.3649
▁ammazza	-11.3649
▁yo	-11.3655
▁effettuata	-11.3657
▁automobili	-11.3658
▁sfuggire	-11.3659
▁vedersi	-11.366
▁quetto	-11.366
▁sindacati	-11.3664
▁stamattina	-11.3664
▁martedì	-11.3664
▁paragone	-11.3664
▁moderne	-11.3665
▁grigio	-11.3668
▁orario	-11.3671
▁ultimamente	-11.3673
tas	-11.3673
educazione	-11.3677
▁consistente	-11.3681
▁regio	-11.3683
lì	-11.3684
▁richiesti	-11.3686
▁deroghe	-11.3686
▁potrò	-11.3686
▁maometto	-11.3686
▁giudizi	-11.3691
▁indonesia	-11.3691
emocratizzazione	-11.3694
▁polo	-11.3694
▁citati	-11.3698
▁pesc	-11.3699
▁rinviato	-11.3699
▁garantita	-11.37
▁medi	-11.3702
tr	-11.3704
▁distrutto	-11.3707
▁pianificazione	-11.3709
ave	-11.3715
▁colpite	-11.3717
▁batti	-11.3719
▁colli	-11.3721
▁scenario	-11.3723
là	-11.3723
▁disagio	-11.3724
▁collettiva	-11.3724
▁sedici	-11.3726
▁tiranno	-11.3729
▁allunga	-11.3733
▁alleati	-11.3735
onore	-11.3737
ny	-11.3742
▁adotta	-11.3743
▁dra	-11.3748
▁rare	-11.375
▁fanciulle	-11.375
):	-11.3751
▁detenuti	-11.3752
▁legislatura	-11.3752
▁quesito	-11.3752
▁scadenze	-11.3752
▁pianura	-11.3752
▁fazioni	-11.3752
▁avvocati	-11.3753
▁monaco	-11.3754
▁ss	-11.3757
ossi	-11.3761
orum	-11.3761
▁tagliare	-11.3762
▁moltissimo	-11.3764
▁applicati	-11.3765
▁ferri	-11.377
▁repentaglio	-11.3774
▁miracoli	-11.3774
pol	-11.3775
▁vanità	-11.3776
sten	-11.378
▁estensione	-11.3782
▁fuggi	-11.3784
▁sereno	-11.3786
▁flussi	-11.3787
▁compiuta	-11.379
▁supplica	-11.3792
▁merce	-11.3793
▁marketing	-11.3796
▁viceversa	-11.3796
▁confessione	-11.3796
▁intere	-11.3797
▁stabilita	-11.3798
▁splendore	-11.3798
esse	-11.3799
▁gliene	-11.38
▁romeo	-11.3801
▁affida	-11.3806
▁scorsi	-11.3807
logi	-11.3808
▁esigere	-11.3808
▁trasmette	-11.3811
▁artistica	-11.3812
nel	-11.3813
▁alterna	-11.3813
▁bandi	-11.3814
▁rafforzata	-11.3815
▁gratuito	-11.3818
▁sangiorgio	-11.3818
▁sensazioni	-11.3818
▁sigarette	-11.3818
▁municipio	-11.3818
▁deposita	-11.3818
lan	-11.3824
▁completamento	-11.3826
▁fiesc	-11.3832
ard	-11.3832
▁fermare	-11.3832
▁miele	-11.3835
▁rari	-11.3836
▁netto	-11.3837
▁savi	-11.3837
▁strategica	-11.384
▁acceso	-11.384
▁vago	-11.3841
▁esperto	-11.3842
rna	-11.3842
▁consiglieri	-11.3843
mbri	-11.3844
▁avversari	-11.3845
▁salutare	-11.3845
▁finali	-11.3847
▁farina	-11.385
▁band	-11.3851
▁lacera	-11.3851
pola	-11.3853
▁ampie	-11.3853
▁significativi	-11.3855
▁aspettano	-11.3855
▁calde	-11.3856
▁hic	-11.3859
▁tata	-11.3859
▁famosi	-11.386
▁by	-11.3861
▁divora	-11.3861
▁contemporanea	-11.3861
▁pregi	-11.3862
▁riccardo	-11.3863
▁discesa	-11.3863
▁creatività	-11.3863
▁requisito	-11.3863
▁validità	-11.3864
▁tesori	-11.3865
▁fisso	-11.387
▁molle	-11.3872
▁pochino	-11.3875
▁prigioniero	-11.3885
▁canada	-11.3886
▁riuscirà	-11.3887
▁robot	-11.3887
fondamentalmente	-11.3887
▁stabilimento	-11.3888
▁ricava	-11.3888
▁arri	-11.3893
▁favori	-11.3894
▁medicinali	-11.3895
▁falsi	-11.39
▁strette	-11.3902
▁lett	-11.3905
▁suggeri	-11.3906
▁elementari	-11.3907
▁anticipo	-11.3908
▁compimento	-11.3909
▁strage	-11.3911
▁eccessiva	-11.3912
▁fro	-11.3913
▁armonizzare	-11.3915
▁ceca	-11.3917
evoli	-11.3919
▁pul	-11.3923
▁borse	-11.3924
acquis	-11.3927
▁barriere	-11.3929
▁rimorso	-11.3929
▁emanuele	-11.3929
▁biologica	-11.3929
▁riesca	-11.3933
▁nam	-11.3934
▁romanzi	-11.3935
gnò	-11.3939
▁medita	-11.3939
ldo	-11.3941
▁ritirare	-11.3941
▁croci	-11.3943
▁stupi	-11.3949
▁strane	-11.395
tario	-11.3951
▁martin	-11.3951
▁coinvolto	-11.3952
▁schiavo	-11.3952
▁femmina	-11.3952
▁sostenibilità	-11.3952
▁globali	-11.3953
▁fazione	-11.3953
▁connesse	-11.3953
▁dotato	-11.3954
▁sussiste	-11.3957
▁dorme	-11.3958
▁dirvi	-11.3961
▁assente	-11.3962
▁condotte	-11.3965
fio	-11.3965
▁vigente	-11.3966
avano	-11.3967
▁spara	-11.3967
▁evitando	-11.3969
▁profondi	-11.397
▁gallo	-11.3974
▁eugenio	-11.3974
▁regali	-11.3975
▁sostengo	-11.3977
▁brillante	-11.3979
▁continuiamo	-11.3979
▁beneficiare	-11.3984
▁severa	-11.3984
▁torni	-11.3985
▁tolta	-11.3985
▁giuro	-11.3987
▁netta	-11.3988
*	-11.3988
▁servigio	-11.3991
▁finta	-11.3991
▁necessita	-11.3994
▁collera	-11.3995
^2	-11.3995
oh	-11.3996
▁pubblicò	-11.3997
▁albanesi	-11.3997
▁appreso	-11.3997
▁graduale	-11.3997
▁doni	-11.3997
▁letteralmente	-11.4001
▁stress	-11.4001
india	-11.4001
▁subire	-11.4002
ann	-11.4005
▁proclama	-11.4007
▁piaceva	-11.4007
tale	-11.4009
▁bien	-11.401
▁guadagnare	-11.4013
▁cugino	-11.4019
uc	-11.402
▁seri	-11.4021
▁sperimentazione	-11.4022
▁conversione	-11.4026
▁usciva	-11.4027
▁ponendo	-11.4027
miche	-11.4029
▁notti	-11.403
▁free	-11.4036
ombra	-11.4039
▁indurre	-11.4039
▁dirette	-11.404
▁strategico	-11.4042
▁battuto	-11.4042
▁offesa	-11.4042
▁mappa	-11.4043
▁ripiglia	-11.4046
▁campa	-11.4046
▁ricusa	-11.4046
▁proprietari	-11.4047
▁rinnovo	-11.405
▁basse	-11.405
▁ignorare	-11.405
▁trovandosi	-11.4051
mare	-11.4052
/2	-11.4054
rme	-11.4055
adeguata	-11.4056
allegato	-11.4056
▁entrano	-11.4057
rga	-11.4057
▁malato	-11.4058
▁emilia	-11.4061
▁meda	-11.4063
▁lancio	-11.4063
▁teresa	-11.4065
▁corri	-11.4065
▁straniere	-11.4065
▁defini	-11.4066
▁brevetti	-11.4066
▁giacché	-11.4066
▁statale	-11.4067
▁improvviso	-11.4071
▁tenersi	-11.4072
simo	-11.4072
idi	-11.4073
vent	-11.4073
▁parimente	-11.4074
gar	-11.4075
▁politicamente	-11.4078
estensione	-11.4079
▁particolar	-11.4079
cerè	-11.408
nder	-11.4086
▁ospedali	-11.4087
▁paragrafi	-11.4087
▁origini	-11.4087
▁compiaccio	-11.4088
31	-11.4088
▁scontro	-11.4088
▁vegetali	-11.409
ago	-11.4094
lazione	-11.4099
▁pista	-11.41
▁sbagliata	-11.41
▁elle	-11.4102
sità	-11.4105
ttico	-11.4105
▁identifica	-11.4106
▁accerta	-11.4107
venti	-11.4109
▁rivelato	-11.4109
▁successive	-11.4113
▁esatto	-11.4115
▁lampo	-11.4116
▁chiarito	-11.4117
▁erba	-11.4119
▁colto	-11.4119
▁niuno	-11.4119
▁comprendo	-11.4122
▁occupare	-11.4123
▁consolidare	-11.4125
▁figlie	-11.4125
▁set	-11.4126
bal	-11.4127
ttare	-11.4129
▁commettere	-11.4132
▁dipendono	-11.4133
▁pier	-11.4133
▁soppressione	-11.4134
▁rilascio	-11.4135
▁ladro	-11.4136
▁apparenza	-11.4139
▁affare	-11.414
▁dirlo	-11.4143
▁cannoni	-11.4145
▁compa	-11.4145
▁burro	-11.4146
ía	-11.4147
▁visitatori	-11.4149
▁feri	-11.4149
▁pelo	-11.4153
▁campionato	-11.4156
▁costituente	-11.4156
▁pacifico	-11.4156
▁agevole	-11.4156
▁battuta	-11.4156
▁schiena	-11.4156
▁orbene	-11.4156
▁proporzioni	-11.4157
▁ritirata	-11.4158
▁compre	-11.4158
rus	-11.416
▁buco	-11.4162
▁effettua	-11.4162
▁veniamo	-11.4163
pen	-11.4165
yer	-11.4166
▁dovevo	-11.4173
▁aggiungendo	-11.4174
▁vinci	-11.4174
▁brama	-11.4175
--	-11.4175
▁33	-11.4177
▁soffoca	-11.4178
▁doloroso	-11.4179
id	-11.4179
diti	-11.4183
▁mercanti	-11.4183
cti	-11.4183
▁birra	-11.4184
▁premia	-11.4185
▁3.	-11.4186
▁gen	-11.4186
▁unde	-11.4187
▁ricche	-11.4191
▁intesi	-11.4195
▁esclama	-11.4197
▁comportano	-11.4198
▁insino	-11.42
▁deposito	-11.4202
▁testimone	-11.4202
▁assedia	-11.4203
▁scom	-11.4203
▁gomma	-11.4204
▁scoppia	-11.421
▁8,	-11.4212
▁semina	-11.4214
intesa	-11.4217
▁guardo	-11.4219
▁indirizzi	-11.4225
▁incluso	-11.4225
▁ambizioso	-11.4226
▁obbedi	-11.4226
▁bastone	-11.4227
▁esprimo	-11.4228
▁tematiche	-11.423
▁occorrerà	-11.423
▁meravigliosa	-11.4232
▁russi	-11.4234
▁seminario	-11.4235
▁ritirarsi	-11.4235
▁accessori	-11.424
stor	-11.4245
▁9,	-11.4246
affermazione	-11.4247
▁meraviglioso	-11.4248
▁giace	-11.4248
ot	-11.4248
altronde	-11.4249
▁pavia	-11.425
▁2009	-11.4254
▁bastava	-11.4255
▁fascino	-11.4259
▁aziendale	-11.4259
▁flu	-11.4261
▁indicazione	-11.4264
iana	-11.4264
fal	-11.4264
lam	-11.4265
▁dolorosa	-11.4265
▁allarga	-11.427
▁guelfi	-11.4271
▁poltrona	-11.4271
▁permettetemi	-11.4273
▁comportare	-11.4273
▁dea	-11.4273
▁organizza	-11.4279
▁risparmi	-11.4279
▁arrivi	-11.4285
▁misera	-11.4288
▁righe	-11.4289
▁amministrativi	-11.4294
▁coppie	-11.4294
fici	-11.4295
▁razionale	-11.4295
▁legni	-11.4296
▁galli	-11.4296
abili	-11.4299
▁eccessivamente	-11.43
▁carbonio	-11.4302
▁constata	-11.4302
ft	-11.4305
▁spezza	-11.4307
▁1-	-11.4309
▁rendo	-11.4311
▁panni	-11.4312
▁opportuna	-11.4314
▁fissi	-11.4315
▁decisionali	-11.4317
▁mostre	-11.4318
▁servitore	-11.4318
▁munizioni	-11.4319
▁protetto	-11.4319
▁forno	-11.432
▁episodi	-11.432
▁nazionalità	-11.4321
▁indice	-11.4324
ndovi	-11.4325
nger	-11.4328
▁levato	-11.433
▁dicesse	-11.4331
logica	-11.4334
▁immensa	-11.4336
▁preoccupati	-11.4337
▁riservata	-11.4337
▁tempera	-11.4338
▁identificare	-11.434
▁scherzo	-11.4341
▁cercò	-11.4341
▁stimolare	-11.4341
▁istor	-11.4342
toria	-11.4344
▁ribella	-11.4346
and	-11.435
influenza	-11.4355
esso	-11.4355
▁dipoi	-11.4358
▁palme	-11.4361
ottimo	-11.4363
▁palese	-11.4363
▁gala	-11.4363
▁pensionati	-11.4364
▁ricordando	-11.4364
▁penali	-11.4364
rza	-11.4365
▁drammatica	-11.4365
▁commercializza	-11.4367
▁esita	-11.4367
▁viaggiare	-11.4368
▁roth	-11.4371
▁durò	-11.4373
▁registrare	-11.4373
▁provo	-11.4374
▁inserimento	-11.4374
▁respira	-11.4377
▁americane	-11.4379
importo	-11.4379
assi	-11.4381
▁include	-11.4382
▁affidato	-11.4382
▁ardente	-11.4386
▁gravidanza	-11.4387
▁splendido	-11.4387
▁garanti	-11.4387
▁vincitori	-11.4389
▁av	-11.439
vers	-11.439
mis	-11.439
▁gliel	-11.4391
▁vile	-11.4391
▁egitto	-11.4393
lismo	-11.4394
▁desiderato	-11.4399
▁robert	-11.4405
▁uccisi	-11.4409
▁giurisdizione	-11.4411
▁inevitabilmente	-11.4411
▁milizia	-11.4411
▁allorquando	-11.4411
▁sottili	-11.4411
27	-11.4412
▁colleghe	-11.4412
▁aspirazioni	-11.4412
▁ruina	-11.4413
▁giocatori	-11.4417
▁foco	-11.4423
▁34	-11.4424
bbero	-11.4426
▁social	-11.4429
ronsi	-11.4432
▁ricorre	-11.4432
▁cittadina	-11.4433
▁bilaterali	-11.4434
▁magistrati	-11.4434
▁sottoporre	-11.4435
▁stesura	-11.4435
▁produttività	-11.4435
mico	-11.4436
▁settanta	-11.4437
acce	-11.4438
▁limitazioni	-11.4438
▁venere	-11.444
▁gare	-11.4443
rità	-11.4443
▁mandati	-11.4443
▁vorrebbero	-11.4448
▁lotte	-11.4452
▁amori	-11.4457
▁divario	-11.4462
▁roero	-11.4462
▁volgare	-11.4463
▁villaggi	-11.4464
▁reputo	-11.4464
▁doversi	-11.4464
▁apposta	-11.4466
▁negoziare	-11.4469
▁strato	-11.4476
▁entrati	-11.4476
▁prestigio	-11.4477
rde	-11.4478
▁confonde	-11.4481
▁comprensibile	-11.4482
▁dappertutto	-11.4482
▁presupposti	-11.4482
▁successore	-11.4482
▁preferenza	-11.4482
▁grata	-11.4482
▁connessione	-11.4483
▁rado	-11.4484
▁similmente	-11.4485
▁kong	-11.4485
▁trasferire	-11.4487
▁strani	-11.4488
▁record	-11.4488
▁sollevata	-11.4495
▁gusta	-11.4496
▁propositi	-11.45
occhio	-11.4501
▁salvi	-11.4503
▁insegnare	-11.4504
▁cau	-11.4504
▁sofferto	-11.4505
▁siffatta	-11.4505
▁ammesso	-11.4506
▁propor	-11.4506
▁copie	-11.4509
▁rispondo	-11.4509
▁rientro	-11.451
▁troverete	-11.4511
▁ragionevoli	-11.4511
▁mole	-11.4513
▁omar	-11.4514
cns	-11.4518
rce	-11.4519
anco	-11.4519
▁accusato	-11.4521
))	-11.4522
▁concepi	-11.4522
▁sunt	-11.4526
▁precauzione	-11.4529
▁sottolineo	-11.4529
▁vedrete	-11.453
▁partì	-11.453
▁stabilite	-11.4534
dus	-11.4534
▁feroci	-11.4535
tella	-11.4535
etica	-11.4536
▁accompagnata	-11.4538
▁solitamente	-11.4539
ju	-11.4539
▁orari	-11.4541
▁confesso	-11.4543
▁mihi	-11.4548
ez	-11.4551
vola	-11.4551
▁nervi	-11.4551
▁escluso	-11.4553
▁produttore	-11.4553
▁nodo	-11.4553
▁tecnologica	-11.4553
▁vinta	-11.4553
▁compensare	-11.4553
▁demonio	-11.4554
▁esservi	-11.4554
▁rispettive	-11.4555
▁intervengo	-11.4557
▁tiranni	-11.4557
▁pigliare	-11.4557
▁email	-11.456
▁facto	-11.4562
▁distribuito	-11.4562
▁interi	-11.4564
▁scri	-11.4566
▁significare	-11.4568
sauri	-11.4577
▁attrezzature	-11.4577
▁fornita	-11.4581
immissione	-11.4583
▁saperlo	-11.4585
▁inverno	-11.4585
▁squa	-11.4585
▁indole	-11.4589
▁guidata	-11.4593
▁br	-11.4594
▁rimprovera	-11.4596
▁album	-11.4596
▁credette	-11.4598
▁agevolare	-11.4598
▁formano	-11.4601
▁sperava	-11.4601
▁profeti	-11.4602
▁eccesso	-11.4604
▁imper	-11.4604
▁decisi	-11.4604
▁spedito	-11.4604
▁ammirazione	-11.4606
ardi	-11.461
▁unici	-11.4611
▁concessi	-11.4615
nn	-11.4616
▁rock	-11.4616
▁cerco	-11.4616
▁mangi	-11.4617
▁urla	-11.4618
▁primaria	-11.4618
▁diventando	-11.4619
▁concludendo	-11.462
▁affermando	-11.4621
dura	-11.4624
ag	-11.4624
▁aeroporti	-11.4625
▁monumento	-11.4625
▁andarsene	-11.4625
▁bluette	-11.4626
▁camion	-11.4626
▁fornitura	-11.4626
▁armamenti	-11.4628
▁psico	-11.4628
▁pol	-11.4628
▁invero	-11.4628
enze	-11.4629
cho	-11.4629
▁gol	-11.4632
▁arro	-11.4637
▁sba	-11.4642
▁permetto	-11.4643
▁piove	-11.4644
▁cile	-11.4644
▁diligenza	-11.4649
▁flaminio	-11.4649
▁affianca	-11.4649
▁guinea	-11.4649
▁corde	-11.465
▁raro	-11.465
▁ripetutamente	-11.4651
▁server	-11.4651
▁cieli	-11.4652
▁penti	-11.4656
▁farti	-11.4661
▁coinvolge	-11.4661
▁pc	-11.4662
▁luisa	-11.4664
rano	-11.4665
loni	-11.4668
▁riferi	-11.4668
▁ovvia	-11.4671
▁differente	-11.4672
▁proveniente	-11.4673
▁sintomi	-11.4673
▁ricordava	-11.4673
▁jugoslavia	-11.4673
▁cospetto	-11.4674
▁deplora	-11.4675
▁rovine	-11.4678
min	-11.4679
▁contegno	-11.4681
ete	-11.4681
inserimento	-11.4682
▁finì	-11.4684
▁48	-11.4684
luc	-11.4686
▁limitarsi	-11.4687
▁angoli	-11.4692
▁renda	-11.4694
ggiato	-11.4695
nk	-11.4696
▁custode	-11.4697
▁sostanziali	-11.4697
▁concessioni	-11.4698
▁ambizioni	-11.4699
retto	-11.4699
▁aeree	-11.4699
▁nova	-11.47
▁ardi	-11.4701
▁simoni	-11.4701
forma	-11.4702
▁passeggiata	-11.4703
▁nudo	-11.4703
▁dominante	-11.4706
▁real	-11.4712
eliminazione	-11.4713
▁giurisprudenza	-11.4721
▁esposte	-11.4721
▁ruote	-11.4721
asi	-11.4721
▁balena	-11.4722
▁false	-11.4722
▁xenofobia	-11.4723
▁cecenia	-11.4723
▁visi	-11.4726
▁ammirare	-11.4727
▁copri	-11.4728
▁spunta	-11.4729
sero	-11.4731
▁informale	-11.4731
llino	-11.4733
▁red	-11.4734
▁pubblicati	-11.4735
▁effettuate	-11.4737
▁angelica	-11.4738
gnano	-11.4742
▁effettivo	-11.4745
▁sterline	-11.4745
▁sussistono	-11.4745
▁sospiro	-11.4745
▁ecclesiastici	-11.4746
▁spina	-11.4746
▁cavi	-11.4746
▁registri	-11.4747
▁potenzialità	-11.4747
bel	-11.4749
▁dubitare	-11.4752
▁svela	-11.4754
▁spiegazioni	-11.4754
▁rispecchia	-11.4754
amento	-11.4755
▁fiero	-11.4756
km	-11.4756
▁legna	-11.4757
▁rivolgersi	-11.4758
▁scrivendo	-11.4758
lati	-11.476
dato	-11.4763
▁costrui	-11.4766
▁meza	-11.4767
▁unanimità	-11.4768
▁appaiono	-11.477
▁dottrine	-11.477
▁innumerevoli	-11.477
▁risoluto	-11.477
▁semestre	-11.477
▁interrogativi	-11.477
▁seguiti	-11.477
▁nuvole	-11.477
▁cinesi	-11.4771
▁rim	-11.4771
▁apprezzato	-11.4772
▁laboratori	-11.4773
▁illustrare	-11.4775
▁direzioni	-11.4781
000	-11.4781
▁pigli	-11.4782
▁continuando	-11.4782
▁amiche	-11.4785
▁regala	-11.4786
▁precedentemente	-11.4787
▁scaccia	-11.4787
▁vor	-11.479
▁risorsa	-11.4794
▁turche	-11.4794
▁ist	-11.4795
▁fango	-11.4797
▁succedendo	-11.4798
▁10,	-11.48
▁tibi	-11.48
▁rifa	-11.4801
29	-11.4801
▁colline	-11.4802
▁distrugge	-11.4803
▁tene	-11.4804
▁accumula	-11.4805
▁vivace	-11.4806
▁rassicura	-11.4806
▁inseriti	-11.4807
▁viti	-11.4809
▁africani	-11.4811
▁onesta	-11.4814
questo	-11.4814
▁pasqua	-11.4815
▁agevola	-11.4815
▁duplice	-11.4819
▁pistoia	-11.4819
▁sepolcro	-11.4819
▁statunitense	-11.4819
▁cotesti	-11.4819
▁riconosciuti	-11.4819
▁gridando	-11.4819
▁affa	-11.4819
▁clero	-11.4819
▁combinazione	-11.4822
▁mutamenti	-11.4823
▁trovasi	-11.4826
▁dividere	-11.4827
▁smettere	-11.483
▁siede	-11.483
▁darò	-11.4831
▁gridare	-11.4832
siamo	-11.4832
hu	-11.4837
relli	-11.4837
llare	-11.4838
▁ecce	-11.4839
▁camicia	-11.4843
▁comparve	-11.4843
▁infinite	-11.4844
▁esaminando	-11.4844
▁ave	-11.4844
▁mandar	-11.4844
▁disordine	-11.4847
▁coltello	-11.4848
▁galere	-11.485
▁sincera	-11.4862
▁scema	-11.4864
gor	-11.4864
▁dna	-11.4867
ins	-11.4868
▁stoccolma	-11.4868
▁fianchi	-11.4868
▁suggerito	-11.4868
▁guerrieri	-11.4868
▁agostino	-11.4869
▁dote	-11.4869
▁nere	-11.487
▁peste	-11.4873
▁portar	-11.4873
ic	-11.4878
atti	-11.4879
▁appo	-11.488
care	-11.4882
▁dubito	-11.4883
/3	-11.4889
▁ottica	-11.489
▁realizzate	-11.4891
▁bangemann	-11.4892
▁brasile	-11.4892
tutto	-11.4893
▁dimissioni	-11.4893
▁comandi	-11.4893
▁bovini	-11.4894
▁carrara	-11.4894
▁scarso	-11.4896
▁maschile	-11.4899
▁tirato	-11.49
entra	-11.49
▁obbligatorio	-11.4902
▁marche	-11.4904
▁facessero	-11.4909
▁dum	-11.4911
▁ecologica	-11.4911
▁comunista	-11.4912
▁effettiva	-11.4913
▁spiace	-11.4914
▁potessi	-11.4914
rello	-11.4917
▁piazze	-11.4917
▁volare	-11.4918
▁arcivescovo	-11.4918
▁dure	-11.492
▁derivano	-11.4927
▁rendeva	-11.4928
▁nebbia	-11.4928
▁mont	-11.4931
▁allor	-11.4932
▁fornitori	-11.4933
urs	-11.4933
▁cariche	-11.4936
▁selvaggia	-11.4936
▁nominale	-11.4936
messo	-11.4937
▁scusi	-11.4938
mato	-11.494
′	-11.4942
▁volontá	-11.4942
▁diffuse	-11.4942
▁celeste	-11.4942
▁dovunque	-11.4942
▁diciotto	-11.4946
▁hong	-11.4946
▁tocco	-11.4949
inc	-11.4951
▁umili	-11.4951
▁pervenire	-11.4955
▁concerti	-11.4955
▁topo	-11.4958
▁simula	-11.4961
▁sinora	-11.4964
▁biblioteche	-11.4967
▁residui	-11.4967
▁stupefacenti	-11.4967
▁combattuto	-11.4967
▁ringraziando	-11.4967
▁infermiere	-11.4967
▁riproduzione	-11.4967
▁generosità	-11.4968
▁sviluppati	-11.497
▁tumulto	-11.4971
▁purché	-11.4973
▁1°	-11.4974
▁consentano	-11.4977
▁durare	-11.4977
▁trattandosi	-11.4977
▁pin	-11.4979
▁acquistato	-11.4981
▁diventati	-11.4981
▁danneggia	-11.4982
ipotesi	-11.4983
▁cancella	-11.4984
▁trista	-11.4984
▁credendo	-11.4985
rare	-11.4987
▁xviii	-11.4988
▁facilita	-11.4989
▁distorsioni	-11.4991
▁clonazione	-11.4991
▁rubrica	-11.4992
▁opposta	-11.4992
▁tabella	-11.4992
▁avvenimento	-11.4992
▁frega	-11.4993
▁brand	-11.4994
▁viaggiatori	-11.4994
▁collina	-11.4996
▁costituisca	-11.4997
ham	-11.4998
▁rimini	-11.4999
rbe	-11.4999
▁ospedale	-11.4999
▁riesci	-11.5002
acciò	-11.5003
▁condannare	-11.5005
anda	-11.5007
▁preparati	-11.5007
dare	-11.5013
▁cominciano	-11.5016
▁buondelmonti	-11.5016
▁cresciuto	-11.5016
▁duchessa	-11.5016
▁giammai	-11.5016
▁milanesi	-11.5016
▁mantiene	-11.5016
▁dichiaro	-11.5016
▁penisola	-11.5017
▁ottene	-11.5017
▁cotal	-11.5019
▁partite	-11.5019
▁scuse	-11.5021
▁(19	-11.5023
▁tristo	-11.5023
ion	-11.5029
dum	-11.5032
▁correnti	-11.5034
dori	-11.5034
▁generosa	-11.5037
▁accettata	-11.5038
▁poterlo	-11.504
▁carabinieri	-11.5041
▁panorama	-11.5041
▁presuppone	-11.5041
▁scoperte	-11.5041
vere	-11.5045
dera	-11.5045
▁catalogo	-11.5047
▁amano	-11.5048
▁resiste	-11.5049
▁presidio	-11.5053
▁preoccupato	-11.5054
▁opportuni	-11.5054
▁intenti	-11.5057
▁interpreta	-11.5058
▁sincero	-11.5067
▁bottiglia	-11.5067
▁ritornò	-11.5068
▁melo	-11.5069
▁salone	-11.5072
▁navale	-11.5072
▁gonfia	-11.5073
▁follia	-11.5074
▁benevento	-11.5075
▁bacino	-11.5076
▁avessimo	-11.5078
▁esegui	-11.5079
▁conferire	-11.508
▁congiuntamente	-11.5081
▁semplificare	-11.5082
▁saltare	-11.5083
chiamo	-11.5085
yo	-11.5085
▁misurare	-11.5087
▁ces	-11.5089
▁logo	-11.5089
▁chiavi	-11.5092
▁libretto	-11.5092
▁tranquillità	-11.5093
▁ann	-11.5093
▁conobbe	-11.51
▁liste	-11.5105
insegnamento	-11.511
▁dirle	-11.5115
▁propriamente	-11.5116
▁beatrice	-11.5117
▁gentiluomini	-11.5117
▁discussa	-11.5117
▁margini	-11.5117
▁tenute	-11.5117
quo	-11.5118
▁analizza	-11.5119
▁42	-11.5123
▁scoppio	-11.5125
▁attribuito	-11.5126
▁intitolato	-11.5126
▁vestita	-11.5134
▁costà	-11.5135
▁cellulare	-11.5137
▁fontana	-11.5142
▁ufficialmente	-11.5142
▁associa	-11.5143
ldi	-11.5143
▁consentitemi	-11.5143
▁seduti	-11.5143
▁unitaria	-11.5145
▁integrante	-11.5146
▁incertezza	-11.5147
▁sopravvivere	-11.5149
▁ognuna	-11.515
▁addetti	-11.515
missione	-11.5151
▁campana	-11.5151
▁ripristinare	-11.5152
cal	-11.5152
▁ammette	-11.5155
▁38	-11.5157
▁danese	-11.5157
▁brano	-11.5157
▁guide	-11.5158
α	-11.5159
▁vario	-11.5161
▁coltura	-11.5164
▁pratici	-11.5166
dina	-11.5166
▁appalti	-11.5167
▁modulo	-11.5167
▁dipartimento	-11.5167
▁sorrise	-11.5167
lette	-11.5167
▁testimonianze	-11.5168
▁oscuro	-11.5168
mette	-11.5169
▁sponda	-11.5169
▁cotone	-11.517
▁soffri	-11.5173
▁echo	-11.5173
▁consolazione	-11.5173
▁prendeva	-11.5174
▁dimentichiamo	-11.5174
bbia	-11.5175
▁terremoto	-11.5175
▁indicano	-11.5177
▁pizzon	-11.5177
atori	-11.5182
38	-11.5183
▁conven	-11.5183
▁cosimo	-11.5185
▁iam	-11.5186
▁batteria	-11.5188
▁levare	-11.519
gro	-11.5192
▁obiezioni	-11.5193
▁spagnola	-11.5193
▁porsi	-11.5193
▁calcoli	-11.5193
▁prefetto	-11.5193
▁pontefici	-11.5194
▁odore	-11.5194
▁bomba	-11.5194
▁vincolanti	-11.5196
▁ignoranza	-11.5196
▁400	-11.5196
volta	-11.5197
▁priori	-11.5198
▁paiono	-11.52
▁custodia	-11.52
▁privi	-11.5201
▁tentazione	-11.5202
▁ordinario	-11.5203
▁concordi	-11.5204
▁out	-11.5205
▁recato	-11.5209
▁cardinal	-11.5209
▁investiga	-11.5211
▁poggia	-11.5212
▁onu	-11.5215
▁esprimersi	-11.5216
▁assegna	-11.5217
late	-11.5217
▁calunnia	-11.5218
▁rigida	-11.5218
▁umile	-11.5218
▁violento	-11.5219
▁tirannide	-11.5221
▁char	-11.5221
gente	-11.5222
pt	-11.5224
▁banchi	-11.5225
eu	-11.5226
▁paglia	-11.5226
▁concordia	-11.5227
▁valli	-11.523
▁presti	-11.523
▁apparecchi	-11.5231
lly	-11.5231
▁faenza	-11.5235
▁anda	-11.5238
▁rinviare	-11.5239
▁portavano	-11.5243
▁insufficienti	-11.5244
▁ricompensa	-11.5244
▁promosso	-11.5244
▁nicoletta	-11.5244
▁potenziali	-11.5245
▁normativo	-11.5245
▁bestiame	-11.5248
▁lenta	-11.5249
▁teniamo	-11.525
▁tenevano	-11.525
▁credenza	-11.5251
▁peggiori	-11.5252
▁corretti	-11.5253
▁soliti	-11.5255
▁regolamentare	-11.5257
▁vedevano	-11.526
▁farli	-11.5261
alleanza	-11.5261
▁1997.	-11.5263
▁sanitari	-11.5265
▁xvii	-11.5266
▁torta	-11.5267
▁scaturi	-11.5268
▁piacciono	-11.5269
▁veicolo	-11.5269
▁eldr	-11.527
▁milanese	-11.527
▁plastica	-11.5271
▁certificazione	-11.5271
▁albergo	-11.5273
▁sessi	-11.5273
▁campioni	-11.5274
esito	-11.5274
▁chiedersi	-11.5275
▁andranno	-11.5276
▁condur	-11.5277
tari	-11.5284
tello	-11.5288
▁desiderava	-11.529
▁cam	-11.5291
▁cori	-11.5292
▁gabinetto	-11.5295
▁magistrato	-11.5295
▁illusioni	-11.5295
▁contribuiscono	-11.5295
▁vittorie	-11.5296
▁rimaste	-11.5297
▁credibile	-11.5298
▁intensità	-11.5298
▁sposi	-11.5299
▁specificità	-11.53
▁concilia	-11.5301
▁trasformato	-11.5302
▁nanni	-11.5307
▁esista	-11.5308
▁iraq	-11.5308
▁collegamenti	-11.5309
▁darai	-11.531
▁morbo	-11.531
▁umanitario	-11.5312
▁domandare	-11.5315
▁viventi	-11.5318
▁imperocch	-11.5319
▁rispettati	-11.5319
▁raffigura	-11.5321
▁potestà	-11.5321
▁galleria	-11.5321
ride	-11.5323
▁disturba	-11.5326
▁esclude	-11.5327
75	-11.5328
▁esclusione	-11.5329
▁nomine	-11.533
▁guidato	-11.5332
▁infino	-11.5334
▁mandava	-11.5337
▁belga	-11.5337
▁coltiva	-11.5342
▁richiedenti	-11.5344
▁vaso	-11.5346
▁antibiotici	-11.5346
▁gerasto	-11.5346
▁liquido	-11.5346
▁composti	-11.5346
▁cristianesimo	-11.5346
▁conquiste	-11.5346
▁pallido	-11.5347
▁inganno	-11.5347
▁sparse	-11.5348
due	-11.5349
▁millennio	-11.535
▁preparativi	-11.5351
▁decennio	-11.5351
▁chimiche	-11.5354
▁gioie	-11.5357
▁dieta	-11.5359
occhè	-11.5361
▁filosofi	-11.5361
ndere	-11.5365
▁ferrovia	-11.5366
uf	-11.5367
▁traditore	-11.5367
▁levante	-11.5368
▁conciliare	-11.5368
▁arrestato	-11.537
33	-11.5371
▁avviata	-11.5371
▁preziosa	-11.5372
▁inutilmente	-11.5372
▁fisiche	-11.5374
▁virginia	-11.5376
▁anello	-11.538
▁confina	-11.5382
▁quarti	-11.5383
▁professa	-11.5384
.1	-11.5385
▁ara	-11.5387
▁sete	-11.5388
▁definite	-11.5389
▁volea	-11.5389
55	-11.5389
▁ediz	-11.539
▁tan	-11.539
dotto	-11.5392
▁ricordati	-11.5393
▁um	-11.5393
▁casse	-11.5395
▁provenienza	-11.5398
▁vibra	-11.5399
▁promuove	-11.5399
▁redatto	-11.54
forme	-11.5401
▁converti	-11.5401
▁aiutato	-11.5404
ioni	-11.5404
▁conoscendo	-11.5407
▁speso	-11.5408
▁preziosi	-11.5409
▁restituire	-11.541
▁condiziona	-11.541
▁attese	-11.5412
ub	-11.5412
▁ambi	-11.5414
fan	-11.542
▁pozzo	-11.5421
▁sec	-11.5422
▁sorride	-11.5424
▁pių	-11.5424
▁aggiusta	-11.5424
▁accioché	-11.5425
▁risenti	-11.5427
▁ripigli	-11.5427
▁copre	-11.5429
▁poterono	-11.543
▁immunità	-11.5431
▁albania	-11.5432
▁cessare	-11.5433
▁ingenti	-11.5437
esposizione	-11.5442
▁coordinare	-11.5442
▁sella	-11.5444
▁bloccare	-11.5445
▁restava	-11.5447
▁supporre	-11.545
▁toscani	-11.545
▁pescherecci	-11.545
▁provvidenza	-11.5451
▁apparve	-11.5451
▁accese	-11.5451
▁commozione	-11.5452
▁galera	-11.5452
▁commissaria	-11.5453
▁dispensa	-11.5454
▁situato	-11.5457
▁tibet	-11.5458
my	-11.5461
▁aduna	-11.5462
▁neppur	-11.5464
▁stampato	-11.5464
▁radicali	-11.5465
aeroporto	-11.5468
▁gusti	-11.5468
▁parea	-11.5469
ctus	-11.547
▁penalizza	-11.5471
▁documenta	-11.5474
▁investi	-11.5475
▁fermato	-11.5475
▁sindacali	-11.5476
▁coperte	-11.5476
▁rigoroso	-11.5476
▁ogm	-11.5476
▁imposti	-11.5477
▁sportive	-11.5477
▁tout	-11.5477
▁delusione	-11.5479
▁rai	-11.5479
▁annovera	-11.548
ngue	-11.5481
▁xix	-11.5481
▁www	-11.5482
▁coglie	-11.5486
▁visse	-11.5487
▁necessit	-11.5487
gato	-11.5488
pl	-11.5488
sola	-11.549
logiche	-11.549
▁attuata	-11.5491
▁trama	-11.5491
/01	-11.5494
▁mera	-11.5494
gon	-11.5497
out	-11.5497
▁nominati	-11.5497
▁complementari	-11.5501
▁fogli	-11.5501
▁parso	-11.5501
▁letizia	-11.5503
▁diventerà	-11.5503
▁esteso	-11.5503
▁ridotte	-11.5504
▁imminente	-11.5506
bli	-11.5506
tele	-11.5508
▁riconosco	-11.5509
▁elaborata	-11.5509
▁segnato	-11.5512
▁palma	-11.5512
cod	-11.5513
▁inganna	-11.5513
▁pazzi	-11.5514
▁narrazione	-11.5516
▁vinse	-11.5517
▁avvicinarsi	-11.5519
mes	-11.5519
▁jela	-11.5521
▁conquistare	-11.5522
▁bonaventura	-11.5529
▁visconte	-11.5529
▁indifferente	-11.553
▁pagano	-11.5533
▁grafico	-11.5533
▁seguite	-11.5534
▁ringraziamo	-11.5535
▁avermi	-11.5536
▁opporsi	-11.5538
▁rif	-11.5539
▁separate	-11.554
tribu	-11.5541
▁interrotta	-11.5551
▁svel	-11.5552
▁varii	-11.5554
▁segnalato	-11.5554
▁seg	-11.5555
▁cronaca	-11.5555
▁sconosciuto	-11.5555
▁trasmesso	-11.5555
▁pellegrino	-11.5555
▁suddetti	-11.5555
▁ernesto	-11.5555
▁onesti	-11.5556
▁ormoni	-11.5556
▁proviene	-11.5556
▁riferimenti	-11.5556
onere	-11.5562
▁madrid	-11.5562
cine	-11.5564
▁tradotto	-11.5567
▁rigorosa	-11.5576
▁parrocchia	-11.5576
▁scioglie	-11.5578
▁prati	-11.5579
pos	-11.558
▁darle	-11.5581
▁supplementari	-11.5581
▁contenente	-11.5581
▁approvate	-11.5582
▁patten	-11.5582
▁troia	-11.5583
▁cancellare	-11.5583
▁cattive	-11.5584
cis	-11.5584
▁setta	-11.5585
telli	-11.5586
▁dottori	-11.5587
▁terminato	-11.5588
▁aggiungo	-11.5588
▁canna	-11.5588
▁donatori	-11.5589
▁occupata	-11.5595
ttero	-11.5596
▁rara	-11.5602
▁pongono	-11.5605
▁ignazio	-11.5608
▁donato	-11.5608
▁qualifica	-11.5608
▁inerenti	-11.5608
▁ahimè	-11.5609
▁gianni	-11.561
▁stento	-11.561
ok	-11.5612
▁crudeli	-11.5613
▁assassini	-11.5614
▁crescendo	-11.5614
▁pecore	-11.5614
▁telefonare	-11.5616
▁italic	-11.5617
▁pani	-11.5619
▁atleti	-11.5619
▁off	-11.5622
▁investito	-11.5622
▁scan	-11.5622
▁top	-11.5624
iscono	-11.5628
camente	-11.5632
▁culla	-11.5632
▁turca	-11.5635
▁pop	-11.5635
ves	-11.5636
▁gialla	-11.5638
▁inquinanti	-11.5639
▁monopoli	-11.5641
▁osservatorio	-11.5645
▁desse	-11.5647
▁rappresentati	-11.5648
▁inventa	-11.5654
▁accarezza	-11.5654
▁contrada	-11.5655
▁offende	-11.5659
▁agito	-11.5661
▁cardiff	-11.5661
▁ripetè	-11.5661
▁rimarrà	-11.5661
▁pubblicitari	-11.5661
▁dipinto	-11.5662
▁eretici	-11.5663
▁carenza	-11.5664
▁grotta	-11.5664
▁senatore	-11.5669
ssione	-11.5673
▁ricercare	-11.5674
▁scatena	-11.5675
▁tacis	-11.5678
▁gla	-11.5678
▁matto	-11.568
scrive	-11.5681
▁temendo	-11.5681
▁sapesse	-11.5683
vin	-11.5685
posta	-11.5687
▁bevande	-11.5688
▁ottime	-11.5688
▁retorica	-11.5688
://	-11.5688
▁ecologico	-11.5688
▁protetti	-11.5688
rto	-11.5688
▁1989	-11.5688
▁venera	-11.5688
▁orrore	-11.569
▁violenti	-11.569
▁abbandono	-11.5692
▁scese	-11.5693
▁moro	-11.5696
▁iniziali	-11.5696
▁dedicare	-11.5696
nette	-11.5699
▁conformi	-11.5702
▁gettare	-11.5702
▁medina	-11.5702
▁abbiam	-11.5704
ría	-11.5704
▁eseguito	-11.5706
quam	-11.5707
▁duello	-11.5712
▁===	-11.5714
▁glorioso	-11.5714
▁orizzontale	-11.5714
▁prodotta	-11.5714
▁bestie	-11.5714
▁derivati	-11.5715
▁messere	-11.5715
▁meccanica	-11.5716
▁negoziale	-11.5719
▁ritrovare	-11.5719
▁stante	-11.572
▁collegato	-11.5722
▁limitati	-11.5726
▁rivolti	-11.5728
▁esportazione	-11.5729
▁foggia	-11.5729
▁correzione	-11.5731
ille	-11.5732
▁largamente	-11.5733
monio	-11.5734
▁panno	-11.5734
▁trovai	-11.5738
▁annuali	-11.5739
▁miliardo	-11.5741
▁analogo	-11.5741
▁suggerisce	-11.5742
▁obbligati	-11.5743
▁pió	-11.5743
▁parevano	-11.5746
▁inseri	-11.5746
▁missioni	-11.5747
▁affrontati	-11.5748
▁chiami	-11.5749
ius	-11.5752
▁circo	-11.5752
▁pesi	-11.5754
spor	-11.5755
▁corrono	-11.5756
▁nozione	-11.5756
imposizione	-11.5759
▁spalanca	-11.5761
▁orazio	-11.5761
▁confessare	-11.5761
▁brani	-11.5762
▁vasi	-11.5762
▁coperti	-11.5763
▁letti	-11.5764
▁adempi	-11.5765
done	-11.5768
▁disordini	-11.5768
▁dublino	-11.5768
▁incapace	-11.5768
▁schiavitù	-11.5768
▁commosso	-11.5768
▁vedute	-11.5769
▁trasparenti	-11.5769
▁fascio	-11.5769
▁superbo	-11.5772
▁usiamo	-11.5774
▁rimanga	-11.5775
▁spettatori	-11.5776
▁elevate	-11.5776
▁pregiudizi	-11.5777
▁abuso	-11.5777
▁fieri	-11.5777
▁rinnovare	-11.5779
▁unire	-11.5781
▁--&	-11.5781
▁divise	-11.5782
▁face	-11.5782
▁rico	-11.5786
▁assomiglia	-11.5788
▁gigante	-11.5792
rî	-11.5792
▁preparando	-11.5794
ccò	-11.5794
▁god	-11.5794
▁vigili	-11.5795
▁marittimo	-11.5795
▁pallida	-11.5796
▁continueremo	-11.5796
▁dotto	-11.5796
▁concorrenti	-11.5797
roma	-11.5799
▁ya	-11.58
ram	-11.5801
▁marine	-11.5802
▁rinvia	-11.5807
▁complicato	-11.5808
▁atene	-11.581
▁liber	-11.5812
▁comporre	-11.5812
▁api	-11.5818
enta	-11.5819
▁dg	-11.5819
▁bartolomeo	-11.5822
▁esauriente	-11.5822
▁baldus	-11.5822
▁busto	-11.5827
aco	-11.583
▁frena	-11.5831
▁disprezza	-11.5831
▁continuazione	-11.5834
▁leale	-11.5836
ospedale	-11.5841
▁casta	-11.5846
▁entrava	-11.5847
ê	-11.5848
▁utilizzano	-11.5849
▁diagnosi	-11.5849
▁parzialmente	-11.5849
▁pistola	-11.5849
▁saggezza	-11.5849
▁teatri	-11.5849
▁crispi	-11.585
▁successione	-11.5851
▁angoscia	-11.5851
▁round	-11.5851
▁granduca	-11.5852
▁suggerimento	-11.5852
▁giustificazione	-11.5854
▁operativa	-11.5856
▁stradali	-11.5858
▁scorgere	-11.5864
cchino	-11.5868
▁vitali	-11.5869
▁assicurarsi	-11.5869
▁cave	-11.5871
▁considerano	-11.5873
dí	-11.5874
rte	-11.5876
▁applicano	-11.5876
▁massimamente	-11.5876
▁introdotte	-11.5876
▁oltremodo	-11.5876
▁nipoti	-11.5876
▁teorie	-11.5876
▁attendiamo	-11.5877
▁slovacchia	-11.5878
▁ringraziamenti	-11.5878
▁riconciliazione	-11.5878
▁$	-11.5878
▁concentrare	-11.588
▁magia	-11.588
▁vigila	-11.5881
visi	-11.5881
▁arrivando	-11.5884
▁apprezzo	-11.5884
pot	-11.5885
▁indagine	-11.5887
▁mastica	-11.5889
▁pecca	-11.589
▁trovando	-11.5891
▁freme	-11.5893
▁ec	-11.5893
▁semper	-11.5895
inflazione	-11.5895
▁brigata	-11.5895
▁giri	-11.5896
albero	-11.5896
gl	-11.5897
▁canne	-11.5902
né	-11.5903
▁domestico	-11.5904
▁femminili	-11.5904
▁induce	-11.5904
▁propaganda	-11.5904
▁prevale	-11.5904
▁feira	-11.5905
▁infiamma	-11.5905
▁complesse	-11.5905
▁inalborara	-11.5906
▁nominare	-11.5906
▁bionda	-11.5907
▁sopratutto	-11.5907
▁coll	-11.5908
▁accompagn	-11.5909
▁impianto	-11.5912
▁artistico	-11.5913
▁attive	-11.5913
▁ottanta	-11.5914
nc	-11.5915
48	-11.5917
rate	-11.5918
cello	-11.5924
▁ventre	-11.5924
▁salda	-11.5927
▁dichiarata	-11.5929
iraq	-11.593
▁cibi	-11.593
▁cattolico	-11.5931
▁ricevuti	-11.5931
▁sfortunatamente	-11.5931
▁cofinanziamento	-11.5932
vità	-11.5932
▁udì	-11.5932
▁valga	-11.5933
▁console	-11.5935
▁conoscete	-11.5936
▁discende	-11.5938
▁attribuita	-11.594
▁secco	-11.5942
▁potenziare	-11.5946
▁avi	-11.5947
▁diminui	-11.5947
▁acca	-11.5948
abile	-11.5948
allargamento	-11.595
▁porgo	-11.5952
gata	-11.5955
▁bolle	-11.5956
▁allievi	-11.5958
▁tramonto	-11.5958
▁vige	-11.5959
▁divisi	-11.5959
▁11,	-11.5959
▁riparti	-11.5959
▁stimolo	-11.596
▁colpire	-11.5962
▁salito	-11.5964
▁ul	-11.5972
▁decisiva	-11.5973
▁appari	-11.5974
▁formali	-11.5975
▁trattata	-11.5979
▁cazzo	-11.598
▁palazzi	-11.598
▁decima	-11.5981
▁organizzati	-11.5982
▁consacra	-11.5982
▁bernardo	-11.5984
▁quattrini	-11.5986
▁rimborso	-11.5986
▁servitù	-11.5986
▁transeuropee	-11.5986
▁proteste	-11.5986
▁•	-11.5986
▁tralascia	-11.5986
▁allevatori	-11.5987
▁toscano	-11.5987
ngl	-11.5988
▁curia	-11.5988
▁cellula	-11.5988
▁laonde	-11.5988
zu	-11.5989
▁roccia	-11.599
▁tendono	-11.599
32	-11.5991
▁autobus	-11.5992
sei	-11.5992
▁dirigente	-11.5993
▁obbligatorie	-11.5993
▁limitate	-11.5997
▁giudicato	-11.5998
▁disegnare	-11.5998
▁impiega	-11.5999
▁incontrano	-11.6
▁leoni	-11.6001
▁raddoppia	-11.6002
impianto	-11.6004
▁pulita	-11.6009
elemento	-11.601
attiva	-11.6011
▁titolare	-11.6013
▁durevole	-11.6014
▁godono	-11.6014
▁giunga	-11.6014
)).	-11.6015
pit	-11.602
sk	-11.6022
▁scu	-11.6024
▁immaginazione	-11.6025
▁prendete	-11.6026
▁sassi	-11.6028
dal	-11.6028
mano	-11.6033
vene	-11.6034
lum	-11.6035
▁rilassa	-11.6037
▁giustificato	-11.604
▁comparsa	-11.6041
▁mora	-11.6041
▁corrado	-11.6042
▁contraddizioni	-11.6042
▁mantenendo	-11.6042
▁segreta	-11.6042
▁resterà	-11.6043
▁benedizione	-11.6044
spir	-11.6046
solo	-11.6046
▁rise	-11.6046
vero	-11.6047
▁time	-11.6048
▁religioni	-11.605
▁acquisire	-11.605
▁procuratore	-11.6055
▁00	-11.6058
▁liberare	-11.6061
▁saliva	-11.6061
▁introduce	-11.6062
porta	-11.6066
▁citata	-11.6067
▁divenuta	-11.6067
▁elettorali	-11.6069
▁accessibile	-11.6069
▁scarico	-11.607
▁blocca	-11.6075
▁scosse	-11.6076
▁mutamento	-11.6077
▁angola	-11.6077
▁reggia	-11.6078
▁quem	-11.6078
usa	-11.6078
▁fermarsi	-11.6079
▁capriccio	-11.6079
sol	-11.6081
▁riconoscendo	-11.6082
▁mostrarsi	-11.6086
▁preservare	-11.6088
atore	-11.609
▁sg	-11.609
▁chissà	-11.6096
▁persecuzione	-11.6096
▁farmaco	-11.6096
▁favorevolmente	-11.6099
▁dole	-11.6099
▁stili	-11.6099
sset	-11.6099
tch	-11.61
▁atteso	-11.6103
▁ripensa	-11.6104
▁auspicato	-11.6104
▁chiarimento	-11.6108
▁paris	-11.6108
▁neuro	-11.6109
▁pubblicare	-11.6111
▁lasciarsi	-11.6111
▁nubi	-11.6113
▁nullo	-11.6115
▁temeva	-11.6118
▁eco	-11.612
▁esecutiva	-11.6124
▁intrapreso	-11.6124
▁♪	-11.6124
▁smaltimento	-11.6125
▁mancò	-11.6125
lda	-11.613
▁agio	-11.6132
▁coppa	-11.6132
▁causare	-11.6133
▁esilio	-11.6134
▁ansia	-11.6135
▁classici	-11.6135
▁puntare	-11.6136
▁altobell	-11.6137
▁ispirato	-11.614
97	-11.614
▁ragionare	-11.6141
▁temp	-11.6144
glione	-11.6145
▁indicata	-11.6147
▁poetica	-11.6147
▁ted	-11.615
▁13.	-11.6151
ë	-11.6152
▁bicicletta	-11.6152
▁network	-11.6152
▁contemporanei	-11.6152
▁costruttiva	-11.6152
▁progetta	-11.6152
▁suddetta	-11.6153
▁espansione	-11.6156
▁delicati	-11.6156
▁generosi	-11.6157
▁compia	-11.6159
▁algeria	-11.6159
▁rubare	-11.6159
▁euromediterrane	-11.616
▁postali	-11.6161
▁intimo	-11.6163
▁contatta	-11.6164
▁sospendere	-11.6165
▁magna	-11.6165
▁cupo	-11.6168
▁0.	-11.617
▁95	-11.6172
▁richiamato	-11.6174
▁impronta	-11.6175
▁dott	-11.6178
rc	-11.6179
▁didattica	-11.618
▁vincolo	-11.618
▁patriarca	-11.6181
▁sopportare	-11.6181
▁gilda	-11.6182
▁provenza	-11.6182
▁mento	-11.6183
▁superba	-11.6184
▁rendiamo	-11.6185
▁variazioni	-11.6186
contr	-11.6186
▁foglia	-11.6187
▁der	-11.6187
▁dose	-11.619
▁proceda	-11.619
▁soleva	-11.6193
letta	-11.6195
▁ritirato	-11.6195
▁attendono	-11.6197
▁pr	-11.6197
ccie	-11.6197
mas	-11.6197
▁duo	-11.6198
umque	-11.6199
▁moti	-11.6203
▁sofferma	-11.6206
▁it	-11.6206
▁brevetto	-11.6207
▁offerti	-11.6208
▁saprei	-11.6209
▁curiosi	-11.6209
▁intelletto	-11.6209
▁serbi	-11.6213
▁architettura	-11.6214
▁entrando	-11.6215
▁aspira	-11.6216
▁moi	-11.6216
▁separati	-11.6218
▁passavano	-11.6219
▁esplora	-11.6221
▁destinare	-11.6221
▁equa	-11.6222
▁siria	-11.6222
▁prontamente	-11.6225
mple	-11.6227
▁accor	-11.623
far	-11.623
▁gon	-11.6235
▁fugge	-11.6235
▁quartieri	-11.6236
▁provi	-11.6236
▁voluttà	-11.6236
▁transazioni	-11.6237
▁spettacoli	-11.6237
▁scontra	-11.6238
▁concorda	-11.6238
▁galè	-11.6238
▁accresce	-11.6239
▁castiglia	-11.624
▁tormenti	-11.624
▁scampa	-11.624
42	-11.6241
▁etichetta	-11.6243
▁parcheggio	-11.6243
5-00	-11.6243
▁disperata	-11.6244
▁ricon	-11.6248
▁infanzia	-11.6249
▁infelici	-11.625
▁prioritario	-11.625
▁wo	-11.6251
▁calca	-11.6252
▁sbaglia	-11.6255
▁vena	-11.6255
autonomia	-11.6256
▁nemica	-11.6258
▁monopolio	-11.6258
▁diffondere	-11.626
ordina	-11.626
▁morde	-11.6261
▁domestici	-11.6265
▁preferenze	-11.6265
▁preziose	-11.6265
▁proteine	-11.6265
▁riuniti	-11.6265
uclaf	-11.6265
▁nigeria	-11.6265
▁balcone	-11.6265
▁ammessi	-11.6265
▁trieste	-11.6265
ssandro	-11.6265
▁raggiunta	-11.6265
▁baltico	-11.6266
▁ph	-11.6266
▁schifo	-11.6267
36	-11.627
▁ehi	-11.6271
▁classificazione	-11.6272
▁illegali	-11.6272
▁rovescio	-11.6274
▁favola	-11.6274
▁barbara	-11.6276
udo	-11.6277
▁ottimale	-11.6279
▁economicamente	-11.6279
▁curare	-11.6283
▁pressi	-11.6284
▁imperio	-11.6284
▁orecchi	-11.6289
▁eugenia	-11.6293
▁pedante	-11.6295
▁vietare	-11.6299
41	-11.6299
▁passarono	-11.6299
▁nettamente	-11.63
59	-11.6302
▁incentivare	-11.6305
▁cacciato	-11.6308
▁salari	-11.631
▁maniere	-11.6314
nno	-11.6314
▁arrivarono	-11.6318
▁viaggia	-11.6319
time	-11.632
▁guardato	-11.632
▁combustibili	-11.6321
▁presentò	-11.6321
▁perplessità	-11.6322
▁licenze	-11.6322
▁stanchezza	-11.6322
▁min	-11.6323
▁avverrà	-11.6323
▁umore	-11.6324
▁augusto	-11.6326
▁rischiano	-11.6327
▁vele	-11.6328
▁scaglia	-11.6331
▁alter	-11.6335
▁lievi	-11.6336
▁fortifica	-11.6341
▁diviene	-11.6341
▁ladri	-11.6341
▁lenti	-11.6344
▁strati	-11.6345
▁lassa	-11.6348
▁gagliardo	-11.635
▁perpetuo	-11.635
▁proseguì	-11.635
▁impulsi	-11.635
▁cremona	-11.635
▁tragico	-11.635
▁parlerò	-11.6351
▁larghe	-11.6351
▁prestato	-11.6352
▁licenzia	-11.6354
▁spegne	-11.6354
▁psicologia	-11.6355
▁nesso	-11.6355
▁correndo	-11.6356
lf	-11.6356
▁contesta	-11.6356
▁mos	-11.6357
94	-11.6358
▁rimanente	-11.6359
▁attira	-11.636
▁scendeva	-11.6361
venir	-11.6361
▁prestazione	-11.6362
▁turisti	-11.6366
ette	-11.6367
▁successori	-11.6372
islam	-11.6373
▁cameriera	-11.6378
▁capponi	-11.6379
▁deliberato	-11.638
37	-11.6382
mio	-11.6384
5%	-11.6386
▁terroristi	-11.639
▁eliminazione	-11.6392
▁formulata	-11.6393
▁sani	-11.6396
▁contrade	-11.6397
▁mutato	-11.6397
▁comprato	-11.6398
▁pisani	-11.6398
▁sostenendo	-11.6399
ces	-11.64
▁entrarono	-11.64
▁indicatori	-11.64
ggine	-11.6401
▁cattedra	-11.6402
▁vapore	-11.6403
stò	-11.6403
▁formidabile	-11.6407
▁svolti	-11.6407
▁ferra	-11.6409
▁darmi	-11.641
▁versioni	-11.6411
▁castellano	-11.6411
▁applicabile	-11.6412
▁articola	-11.6418
▁dammi	-11.642
▁stampe	-11.6421
▁entri	-11.6421
▁bai	-11.6424
▁apporta	-11.6424
edificio	-11.6428
▁variazione	-11.6434
ville	-11.6434
▁vendica	-11.6435
▁accompagnare	-11.6436
▁fuorusciti	-11.6436
▁troverai	-11.6436
▁celesti	-11.6436
▁artificiale	-11.6436
▁posteriore	-11.6436
▁250	-11.6436
▁indovina	-11.6436
▁solenni	-11.6436
▁piacque	-11.6437
rmene	-11.6437
▁particelle	-11.6438
▁aff	-11.6439
▁stabilizzazione	-11.644
▁passaggi	-11.6442
occhi	-11.6444
▁seu	-11.6449
▁combina	-11.6451
uff	-11.6452
▁rotte	-11.6454
▁ammirato	-11.6457
sha	-11.6464
▁competizione	-11.6465
▁sufficienza	-11.6465
▁trasferimenti	-11.6465
▁costretta	-11.6465
▁bonifazi	-11.6465
▁pilastri	-11.6465
▁alunni	-11.6465
▁ridur	-11.6465
▁visitato	-11.6466
▁eccetto	-11.6468
▁offrendo	-11.6472
▁sma	-11.6472
cini	-11.6473
▁nutro	-11.6475
▁senta	-11.6476
▁tematica	-11.6476
▁consultato	-11.6479
▁plu	-11.6482
▁attua	-11.6485
▁disciplinare	-11.6488
▁cognizione	-11.6494
▁amaro	-11.6494
▁albanese	-11.6494
nas	-11.6494
▁denominazione	-11.6495
▁arabo	-11.6495
▁ingiuria	-11.6495
▁impor	-11.6497
▁aumenti	-11.6497
▁colture	-11.6497
▁tragica	-11.6498
▁cominciando	-11.6501
▁raccontato	-11.6502
▁formalmente	-11.6502
alità	-11.6503
▁suscitato	-11.6506
▁servigi	-11.6507
dol	-11.6507
▁ricordano	-11.6511
▁ferme	-11.6512
▁cana	-11.6513
▁notis	-11.6516
▁sven	-11.6516
▁specificamente	-11.652
quis	-11.6521
..."	-11.6522
▁confidenza	-11.6523
▁ricevute	-11.6523
▁riviste	-11.6524
▁foro	-11.6525
▁andremo	-11.6525
▁certificato	-11.6525
▁rimprovero	-11.6526
▁contrariamente	-11.6535
eni	-11.6536
▁marte	-11.6537
▁aziendali	-11.654
▁facci	-11.6541
▁morir	-11.6543
▁scintilla	-11.6545
▁presentarsi	-11.6547
▁sorridere	-11.6548
▁autentico	-11.6552
▁cecilia	-11.6552
ō	-11.6552
▁goccia	-11.6555
▁raramente	-11.6558
▁muoiono	-11.6558
▁diletta	-11.656
▁aumentato	-11.656
▁territoriali	-11.6561
▁immaginate	-11.6563
▁sentita	-11.6564
▁pic	-11.6565
▁12,	-11.657
▁dipendente	-11.6572
esclusione	-11.6572
vu	-11.6573
▁intensa	-11.6578
▁bastano	-11.6578
▁monumenti	-11.6581
▁repubbliche	-11.6581
▁sepoltura	-11.6581
▁intraprese	-11.6581
▁circuito	-11.6581
▁fucile	-11.6581
▁sportivi	-11.6581
ren	-11.6581
cano	-11.6584
▁arriviamo	-11.6584
▁analogamente	-11.6586
▁facciata	-11.6586
▁avevi	-11.6586
▁seguiva	-11.6588
▁quotidianamente	-11.6591
▁viale	-11.6591
▁compone	-11.6592
▁fabio	-11.6593
▁soglio	-11.66
improvviso	-11.6601
▁piaga	-11.6602
▁torrente	-11.6604
▁shi	-11.6604
▁compera	-11.6605
▁spesse	-11.6605
nam	-11.6605
▁modesta	-11.6606
gere	-11.6608
▁introdotti	-11.661
▁tensioni	-11.661
▁mantello	-11.6611
▁solennità	-11.6612
▁originaria	-11.6615
kin	-11.6616
▁controversia	-11.6617
▁accettabili	-11.6617
▁calza	-11.6618
▁create	-11.6619
2.	-11.662
cs	-11.662
sura	-11.662
▁georgia	-11.6621
▁incrementare	-11.6624
▁disfa	-11.6624
▁sacrifici	-11.6625
dam	-11.6628
▁devasta	-11.6635
▁frazione	-11.6636
▁interpretare	-11.6636
▁ricomp	-11.6638
▁diffidenza	-11.6639
▁collettivo	-11.6639
▁preveda	-11.6639
▁ratificato	-11.6639
▁risalto	-11.664
▁dittatura	-11.664
▁coincide	-11.664
▁compatibile	-11.664
▁piaccia	-11.6641
▁cottura	-11.6641
▁istoria	-11.6641
mmer	-11.6641
▁continueranno	-11.6642
▁tentò	-11.6643
ku	-11.6643
▁corna	-11.6645
▁sf	-11.6645
▁giovan	-11.6647
zionali	-11.6648
▁valorizzazione	-11.6648
▁parlarne	-11.6648
▁hist	-11.6649
▁osservando	-11.6649
▁ampi	-11.6649
▁pig	-11.6649
▁corsica	-11.6651
▁informatica	-11.6652
▁esisteva	-11.6652
▁tunisi	-11.6652
▁oste	-11.6653
ncio	-11.6654
▁stime	-11.6654
▁cape	-11.6658
▁conservatori	-11.6659
▁sanzione	-11.666
▁espone	-11.6662
elle	-11.6663
▁levi	-11.6664
mari	-11.6665
▁cominciamo	-11.6666
ji	-11.6667
▁persuaso	-11.6669
▁vettura	-11.667
▁riparare	-11.6671
tone	-11.6672
▁spettro	-11.6672
▁mq	-11.6672
▁avevan	-11.6674
▁uscir	-11.6674
▁repubblicano	-11.6675
ug	-11.6676
▁elettricità	-11.6676
▁rodi	-11.6678
▁allah	-11.6679
▁passar	-11.6681
▁serviva	-11.6683
▁stock	-11.6685
▁spunti	-11.6686
▁eleva	-11.6686
▁apostoli	-11.6687
▁fattura	-11.6687
accio	-11.669
▁batteri	-11.6693
▁approfitta	-11.6698
▁opportune	-11.6698
▁risponda	-11.6698
▁divergenze	-11.6698
▁bottiglie	-11.6698
▁associo	-11.6699
▁rogier	-11.6699
▁bergamo	-11.6699
▁cav	-11.6703
▁latini	-11.6707
▁eroe	-11.6707
▁etnica	-11.6708
▁gliela	-11.671
▁spreca	-11.6711
▁tronco	-11.6712
▁compara	-11.6713
▁attra	-11.6714
▁interessano	-11.6716
ult	-11.6718
▁dosi	-11.6719
inverno	-11.6719
▁rifiutare	-11.6722
▁verifiche	-11.6725
▁tribuna	-11.6725
▁compose	-11.6727
retti	-11.6727
▁monferrato	-11.6728
▁zoppetto	-11.6728
▁vettori	-11.6728
▁vaticano	-11.6728
▁multa	-11.6731
▁sonia	-11.6731
ec	-11.6731
▁ponga	-11.6731
▁vicinanza	-11.6732
▁reputazione	-11.6736
▁romania	-11.6736
▁pelli	-11.6737
▁concentrarsi	-11.6738
▁riducendo	-11.6738
▁corro	-11.6739
▁corrispondenti	-11.674
lari	-11.6741
mettere	-11.6741
▁corridoio	-11.6742
▁orecchio	-11.6748
▁apprendere	-11.6748
▁riferiscono	-11.6748
▁editori	-11.6754
▁comporti	-11.6754
perché	-11.6756
▁gonzaga	-11.6758
▁introdotta	-11.6758
▁condiviso	-11.6758
▁precetto	-11.6758
▁accetto	-11.6758
▁fabrizio	-11.6758
▁dotata	-11.6758
▁percezione	-11.6758
▁onorato	-11.6759
▁odierno	-11.6759
▁fuochi	-11.676
'8	-11.6762
giamo	-11.6763
▁tornano	-11.6767
▁forestale	-11.6768
▁mirabile	-11.6771
▁stipendio	-11.6773
▁chiederle	-11.6774
▁inspira	-11.6775
▁cavo	-11.6775
▁esclusiva	-11.6779
▁pepe	-11.6779
ban	-11.6783
ulo	-11.6783
gas	-11.6783
τ	-11.6784
aff	-11.6785
▁raduna	-11.6786
▁consueto	-11.6787
▁fantasma	-11.6787
▁tradito	-11.6787
▁comunemente	-11.6788
▁spagnoli	-11.6788
▁ministeriale	-11.6788
▁darvi	-11.6788
▁conosciuti	-11.6788
▁misto	-11.679
▁soddisfatta	-11.6791
▁formati	-11.6793
▁investitori	-11.6794
▁nodi	-11.6794
▁rilasciato	-11.6797
▁sicure	-11.6797
▁capitan	-11.6798
▁indugio	-11.6799
▁liberato	-11.6802
▁direbbe	-11.6802
▁lavorazione	-11.6803
▁cooperare	-11.6803
▁crema	-11.6803
▁ostacola	-11.6805
▁consegnato	-11.6807
ds	-11.681
indicazione	-11.681
▁pronunciato	-11.6811
presso	-11.6811
▁calpesta	-11.6814
▁prenderà	-11.6815
ndre	-11.6815
▁spirituali	-11.6816
▁menzogna	-11.6817
▁prerogative	-11.6817
▁strepito	-11.6817
▁incominciò	-11.6817
▁offeso	-11.6817
▁sbarca	-11.6817
▁circondato	-11.6818
▁paghe	-11.6818
▁vul	-11.6819
▁ottone	-11.6819
vel	-11.6819
▁annulla	-11.6821
grandi	-11.6821
▁cattedrale	-11.6823
▁%.	-11.6825
▁dan	-11.6829
▁tru	-11.6829
▁fisici	-11.683
▁44	-11.6832
▁configura	-11.6833
▁oli	-11.6835
▁impro	-11.6837
▁xxiii	-11.6838
indirizzo	-11.6838
▁bir	-11.6839
tì	-11.6841
▁imperiali	-11.6841
▁sap	-11.6842
▁edizioni	-11.6843
rale	-11.6845
▁sper	-11.6846
▁leon	-11.6847
▁difensori	-11.6847
▁discipline	-11.6847
▁legislativi	-11.6847
▁marittima	-11.6847
▁procedimenti	-11.6847
▁prodotte	-11.6848
▁ritornato	-11.6848
▁formata	-11.6849
▁pianoforte	-11.6849
▁colora	-11.685
▁legalità	-11.6851
▁capri	-11.6851
▁ruppe	-11.6852
ms	-11.6853
▁slancio	-11.6857
▁caos	-11.6859
▁vetri	-11.6859
▁sorgente	-11.686
europe	-11.6864
▁affidata	-11.6864
▁matilde	-11.6865
▁55	-11.6868
▁cc	-11.6868
▁denunciare	-11.6868
▁fossimo	-11.6869
▁ori	-11.6871
▁individua	-11.6873
volo	-11.6875
▁consuetudine	-11.6877
▁mediterranea	-11.6878
▁contadino	-11.6878
▁medaglia	-11.6878
▁remo	-11.6879
▁dotati	-11.688
▁facevo	-11.6881
▁intervista	-11.6882
▁pasquale	-11.6884
▁assunzione	-11.6884
mere	-11.6889
entità	-11.6892
▁occhiali	-11.6896
▁propaga	-11.6896
▁sovrani	-11.6896
aveva	-11.6897
▁nos	-11.6899
▁ritra	-11.69
▁sperimenta	-11.6901
▁dovessi	-11.6905
▁andai	-11.6906
▁rispettivamente	-11.6907
▁montalto	-11.6908
▁mercante	-11.6908
goli	-11.6908
▁troveremo	-11.6909
▁volontaria	-11.6909
▁autentica	-11.6912
▁attaccato	-11.6914
▁esclusivo	-11.6914
▁assedio	-11.6914
▁palesa	-11.6914
let	-11.6915
▁scalda	-11.6917
▁giudiziarie	-11.6919
antica	-11.692
ologia	-11.6921
pio	-11.6921
▁avanzati	-11.6922
▁superfici	-11.6923
insegna	-11.6923
▁doma	-11.6925
▁rota	-11.6925
▁39	-11.6931
▁tributo	-11.6931
▁fasce	-11.6932
sport	-11.6936
▁sostenute	-11.6937
▁allegrezza	-11.6937
▁gradualmente	-11.6938
▁mazzini	-11.6938
▁funzionano	-11.6939
▁vorranno	-11.6939
▁nascono	-11.694
▁sancta	-11.6941
▁avvertire	-11.6942
▁prolunga	-11.6943
gestione	-11.6944
▁tranquilli	-11.6945
▁emozione	-11.6945
▁dazi	-11.6945
▁dispiacere	-11.6946
▁ku	-11.6947
▁bocche	-11.6947
▁interessata	-11.6952
▁vasti	-11.6955
▁parrebbe	-11.6958
▁sanitarie	-11.6959
▁stipula	-11.6959
▁part	-11.6964
▁dormiva	-11.6965
▁conservato	-11.6965
▁vinti	-11.6966
▁comporterebbe	-11.6968
▁varedo	-11.6968
▁muto	-11.6968
▁imbarcazioni	-11.6969
▁serpente	-11.6969
▁delegazioni	-11.697
esimo	-11.697
▁successe	-11.6971
▁esserlo	-11.6976
gione	-11.6978
▁umanitaria	-11.6981
ume	-11.6982
▁adoperarsi	-11.6982
▁muni	-11.699
▁gru	-11.6991
▁commi	-11.6991
);	-11.6992
▁colmare	-11.6992
berg	-11.6995
▁wh	-11.6995
detto	-11.6995
▁caratterizzata	-11.6997
▁deploro	-11.6998
▁sostenuti	-11.6998
▁interpreti	-11.6998
▁trascorsi	-11.6998
▁valoroso	-11.6998
▁olga	-11.6998
▁posteriori	-11.6998
vert	-11.6999
▁incerto	-11.6999
▁spezie	-11.6999
▁riusci	-11.7002
▁aperse	-11.7003
andamento	-11.7004
▁fr	-11.7009
▁abilita	-11.701
▁conclusi	-11.7011
logici	-11.7011
▁avventa	-11.7015
cultura	-11.7016
tela	-11.7017
▁pè	-11.7018
▁affermano	-11.7021
▁pazzia	-11.7022
▁pun	-11.7023
▁emana	-11.7025
cet	-11.7029
▁clinton	-11.7029
▁intreccia	-11.7029
▁visibili	-11.7029
▁pensionistici	-11.7029
▁forniscono	-11.7029
▁inviati	-11.703
▁tacque	-11.703
▁schiere	-11.7032
▁docenti	-11.7032
▁cornice	-11.7033
▁integrale	-11.7034
▁valenti	-11.7036
ther	-11.7037
fon	-11.7038
▁accessibili	-11.7038
▁65	-11.704
▁43	-11.7042
ben	-11.7044
▁generato	-11.7044
▁possede	-11.7046
▁inserita	-11.7046
▁premesse	-11.7047
▁assicurazione	-11.7048
▁abbonda	-11.705
▁maglia	-11.7051
▁mutare	-11.7054
▁lampada	-11.7059
▁conseguito	-11.7059
▁composizioni	-11.706
▁restaura	-11.7061
▁bombe	-11.7061
▁manager	-11.7061
▁bontá	-11.7062
▁seguaci	-11.7062
▁acciaio	-11.7065
veri	-11.7065
▁rivoluzioni	-11.7067
resti	-11.707
▁scava	-11.7072
▁trattasse	-11.7073
▁scegli	-11.7074
▁instaurare	-11.7074
▁inchiesta	-11.7077
▁carichi	-11.7078
lon	-11.7079
sus	-11.7082
albania	-11.7082
/&	-11.7082
▁possedere	-11.7083
▁aumentando	-11.7083
oceano	-11.7084
▁fallito	-11.7088
▁browser	-11.709
▁giulietta	-11.709
▁interiore	-11.709
▁lentezza	-11.7091
▁variabile	-11.7095
▁dissimula	-11.7098
▁affrontata	-11.71
niche	-11.7101
▁inoltra	-11.7101
▁capitato	-11.7106
▁bonino	-11.7106
▁fortunato	-11.7109
ctum	-11.7111
▁compatibili	-11.712
▁persecuzioni	-11.7121
▁ripetuto	-11.7121
▁sportivo	-11.7121
▁intelligenti	-11.7121
▁palestina	-11.7121
▁comparto	-11.7121
▁adagio	-11.7121
▁palacio	-11.7121
▁prospetta	-11.7121
49	-11.7122
▁facendosi	-11.7123
▁quarant	-11.7124
▁canoni	-11.7124
▁tornerà	-11.7124
▁decoro	-11.7125
▁eredità	-11.7125
▁finiscono	-11.7126
abba	-11.7128
▁cagion	-11.713
▁diffonde	-11.7131
▁creatore	-11.7132
▁sam	-11.7132
▁idro	-11.7132
▁provengono	-11.7132
▁pubblicate	-11.7133
▁maschio	-11.7135
oratore	-11.7142
▁mago	-11.7145
▁mastro	-11.7145
▁uscite	-11.7146
▁vigo	-11.7146
cari	-11.7149
▁pongo	-11.7151
▁produttivo	-11.7152
▁venduto	-11.7152
▁metropoli	-11.7152
▁violino	-11.7152
▁scorge	-11.7152
▁aderenti	-11.7152
▁manuale	-11.7152
▁riscaldamento	-11.7155
fin	-11.7157
▁altrettanti	-11.7161
/8	-11.7166
llum	-11.7167
▁vana	-11.7169
▁teologi	-11.717
▁anticipa	-11.717
▁secchi	-11.7173
▁devozione	-11.7177
▁cieca	-11.7178
▁mel	-11.7178
▁nobil	-11.7182
▁coordina	-11.7182
▁babilonia	-11.7182
▁cameriere	-11.7182
▁privacy	-11.7183
▁dogma	-11.7184
▁sentii	-11.7184
▁propongono	-11.7184
▁soffio	-11.7185
▁ridusse	-11.7185
▁combinato	-11.7187
▁duecento	-11.719
▁opportunamente	-11.719
dotti	-11.719
grafo	-11.7192
▁porgere	-11.7192
▁etica	-11.7194
▁versante	-11.7195
▁intensificare	-11.7196
▁lavoratore	-11.7199
▁toro	-11.7204
▁tappe	-11.7207
▁preventiva	-11.7208
▁tesa	-11.7209
▁dedicati	-11.721
▁governare	-11.721
▁camp	-11.7211
▁prioritaria	-11.7211
▁legittimi	-11.7212
▁chiamavano	-11.7212
pone	-11.7213
▁sciopero	-11.7214
▁invenzioni	-11.7214
▁stefania	-11.7214
▁cosė	-11.7214
▁crollo	-11.7216
▁perduti	-11.7216
▁interrompere	-11.7218
▁qualifiche	-11.7219
▁vocazione	-11.722
▁eguale	-11.722
▁compagna	-11.7222
▁pigliar	-11.7222
▁preserva	-11.7224
▁trionfa	-11.7224
ttato	-11.7225
▁pack	-11.7226
▁conquistato	-11.7228
▁causati	-11.7232
▁mormora	-11.7232
▁labbro	-11.7233
▁difendersi	-11.7234
reste	-11.7234
▁moltissime	-11.7235
▁impera	-11.7236
▁generare	-11.7236
▁veggo	-11.7238
▁messina	-11.7239
▁restando	-11.724
bito	-11.7241
▁selva	-11.7242
▁quattrocento	-11.7243
▁mele	-11.7244
age	-11.7244
▁congiunto	-11.7245
▁esemplari	-11.7245
▁scarse	-11.7245
▁operativi	-11.7247
▁balia	-11.7247
▁pap	-11.7247
▁life	-11.725
▁600	-11.725
▁transitorio	-11.7252
legge	-11.7253
▁acquisito	-11.7255
▁trip	-11.7256
▁rifiutato	-11.7257
▁proviamo	-11.7258
▁cime	-11.7259
ppia	-11.726
▁rivale	-11.7266
ô	-11.7267
▁rivelarsi	-11.7267
54	-11.7267
▁autorizzato	-11.7267
▁accettati	-11.7268
▁cagioni	-11.7269
▁rispondono	-11.7271
▁sen	-11.7273
▁direttrici	-11.7276
▁compromessi	-11.7276
▁ricetta	-11.7276
▁diplomazia	-11.7277
▁davide	-11.7277
▁valutato	-11.7278
▁santuario	-11.7278
▁tornati	-11.728
▁preadesione	-11.7282
▁rispondendo	-11.7283
▁dolcemente	-11.7286
▁accompagnati	-11.7286
▁misteri	-11.7287
▁saldo	-11.7287
gnoli	-11.7288
▁peggiora	-11.7288
▁clo	-11.729
ā	-11.7291
vennero	-11.7291
▁stanchi	-11.7291
▁negato	-11.7294
▁firme	-11.7297
▁http	-11.7297
▁insistito	-11.7298
▁decto	-11.7298
cher	-11.7299
▁stende	-11.73
▁curiosa	-11.7302
berto	-11.7303
▁cercar	-11.7304
▁insinua	-11.7305
▁elettrici	-11.7306
▁traduce	-11.7307
▁leopardi	-11.7307
▁avversa	-11.7308
▁oltrepassa	-11.7308
▁invitiamo	-11.7308
▁totalità	-11.7309
▁miserabile	-11.7309
▁indennità	-11.7311
▁avvertito	-11.7312
▁duramente	-11.7312
▁giustificata	-11.7312
▁affidamento	-11.7314
▁bell	-11.7315
iscrizione	-11.7315
▁andrò	-11.7317
▁illusione	-11.7318
▁proibi	-11.7319
▁war	-11.7319
▁urta	-11.7322
▁decreti	-11.7323
▁assalto	-11.7323
▁distante	-11.7327
gramma	-11.7327
▁certificati	-11.7327
▁scatta	-11.7328
▁sorse	-11.7332
▁presentava	-11.7333
▁47	-11.7337
▁appresta	-11.7337
▁th	-11.7337
▁radica	-11.7338
▁grand	-11.7339
▁appartamenti	-11.7339
▁calamità	-11.7339
▁deputata	-11.7339
▁malinconia	-11.7339
▁sollievo	-11.7339
▁parleremo	-11.7339
▁triangolo	-11.734
▁comprenda	-11.734
▁acuto	-11.7341
▁abbigliamento	-11.7343
ep	-11.7346
▁nascosta	-11.7347
pr	-11.7348
▁martiri	-11.735
▁fissazione	-11.735
▁intui	-11.7352
▁negro	-11.7353
▁tipici	-11.7358
▁raccomandato	-11.7359
▁emissione	-11.7363
▁impiegare	-11.7364
▁guadagni	-11.7365
detta	-11.7365
rita	-11.7368
▁sappi	-11.7369
gnolo	-11.737
▁azzurri	-11.737
▁cambogia	-11.737
▁lusinga	-11.737
▁sorprese	-11.737
▁clinica	-11.7371
▁promise	-11.7371
▁avversario	-11.7371
▁contribuirà	-11.7372
▁visibilità	-11.7372
cone	-11.7373
fino	-11.7373
ssum	-11.7373
▁(2	-11.7374
▁facce	-11.7374
▁abolire	-11.7375
▁sollecito	-11.7375
▁indotto	-11.738
34	-11.7381
▁ordinamento	-11.7381
▁appetito	-11.7381
▁tuono	-11.7382
▁contemplare	-11.7383
▁ricevette	-11.7386
▁fondamenta	-11.7388
▁giuliani	-11.7388
▁scopre	-11.7388
▁elenca	-11.7389
▁integra	-11.739
▁riparo	-11.739
▁fà	-11.7391
▁gene	-11.7391
39	-11.7391
apprendimento	-11.7393
▁demo	-11.7396
▁taluno	-11.7396
volmente	-11.7399
af	-11.74
▁trovasse	-11.7401
▁piaciuto	-11.7402
▁sfiducia	-11.7402
▁additivi	-11.7402
▁cadaveri	-11.7402
▁pria	-11.7403
▁omai	-11.7404
▁restituzione	-11.7404
▁guasto	-11.7404
▁pancia	-11.7405
▁parecchio	-11.7406
▁riposare	-11.7407
▁fotografie	-11.7409
▁onta	-11.7409
venisse	-11.7409
▁dispaccio	-11.7409
▁uffiziali	-11.741
mbro	-11.7414
▁studiosi	-11.7414
▁commesse	-11.7415
▁côrsi	-11.7415
ciò	-11.7417
▁insisto	-11.7419
▁recò	-11.7419
▁fissata	-11.7422
▁gridava	-11.7425
▁attraversando	-11.7425
▁congiuntura	-11.7428
▁lavor	-11.7428
epi	-11.743
▁pugnale	-11.7432
▁decreta	-11.7432
ucce	-11.7433
`	-11.7434
▁avvolge	-11.7434
▁qualsivoglia	-11.7434
▁soverchia	-11.7434
▁innovazioni	-11.7434
▁occulta	-11.7434
▁autonomo	-11.7434
▁banconote	-11.7434
▁paterna	-11.7435
▁sudore	-11.7437
▁riformare	-11.7438
xx	-11.7438
▁line	-11.7439
▁spostare	-11.7443
▁supporta	-11.7444
▁candida	-11.7449
▁dirgli	-11.7452
zer	-11.7453
erba	-11.7455
▁turbato	-11.7455
▁impugna	-11.7456
▁guardano	-11.7458
▁posse	-11.7463
▁rinunzia	-11.7463
▁convenuto	-11.7463
▁sostenitori	-11.7466
▁supplementare	-11.7466
▁benzina	-11.7466
▁inaccettabili	-11.7466
▁lulù	-11.7466
▁password	-11.7466
▁facebook	-11.7466
▁eccezionali	-11.7466
▁incomprensibile	-11.7466
▁adeguare	-11.7466
▁prometto	-11.7467
▁ricci	-11.7471
para	-11.7471
▁consegnare	-11.7471
▁vaglia	-11.7473
▁pagati	-11.7476
▁designato	-11.7477
▁redigere	-11.7478
▁atterra	-11.748
▁metterlo	-11.7481
▁rived	-11.7482
▁trae	-11.7482
più	-11.7483
▁qualcun	-11.7485
▁ingannato	-11.7486
▁garantendo	-11.7487
▁credevo	-11.749
acci	-11.7493
▁miseri	-11.7495
ons	-11.7496
▁analoghi	-11.7497
▁esplicito	-11.7497
▁lussemburghese	-11.7497
▁provveduto	-11.7497
▁scultore	-11.7497
▁seattle	-11.7497
▁sfollati	-11.7497
▁superfluo	-11.7497
▁cittadine	-11.7498
▁trattamenti	-11.7498
▁condivisione	-11.7498
▁radicalmente	-11.7498
▁dovresti	-11.7498
▁decadenza	-11.7498
▁verificarsi	-11.75
clo	-11.75
▁premessa	-11.7502
▁bagni	-11.7502
▁allevamento	-11.7504
▁colgo	-11.7505
▁distrutti	-11.7505
▁migratori	-11.7507
appello	-11.7511
▁iran	-11.7511
messe	-11.7512
▁darci	-11.7518
▁scaricare	-11.7519
gn	-11.7519
▁mina	-11.752
▁importantissimo	-11.7527
data	-11.7528
face	-11.7529
▁swoboda	-11.753
▁reattori	-11.753
▁invisibile	-11.753
▁compositore	-11.753
▁avuti	-11.753
▁saggia	-11.7531
▁tai	-11.7531
▁divisioni	-11.7532
▁1996.	-11.7533
▁lontananza	-11.7533
▁punizione	-11.7535
▁applicabili	-11.7535
▁arbitrio	-11.7537
▁pubblicazioni	-11.7538
▁voca	-11.754
▁volgo	-11.754
▁protestanti	-11.7541
▁annunci	-11.7542
▁celebrare	-11.7542
rali	-11.7543
▁assicuro	-11.7543
▁ovest	-11.7544
▁tipico	-11.7546
bert	-11.7546
ée	-11.7551
orientamento	-11.7552
▁emergere	-11.7552
▁celebri	-11.7553
▁laghi	-11.7553
▁aggiungono	-11.7554
▁immagino	-11.7554
95	-11.7555
ggiu	-11.7556
end	-11.7561
▁proponendo	-11.7561
▁arriv	-11.7561
▁ambiziosi	-11.7562
▁analoghe	-11.7562
▁gloriosa	-11.7562
attesa	-11.7565
▁distacca	-11.7565
▁card	-11.7567
▁rettifica	-11.7571
▁ram	-11.7572
▁trattate	-11.7573
amoci	-11.7578
▁delegato	-11.7578
▁esporta	-11.758
ting	-11.758
qu	-11.758
▁alimentazione	-11.758
▁picciol	-11.7581
▁trema	-11.7581
▁avanzi	-11.7586
▁vos	-11.7588
atura	-11.7589
rni	-11.759
▁parmi	-11.7592
sani	-11.7593
▁riflesso	-11.7594
▁rigido	-11.7594
▁disturbi	-11.7594
▁dollaro	-11.7594
▁soccorsi	-11.7594
▁uscendo	-11.7594
▁avventure	-11.7594
▁spiagge	-11.7595
▁num	-11.7598
▁apparisce	-11.7598
▁ridi	-11.7599
▁simul	-11.7599
sor	-11.76
▁scusate	-11.7602
▁provvisoria	-11.7603
▁combattenti	-11.7604
cata	-11.7604
▁abituati	-11.7605
▁bancario	-11.7615
▁accadendo	-11.7618
▁volessero	-11.7618
▁sezioni	-11.7619
▁abbina	-11.7619
eco	-11.762
▁mogli	-11.7623
1,	-11.7626
▁marittimi	-11.7626
▁ristretto	-11.7626
▁chimici	-11.7626
▁occupazionali	-11.7627
▁divinità	-11.7627
▁piglio	-11.7628
▁larghezza	-11.7628
▁potenziamento	-11.7628
▁incarna	-11.7628
▁seppelli	-11.7629
▁proximo	-11.763
▁monaci	-11.763
▁difatti	-11.763
mati	-11.763
▁troua	-11.7634
▁xxii	-11.764
zzò	-11.7642
appa	-11.7643
▁trasportare	-11.7644
netto	-11.7644
▁vitto	-11.7645
isse	-11.7645
▁esercitato	-11.7646
▁sospira	-11.7647
gin	-11.7647
▁cl	-11.7649
osservatorio	-11.765
▁rimuovere	-11.7652
▁autonoma	-11.7653
▁corregge	-11.7653
▁tornarono	-11.7655
clu	-11.7656
▁gel	-11.7657
▁quadra	-11.7658
▁posi	-11.7658
▁festeggia	-11.7658
▁multilaterale	-11.7659
▁parallelo	-11.7659
▁visconti	-11.7659
▁accesa	-11.7659
▁sporge	-11.7659
▁flotte	-11.766
▁affascinante	-11.7662
▁esperimento	-11.7663
▁delega	-11.7666
▁grafica	-11.7667
nina	-11.7668
bol	-11.7669
▁esci	-11.7669
pide	-11.7671
▁proto	-11.7671
dati	-11.7672
▁riprova	-11.7674
▁scrissi	-11.7675
asso	-11.7675
▁dui	-11.7676
▁carezza	-11.768
▁portale	-11.7681
▁anticipare	-11.7682
▁stavamo	-11.7682
▁testimonia	-11.7685
▁riflessi	-11.769
▁clandestini	-11.7691
▁detenzione	-11.7691
▁valgono	-11.7692
▁profferi	-11.7692
▁grandemente	-11.7693
▁ironia	-11.7694
▁contorni	-11.7695
▁esponenti	-11.7696
▁ricevi	-11.7696
tali	-11.7696
▁mangimi	-11.7696
porto	-11.7696
▁gratuitamente	-11.7696
▁campane	-11.7698
▁intimi	-11.77
▁indicate	-11.7701
cole	-11.7702
vreste	-11.7703
▁professioni	-11.7707
▁specialisti	-11.7707
▁sembravano	-11.771
▁remi	-11.771
▁valenza	-11.7711
▁socrate	-11.7711
▁consolida	-11.7711
scritto	-11.7715
autunno	-11.7715
lui	-11.772
▁conosca	-11.7721
▁sb	-11.7724
▁barbarie	-11.7724
▁consideri	-11.7724
▁cimitero	-11.7724
▁interlocutori	-11.7724
▁suppongo	-11.7724
▁automatico	-11.7724
▁opprime	-11.7724
▁thomas	-11.7724
▁accogliamo	-11.7724
▁blog	-11.7724
▁declina	-11.7725
▁sportello	-11.7725
▁jack	-11.7727
rocca	-11.7729
▁fulmine	-11.7729
▁pronunciarsi	-11.7734
▁ispirazione	-11.7734
▁solidale	-11.7734
▁beato	-11.7734
▁discordia	-11.7735
▁bill	-11.7735
-1	-11.7735
▁affonda	-11.7736
▁reggere	-11.7738
▁cangia	-11.7739
uca	-11.774
▁saperne	-11.7743
▁lino	-11.7743
▁parer	-11.7746
cura	-11.7746
▁alzare	-11.7747
dente	-11.7747
▁addormenta	-11.7749
▁leggiamo	-11.7751
▁riccio	-11.7754
▁quant	-11.7755
▁esatta	-11.7756
ultraperiferiche	-11.7757
▁raccolse	-11.7757
▁respinta	-11.7757
▁conclusa	-11.7757
▁banana	-11.7757
▁costanzo	-11.7759
▁facit	-11.7759
▁gil	-11.7759
▁approfondimento	-11.7761
llina	-11.7763
▁spunto	-11.7765
▁scio	-11.7767
▁arrampica	-11.777
▁migliorato	-11.7771
▁giunte	-11.7772
▁monsignor	-11.7772
▁stringendo	-11.7772
▁sollevati	-11.7773
▁leggono	-11.7774
ning	-11.7776
ridi	-11.778
▁genero	-11.778
ive	-11.778
▁mamme	-11.778
▁pastori	-11.778
▁aggiunti	-11.7781
▁salvato	-11.7781
▁guadagnato	-11.7782
▁integrati	-11.7783
guard	-11.7785
▁suscitare	-11.7785
ä	-11.779
▁cerimonie	-11.779
▁clausole	-11.779
▁panurgo	-11.779
▁biotecnologia	-11.779
▁cacao	-11.779
▁clara	-11.779
▁riconosciamo	-11.779
▁scontri	-11.7791
▁drammatico	-11.7791
▁malizia	-11.7791
▁comitatologia	-11.7792
▁climatico	-11.7793
▁inalborato	-11.7793
▁lavorativa	-11.7794
▁gaza	-11.7795
sú	-11.7796
▁seguirà	-11.7797
▁arde	-11.7797
/2001	-11.78
▁sonetto	-11.7801
▁salì	-11.7801
▁risulti	-11.7803
▁conteneva	-11.7803
▁habe	-11.7806
gel	-11.7809
▁ripi	-11.781
▁milla	-11.781
▁costruita	-11.781
▁pretese	-11.7813
▁pregiudizio	-11.7815
zzano	-11.7815
ssimamente	-11.7816
▁stimato	-11.7816
▁spontanea	-11.7817
▁pulci	-11.7817
lor	-11.7819
▁estesa	-11.7819
▁mito	-11.7822
▁fontaine	-11.7823
▁giordano	-11.7823
▁pakistan	-11.7823
▁rotonda	-11.7823
▁siffatto	-11.7823
▁muscoli	-11.7823
▁riconobbe	-11.7823
▁laurenti	-11.7823
▁difeso	-11.7823
▁interrotto	-11.7823
▁casti	-11.7824
▁sollecitudine	-11.7824
▁cantieri	-11.7825
▁legalmente	-11.7825
▁riconoscenza	-11.7828
▁repubblicana	-11.7829
▁appropriato	-11.7831
▁eleganti	-11.7834
▁tazza	-11.7837
▁letterati	-11.7839
▁fisi	-11.7839
▁disarmo	-11.7843
▁incorpora	-11.7845
archi	-11.7846
▁colonie	-11.7846
▁appassionati	-11.7847
▁ascoltando	-11.785
▁herman	-11.785
▁svantaggi	-11.7852
▁penne	-11.7852
▁adatti	-11.7854
▁cambiata	-11.7856
▁cresciuta	-11.7856
▁inammissibile	-11.7856
▁precetti	-11.7856
▁potenzialmente	-11.7856
▁concertazione	-11.7856
▁smantellamento	-11.7857
▁riduzioni	-11.7857
▁officio	-11.7857
▁fummo	-11.7858
rosa	-11.786
▁leggeva	-11.7862
mal	-11.7863
▁temporali	-11.7867
51	-11.7869
▁cristalli	-11.7875
66	-11.7875
mene	-11.7877
▁distribu	-11.7879
▁ristabilire	-11.7879
eccezione	-11.788
▁autonomi	-11.7881
▁convien	-11.7887
▁cuci	-11.7887
▁cat	-11.7888
▁cli	-11.7888
▁irlandesi	-11.7889
▁lucchesi	-11.7889
▁replicò	-11.7889
▁teatrale	-11.7889
▁mezzanotte	-11.7889
vani	-11.7889
▁comunali	-11.7889
▁fiorentina	-11.7889
▁misterioso	-11.7889
▁impressioni	-11.7889
▁riteneva	-11.7889
▁voterà	-11.789
64	-11.789
▁schede	-11.7891
fia	-11.7891
▁combatt	-11.7892
85	-11.7894
▁prosegui	-11.7894
▁constatazione	-11.7894
▁stavolta	-11.7895
▁dianzi	-11.7895
▁contado	-11.7897
▁irre	-11.7897
▁preparata	-11.7898
▁seguirono	-11.7898
▁stanziati	-11.79
▁avvili	-11.7901
▁jean	-11.7904
▁vedevo	-11.7904
▁13,	-11.791
dette	-11.7911
▁fori	-11.7912
▁peter	-11.7916
▁colpita	-11.7919
▁manipola	-11.792
▁bici	-11.792
▁flessibili	-11.7921
▁diventava	-11.7921
▁efficienti	-11.7922
▁stupenda	-11.7922
▁fisonomi	-11.7922
▁portarono	-11.7922
▁ebreo	-11.7924
▁innamora	-11.7924
posto	-11.7925
▁france	-11.7926
▁acido	-11.7927
▁abitudine	-11.7927
▁sentieri	-11.7929
dda	-11.7929
▁up	-11.7929
▁rialza	-11.7933
▁flo	-11.7934
▁parentesi	-11.7935
▁paesaggi	-11.7935
▁scontato	-11.7936
▁allargamento	-11.7936
▁ingegneri	-11.7937
▁quadrata	-11.7938
▁rou	-11.7947
▁favorito	-11.7948
▁sfo	-11.7948
▁teologia	-11.7949
▁vietato	-11.7953
▁zan	-11.7953
▁carburante	-11.7956
▁liikanen	-11.7956
▁olandesi	-11.7956
▁svedesi	-11.7956
▁onestà	-11.7956
▁affatica	-11.7957
▁martire	-11.7957
▁varo	-11.7958
▁iscrizione	-11.7958
▁societa	-11.7958
▁cospira	-11.7959
▁discendenti	-11.796
▁succo	-11.7961
▁tollerare	-11.7963
▁trovino	-11.7963
▁sacre	-11.7965
▁assistenti	-11.797
▁sollecitare	-11.7971
▁liceo	-11.7971
▁avean	-11.7971
▁commerci	-11.7972
▁pronte	-11.7974
▁insulari	-11.7974
▁bob	-11.7976
▁allarme	-11.7976
▁audio	-11.7977
▁orna	-11.7979
▁gor	-11.7979
▁veruna	-11.798
vedi	-11.798
▁mazzo	-11.7981
immunità	-11.7981
▁rivolse	-11.7987
▁macchie	-11.7987
▁difficolt	-11.7989
▁coerenti	-11.7989
▁fascicolo	-11.799
▁stringa	-11.7991
▁freccia	-11.7991
▁sciocca	-11.7992
▁solite	-11.7992
▁discorrere	-11.7992
▁terze	-11.7993
▁abitazioni	-11.7993
▁sottrarsi	-11.7994
▁sancto	-11.7994
▁bevuto	-11.7994
▁1000	-11.7996
han	-11.7996
▁tagliato	-11.7999
▁proverbio	-11.8
▁doccia	-11.8001
▁gesta	-11.8004
▁vincola	-11.8004
▁garantisca	-11.8004
cale	-11.8005
nari	-11.8006
setto	-11.8008
▁mancavano	-11.8009
▁cali	-11.801
▁auspicio	-11.801
▁molla	-11.8012
▁asciuga	-11.8013
adeguamento	-11.8014
▁fiere	-11.8016
▁prevalere	-11.8016
▁ascende	-11.8018
▁finiti	-11.8019
invito	-11.8019
▁grammatica	-11.8023
▁anteriore	-11.8023
▁performance	-11.8023
▁scelti	-11.8023
▁perugia	-11.8023
▁convivenza	-11.8023
▁catania	-11.8024
▁mentalità	-11.8024
▁sincerità	-11.8024
▁osservò	-11.8025
▁prelati	-11.8025
▁sottoposte	-11.8025
▁sportiva	-11.8025
▁posiziona	-11.8025
▁tasche	-11.8026
▁spento	-11.8026
▁eleganza	-11.8026
▁pila	-11.8027
din	-11.8028
▁approvo	-11.8032
uali	-11.8032
▁scoraggia	-11.8035
▁geme	-11.804
500	-11.804
▁suggerire	-11.8046
osce	-11.8048
▁approfittare	-11.8049
▁ricade	-11.8049
▁separato	-11.805
?!	-11.8052
▁scomunica	-11.8055
operato	-11.8057
▁commenta	-11.8057
▁piscina	-11.8059
▁trapassa	-11.8062
▁meditazione	-11.8062
▁sperimentale	-11.8063
meno	-11.8064
▁asseri	-11.8064
▁lutto	-11.8066
▁agente	-11.8069
▁sodo	-11.8071
▁tentando	-11.8072
▁parlate	-11.8073
▁finanziato	-11.8076
▁propose	-11.8079
nismo	-11.8081
rìa	-11.8081
terra	-11.8082
▁lido	-11.8086
▁finanzia	-11.8088
crimina	-11.8091
▁ladislao	-11.8091
▁legislatore	-11.8091
▁periferiche	-11.8091
▁unilaterale	-11.8091
▁leccardo	-11.8091
▁pecunia	-11.8091
▁portavoce	-11.8091
▁tessile	-11.8091
▁acciocchè	-11.8091
▁esposta	-11.8091
▁anniversario	-11.8092
▁caserta	-11.8092
▁possi	-11.8094
▁giogo	-11.8097
▁occidente	-11.8097
▁imbarca	-11.8099
dar	-11.81
▁sacrifizio	-11.8104
▁unisce	-11.8104
▁giunsero	-11.8106
celle	-11.8108
riche	-11.8109
vre	-11.811
▁ripeteva	-11.8113
▁giocatore	-11.8113
[...]
