<unk>	0
<s>	0
</s>	0
▁di	-3.46171
,	-3.5351
▁e	-3.67788
.	-3.79965
▁che	-3.93792
▁la	-4.04145
▁il	-4.12188
▁in	-4.28664
▁a	-4.33128
'	-4.51023
▁per	-4.51548
▁un	-4.586
▁non	-4.63971
▁è	-4.79332
▁del	-4.84415
▁i	-4.88927
▁le	-4.89584
▁si	-4.94841
▁della	-5.00969
▁una	-5.05689
▁l	-5.06253
▁con	-5.17825
’	-5.35193
▁da	-5.36305
▁al	-5.46041
▁ma	-5.56103
▁dei	-5.57931
▁più	-5.64038
▁come	-5.67475
▁gli	-5.68205
▁sono	-5.71016
▁alla	-5.75341
▁nel	-5.78783
▁delle	-5.79102
▁dell	-5.79265
▁questo	-5.80465
▁se	-5.82612
:	-5.82732
▁ha	-5.90471
▁o	-6.0091
▁lo	-6.0347
▁anche	-6.05383
re	-6.11029
▁ed	-6.17872
▁ad	-6.1955
▁mi	-6.20096
no	-6.21493
▁nella	-6.29556
▁ci	-6.33341
▁questa	-6.3486
to	-6.38613
▁era	-6.38787
▁commissione	-6.40071
▁cui	-6.40839
▁dal	-6.41847
▁essere	-6.43927
i	-6.44254
ta	-6.45507
▁loro	-6.45832
▁.	-6.47392
▁all	-6.47786
te	-6.51515
▁sua	-6.51774
ti	-6.527
▁tutti	-6.54295
▁suo	-6.5557
a	-6.5845
va	-6.58633
▁ai	-6.60762
▁su	-6.60901
e	-6.61376
▁alle	-6.61964
o	-6.6227
?	-6.63558
▁degli	-6.63563
▁stato	-6.68209
▁tra	-6.68512
▁-	-6.71262
▁sia	-6.71845
▁presidente	-6.73149
▁*	-6.7442
▁d	-6.75504
▁stati	-6.75689
▁vi	-6.76125
▁dalla	-6.76158
▁europea	-6.77114
▁ne	-6.78177
▁io	-6.78958
▁tutto	-6.79088
▁due	-6.79808
▁così	-6.8054
▁parte	-6.81696
▁ho	-6.83076
▁sul	-6.83839
▁quanto	-6.84288
s	-6.84455
▁quando	-6.8479
▁de	-6.84955
▁signor	-6.85437
▁fatto	-6.86178
▁(	-6.88826
▁solo	-6.88877
▁molto	-6.89853
▁sulla	-6.90278
▁hanno	-6.90469
ndo	-6.93697
▁cosa	-6.94047
r	-6.95003
▁prima	-6.95056
▁modo	-6.96904
▁senza	-6.97328
unione	-6.97862
▁parlamento	-6.98384
▁ancora	-6.99538
;	-6.99778
▁"	-7.00865
▁quale	-7.0109
▁quella	-7.02596
▁ciò	-7.0471
▁consiglio	-7.05146
▁ogni	-7.05322
▁poi	-7.05344
▁mio	-7.06205
▁abbiamo	-7.06209
▁può	-7.06239
▁perché	-7.07143
▁fu	-7.07452
▁uno	-7.07569
▁noi	-7.08843
▁sempre	-7.09947
▁altri	-7.10384
▁c	-7.11656
▁tempo	-7.12388
▁già	-7.12617
▁dopo	-7.13182
▁fare	-7.14418
▁relazione	-7.14588
▁quello	-7.15572
▁questi	-7.16953
▁nei	-7.16982
▁anni	-7.18202
▁fa	-7.18994
▁me	-7.19618
▁nell	-7.21147
▁aveva	-7.21337
▁ora	-7.21636
si	-7.23181
▁quindi	-7.23381
▁politica	-7.234
▁paesi	-7.2388
▁tale	-7.26519
▁nelle	-7.26532
-	-7.26665
▁quel	-7.27867
▁chi	-7.28816
▁egli	-7.29007
)	-7.2908
▁qui	-7.30457
▁quali	-7.30857
▁–	-7.31475
▁lavoro	-7.33488
▁	-7.33991
chi	-7.34035
▁vita	-7.34739
rsi	-7.35568
▁membri	-7.3592
▁europeo	-7.36576
▁fra	-7.37591
▁mia	-7.38344
!	-7.39499
▁contro	-7.39729
vano	-7.40183
▁suoi	-7.40304
▁tutte	-7.40738
▁lui	-7.40896
▁volta	-7.43246
▁deve	-7.44135
ne	-7.44653
▁dove	-7.45683
ni	-7.45869
▁re	-7.46206
▁punto	-7.4695
sse	-7.47512
▁nostro	-7.47814
▁dall	-7.49253
▁secondo	-7.49687
▁perchè	-7.50138
le	-7.50265
▁mai	-7.50298
▁grande	-7.50372
▁queste	-7.50526
▁altro	-7.50538
mente	-7.52366
▁proprio	-7.52601
▁lei	-7.53461
▁,	-7.53822
▁ti	-7.55401
mot	-7.55523
▁mondo	-7.55794
è	-7.55835
▁oggi	-7.56261
▁bene	-7.57422
▁dire	-7.57625
▁tanto	-7.58068
▁primo	-7.58155
na	-7.59319
▁sotto	-7.59601
▁giorno	-7.59729
▁siamo	-7.59769
▁stesso	-7.59994
▁nostra	-7.60081
▁sarà	-7.60723
▁col	-7.61345
▁qualche	-7.62047
▁li	-7.62398
n	-7.63191
▁dobbiamo	-7.63207
▁tre	-7.63407
▁agli	-7.64318
▁dai	-7.64361
▁vorrei	-7.64913
▁alcuni	-7.65121
▁fine	-7.65248
ri	-7.65408
▁tu	-7.65484
▁stata	-7.65758
▁“	-7.66952
▁allora	-7.67035
▁sarebbe	-7.67671
li	-7.67684
ro	-7.67871
nte	-7.68023
▁via	-7.68453
▁caso	-7.68891
▁erano	-7.69139
▁no	-7.69515
▁proposta	-7.69555
▁detto	-7.70626
▁forse	-7.70849
▁sue	-7.71049
▁però	-7.71334
▁dalle	-7.72501
▁?	-7.72679
▁sta	-7.73392
▁voi	-7.7377
▁diritti	-7.73777
▁cose	-7.73894
▁far	-7.74001
t	-7.74081
▁paese	-7.74323
"	-7.74878
▁nome	-7.75194
▁meno	-7.75579
▁commissario	-7.76554
▁tuttavia	-7.76794
▁problema	-7.77328
▁importante	-7.77395
▁persone	-7.77493
▁altre	-7.78062
▁sì	-7.79289
▁casa	-7.79584
▁va	-7.79618
rono	-7.80003
▁momento	-7.80163
▁sviluppo	-7.80461
la	-7.80598
▁poco	-7.80715
l	-7.80921
▁sulle	-7.81058
▁fosse	-7.81069
▁verso	-7.81106
▁nuovo	-7.81853
onorevole	-7.82112
▁possibile	-7.83233
▁s	-7.83433
...	-7.83661
nti	-7.83684
▁questione	-7.84371
▁tutta	-7.84617
▁po	-7.84979
▁molti	-7.86244
▁cittadini	-7.86483
ci	-7.87047
▁gruppo	-7.87927
▁città	-7.88548
▁quelle	-7.88848
▁mentre	-7.89342
▁particolare	-7.90412
m	-7.90549
vi	-7.91025
▁nostri	-7.91263
▁sui	-7.91501
▁comune	-7.91563
▁dello	-7.91672
▁tratta	-7.91832
▁avere	-7.91835
▁sicurezza	-7.91847
zione	-7.92333
▁quasi	-7.92482
▁signora	-7.92895
▁situazione	-7.93094
▁luogo	-7.933
▁gran	-7.93431
▁ben	-7.93566
▁so	-7.93858
europa	-7.94392
▁te	-7.94717
▁diritto	-7.9475
▁livello	-7.95681
▁esempio	-7.95796
▁governo	-7.95928
▁inoltre	-7.9607
rlo	-7.96151
▁certo	-7.96914
mo	-7.97181
▁rispetto	-7.97448
▁invece	-7.98993
▁vero	-7.99082
▁fino	-7.99131
▁sistema	-7.99196
▁nè	-8.00167
▁sull	-8.00501
ò	-8.01305
▁possono	-8.01538
▁base	-8.02719
▁tali	-8.03126
▁mercato	-8.04436
▁settore	-8.04507
lo	-8.04744
▁viene	-8.04942
mi	-8.05002
se	-8.05647
vo	-8.07363
▁troppo	-8.07366
▁materia	-8.08184
▁sopra	-8.08757
▁credo	-8.08773
▁mano	-8.09096
▁parole	-8.09193
▁negli	-8.09505
▁aver	-8.11083
▁sa	-8.11366
▁onorevole	-8.11388
▁allo	-8.12028
▁siano	-8.12307
rà	-8.13175
▁volte	-8.1361
▁generale	-8.13719
▁guerra	-8.1375
▁favore	-8.13831
▁dio	-8.14035
▁occhi	-8.14993
▁problemi	-8.15716
▁riguarda	-8.15977
▁stessa	-8.1601
▁oltre	-8.1635
▁quelli	-8.16406
▁donne	-8.16453
▁programma	-8.16919
▁colleghi	-8.17027
▁processo	-8.17363
▁possiamo	-8.17384
▁n	-8.17924
co	-8.17997
ca	-8.1836
▁nuova	-8.18996
▁disse	-8.19658
▁meglio	-8.20081
▁roma	-8.20208
▁numero	-8.20333
▁sei	-8.20645
▁terra	-8.20668
▁donna	-8.21404
▁dunque	-8.21482
▁anno	-8.2156
▁pertanto	-8.21757
▁devono	-8.218
▁grandi	-8.21858
▁ri	-8.22222
▁sociale	-8.22408
▁direttiva	-8.22799
▁uomini	-8.22967
▁soprattutto	-8.23142
▁nulla	-8.23196
▁insieme	-8.23415
▁mezzo	-8.23695
▁infatti	-8.24255
▁necessario	-8.24356
rmi	-8.24699
▁dato	-8.24949
▁avrebbe	-8.25138
di	-8.25139
rla	-8.25213
▁discussione	-8.26217
▁lungo	-8.26434
”	-8.2653
▁onorevoli	-8.26766
▁grazie	-8.2685
▁soltanto	-8.26959
▁conto	-8.27113
▁maggiore	-8.2738
so	-8.27484
▁futuro	-8.27658
▁bisogno	-8.27722
mento	-8.27804
▁alcune	-8.27914
▁dice	-8.2801
▁libertà	-8.28076
▁essa	-8.28134
sa	-8.28207
▁vista	-8.28341
▁società	-8.28724
▁quest	-8.29063
▁essi	-8.29084
▁bilancio	-8.29404
▁storia	-8.29534
▁senso	-8.29592
▁morte	-8.29713
▁vedere	-8.29882
▁porta	-8.29898
▁cuore	-8.29922
▁giorni	-8.30023
▁possa	-8.31762
sti	-8.3211
▁popolo	-8.32332
▁corso	-8.32349
▁europa	-8.32432
▁ella	-8.32836
▁campo	-8.32892
de	-8.32925
▁et	-8.33303
▁posizione	-8.33305
▁parti	-8.33946
▁ricerca	-8.34
▁potrebbe	-8.34126
▁dare	-8.34655
▁fuori	-8.35005
▁forza	-8.35332
▁pace	-8.35915
▁misure	-8.36796
amo	-8.36895
▁possibilità	-8.37118
▁ecco	-8.37984
▁sembra	-8.38126
▁nostre	-8.38335
tta	-8.38424
rci	-8.38746
▁emendamenti	-8.38748
▁abbia	-8.38786
▁uomo	-8.38822
▁legge	-8.39062
▁né	-8.39086
▁servizi	-8.39361
▁posto	-8.3951
ssero	-8.39668
▁capo	-8.39732
▁dovrebbe	-8.39773
▁presente	-8.39844
▁forma	-8.39932
▁risposta	-8.40303
c	-8.40308
▁tal	-8.40587
d	-8.40906
▁grado	-8.4115
▁spesso	-8.41419
▁europei	-8.41459
▁propria	-8.41522
▁proposte	-8.41635
zioni	-8.41649
▁fece	-8.4197
▁presso	-8.42282
▁trattato	-8.42375
anno	-8.42719
▁buona	-8.42834
▁state	-8.43319
▁nuovi	-8.4332
ma	-8.43328
▁principio	-8.43341
▁necessità	-8.43408
▁«	-8.43477
▁ragione	-8.43487
▁condizioni	-8.44494
▁molte	-8.44581
▁posso	-8.44726
▁fronte	-8.44824
▁durante	-8.45261
▁pure	-8.45295
sta	-8.45343
▁voce	-8.45537
▁parola	-8.45873
▁quadro	-8.46044
▁passo	-8.46061
▁padre	-8.46301
▁realtà	-8.46587
▁appena	-8.46673
▁davvero	-8.46916
ve	-8.46963
▁causa	-8.4701
▁visto	-8.47126
x	-8.47374
altro	-8.47386
ra	-8.47387
▁internazionale	-8.4746
▁dagli	-8.477
▁buon	-8.47744
▁domanda	-8.48013
▁co	-8.48033
ssi	-8.48112
▁qualità	-8.48421
▁quei	-8.48578
▁gente	-8.491
▁avuto	-8.49118
▁progetto	-8.49152
▁unione	-8.49411
▁desidero	-8.49608
).	-8.49862
▁cioè	-8.49942
▁ce	-8.50198
▁là	-8.50733
▁piano	-8.50855
▁mani	-8.50897
▁seconda	-8.51006
▁cooperazione	-8.51827
▁circa	-8.52247
▁attività	-8.52394
▁merito	-8.52454
rne	-8.52496
▁politiche	-8.52555
▁pur	-8.53171
▁forte	-8.5332
tti	-8.53998
▁controllo	-8.54066
▁poter	-8.54287
▁quattro	-8.54315
▁presidenza	-8.54465
▁umani	-8.54488
▁voglio	-8.54591
▁tipo	-8.54711
▁saranno	-8.55138
▁nuove	-8.55657
in	-8.56228
ce	-8.56431
▁san	-8.56443
▁tempi	-8.56548
▁occorre	-8.56635
▁avevano	-8.56978
tte	-8.57026
▁ruolo	-8.57153
accordo	-8.57325
▁hai	-8.57363
▁accordo	-8.575
▁strada	-8.57517
▁subito	-8.57531
▁tuo	-8.57681
ndosi	-8.57805
▁miei	-8.5802
▁natura	-8.58166
▁vengono	-8.58286
▁diversi	-8.58404
▁comunità	-8.58493
▁luce	-8.59048
▁adesso	-8.59292
▁esso	-8.59617
▁2	-8.59635
▁risoluzione	-8.59699
▁regolamento	-8.59818
▁milioni	-8.60001
▁qualcosa	-8.60074
▁dati	-8.60252
▁attraverso	-8.60411
▁fondo	-8.60546
▁nessuno	-8.60642
▁riguardo	-8.60876
▁male	-8.61027
che	-8.6106
▁nazionale	-8.61165
▁infine	-8.62004
ssimo	-8.62033
▁imprese	-8.62062
rli	-8.62224
▁andare	-8.62247
▁regno	-8.62461
▁prodotti	-8.62586
▁nazionali	-8.62732
▁italia	-8.62787
▁persona	-8.62881
ranno	-8.63225
▁comunque	-8.63329
▁seguito	-8.63338
▁francia	-8.63962
▁termine	-8.64195
▁maggior	-8.64422
▁furono	-8.6448
▁informazioni	-8.64571
tà	-8.64923
y	-8.64956
/	-8.65021
▁responsabilità	-8.65216
▁garantire	-8.65471
▁fatti	-8.65528
▁cento	-8.66016
▁decisione	-8.6629
▁qual	-8.66511
p	-8.66562
▁pubblica	-8.66595
▁pubblico	-8.66765
▁coloro	-8.66953
▁famiglia	-8.67252
▁1	-8.67358
▁parere	-8.67702
▁periodo	-8.6776
▁avanti	-8.67832
▁motivo	-8.68139
▁parlare	-8.68197
▁bella	-8.68214
▁'	-8.68239
▁sostegno	-8.68342
▁lotta	-8.68796
▁uniti	-8.68856
azione	-8.69207
▁!	-8.69338
▁mesi	-8.69556
▁chiesa	-8.69605
▁almeno	-8.69617
gli	-8.69671
▁ritengo	-8.69763
tto	-8.70131
▁prendere	-8.70192
▁oh	-8.70223
▁obiettivi	-8.70452
▁autorità	-8.70765
▁potuto	-8.70886
▁relazioni	-8.70927
▁poteva	-8.70972
▁dibattito	-8.71161
▁deputati	-8.71239
▁colla	-8.71412
▁punti	-8.71553
▁ii	-8.71954
▁3	-8.71966
▁euro	-8.72033
da	-8.72163
g	-8.72189
io	-8.72299
rle	-8.72495
▁corpo	-8.72706
▁papa	-8.72865
▁anzi	-8.72867
▁trovare	-8.73183
rò	-8.73267
bile	-8.7338
▁diverse	-8.73418
▁testa	-8.73476
▁ore	-8.7369
▁testo	-8.73749
▁poiché	-8.73926
▁bisogna	-8.74147
▁giustizia	-8.74554
▁libro	-8.74786
▁questioni	-8.74854
▁politico	-8.75155
▁sede	-8.75166
b	-8.75173
▁vuole	-8.75254
▁fondi	-8.75407
▁fin	-8.75428
▁aiuti	-8.75567
▁corte	-8.75593
▁vogliamo	-8.75609
▁intorno	-8.75804
▁signore	-8.75826
▁difficile	-8.76158
▁fanno	-8.7616
▁assai	-8.76319
▁relatore	-8.7634
▁pare	-8.76497
altra	-8.76505
zza	-8.76524
▁tua	-8.76585
▁stiamo	-8.76746
".	-8.7683
▁son	-8.77042
▁faccia	-8.77668
rvi	-8.77835
▁significa	-8.77857
▁altra	-8.77867
▁notte	-8.78109
▁prova	-8.78111
▁risorse	-8.78746
▁breve	-8.78808
▁casi	-8.78966
▁effetti	-8.79457
▁alcun	-8.79604
me	-8.79711
▁nello	-8.79746
▁successo	-8.79829
▁sola	-8.7991
ste	-8.79914
▁sera	-8.80108
▁proposito	-8.8024
lla	-8.80322
▁pro	-8.8042
do	-8.80451
▁mare	-8.80467
▁soluzione	-8.80588
▁istituzioni	-8.80591
▁avesse	-8.80687
▁salute	-8.80753
▁bambini	-8.80975
▁valore	-8.81065
▁norme	-8.81108
▁ultimi	-8.8131
▁migliore	-8.81714
ria	-8.8192
▁veramente	-8.81948
▁pari	-8.8206
▁v	-8.82467
▁spirito	-8.82827
▁tema	-8.82898
▁piuttosto	-8.83037
▁pochi	-8.83039
▁economica	-8.83069
▁potere	-8.8325
▁sapere	-8.83344
▁innanzi	-8.83441
▁madre	-8.83748
▁servizio	-8.83984
▁principi	-8.84037
▁sole	-8.84135
▁passato	-8.84165
▁cinque	-8.84215
▁sè	-8.84267
▁giovani	-8.84396
▁nonché	-8.84412
▁attenzione	-8.84669
▁vostra	-8.84883
▁serie	-8.85442
▁chiaro	-8.85655
▁misura	-8.857
u	-8.85711
▁linea	-8.85764
▁conte	-8.85953
▁mettere	-8.86113
▁importanti	-8.86148
ga	-8.86244
▁terzo	-8.8627
▁dietro	-8.8668
▁termini	-8.86873
▁qualsiasi	-8.87099
▁pesca	-8.87239
il	-8.87401
▁rappresenta	-8.87479
▁data	-8.88007
menti	-8.88127
▁creare	-8.88157
▁regioni	-8.88197
▁partito	-8.88523
▁ve	-8.88701
▁protezione	-8.88724
▁maniera	-8.88735
▁sociali	-8.89159
▁4	-8.89258
interno	-8.89282
▁spazio	-8.89615
▁avete	-8.89646
▁lettera	-8.89649
bili	-8.89835
▁primi	-8.90039
▁vostro	-8.901
▁qua	-8.9011
▁5	-8.90159
▁risultati	-8.90171
▁stessi	-8.90237
▁affinché	-8.90316
▁penso	-8.9043
▁aspetti	-8.90676
▁procedura	-8.90947
ambito	-8.91068
▁centro	-8.91161
▁alcuna	-8.91365
f	-8.9157
▁resto	-8.91876
),	-8.91922
ambiente	-8.92076
▁presto	-8.92149
▁confronti	-8.92266
ʼ	-8.92557
▁dentro	-8.92883
▁fede	-8.93189
▁ministro	-8.9339
▁armi	-8.93564
▁politici	-8.93676
▁riforma	-8.94172
era	-8.94177
tori	-8.94187
▁naturalmente	-8.94189
▁regione	-8.94658
▁finalmente	-8.94702
▁spero	-8.94792
▁facendo	-8.9481
▁stanno	-8.94817
▁piedi	-8.95032
mmo	-8.95114
▁studio	-8.95179
▁sangue	-8.95204
▁entro	-8.95308
▁atto	-8.9539
▁titolo	-8.95535
▁amici	-8.95657
▁tanti	-8.95915
▁secolo	-8.9603
▁trova	-8.96104
▁occasione	-8.96537
▁fatta	-8.96614
▁piú	-8.96704
▁affrontare	-8.96817
▁semplice	-8.96836
▁amore	-8.9711
v	-8.9716
▁importanza	-8.97604
▁produzione	-8.97941
▁ah	-8.97992
▁pensiero	-8.97994
nza	-8.98024
uomo	-8.98064
▁ottenere	-8.98184
▁mondiale	-8.98267
▁preso	-8.98347
▁gestione	-8.98363
▁giovane	-8.98521
▁repubblica	-8.98603
▁vale	-8.98628
▁giusto	-8.98636
▁figlio	-8.98956
▁richiesta	-8.99012
▁seno	-8.99059
▁volontà	-8.99468
▁dovuto	-8.99643
▁genere	-8.9976
▁niente	-8.99909
▁contrario	-8.9995
▁difficoltà	-9.00038
▁parla	-9.0008
▁duca	-9.00137
▁posti	-9.00271
▁risultato	-9.00314
▁interno	-9.00346
▁democrazia	-9.00464
▁commercio	-9.00477
▁fondamentale	-9.0055
▁10	-9.00806
▁crescita	-9.01069
▁domani	-9.01426
▁perciò	-9.0143
▁mente	-9.01687
▁milano	-9.01735
▁opera	-9.02022
▁lì	-9.02316
▁lavoratori	-9.02565
▁comunicazione	-9.02688
▁programmi	-9.02738
▁gruppi	-9.02946
▁venne	-9.02962
▁personale	-9.03199
▁nazioni	-9.03226
▁dieci	-9.03246
▁aspetto	-9.03325
h	-9.03369
”.	-9.03395
tore	-9.03782
▁devo	-9.03863
▁bel	-9.04035
▁piccolo	-9.04084
▁consumatori	-9.04095
▁difesa	-9.04189
▁popolazione	-9.04353
▁sappiamo	-9.04396
▁guarda	-9.04714
▁strategia	-9.04882
▁avea	-9.0491
▁specie	-9.04988
▁ebbe	-9.04998
▁x	-9.05069
▁alto	-9.05113
▁presentato	-9.05223
▁azioni	-9.05506
▁scopo	-9.05574
▁esser	-9.05606
▁letto	-9.05713
▁mie	-9.05745
us	-9.05852
▁don	-9.05881
▁tutela	-9.06266
▁grave	-9.06317
▁verità	-9.0636
▁esiste	-9.06578
▁cielo	-9.06702
articolo	-9.06742
▁b	-9.0677
▁fossero	-9.06781
▁coi	-9.06865
▁cura	-9.07152
▁assolutamente	-9.07253
go	-9.07285
▁interessi	-9.07381
▁fondamentali	-9.07471
▁=	-9.07552
▁ormai	-9.07778
▁carlo	-9.07863
ssa	-9.07892
▁tratto	-9.07908
▁economico	-9.08016
▁rischio	-9.08044
rebbe	-9.08329
▁formazione	-9.08367
▁forze	-9.08436
rti	-9.08445
▁onde	-9.08502
▁europee	-9.08599
▁ove	-9.08661
▁settori	-9.08864
▁pel	-9.08952
▁ringrazio	-9.0898
▁riferimento	-9.09101
▁pensare	-9.09181
▁rispose	-9.09184
rio	-9.09251
▁proprie	-9.09462
▁presenza	-9.09628
▁moglie	-9.09644
▁principe	-9.09932
▁farlo	-9.09941
▁capacità	-9.10332
▁or	-9.10399
▁vecchio	-9.10427
▁accordi	-9.10578
▁vari	-9.10648
▁davanti	-9.10733
um	-9.10786
▁negoziati	-9.10896
fi	-9.10981
▁prese	-9.11047
▁doveva	-9.11087
▁comuni	-9.11109
▁mese	-9.11152
rie	-9.11192
▁progetti	-9.1122
▁dubbio	-9.11246
lli	-9.11422
▁essendo	-9.11428
▁pratica	-9.11632
▁sugli	-9.11645
▁sostenere	-9.11735
▁ovviamente	-9.11739
▁convenzione	-9.11759
▁strumenti	-9.11831
▁ordine	-9.11831
ue	-9.11879
▁mo	-9.11921
▁crisi	-9.12006
▁to	-9.12135
▁faceva	-9.12618
▁continua	-9.12849
▁scuola	-9.12864
▁strumento	-9.1302
▁tante	-9.13138
▁vera	-9.13219
▁animali	-9.13292
▁concorrenza	-9.13461
ordine	-9.13478
▁obiettivo	-9.13482
▁debba	-9.13522
▁settimana	-9.13952
▁potrà	-9.14203
&	-9.14258
▁m	-9.1434
▁carattere	-9.14414
▁possano	-9.14651
▁voto	-9.14777
▁interesse	-9.1478
▁vede	-9.1478
▁giovanni	-9.14802
▁mezzi	-9.14937
▁mal	-9.14959
▁ca	-9.15082
▁attualmente	-9.15097
▁rendere	-9.15156
▁15	-9.15219
▁unico	-9.15236
ssima	-9.15423
▁intende	-9.15453
▁do	-9.15504
▁vicino	-9.15691
▁lunga	-9.1578
▁passi	-9.15966
▁dovrà	-9.16119
▁prossimo	-9.16124
▁collega	-9.1622
▁que	-9.16273
▁votazione	-9.16309
▁dialogo	-9.16315
▁purtroppo	-9.16369
▁napoli	-9.16541
▁maggioranza	-9.16642
▁decisioni	-9.16935
▁maggio	-9.16953
llo	-9.17028
▁venga	-9.17152
▁scorso	-9.17214
smo	-9.1722
▁certamente	-9.17407
▁conferenza	-9.17416
j	-9.17453
▁dì	-9.17548
▁progressi	-9.18045
▁musica	-9.18065
▁speranza	-9.18468
▁presenti	-9.18699
nt	-9.18742
▁carica	-9.18873
▁libera	-9.18979
▁nota	-9.19045
▁colle	-9.19079
▁stava	-9.19193
un	-9.19312
▁evitare	-9.19369
▁direzione	-9.19478
▁chiedere	-9.19486
▁propri	-9.19566
▁lavori	-9.19673
on	-9.1976
▁creazione	-9.19765
▁contesto	-9.19773
▁vivere	-9.1981
▁leggi	-9.19828
▁raggiungere	-9.19954
▁popoli	-9.20065
▁pre	-9.20126
▁affari	-9.20132
▁francese	-9.2022
▁20	-9.20233
▁facile	-9.20234
▁basta	-9.2024
sce	-9.20266
▁gioco	-9.20378
▁migliorare	-9.2038
▁disposizione	-9.20444
▁pi	-9.2064
▁varie	-9.20778
sco	-9.20938
▁civile	-9.20946
▁qualcuno	-9.21043
▁voleva	-9.21159
▁elementi	-9.21206
▁spese	-9.21208
▁centrale	-9.21244
▁poichè	-9.21517
▁priorità	-9.21536
ge	-9.21537
▁tenere	-9.21644
▁esse	-9.21707
▁articolo	-9.21737
▁membro	-9.21968
▁paura	-9.22019
▁sistemi	-9.22052
▁camera	-9.22109
▁fase	-9.22182
▁carta	-9.22451
▁avendo	-9.22494
▁sito	-9.22572
▁territorio	-9.22611
▁cultura	-9.22626
▁conseguenza	-9.22638
▁6	-9.22643
▁voluto	-9.22738
▁vanno	-9.22865
▁figli	-9.231
▁messo	-9.23154
▁oggetto	-9.23248
▁principali	-9.23338
pe	-9.23449
»	-9.23855
▁amico	-9.23931
▁positivo	-9.23975
▁costituzione	-9.23976
▁trasporto	-9.24033
▁siete	-9.24275
▁abbastanza	-9.24291
▁diceva	-9.24318
▁...	-9.24443
▁capire	-9.24458
▁valutazione	-9.24477
▁lingua	-9.24684
▁soldati	-9.24798
▁giugno	-9.24846
▁simile	-9.24892
▁costi	-9.24911
▁esprimere	-9.25167
po	-9.25248
▁conseguenze	-9.25272
▁scritto	-9.25322
bi	-9.25328
▁chiaramente	-9.25501
▁fiducia	-9.2552
▁rispondere	-9.25596
rgli	-9.25748
▁giudizio	-9.26007
▁migliori	-9.26041
z	-9.26369
▁qualunque	-9.26489
▁19	-9.26513
▁mille	-9.26567
▁avevo	-9.26599
▁semplicemente	-9.26621
▁francesco	-9.26682
▁sé	-9.26714
que	-9.26826
▁dovrebbero	-9.26828
emendamento	-9.27074
▁eh	-9.27192
▁venire	-9.27224
▁comunitario	-9.27281
▁nonostante	-9.27308
▁presentata	-9.27383
▁legislazione	-9.27405
▁sicuro	-9.27466
▁dichiarazione	-9.27526
▁settembre	-9.27526
▁considerazione	-9.27747
▁lato	-9.28036
gi	-9.28095
ato	-9.28166
▁pena	-9.28268
▁svolto	-9.28282
pi	-9.28314
▁capi	-9.28325
▁maria	-9.28374
▁portare	-9.28396
▁piccola	-9.28407
▁dicembre	-9.28625
▁regole	-9.28653
▁piccole	-9.28672
▁modello	-9.28699
idea	-9.28902
▁ringraziare	-9.28911
▁18	-9.29
▁continuare	-9.29135
▁impegno	-9.29209
▁ragioni	-9.2938
▁dovremmo	-9.29486
▁compito	-9.29527
▁prodotto	-9.29673
sca	-9.29725
▁pieno	-9.29762
▁naturale	-9.29848
▁tanta	-9.29913
▁piccoli	-9.29952
▁probabilmente	-9.2997
▁turchia	-9.30036
be	-9.30218
occupazione	-9.30579
▁maggiori	-9.30614
inizio	-9.30709
▁viaggio	-9.3077
▁gravi	-9.30798
▁scelta	-9.30819
▁governi	-9.30874
▁par	-9.30884
▁canto	-9.30986
▁fuoco	-9.31009
▁estremamente	-9.3105
▁disposizioni	-9.31397
▁principale	-9.31427
▁iii	-9.31557
obiettivo	-9.31661
▁ricordare	-9.31691
▁chiedo	-9.31832
▁idee	-9.31918
▁pericolo	-9.31953
▁passare	-9.32062
pa	-9.32104
▁documento	-9.32347
(	-9.32434
▁motivi	-9.32444
▁nemmeno	-9.32695
▁resta	-9.32795
k	-9.32874
▁marzo	-9.32911
▁piena	-9.32923
▁ra	-9.3297
▁dà	-9.33033
▁efficace	-9.33102
▁ossia	-9.33103
▁intervento	-9.33114
▁mamma	-9.33142
ale	-9.33194
ba	-9.33261
▁sforzi	-9.3341
▁rende	-9.33467
▁particolarmente	-9.33609
▁avviso	-9.33664
ano	-9.33687
▁nessun	-9.3377
▁destra	-9.34028
▁quanti	-9.34068
▁patria	-9.34108
▁vigore	-9.3418
▁chiesto	-9.34223
▁valori	-9.34499
▁reale	-9.34505
▁ancor	-9.34513
▁seguente	-9.34607
▁altresì	-9.34779
▁silenzio	-9.34805
▁firenze	-9.34822
▁sto	-9.34902
▁sinistra	-9.34903
▁volto	-9.34938
▁piacere	-9.35023
▁certa	-9.35043
▁chiede	-9.35076
▁atti	-9.3512
er	-9.35199
▁partire	-9.35199
▁fortuna	-9.35264
▁vuoi	-9.35287
▁violenza	-9.35557
▁cercare	-9.35572
▁pareva	-9.35688
are	-9.35864
w	-9.35903
▁lavorare	-9.35991
▁promuovere	-9.36148
uso	-9.36311
▁bocca	-9.36321
▁ieri	-9.36335
▁intanto	-9.3634
▁danno	-9.36373
▁deciso	-9.36413
industria	-9.36508
▁italiana	-9.36531
▁forme	-9.36604
▁vertice	-9.36679
ora	-9.36716
▁giuridica	-9.36917
▁contributo	-9.37004
▁medesimo	-9.37025
gt	-9.3722
▁avrà	-9.37471
▁nord	-9.37482
▁partecipazione	-9.37542
▁sottolineare	-9.37551
is	-9.37561
▁dico	-9.37666
▁mostra	-9.37719
▁idea	-9.37787
▁necessaria	-9.37846
▁conoscenza	-9.37904
▁bianco	-9.37952
▁mette	-9.3804
▁collaborazione	-9.38157
▁parlato	-9.38163
▁guida	-9.3817
eri	-9.38186
▁internazionali	-9.38287
▁attuale	-9.38421
▁verrà	-9.38434
▁chiama	-9.38648
▁sufficiente	-9.38803
tura	-9.38814
▁ministri	-9.39197
▁mandato	-9.39332
▁condizione	-9.39374
ho	-9.39379
▁visita	-9.39404
▁gennaio	-9.39455
▁pubblici	-9.3947
▁trovato	-9.39531
▁opere	-9.39597
▁dolore	-9.39753
▁an	-9.39828
▁libero	-9.39882
▁verde	-9.39911
▁p	-9.40001
▁7	-9.40031
fa	-9.40055
▁virtù	-9.40141
▁desiderio	-9.40148
▁sebbene	-9.40183
▁francesi	-9.40202
▁lor	-9.40229
nze	-9.40272
economia	-9.40284
▁esame	-9.40457
▁reca	-9.40523
ha	-9.40531
▁potrebbero	-9.40564
assemblea	-9.40574
▁italiano	-9.40653
▁mantenere	-9.40664
▁ricordo	-9.4068
▁umana	-9.40711
▁monte	-9.40767
▁stabilità	-9.40772
▁tardi	-9.40859
▁com	-9.40989
",	-9.41299
▁bo	-9.41536
tu	-9.41587
▁presentare	-9.4167
▁iniziative	-9.41739
▁concetto	-9.41807
▁lettura	-9.41815
▁bello	-9.41823
▁prezzo	-9.41828
▁marito	-9.41828
▁opportunità	-9.41871
▁oppure	-9.41876
▁:	-9.41899
▁riduzione	-9.42058
▁rete	-9.42118
▁affatto	-9.42327
▁unite	-9.42352
▁ero	-9.4241
▁ultimo	-9.42667
▁fratello	-9.42775
▁cerca	-9.42785
▁rapporto	-9.43046
▁seduta	-9.43046
▁comitato	-9.43073
▁vuol	-9.43126
▁emendamento	-9.43136
▁u	-9.43156
▁metà	-9.43183
▁aiuto	-9.43213
▁uso	-9.43224
▁12	-9.43352
▁adottare	-9.43485
▁media	-9.43535
▁el	-9.4369
▁bi	-9.43811
▁morto	-9.43876
▁vogliono	-9.4388
▁sarebbero	-9.43898
▁ambito	-9.43969
▁sentire	-9.44013
gna	-9.44035
per	-9.44089
▁fini	-9.4436
▁sai	-9.44505
▁quegli	-9.44624
▁fiori	-9.44655
▁santa	-9.4466
▁bensì	-9.44754
▁denaro	-9.44804
ere	-9.44873
bo	-9.4488
▁lontano	-9.45368
▁porre	-9.45472
▁anch	-9.45533
▁proposto	-9.45688
▁essenziale	-9.45691
▁battaglia	-9.4576
▁30	-9.45788
▁ridurre	-9.45795
▁luglio	-9.4582
▁appunto	-9.45864
▁nessuna	-9.45902
▁germania	-9.45919
lle	-9.45923
▁zona	-9.4597
▁votato	-9.45994
▁ovvero	-9.46186
▁dimostra	-9.4623
▁vedi	-9.4636
▁ba	-9.46498
▁regime	-9.46597
▁lettere	-9.4663
▁trasporti	-9.46668
▁conclusione	-9.46681
▁sette	-9.46686
▁terrorismo	-9.4677
▁stampa	-9.46783
▁campagna	-9.468
▁cos	-9.46873
nda	-9.46899
▁mattina	-9.46937
▁novembre	-9.47256
▁segno	-9.47285
▁regionale	-9.4739
▁fornire	-9.47416
▁sicuramente	-9.47442
▁pa	-9.47482
glia	-9.47493
▁dicendo	-9.47599
▁felice	-9.47601
▁facciamo	-9.47612
▁direttamente	-9.47786
▁militare	-9.47811
▁studi	-9.47812
▁memoria	-9.47866
▁libri	-9.47967
▁utile	-9.47982
▁acqua	-9.48172
▁figura	-9.48185
▁conti	-9.48189
▁economici	-9.48206
▁entrare	-9.48266
▁cristo	-9.4836
▁stesse	-9.48647
▁discorso	-9.48654
zzazione	-9.48762
▁prevede	-9.48792
▁esperienza	-9.48867
▁criteri	-9.48933
▁coraggio	-9.48998
▁elezioni	-9.49033
cu	-9.49048
▁organizzazioni	-9.49199
▁simili	-9.49287
▁venezia	-9.49316
▁case	-9.49425
▁presenta	-9.49488
▁soli	-9.49533
▁seguire	-9.49552
ultimo	-9.49615
an	-9.49702
▁g	-9.49713
▁credere	-9.49736
▁pe	-9.49879
▁locali	-9.49904
▁coscienza	-9.50014
▁sala	-9.50269
▁massimo	-9.50283
▁certi	-9.50433
▁acque	-9.50656
▁dovere	-9.50676
▁russia	-9.50789
▁struttura	-9.50798
▁favorevole	-9.50847
▁massima	-9.50875
▁ambientale	-9.51007
▁terzi	-9.51056
▁pensa	-9.51126
▁accettare	-9.51288
▁mancanza	-9.51291
es	-9.51295
▁pietro	-9.51297
▁25	-9.51309
▁avrebbero	-9.51413
▁risolvere	-9.51423
remo	-9.51447
importanza	-9.51556
▁azione	-9.51566
▁rimane	-9.5162
trice	-9.51649
▁abbiano	-9.51737
▁dinanzi	-9.51822
▁compromesso	-9.51852
▁trasparenza	-9.51852
▁costituisce	-9.51867
▁caro	-9.51921
▁(.)	-9.51935
▁basso	-9.52158
ate	-9.52194
▁umano	-9.52198
▁domande	-9.52348
▁grazia	-9.524
”,	-9.52454
▁palazzo	-9.52536
▁indietro	-9.52551
zze	-9.52595
».	-9.52624
▁relativa	-9.52746
▁braccia	-9.52748
▁voglia	-9.52861
▁prime	-9.52898
▁--	-9.52964
▁affermato	-9.53022
▁posta	-9.53026
▁alta	-9.53229
▁venuto	-9.53258
▁candidati	-9.53306
▁totale	-9.53319
cca	-9.5335
▁necessarie	-9.53362
▁propone	-9.53383
▁minuti	-9.53553
▁precedente	-9.53601
▁sensi	-9.53621
▁luoghi	-9.5371
▁effetto	-9.53918
▁italiani	-9.54031
▁portato	-9.54105
ck	-9.54188
▁assicurare	-9.54263
▁sapete	-9.54263
▁trattamento	-9.54359
▁molta	-9.54375
▁veniva	-9.54425
acqua	-9.54495
▁medio	-9.54541
▁nato	-9.54542
▁conoscere	-9.54681
ultima	-9.54787
▁fe	-9.54955
▁giornata	-9.55027
▁aperto	-9.55035
▁lascia	-9.55049
▁sguardo	-9.55186
▁spagna	-9.55207
▁poveri	-9.55213
▁ricevuto	-9.55443
▁definizione	-9.55528
▁chiara	-9.55612
▁documenti	-9.55684
▁relative	-9.55684
▁incontro	-9.55787
▁opportuno	-9.55796
▁nemico	-9.55861
▁solamente	-9.55897
▁capitale	-9.55945
▁vittime	-9.56022
▁potesse	-9.5617
▁tramite	-9.56184
▁banca	-9.56233
▁procedure	-9.56296
▁giù	-9.5638
▁auto	-9.56383
st	-9.5652
▁14	-9.56657
ssimi	-9.56669
▁tenuto	-9.56695
▁parlamentare	-9.56751
▁povero	-9.56875
▁superiore	-9.57195
▁energia	-9.5727
▁piazza	-9.5735
▁piace	-9.5744
▁ch	-9.57603
▁puoi	-9.57714
▁giusta	-9.57735
▁8	-9.5775
▁completamente	-9.57782
2	-9.57807
energia	-9.57821
▁peso	-9.57841
▁aprile	-9.57916
▁vediamo	-9.57947
▁recente	-9.58144
▁modi	-9.58158
▁evidente	-9.58322
▁16	-9.58427
▁risulta	-9.58668
▁diventare	-9.58786
en	-9.58834
▁passa	-9.58851
▁movimento	-9.58902
▁t	-9.58936
▁fi	-9.58965
▁entrambi	-9.59036
▁commerciali	-9.59163
rai	-9.5917
▁costo	-9.59193
▁numerosi	-9.59252
▁diverso	-9.59274
▁impossibile	-9.59319
▁ottobre	-9.59442
▁zone	-9.59478
▁polizia	-9.59487
▁parlamentari	-9.59502
▁sentito	-9.59538
▁castello	-9.59544
al	-9.59649
▁investimenti	-9.59804
applicazione	-9.59822
▁procedere	-9.59901
▁moneta	-9.60043
▁solidarietà	-9.60189
▁avrei	-9.60208
▁sicilia	-9.60347
▁mercati	-9.60375
▁applicazione	-9.60384
▁r	-9.60443
▁paragrafo	-9.60594
▁carne	-9.60618
▁siccome	-9.60627
▁sud	-9.6063
▁signori	-9.60633
▁funzione	-9.60665
con	-9.60726
▁differenza	-9.60762
▁prezzi	-9.60805
▁generali	-9.6086
▁prende	-9.60966
▁vive	-9.6101
▁riteniamo	-9.61033
one	-9.61188
▁religione	-9.61292
▁iv	-9.61304
▁bambino	-9.61372
▁+	-9.61374
▁quell	-9.61442
▁faccio	-9.61462
▁globale	-9.61615
▁anima	-9.61703
▁santo	-9.6174
▁forti	-9.61744
▁scena	-9.61823
▁be	-9.61832
it	-9.61892
▁the	-9.61928
▁finale	-9.62015
▁inter	-9.6208
iniziativa	-9.62094
informazione	-9.62337
ia	-9.62353
▁famiglie	-9.6237
cco	-9.62411
▁raggiunto	-9.62467
▁relatrice	-9.62485
▁giro	-9.62525
▁presa	-9.62568
▁temi	-9.62584
▁vengano	-9.62589
▁aggiungere	-9.62621
▁stare	-9.6264
▁argomento	-9.62741
▁diventa	-9.62763
▁dallo	-9.62798
ur	-9.62832
▁9	-9.62996
▁competenze	-9.63055
▁esistono	-9.63123
▁anti	-9.63303
▁contra	-9.63334
▁tom	-9.63612
▁neppure	-9.63613
▁poche	-9.63679
▁capitolo	-9.63686
▁vantaggio	-9.63739
▁realizzare	-9.63781
▁contenuto	-9.63836
▁osservazioni	-9.63845
▁svolgere	-9.63852
▁ta	-9.64158
▁colore	-9.64265
attività	-9.64509
ch	-9.64585
▁otto	-9.64594
▁vittoria	-9.64626
▁necessari	-9.64735
▁spalle	-9.64777
▁chiese	-9.64785
▁unito	-9.64826
▁vide	-9.64852
▁strutturali	-9.64873
zzo	-9.6489
▁finora	-9.64998
▁messa	-9.65021
▁consenso	-9.65049
▁stanza	-9.65113
▁usare	-9.65158
▁aziende	-9.65223
tra	-9.6545
▁accesso	-9.65483
▁ragazzi	-9.65545
▁potete	-9.65561
▁somma	-9.65568
▁voler	-9.65578
▁usa	-9.65583
ggio	-9.65586
nta	-9.65645
agricoltura	-9.65709
▁17	-9.65872
▁[	-9.65934
▁scala	-9.66003
▁ulteriori	-9.66058
ata	-9.66078
ndi	-9.66099
▁finanziarie	-9.66116
▁figlia	-9.66145
▁nemici	-9.66183
▁trattati	-9.66254
du	-9.66375
▁pienamente	-9.66437
▁interventi	-9.66542
▁talvolta	-9.66544
▁farsi	-9.66696
▁afferma	-9.66874
▁ex	-9.66924
▁maestro	-9.66954
zzi	-9.67163
▁relativi	-9.67224
▁braccio	-9.67295
zio	-9.67311
5	-9.67366
lt	-9.67416
▁patto	-9.67548
▁sapeva	-9.67572
▁cambiamento	-9.67581
02	-9.67591
▁febbraio	-9.67658
▁chiamato	-9.67689
▁metodo	-9.67747
▁previsto	-9.67821
▁eppure	-9.67985
sso	-9.68053
▁elemento	-9.68075
▁comunitaria	-9.68165
▁riforme	-9.68207
▁finanziario	-9.68244
▁combattere	-9.68292
tá	-9.68322
▁morire	-9.68439
▁scrivere	-9.68508
▁modifica	-9.6854
▁go	-9.68663
▁codice	-9.68683
▁ambiente	-9.687
ccio	-9.687
▁morti	-9.68705
▁opinione	-9.68791
▁nero	-9.68872
▁permette	-9.68928
▁rappresentanti	-9.69096
▁viso	-9.69096
▁ritorno	-9.69144
▁terza	-9.69218
organizzazione	-9.69275
▁condotta	-9.69303
▁gesù	-9.69358
ar	-9.69367
essere	-9.69373
▁serve	-9.69386
▁capitano	-9.69391
▁ama	-9.69502
▁parigi	-9.69507
▁belle	-9.69573
▁andò	-9.69622
▁approccio	-9.69653
▁na	-9.69694
▁chiusa	-9.69698
▁costruzione	-9.69801
▁esigenze	-9.69822
▁00	-9.69965
▁fo	-9.702
▁povertà	-9.70265
attuale	-9.70269
▁sforzo	-9.70339
▁rapporti	-9.7047
ver	-9.7048
▁scrive	-9.70529
▁finanziamento	-9.70549
▁effettivamente	-9.7061
▁navi	-9.70725
▁addirittura	-9.70749
▁informazione	-9.70788
▁agire	-9.70853
▁scienza	-9.70865
▁campi	-9.709
▁sullo	-9.70973
▁economiche	-9.71068
▁potenza	-9.71087
▁buono	-9.71143
▁altrettanto	-9.71162
▁auguro	-9.71199
▁soldi	-9.71327
▁iniziativa	-9.7141
▁altrimenti	-9.71482
▁vecchia	-9.71535
▁discutere	-9.71673
▁porto	-9.71704
▁intervenire	-9.71802
▁dimostrato	-9.71817
▁finanziari	-9.71937
▁andava	-9.7205
▁sostenibile	-9.72105
▁ni	-9.72107
▁dar	-9.72128
3	-9.72188
ì	-9.72238
▁aumento	-9.72273
▁miliardi	-9.72332
▁approvato	-9.72342
▁dicono	-9.72422
00	-9.72422
▁comincia	-9.72442
▁costa	-9.72461
▁fatte	-9.72542
▁quantità	-9.72548
▁manca	-9.72549
▁regola	-9.72591
▁definire	-9.72603
▁paolo	-9.72658
▁espresso	-9.72694
euro	-9.72753
non	-9.72857
▁culturale	-9.72878
▁crede	-9.72895
▁tri	-9.72907
▁vostri	-9.72925
."	-9.73281
▁proprietà	-9.73286
▁gioia	-9.73346
▁età	-9.73409
▁romani	-9.7356
▁tener	-9.73572
▁trovano	-9.7358
▁riconoscere	-9.73617
▁beni	-9.73678
▁aree	-9.73716
▁vino	-9.73789
▁livelli	-9.73809
▁internet	-9.73831
▁inglese	-9.73851
▁leggere	-9.73889
▁cina	-9.73899
▁en	-9.74002
▁bellezza	-9.74014
▁prove	-9.74071
erà	-9.74284
▁preoccupazione	-9.74453
▁richiede	-9.74538
▁responsabile	-9.74599
▁lasciato	-9.74736
▁cercando	-9.74831
▁coesione	-9.74851
ng	-9.7495
oni	-9.74952
▁ro	-9.74976
▁chiave	-9.74981
▁cap	-9.75001
▁buoni	-9.75082
▁reti	-9.75098
▁troviamo	-9.75134
▁farà	-9.75247
▁compagnia	-9.75251
▁teatro	-9.753
ati	-9.7535
▁coordinamento	-9.75363
1	-9.7541
▁fai	-9.75572
▁vento	-9.75574
▁detta	-9.75582
▁offre	-9.75667
▁concludere	-9.75685
▁dovranno	-9.75742
▁richieste	-9.75751
▁rischi	-9.75772
▁riconoscimento	-9.7581
▁volle	-9.75923
▁risponde	-9.76067
5-0	-9.76068
▁migliaia	-9.76088
gno	-9.76143
▁speciale	-9.76432
▁diede	-9.76448
▁limiti	-9.76455
▁parlando	-9.76561
▁f	-9.76565
▁à	-9.7658
▁origine	-9.7659
▁occupazione	-9.76684
▁potranno	-9.7676
▁ciascuno	-9.76954
▁est	-9.77005
▁percento	-9.77016
▁ritiene	-9.77096
▁popolare	-9.771
attenzione	-9.77151
▁cristiani	-9.77183
▁bar	-9.77205
▁dolce	-9.77223
▁č	-9.77332
sci	-9.77373
▁cosí	-9.7738
adesione	-9.77421
▁13	-9.77434
4	-9.77492
▁passione	-9.7762
▁diversa	-9.77626
▁percorso	-9.77673
▁tornare	-9.77913
▁guardare	-9.77953
▁considerare	-9.78056
ali	-9.78087
▁contribuire	-9.78109
▁miglioramento	-9.78203
▁solito	-9.78239
▁linee	-9.78243
▁prossima	-9.78271
▁ultima	-9.78284
▁mediante	-9.78403
rum	-9.78522
▁esattamente	-9.78526
▁aperta	-9.7857
▁soluzioni	-9.78742
▁provincia	-9.78793
cci	-9.78817
▁rafforzare	-9.78874
opinione	-9.78881
▁capelli	-9.78949
▁aria	-9.78974
▁massa	-9.79066
▁revisione	-9.79067
▁vedo	-9.79073
nsi	-9.79137
▁lisbona	-9.79148
▁buone	-9.7922
▁noto	-9.79262
▁sinistro	-9.7927
▁collo	-9.79282
ing	-9.79296
▁colpa	-9.79307
▁complesso	-9.79311
▁locale	-9.79344
▁rispettare	-9.79456
▁unica	-9.79623
▁errore	-9.79631
▁competenza	-9.7972
▁cavallo	-9.7972
▁perdere	-9.7972
▁nazione	-9.79803
▁messaggio	-9.79873
▁11	-9.79942
▁marchese	-9.79951
▁compiere	-9.80167
▁sino	-9.80168
▁vie	-9.80178
ghi	-9.80222
▁arrivare	-9.80238
▁realizzazione	-9.80266
▁2000	-9.80283
ns	-9.80571
stra	-9.80713
▁settimane	-9.80751
▁porte	-9.8083
▁terreno	-9.80839
▁interessante	-9.80855
▁festa	-9.80889
▁impegni	-9.80974
▁marco	-9.80999
tri	-9.81037
▁utilizzare	-9.81086
▁gas	-9.81241
▁ognuno	-9.81319
▁tecnologia	-9.81389
▁antichi	-9.81393
▁accanto	-9.8141
▁sfida	-9.81431
▁dimensione	-9.81495
man	-9.81635
▁gloria	-9.81641
▁modalità	-9.8166
▁morale	-9.81697
▁ricorda	-9.81797
▁carico	-9.81849
▁riunione	-9.81855
▁danni	-9.81883
▁militari	-9.819
▁colpo	-9.81997
▁mila	-9.82019
▁tavola	-9.82078
▁arriva	-9.82097
▁ampio	-9.82148
à	-9.82155
▁cavalli	-9.82164
▁conflitto	-9.82181
▁facilmente	-9.82245
ter	-9.82273
▁venti	-9.8236
sto	-9.82411
▁decidere	-9.82415
▁50	-9.82519
ndolo	-9.8257
▁viva	-9.82631
▁traffico	-9.82728
▁controlli	-9.82917
cchi	-9.82928
▁portata	-9.83037
▁lasciare	-9.83038
▁povera	-9.83078
▁parve	-9.83085
▁destro	-9.83095
ero	-9.83152
▁normativa	-9.83153
▁ambientali	-9.83154
▁distanza	-9.8337
▁partiti	-9.83386
▁storico	-9.83391
▁quarto	-9.83405
nde	-9.8352
▁sogno	-9.83527
fo	-9.83542
▁aspetta	-9.83837
▁votare	-9.83844
▁aumentare	-9.83903
at	-9.83906
▁vivo	-9.83956
lu	-9.84045
▁disponibili	-9.84111
▁precedenti	-9.84117
▁prospettive	-9.8415
▁andrea	-9.84156
▁ga	-9.84181
▁finanziaria	-9.84257
▁sostanze	-9.84259
▁visione	-9.84346
▁strade	-9.84385
▁pagina	-9.84408
▁gi	-9.84439
▁porti	-9.84464
▁notizia	-9.84473
attuazione	-9.84556
▁materiale	-9.84598
▁pubbliche	-9.84599
▁civili	-9.84634
▁conosce	-9.84682
▁adottato	-9.84739
▁alimentare	-9.84826
nd	-9.84829
▁partecipare	-9.84882
▁classe	-9.84884
▁tuoi	-9.84889
▁fecero	-9.84956
▁rivoluzione	-9.85009
▁medico	-9.85035
▁persino	-9.85103
▁video	-9.85195
▁pensato	-9.85227
▁naturali	-9.85275
▁figliuolo	-9.85279
tico	-9.85283
▁poeta	-9.8529
▁rapidamente	-9.85345
▁peccato	-9.85473
ccia	-9.85713
italia	-9.85737
nia	-9.85741
▁fratelli	-9.85769
▁volete	-9.85772
▁cambiare	-9.85798
▁tratti	-9.85983
fe	-9.86076
▁certe	-9.86102
▁note	-9.86161
com	-9.86178
ture	-9.8628
▁particolari	-9.86284
▁lega	-9.86383
▁bilanci	-9.86435
▁ferma	-9.86629
▁cara	-9.86682
▁spetta	-9.86749
▁circolazione	-9.86861
▁fiume	-9.8688
▁prossimi	-9.86969
▁vecchi	-9.87147
▁petto	-9.87312
occasione	-9.87321
▁eventi	-9.87323
unica	-9.87431
▁sentimento	-9.875
▁mura	-9.875
▁film	-9.8762
▁analisi	-9.87669
▁innanzitutto	-9.87676
▁minaccia	-9.87682
▁studenti	-9.87717
▁offrire	-9.87815
▁uscire	-9.87887
▁volume	-9.87898
inv	-9.87973
▁spesa	-9.88004
▁scambio	-9.88109
▁stabilire	-9.8817
▁é	-9.88214
▁secoli	-9.88231
▁sento	-9.88246
▁immediatamente	-9.88287
aula	-9.883
istruzione	-9.88314
▁pone	-9.88321
ru	-9.88598
▁cammino	-9.88598
▁dover	-9.88625
▁sanità	-9.88636
accesso	-9.88723
▁lieto	-9.88834
area	-9.88862
▁agricola	-9.88875
▁attuali	-9.88983
▁sin	-9.89049
▁ottenuto	-9.89167
▁croce	-9.89183
▁punta	-9.89233
▁comprendere	-9.8928
▁giungere	-9.89299
za	-9.89345
▁serio	-9.89356
▁indispensabile	-9.89372
ssime	-9.89408
▁arte	-9.89462
▁dignità	-9.89528
▁permesso	-9.89583
▁sorta	-9.89588
▁commerciale	-9.89599
gne	-9.89622
▁assistenza	-9.89662
▁responsabili	-9.89737
▁singoli	-9.89754
▁progresso	-9.89775
schi	-9.89778
▁romano	-9.8979
▁democratico	-9.90119
▁critica	-9.90207
▁sentiva	-9.90241
▁ricevere	-9.90328
▁conclusioni	-9.90366
▁concerne	-9.90383
▁cittadino	-9.90388
▁du	-9.90403
▁mira	-9.90407
▁limite	-9.90464
tica	-9.90478
▁costruire	-9.90495
▁car	-9.90582
▁preoccupazioni	-9.90648
▁regina	-9.90681
▁spiega	-9.90709
ss	-9.90722
▁vicini	-9.90753
▁padrone	-9.90835
▁bassi	-9.9084
▁ru	-9.90881
▁provvedimenti	-9.90981
▁nuovamente	-9.91054
▁debito	-9.91108
▁discussioni	-9.91142
▁dichiarazioni	-9.91155
intera	-9.91204
▁applicare	-9.91233
bc	-9.91244
▁torna	-9.91262
▁mu	-9.91285
▁colori	-9.91306
▁pu	-9.91424
▁partenza	-9.91438
▁scuole	-9.9144
▁enorme	-9.91475
▁caccia	-9.91475
▁giunto	-9.91503
▁specialmente	-9.91513
▁24	-9.91571
am	-9.91577
▁dura	-9.91597
▁devi	-9.91598
gni	-9.91601
▁cause	-9.91612
▁passaggio	-9.91634
▁contiene	-9.91649
▁luigi	-9.9168
▁promozione	-9.91693
▁stile	-9.91693
▁sol	-9.917
▁possibili	-9.91816
▁filippo	-9.91858
▁relativo	-9.91923
▁tosto	-9.92074
▁genitori	-9.92136
qui	-9.92251
ana	-9.92299
▁funzionamento	-9.92315
▁novità	-9.92421
▁prospettiva	-9.92508
▁bianca	-9.92529
▁versione	-9.92541
▁capito	-9.92546
▁terre	-9.92689
▁pezzo	-9.92745
▁fonte	-9.92809
▁circostanze	-9.92875
▁genova	-9.92922
▁affermare	-9.93134
esperienza	-9.93148
7	-9.93186
art	-9.93196
▁sí	-9.93206
▁peggio	-9.9326
▁strutture	-9.93272
▁rosso	-9.93285
▁van	-9.93362
▁comporta	-9.93376
▁creato	-9.934
▁fiscale	-9.93577
▁adesione	-9.93841
▁guardia	-9.94065
]	-9.94083
▁pagare	-9.94108
▁on	-9.94133
▁appoggio	-9.94156
▁produttori	-9.94214
▁senti	-9.9422
nto	-9.94366
▁tocca	-9.9438
▁stima	-9.94446
▁monti	-9.94469
▁facoltà	-9.94497
▁confini	-9.9454
zia	-9.94623
▁esistenti	-9.94757
▁cervello	-9.94854
interesse	-9.94907
0	-9.94957
▁immagini	-9.94962
é	-9.94969
▁israele	-9.95058
zi	-9.95096
▁notizie	-9.95116
▁voci	-9.95117
▁bu	-9.95146
▁nobili	-9.95279
▁consentire	-9.95285
▁villa	-9.95329
▁aiutare	-9.95333
▁valle	-9.95396
▁bologna	-9.95401
▁prevenzione	-9.95473
▁labbra	-9.95491
▁sorriso	-9.95497
ry	-9.95532
▁contenuti	-9.95545
▁democratica	-9.95545
▁mar	-9.956
▁rifiuti	-9.956
▁vostre	-9.9562
rebbero	-9.95681
▁medesima	-9.95833
▁consigli	-9.95941
▁web	-9.9598
▁nomi	-9.95981
▁rimanere	-9.95992
▁foto	-9.96053
▁domenica	-9.96122
▁tecnologie	-9.96122
▁servi	-9.96277
allargamento	-9.96347
▁funzioni	-9.96411
▁tentativo	-9.96462
▁giustamente	-9.96515
▁utili	-9.96534
▁pratiche	-9.96562
▁agosto	-9.96609
integrazione	-9.9669
▁importa	-9.9685
▁profondo	-9.96872
▁sviluppare	-9.96931
▁significato	-9.96941
▁soggetti	-9.96994
ie	-9.97225
ghe	-9.97319
▁ricorso	-9.97433
tivo	-9.975
▁succede	-9.97626
▁chiunque	-9.97752
▁chiarezza	-9.97833
▁ordini	-9.97865
▁errori	-9.97878
▁tribunale	-9.97979
▁malattie	-9.97994
▁pane	-9.98005
▁contempo	-9.98034
▁malattia	-9.98067
▁sanno	-9.98217
▁notevole	-9.98317
▁val	-9.98318
▁medici	-9.98323
▁crea	-9.98367
▁macchina	-9.98469
▁cambiamenti	-9.98595
▁segreto	-9.98684
▁verranno	-9.98721
▁onore	-9.98786
chè	-9.98801
▁numerose	-9.98845
▁veduto	-9.98859
▁ufficiale	-9.98864
▁voti	-9.98885
▁quindici	-9.98953
▁vescovo	-9.9898
▁andato	-9.98995
▁antonio	-9.99066
ente	-9.99186
▁pensieri	-9.99231
▁minimo	-9.99265
▁dev	-9.99301
▁finestra	-9.99312
▁chiari	-9.9934
▁ricordato	-9.99353
▁men	-9.99357
▁agricoltori	-9.99602
▁disegno	-9.99778
▁dovesse	-9.99795
▁piani	-9.99937
▁pronto	-9.99967
▁fenomeno	-10.001
▁comunitarie	-10.0017
▁terribile	-10.0021
6	-10.0023
▁conferma	-10.0024
▁alcuno	-10.0031
▁100	-10.0035
▁potevano	-10.0037
▁introdurre	-10.0043
▁situazioni	-10.0043
▁k	-10.0043
▁disoccupazione	-10.0046
▁andiamo	-10.0046
▁grosso	-10.0058
iamo	-10.0061
▁orientale	-10.0064
▁estera	-10.0073
▁completa	-10.0074
▁posizioni	-10.0076
risate	-10.0077
▁profonda	-10.0078
▁specifico	-10.0081
▁ferro	-10.0087
impegno	-10.0092
▁anco	-10.0094
▁21	-10.0094
▁considerato	-10.0102
▁frontiere	-10.0109
aria	-10.0116
?"	-10.0124
▁amsterdam	-10.0126
▁giuridico	-10.0134
▁aula	-10.0134
▁missione	-10.0136
▁entra	-10.0139
▁finito	-10.0143
▁opinioni	-10.0144
▁consente	-10.0144
introduzione	-10.0145
▁moto	-10.0149
nna	-10.0156
▁contatto	-10.0168
▁ultime	-10.0169
▁raccolta	-10.019
▁esperti	-10.019
▁metri	-10.0192
▁neanche	-10.0193
stica	-10.0196
▁espressione	-10.0213
▁compagni	-10.0216
▁lingue	-10.0224
▁materiali	-10.0226
▁rappresentano	-10.0236
▁sorella	-10.0245
▁interni	-10.0247
▁difendere	-10.0249
▁impedire	-10.0251
▁avessero	-10.0251
▁invito	-10.0252
▁esteri	-10.0263
▁seguenti	-10.027
opportunità	-10.0271
8	-10.0271
▁deputato	-10.0278
▁quante	-10.0286
▁dimostrare	-10.0287
▁insomma	-10.0292
▁regionali	-10.0295
▁od	-10.0295
▁metodi	-10.0296
▁corona	-10.0304
▁svolgerà	-10.0305
▁attorno	-10.0308
▁indi	-10.0315
▁sale	-10.0319
▁40	-10.0329
▁des	-10.033
▁fame	-10.0336
▁abitanti	-10.034
▁diciamo	-10.0344
#	-10.0364
▁carte	-10.0371
▁za	-10.0374
▁equilibrio	-10.0374
▁attuazione	-10.0405
▁consiste	-10.0407
▁pelle	-10.0409
▁avviene	-10.0409
▁vantaggi	-10.0411
▁intenzione	-10.0414
▁tecnica	-10.0422
anni	-10.0437
30	-10.0443
▁colui	-10.0448
▁triste	-10.0459
▁fianco	-10.0462
▁condanna	-10.0462
unico	-10.0465
▁oriente	-10.0467
▁scegliere	-10.0472
tur	-10.0485
▁soddisfazione	-10.0489
▁reso	-10.0492
▁bruxelles	-10.0501
▁animo	-10.051
tt	-10.0511
▁tecniche	-10.0525
▁sca	-10.0526
▁comprende	-10.0528
▁rosa	-10.0532
▁zi	-10.0537
▁modifiche	-10.0546
▁vedete	-10.0552
▁perfettamente	-10.0556
▁manda	-10.0564
▁valutare	-10.0565
el	-10.0569
▁capace	-10.057
▁americani	-10.0571
▁pietra	-10.0575
▁ponte	-10.0575
▁maggiormente	-10.0576
▁for	-10.0578
▁merita	-10.0579
▁debbano	-10.0598
▁matrimonio	-10.0601
°	-10.0606
▁liberalizzazion	-10.0609
▁legno	-10.0613
▁turismo	-10.0615
▁fate	-10.0626
▁vedeva	-10.0629
bbe	-10.0632
▁aprire	-10.0637
su	-10.0638
▁toscana	-10.0639
zzare	-10.065
▁ue	-10.0652
▁dimensioni	-10.0655
▁grecia	-10.0657
▁rimase	-10.066
▁giardino	-10.0669
▁momenti	-10.0671
▁corre	-10.0675
▁nucleare	-10.0679
ggi	-10.0681
▁malgrado	-10.0681
▁saputo	-10.0684
▁beh	-10.0696
▁spe	-10.0698
▁torre	-10.0705
▁sostanza	-10.0709
▁prego	-10.071
▁facevano	-10.0711
▁cari	-10.0716
▁poesia	-10.0719
▁competitività	-10.0719
▁reali	-10.0728
▁personali	-10.0735
▁monete	-10.0738
▁spa	-10.0746
▁emissioni	-10.0746
▁interessati	-10.0748
▁parità	-10.075
▁poteri	-10.0752
▁presentati	-10.0755
▁impresa	-10.0756
adozione	-10.0756
opera	-10.0758
▁pei	-10.076
▁chiediamo	-10.076
▁semplici	-10.0763
▁1999	-10.0764
▁rimasto	-10.077
▁guerre	-10.0771
bu	-10.0772
▁assemblea	-10.0777
▁inizio	-10.0778
▁tradizione	-10.0779
▁permettere	-10.0783
▁sport	-10.0785
▁fanciulla	-10.0789
▁requisiti	-10.0797
▁sorte	-10.0812
▁uguale	-10.0817
▁lire	-10.0827
▁cibo	-10.0845
▁dante	-10.0845
▁trovo	-10.0848
▁potremmo	-10.0852
▁2004	-10.0855
▁alquanto	-10.0857
▁esseri	-10.086
▁peraltro	-10.086
▁professionale	-10.0861
▁vendita	-10.0865
▁compiuto	-10.0865
▁trovò	-10.0871
▁pressione	-10.0871
▁potè	-10.0875
▁universale	-10.0887
▁luna	-10.0908
▁durata	-10.0914
▁basi	-10.0916
▁tiene	-10.0919
▁specifiche	-10.0923
▁operatori	-10.0925
▁attesa	-10.0925
▁clima	-10.0927
▁linguaggio	-10.0928
▁presentazione	-10.0937
▁cor	-10.094
▁corsi	-10.0947
stri	-10.0948
▁ebbene	-10.0952
▁articoli	-10.0954
▁entrambe	-10.0956
▁risposte	-10.0959
▁dimenticare	-10.0965
▁pagine	-10.0973
▁freddo	-10.0976
▁ragazza	-10.0978
▁versi	-10.099
▁2003	-10.0994
▁argomenti	-10.1
▁quantunque	-10.1011
▁sco	-10.1013
▁vol	-10.1019
▁venuta	-10.1023
▁disciplina	-10.1027
▁esclamò	-10.1033
▁funziona	-10.1052
▁dichiarato	-10.1052
▁paio	-10.1058
▁ministero	-10.1072
▁miglior	-10.1073
or	-10.1084
▁piu	-10.1086
▁sembrava	-10.1087
▁and	-10.1091
bus	-10.1093
▁sposa	-10.1094
▁segnale	-10.1094
▁esempi	-10.1095
▁potente	-10.11
▁continuo	-10.1109
▁intendo	-10.1111
▁scusa	-10.1119
▁operazioni	-10.1121
▁dipende	-10.1123
▁inutile	-10.1125
▁spettacolo	-10.1134
▁magari	-10.114
▁torino	-10.114
▁&	-10.1141
▁interna	-10.1149
▁stretta	-10.1157
et	-10.1159
ed	-10.1165
▁desidera	-10.1201
▁condurre	-10.1202
▁giuseppe	-10.1204
▁potremo	-10.1204
▁personalmente	-10.1208
▁veri	-10.1212
th	-10.1212
▁primavera	-10.1214
▁sottolineato	-10.1216
▁sente	-10.1218
▁y	-10.1241
ster	-10.1242
▁appare	-10.1253
ja	-10.1255
▁riesce	-10.1255
▁lu	-10.1262
pro	-10.1266
▁arti	-10.1267
▁convinto	-10.1272
nu	-10.1289
▁protocollo	-10.1295
▁22	-10.1298
▁ufficiali	-10.1304
▁lasciò	-10.1314
ant	-10.1319
▁organi	-10.1321
▁kosovo	-10.1324
▁racconta	-10.1324
sh	-10.1326
▁frutto	-10.133
▁finire	-10.1336
▁cominciò	-10.1339
▁sanzioni	-10.134
▁fonti	-10.1341
intero	-10.1344
▁sforza	-10.1347
▁nn	-10.1352
▁cercato	-10.1362
▁premio	-10.1362
▁perdita	-10.1368
▁compiuti	-10.1372
una	-10.1373
▁attiva	-10.1382
▁pietà	-10.1382
▁lista	-10.1392
▁positiva	-10.1399
▁mise	-10.14
▁riconosce	-10.1406
▁riusciti	-10.1407
▁congratularmi	-10.141
▁flessibilità	-10.141
▁esercitare	-10.1417
▁ulteriore	-10.1421
▁avremo	-10.1424
▁23	-10.1425
▁specifica	-10.1426
▁comunitari	-10.1427
arte	-10.1433
▁esercito	-10.144
▁pacchetto	-10.1441
▁spi	-10.1443
ani	-10.1444
▁asilo	-10.145
▁dava	-10.1457
▁diretto	-10.1459
▁fiore	-10.1461
scono	-10.1465
nga	-10.1467
▁volevo	-10.1474
▁greco	-10.1478
▁vo	-10.1496
▁tecnico	-10.15
▁occupa	-10.1501
▁dodici	-10.1503
▁of	-10.1506
est	-10.1514
▁vada	-10.1514
▁gara	-10.1517
▁disponibilità	-10.1522
▁riceve	-10.1525
▁statuto	-10.1529
▁nasce	-10.1538
▁cane	-10.1538
▁penale	-10.1542
▁sentenza	-10.1544
▁stra	-10.1546
▁rumore	-10.1547
▁consumo	-10.1549
▁piede	-10.1553
▁tenendo	-10.1554
▁sci	-10.1555
▁tipi	-10.1559
▁rappresentante	-10.1562
▁favorire	-10.1566
▁caratteristiche	-10.1567
cia	-10.1575
▁atteggiamento	-10.1575
▁costante	-10.1577
▁pontefice	-10.1578
▁orientamenti	-10.1578
▁dovremo	-10.1579
▁ragazzo	-10.1581
▁appello	-10.1583
▁strano	-10.1586
▁lib	-10.159
der	-10.159
amore	-10.1593
▁costituiscono	-10.1596
▁processi	-10.16
▁direttive	-10.1603
▁pagamento	-10.1604
▁fatica	-10.1607
▁nove	-10.1618
▁messi	-10.1623
▁tasso	-10.1623
▁diretta	-10.1634
▁avviare	-10.164
▁finanziamenti	-10.164
ngo	-10.1641
▁economia	-10.1642
▁condotto	-10.1646
▁decreto	-10.165
▁unità	-10.1656
▁cu	-10.1659
▁preparazione	-10.166
4-0	-10.1662
▁industriale	-10.1665
▁dominio	-10.1672
▁divieto	-10.1676
rsene	-10.1677
▁nobile	-10.1683
▁giorgio	-10.1695
▁mangiare	-10.1698
ire	-10.1699
▁umane	-10.1707
▁sfide	-10.1712
▁accogliere	-10.172
▁direttore	-10.1728
bilità	-10.1729
▁benessere	-10.1732
ka	-10.1737
▁trovava	-10.174
▁testi	-10.1751
tici	-10.1752
▁sembrano	-10.1761
ll	-10.1764
▁felicità	-10.1766
▁destinati	-10.1768
gio	-10.1772
▁democratici	-10.1772
▁iniziato	-10.1783
▁numeri	-10.1788
▁muro	-10.1796
▁standard	-10.1798
▁mon	-10.18
▁ostacoli	-10.1804
▁esprime	-10.1811
glio	-10.1819
▁resistenza	-10.1826
▁autore	-10.1827
▁ricco	-10.1829
tre	-10.1835
▁teneva	-10.1836
▁norma	-10.1836
▁aiuta	-10.1841
▁vennero	-10.1844
tro	-10.1846
▁iniziare	-10.1854
▁sostenuto	-10.1855
▁esaminare	-10.1859
▁prete	-10.1859
▁truppe	-10.1861
▁ste	-10.1862
▁merci	-10.1863
▁segue	-10.1864
▁medie	-10.1865
▁positivi	-10.1866
▁timore	-10.1867
▁cucina	-10.1868
▁bassa	-10.1874
▁accade	-10.1879
▁riconosciuto	-10.1879
▁delegazione	-10.1883
▁inferiore	-10.1885
▁giunta	-10.1887
▁file	-10.189
ino	-10.1896
gra	-10.1896
lia	-10.1905
▁finchè	-10.1908
▁oggetti	-10.191
▁vergogna	-10.1912
▁vivono	-10.1919
▁quota	-10.1928
▁ufficio	-10.1931
▁ricordi	-10.1933
▁esclusivamente	-10.1935
▁garanzia	-10.194
▁attuare	-10.1943
▁gusto	-10.1943
▁stai	-10.1943
▁paga	-10.1945
trici	-10.1947
▁autori	-10.1948
▁speranze	-10.1955
▁differenze	-10.1958
▁giuliano	-10.1963
▁conquista	-10.1966
cche	-10.197
▁lasciando	-10.1975
▁tedesco	-10.1985
pre	-10.1985
▁monetaria	-10.1986
stico	-10.1987
▁principalmente	-10.1995
▁gradi	-10.1996
▁notare	-10.1999
▁lavora	-10.2003
▁cavaliere	-10.2009
▁compiti	-10.2011
▁vai	-10.2015
▁nondimeno	-10.2019
▁tue	-10.2019
▁produrre	-10.2019
▁super	-10.2023
▁aggiunto	-10.2034
▁eccellente	-10.2037
▁minore	-10.204
cce	-10.2042
▁comma	-10.2046
▁verifica	-10.2049
▁avranno	-10.205
▁sostiene	-10.2056
▁disponibile	-10.2059
▁sospetto	-10.206
▁fermo	-10.206
▁greci	-10.2062
▁altrove	-10.2077
▁cesare	-10.2088
▁riuscire	-10.2091
▁minori	-10.2093
▁popolazioni	-10.2108
▁squadra	-10.2111
▁riflessione	-10.2111
▁cosi	-10.2121
▁je	-10.2123
▁veste	-10.2125
▁evidentemente	-10.2128
▁ideale	-10.2134
▁segretario	-10.2138
▁osservazione	-10.2148
▁dollari	-10.2151
▁patrimonio	-10.2152
▁considera	-10.2153
▁ricchi	-10.2176
▁filo	-10.2178
▁comando	-10.2179
▁considerando	-10.2184
▁stagione	-10.2191
▁recenti	-10.2191
▁sonno	-10.2195
▁prevista	-10.2208
▁rurale	-10.222
▁ulteriormente	-10.222
▁contratto	-10.2223
applausi	-10.2223
▁genti	-10.2226
▁associazione	-10.2229
uti	-10.2234
▁antico	-10.2238
▁esperienze	-10.2239
▁romana	-10.224
▁fila	-10.2243
▁riguardano	-10.2243
▁modificare	-10.2244
▁chiamata	-10.2252
▁computer	-10.2264
▁comportamento	-10.2264
▁morta	-10.2265
▁sarei	-10.2269
▁copia	-10.2272
▁parecchi	-10.2274
▁sacco	-10.2277
▁fattori	-10.2287
america	-10.2289
ù	-10.2298
▁chiuso	-10.2302
▁1,	-10.231
▁grida	-10.2323
▁lunghi	-10.2326
ad	-10.2331
▁cambio	-10.2332
▁serra	-10.2335
▁unicamente	-10.2342
gia	-10.2343
▁sentimenti	-10.2348
▁spada	-10.2357
▁cominciare	-10.2357
▁tende	-10.2358
▁legato	-10.2362
▁legislativo	-10.2368
▁h	-10.2377
▁destino	-10.2388
▁centinaia	-10.239
▁ottimo	-10.2392
▁man	-10.2392
▁passò	-10.2398
▁parlava	-10.2398
▁pubblicato	-10.2401
▁logica	-10.2403
▁minuto	-10.2403
▁benissimo	-10.2406
▁indicato	-10.2409
▁pio	-10.2413
▁art	-10.2416
▁dov	-10.2418
spi	-10.2422
▁condivido	-10.2431
▁narra	-10.2439
▁elevato	-10.244
▁compreso	-10.2442
▁cardinale	-10.2448
▁conta	-10.2449
▁farai	-10.245
▁avevamo	-10.2452
▁rientra	-10.2452
▁salva	-10.2458
▁cadere	-10.2458
▁indipendente	-10.246
▁amministrazione	-10.2467
▁pan	-10.2469
▁difficili	-10.247
▁costui	-10.2473
agenzia	-10.2486
zzato	-10.2503
▁leone	-10.2506
▁corretto	-10.2514
▁speciali	-10.2518
▁definitiva	-10.2523
▁partner	-10.2531
▁verificare	-10.2535
▁%	-10.2535
tò	-10.2536
▁eliminare	-10.2537
▁alessandro	-10.2538
▁montagna	-10.2538
▁pensi	-10.2538
gu	-10.2542
▁assumere	-10.2543
▁privato	-10.2545
▁proporre	-10.2547
▁prodi	-10.255
stro	-10.2558
▁ampia	-10.2559
▁conflitti	-10.256
▁farò	-10.2561
▁vedendo	-10.2561
▁influenza	-10.2564
ndomi	-10.2566
▁senz	-10.2566
▁inizia	-10.2572
▁storie	-10.2577
▁realizzato	-10.2582
▁filosofia	-10.2585
▁venisse	-10.2589
▁sviluppi	-10.2589
▁integrazione	-10.2605
▁tira	-10.2611
▁costituzionale	-10.2616
▁categoria	-10.2619
▁interrogazioni	-10.262
▁presi	-10.2622
▁stabilito	-10.2622
ampliamento	-10.2629
▁proteggere	-10.2629
▁legati	-10.2635
▁poli	-10.2635
▁intero	-10.2638
▁ab	-10.2643
intervento	-10.2651
ke	-10.2654
▁»	-10.2656
▁realmente	-10.2658
▁intergovernativ	-10.2661
▁turchi	-10.2663
▁scelto	-10.2664
▁riflettere	-10.2665
▁vivi	-10.2668
▁quivi	-10.2669
▁adottata	-10.2675
▁muta	-10.2676
▁dottore	-10.2685
▁viii	-10.2687
▁constatare	-10.2693
▁zio	-10.2695
▁riso	-10.2699
▁ché	-10.2702
▁enormi	-10.2704
as	-10.2706
▁jo	-10.2715
▁originale	-10.2735
▁senato	-10.2741
ufficio	-10.2747
▁fama	-10.275
▁sub	-10.2752
▁aspettare	-10.2753
utilizzo	-10.2757
▁possesso	-10.2759
▁parco	-10.2759
▁ital	-10.2767
▁riprese	-10.2774
▁ver	-10.2775
▁vieni	-10.2776
▁avremmo	-10.2776
▁osservare	-10.2777
▁ivi	-10.2779
▁giacomo	-10.278
▁qualora	-10.2787
▁rapida	-10.2791
autorità	-10.2803
▁pronti	-10.2806
▁venivano	-10.2817
tiche	-10.2824
▁nomina	-10.2831
▁gra	-10.2831
▁continente	-10.2832
▁vii	-10.2835
▁2,	-10.2839
▁alimentari	-10.284
▁imporre	-10.2847
▁privati	-10.2848
▁soggetto	-10.285
▁riserve	-10.2852
▁recentemente	-10.286
▁vicenda	-10.2866
▁corrente	-10.2868
▁ritardo	-10.2872
▁27	-10.2873
▁relativamente	-10.2877
▁cambia	-10.2884
▁vado	-10.2887
▁larga	-10.2889
▁partenariato	-10.2889
▁grido	-10.289
ndola	-10.2895
▁pranzo	-10.2899
▁para	-10.2906
▁pressioni	-10.2926
▁speriamo	-10.293
▁operare	-10.2932
▁eventuali	-10.2938
▁liberi	-10.2942
vasi	-10.2948
▁superare	-10.2949
▁richiesto	-10.2956
▁ge	-10.2958
▁test	-10.2963
▁ragionevole	-10.2965
▁roberto	-10.297
▁scarpe	-10.2971
▁riuscito	-10.2973
▁conosciuto	-10.2973
istituzione	-10.2976
▁annuale	-10.2977
▁eravamo	-10.2977
▁pianta	-10.2986
▁distribuzione	-10.2994
esercizio	-10.2997
glie	-10.2998
▁previsti	-10.3
▁corsa	-10.3006
▁scritta	-10.3011
▁fretta	-10.3025
▁trarre	-10.303
▁potrei	-10.3034
▁civiltà	-10.3037
nne	-10.3039
▁profondamente	-10.3048
▁sicura	-10.3059
▁culturali	-10.306
▁adottate	-10.3066
▁specifici	-10.3073
▁pose	-10.3074
▁considerazioni	-10.3074
▁avvenire	-10.3075
▁mezza	-10.3076
▁deriva	-10.3078
▁parlamenti	-10.309
▁diversità	-10.3091
▁provenienti	-10.3095
auto	-10.3098
▁debole	-10.31
▁pla	-10.31
▁inteso	-10.3101
▁frase	-10.3104
▁--&	-10.3104
▁aereo	-10.3107
▁capitali	-10.3112
jo	-10.3113
▁perduto	-10.3115
▁reddito	-10.3119
▁fuga	-10.3129
▁occasioni	-10.3131
▁saremo	-10.3136
▁perde	-10.3137
▁gambe	-10.314
epoca	-10.3147
▁spiegare	-10.3151
▁edizione	-10.3152
sia	-10.3158
▁stretto	-10.3161
▁dubbi	-10.3163
▁avvenuto	-10.317
▁marchesa	-10.3172
▁consultazione	-10.3172
▁crescente	-10.3174
▁svolta	-10.3178
▁centrali	-10.318
▁fuor	-10.3187
▁efficaci	-10.3191
▁latte	-10.3198
argomento	-10.3199
10	-10.3209
▁rin	-10.3216
▁denti	-10.3217
9	-10.3217
▁mediterraneo	-10.3219
▁futura	-10.3223
▁criminalità	-10.3223
▁accolto	-10.3226
▁utilizzato	-10.3232
▁istante	-10.3238
zo	-10.3242
▁funzionari	-10.3243
▁divina	-10.3254
▁benché	-10.3256
▁dispone	-10.3257
▁andar	-10.3265
▁antica	-10.3266
▁certezza	-10.3266
▁adeguato	-10.3269
_	-10.3271
▁cagione	-10.3271
▁svolge	-10.3273
▁utenti	-10.3274
▁indica	-10.3275
▁servire	-10.3276
▁assunto	-10.3278
▁generazione	-10.328
▁ascolta	-10.3289
▁velocità	-10.3292
ttu	-10.3293
▁confronto	-10.3295
▁arrivato	-10.3298
▁riferisco	-10.33
▁professore	-10.3304
ppo	-10.3304
▁partita	-10.3304
▁stranieri	-10.3306
▁consumatore	-10.3307
▁date	-10.331
▁vite	-10.3313
▁ciascun	-10.3313
▁poca	-10.3315
▁controllare	-10.3316
▁ascoltare	-10.3317
▁dovevano	-10.3337
via	-10.3338
▁000	-10.3341
▁pezzi	-10.3342
▁nave	-10.3344
▁commissari	-10.3349
▁successivamente	-10.3354
▁trattare	-10.3357
▁28	-10.3357
▁60	-10.3361
▁stelle	-10.3367
▁entrò	-10.3369
▁stia	-10.3372
▁inaccettabile	-10.3376
▁istruzione	-10.3379
▁caldo	-10.3379
▁alberi	-10.3384
▁ricchezza	-10.3394
▁usato	-10.3394
tevi	-10.3394
▁tedeschi	-10.3396
tiva	-10.3398
▁riserva	-10.34
▁vidi	-10.3404
▁taluni	-10.3409
▁diavolo	-10.341
assistenza	-10.3418
▁suono	-10.3422
▁folla	-10.3424
hi	-10.3432
▁fornito	-10.3433
▁segni	-10.3437
▁raccogliere	-10.3442
▁scoprire	-10.3448
▁guardando	-10.3459
▁andando	-10.3463
20	-10.3466
▁conciliazione	-10.3468
▁rivela	-10.3469
▁gio	-10.347
▁soddisfare	-10.3475
▁discriminazione	-10.3475
analisi	-10.3476
nce	-10.3481
▁oro	-10.3481
▁lunghe	-10.3486
▁1998	-10.3499
immigrazione	-10.35
▁dedicato	-10.3502
van	-10.3504
▁composto	-10.3507
▁volo	-10.3509
▁rer	-10.3509
▁pomeriggio	-10.3514
▁guisa	-10.3515
▁sabato	-10.3516
omc	-10.3516
rra	-10.3516
▁ka	-10.3517
▁inserire	-10.3518
▁compagnie	-10.3518
▁26	-10.3522
▁favorevoli	-10.3523
▁eletto	-10.3523
▁disposto	-10.3524
▁imparare	-10.3525
▁raccomandazione	-10.3526
▁normale	-10.3527
impatto	-10.3528
▁pianeta	-10.3544
▁stavano	-10.3545
▁rossa	-10.3549
▁organizzazione	-10.3549
aiuto	-10.3552
▁istituzione	-10.3556
▁critiche	-10.3556
colo	-10.3563
▁pensando	-10.3567
▁dichiara	-10.3574
▁mosse	-10.3578
▁new	-10.358
▁altrui	-10.3585
enti	-10.3586
tion	-10.3589
▁colpi	-10.3589
ty	-10.359
▁consentito	-10.3596
▁giornali	-10.3599
▁contrasto	-10.36
▁he	-10.3602
immagine	-10.3603
▁istituzionale	-10.3606
cio	-10.3608
ita	-10.361
▁risposto	-10.361
▁rovina	-10.361
▁mala	-10.3611
▁calma	-10.3616
▁chè	-10.3618
▁eran	-10.3621
os	-10.3623
▁santi	-10.3632
▁vesti	-10.364
▁infrastrutture	-10.3649
▁volesse	-10.3661
▁pensava	-10.3662
▁rivolta	-10.3665
▁tecnici	-10.3668
▁giovine	-10.3669
▁banche	-10.3672
ze	-10.3673
▁scoperto	-10.3678
▁lavorato	-10.3679
▁animale	-10.3685
▁chiarire	-10.3687
▁scorsa	-10.3688
▁soggiunse	-10.3689
▁verdi	-10.3691
▁discorsi	-10.3695
nzi	-10.3698
mma	-10.37
▁impianti	-10.3704
▁riposo	-10.3714
▁discusso	-10.3715
▁tornò	-10.3716
▁venir	-10.3722
▁nu	-10.3724
▁chiare	-10.3731
ser	-10.3732
▁previste	-10.3736
▁gestire	-10.3743
▁dette	-10.3743
▁ciclo	-10.3749
▁giornale	-10.3749
▁impatto	-10.3751
▁concrete	-10.3753
▁prevedere	-10.3758
▁ok	-10.376
▁vicina	-10.3762
▁credito	-10.3766
▁reazione	-10.3768
▁obblighi	-10.3773
don	-10.3776
▁determinato	-10.3778
interrogazione	-10.3781
▁is	-10.3787
▁toglie	-10.379
▁lago	-10.3792
ff	-10.3792
▁rafforzamento	-10.3792
▁essenziali	-10.3799
▁giunti	-10.38
▁approvare	-10.3804
▁londra	-10.3804
▁caffè	-10.3809
▁dissi	-10.381
▁storica	-10.3812
▁totalmente	-10.3828
dio	-10.3834
▁tutt	-10.3836
▁terrore	-10.3839
▁elaborare	-10.3846
▁centri	-10.3849
▁estrema	-10.3853
▁radio	-10.3857
▁ar	-10.3857
▁diventato	-10.3859
ito	-10.3867
ura	-10.3869
▁correre	-10.3869
▁bis	-10.387
▁destinato	-10.3871
▁addosso	-10.3872
▁gentile	-10.388
alto	-10.388
▁tabacco	-10.3883
ico	-10.3883
▁31	-10.3884
▁bambina	-10.3887
▁profilo	-10.3887
mba	-10.3888
▁capisco	-10.3892
▁incontra	-10.3913
▁brevi	-10.3916
▁disporre	-10.392
▁promessa	-10.392
▁dettagli	-10.3928
▁lume	-10.3935
▁italiane	-10.3935
▁neri	-10.3947
▁racconto	-10.395
amministrazione	-10.3958
nge	-10.3973
▁volentieri	-10.3976
stru	-10.3983
▁clienti	-10.3988
nse	-10.3989
▁oratori	-10.3991
▁provare	-10.3995
nci	-10.3997
▁modelli	-10.4002
▁comunale	-10.4006
▁posa	-10.4006
eranno	-10.4008
▁straordinaria	-10.4013
▁moderna	-10.4017
»,	-10.4019
ndogli	-10.4021
▁scambi	-10.4022
▁carcere	-10.4024
▁violazione	-10.4028
rdi	-10.4033
▁perfino	-10.4036
▁esterne	-10.404
nata	-10.404
▁traccia	-10.4042
ment	-10.4043
▁gioventù	-10.4047
▁bra	-10.4053
▁vinto	-10.4053
▁dottrina	-10.4055
▁passati	-10.4059
vol	-10.4062
▁vendetta	-10.4063
▁perso	-10.4066
▁chiamare	-10.4068
▁distruzione	-10.4074
▁meccanismo	-10.4077
▁volere	-10.4078
▁lancia	-10.4079
esistenza	-10.4079
▁legale	-10.408
▁verbale	-10.4081
▁potenziale	-10.4082
▁mattino	-10.4082
tive	-10.4086
▁stanziamenti	-10.4088
▁collegio	-10.4088
amp	-10.4089
▁giudice	-10.4094
▁raccomandazioni	-10.4101
▁parliamo	-10.4103
nato	-10.4105
▁efficacia	-10.412
▁associazioni	-10.4121
▁costretto	-10.4122
▁gu	-10.4126
▁lorenzo	-10.4126
▁organismi	-10.4126
associazione	-10.4127
▁imperatore	-10.4127
▁restare	-10.4139
▁imposte	-10.4141
▁definito	-10.4149
▁felici	-10.4152
▁occidentale	-10.4157
anti	-10.4159
▁caduta	-10.416
▁giochi	-10.4163
▁pazienti	-10.4171
▁appresso	-10.4171
▁meccanismi	-10.4175
▁alti	-10.4184
▁facesse	-10.4185
▁scientifica	-10.419
▁mangia	-10.4191
▁viola	-10.4192
▁torto	-10.4193
▁domandò	-10.4198
▁soccorso	-10.4198
▁odio	-10.4201
sche	-10.4201
▁cogli	-10.4204
▁proseguire	-10.4204
ex	-10.4208
▁semi	-10.421
▁tempio	-10.4216
▁assieme	-10.4217
▁immagine	-10.422
voli	-10.4224
▁sorpresa	-10.4225
▁miseria	-10.4226
▁industria	-10.4227
î	-10.4228
▁doppio	-10.4236
▁effettuare	-10.4236
uno	-10.4239
▁benchè	-10.4242
▁aggiunge	-10.4244
▁vasta	-10.4244
▁amor	-10.4248
▁tor	-10.4256
▁approvazione	-10.4257
▁vorrebbe	-10.4262
▁leader	-10.4263
rgi	-10.4264
▁vincere	-10.4264
▁sarò	-10.4266
▁determinazione	-10.4266
▁star	-10.4267
▁w	-10.4268
▁rilievo	-10.4271
▁prigione	-10.4271
▁figliuoli	-10.4275
▁contento	-10.4277
ina	-10.4278
▁fattore	-10.4279
▁madonna	-10.4284
▁accaduto	-10.4286
▁permanente	-10.4287
▁firma	-10.4297
▁tenuta	-10.4298
obbligo	-10.4299
▁colà	-10.43
▁accusa	-10.4301
▁contributi	-10.4303
ggia	-10.4315
▁museo	-10.4317
▁cavalieri	-10.4317
▁veder	-10.4323
zion	-10.4328
▁ragazze	-10.4328
▁approvata	-10.4332
▁marcia	-10.4347
▁largo	-10.4347
▁tavolo	-10.4348
▁contare	-10.4348
▁piante	-10.4348
▁venerdì	-10.4355
▁contessa	-10.4357
▁ricerche	-10.4359
▁nera	-10.436
▁partecipato	-10.4368
▁gira	-10.4373
▁ricca	-10.4378
▁mandò	-10.4379
▁famoso	-10.4383
aspetto	-10.4387
▁corretta	-10.4388
▁frate	-10.4391
età	-10.4393
▁natale	-10.4396
▁adatta	-10.4401
▁cominciato	-10.4404
▁tuttora	-10.4407
▁costumi	-10.4414
▁presentate	-10.4414
▁garibaldi	-10.4418
▁sussidiarietà	-10.4418
▁precisa	-10.442
▁occhio	-10.4425
▁fiorentini	-10.4425
▁professione	-10.4429
▁vuoto	-10.4431
▁cena	-10.4432
▁arabi	-10.4436
▁accetta	-10.4439
mbi	-10.444
▁intendiamo	-10.4441
▁completo	-10.4446
▁utilizzati	-10.4447
▁significativo	-10.4447
▁poscia	-10.4451
▁costituire	-10.4453
bri	-10.4458
ose	-10.4459
▁portogallo	-10.446
▁dando	-10.4469
▁benefici	-10.4469
▁scrisse	-10.447
▁pericoli	-10.4472
▁concreti	-10.448
q	-10.448
▁corse	-10.4481
▁bal	-10.4481
▁sezione	-10.4488
▁approva	-10.4489
▁intendere	-10.4491
▁dipendenti	-10.4497
▁africa	-10.4503
▁passando	-10.4508
▁cani	-10.451
▁interessa	-10.4515
á	-10.4518
ini	-10.452
▁superficie	-10.4523
▁ridotto	-10.4527
▁relatori	-10.4531
obs	-10.4532
▁prigionieri	-10.4551
▁conseguire	-10.4552
▁por	-10.4555
ppi	-10.457
▁soglia	-10.4573
stre	-10.4574
▁fortemente	-10.4576
lio	-10.4577
▁futuri	-10.4577
▁cima	-10.4579
▁ebbero	-10.4581
▁perdono	-10.4583
▁lentamente	-10.4589
▁volti	-10.4598
▁ucciso	-10.4598
▁finché	-10.4604
▁nascita	-10.4606
qua	-10.4612
▁trenta	-10.4613
▁seguita	-10.4613
▁concreto	-10.4614
▁elettorale	-10.4614
▁bisogni	-10.4616
▁andata	-10.4616
ando	-10.462
▁sovra	-10.462
▁svezia	-10.4622
▁bianchi	-10.4626
▁sufficienti	-10.463
▁superiori	-10.4638
▁manifesta	-10.4646
▁genio	-10.4651
▁messer	-10.4652
▁sicuri	-10.4653
▁villaggio	-10.4657
▁veneziani	-10.4657
▁cipro	-10.4663
▁fonda	-10.4665
▁trono	-10.4667
▁competente	-10.4679
▁coerente	-10.4681
▁fissa	-10.4681
▁confusione	-10.4682
erò	-10.4683
▁liberali	-10.4693
▁conservazione	-10.4693
▁congresso	-10.4694
▁farne	-10.4698
▁bordo	-10.4702
▁appoggia	-10.4704
ly	-10.4707
▁presta	-10.4708
▁nipote	-10.4714
approvazione	-10.4727
▁tendenza	-10.4728
▁barba	-10.4728
▁pensiamo	-10.4733
▁quinto	-10.4733
▁proposti	-10.4734
▁ovvio	-10.4742
▁post	-10.4749
▁tomo	-10.475
▁letteratura	-10.475
▁vince	-10.475
▁29	-10.4753
he	-10.4763
▁ciascuna	-10.4766
▁sc	-10.4767
▁beneficio	-10.4774
▁urgente	-10.4778
▁osserva	-10.4778
▁immaginare	-10.4783
▁guardò	-10.4791
▁anime	-10.4792
▁emerge	-10.4793
▁corruzione	-10.4795
▁saper	-10.4796
▁rappresentato	-10.4804
▁2002	-10.4804
▁costituito	-10.4805
▁continuano	-10.4806
▁anziché	-10.4808
▁accoglie	-10.481
▁napoleone	-10.4811
▁pronta	-10.4817
apertura	-10.4818
▁crescere	-10.4818
▁diffusione	-10.4823
▁differenti	-10.4827
▁concedere	-10.4835
▁spera	-10.4836
▁cure	-10.4837
fat	-10.4839
▁fantasia	-10.4843
▁sottolinea	-10.4846
▁volendo	-10.4846
au	-10.4849
▁anziani	-10.485
mbo	-10.4851
▁ricostruzione	-10.4852
ché	-10.4852
▁2001	-10.4852
▁università	-10.4858
▁gesto	-10.4859
etto	-10.486
▁rive	-10.4866
▁fossi	-10.4867
▁scelte	-10.4872
▁prassi	-10.4873
▁insegna	-10.4873
▁catena	-10.4874
vole	-10.4875
▁britannico	-10.4876
▁sentì	-10.488
▁preghiera	-10.488
▁chiusura	-10.4884
rda	-10.4885
▁padri	-10.4895
▁assoluta	-10.4896
▁giusti	-10.4898
▁parenti	-10.4901
▁anna	-10.4903
▁disegni	-10.4905
▁utilizza	-10.4907
▁meraviglia	-10.4911
▁ovunque	-10.4913
▁ribadire	-10.4921
▁avessi	-10.4922
▁apertura	-10.4927
osa	-10.4939
università	-10.4939
ron	-10.494
▁salvo	-10.4944
▁decide	-10.4945
▁province	-10.4945
▁contribuito	-10.4949
▁andate	-10.495
▁immagina	-10.4952
▁iniziale	-10.4961
▁trasferimento	-10.4962
▁conserva	-10.4962
▁riuscita	-10.4966
▁sperare	-10.4968
▁seguendo	-10.4968
▁plenaria	-10.497
▁ombra	-10.4971
▁organizzata	-10.4973
▁mantenimento	-10.4974
▁movimenti	-10.4974
rá	-10.4977
mini	-10.4981
tum	-10.4984
▁personaggi	-10.4984
▁capaci	-10.4985
▁signorina	-10.4986
▁fiscali	-10.4993
▁taglia	-10.4994
ir	-10.4994
▁ferdinando	-10.4995
▁detti	-10.4996
▁necessariamente	-10.4999
▁limitare	-10.5
ppa	-10.5001
▁commissioni	-10.5006
▁promesse	-10.5008
▁pretesto	-10.5008
▁dispiace	-10.5012
son	-10.5012
▁fisica	-10.5015
ut	-10.5016
▁violazioni	-10.5018
▁pensate	-10.5029
▁latina	-10.5029
▁neve	-10.5029
▁grandezza	-10.5035
▁fabbrica	-10.5035
▁calcio	-10.5036
▁disposti	-10.5044
▁lieta	-10.5046
▁antiche	-10.5046
▁rappresentare	-10.5046
▁romanzo	-10.5047
▁pisa	-10.505
▁figliuola	-10.5052
ber	-10.5053
▁alimenti	-10.5053
▁accettato	-10.5056
rri	-10.5057
ica	-10.5058
origine	-10.5063
▁gode	-10.5065
▁calendario	-10.5066
▁lontana	-10.5068
tus	-10.5069
▁singolo	-10.5069
▁1996	-10.5071
50	-10.5071
onu	-10.5073
▁rivolto	-10.5073
▁sovranità	-10.5074
▁nucleari	-10.5078
rro	-10.5081
▁prega	-10.5084
▁federico	-10.5087
▁ricorrere	-10.509
▁continuamente	-10.5095
▁ritorna	-10.5095
▁pesce	-10.5096
▁portava	-10.5101
▁adeguata	-10.5102
▁gia	-10.5108
▁delitto	-10.5108
▁palla	-10.5109
▁morì	-10.511
▁apre	-10.5112
▁avvenimenti	-10.5119
í	-10.512
▁isole	-10.5122
▁privata	-10.5124
azienda	-10.5125
▁ripresa	-10.5128
▁solleva	-10.5128
▁cro	-10.5128
spe	-10.5129
▁regolamentazion	-10.5129
▁pazienza	-10.5132
▁composizione	-10.5137
▁creatura	-10.5142
▁conosco	-10.5142
▁mali	-10.5148
▁storici	-10.5149
▁bravo	-10.5152
▁studiare	-10.5164
▁chiuse	-10.5165
▁formato	-10.5172
▁ze	-10.5179
nzo	-10.5183
▁chiamati	-10.5184
▁turco	-10.5187
tivi	-10.5187
▁esecuzione	-10.5191
▁intera	-10.5191
poli	-10.5197
▁scoperta	-10.5199
▁invita	-10.52
▁mostrare	-10.5202
▁compagno	-10.5205
▁garanzie	-10.5207
▁soldato	-10.5208
▁terrà	-10.5209
▁ja	-10.521
sio	-10.5213
▁concilio	-10.5213
▁esercizio	-10.5213
▁america	-10.5218
▁incontri	-10.5222
▁successivo	-10.5222
▁giovedì	-10.5237
▁guardava	-10.5238
▁ingegno	-10.5242
▁candidato	-10.5243
▁basata	-10.5248
▁colpito	-10.5256
▁concessione	-10.5263
▁statua	-10.5268
▁industriali	-10.5274
▁istituire	-10.5277
▁lontani	-10.5279
▁salvare	-10.528
▁anzitutto	-10.5288
▁miglia	-10.5292
ava	-10.5295
▁giudici	-10.5302
▁future	-10.5304
▁palermo	-10.5305
▁bei	-10.5305
▁prescindere	-10.5309
▁gridò	-10.5309
▁colonna	-10.5311
▁assume	-10.5313
▁transfrontalier	-10.5318
tamente	-10.5318
▁incidenti	-10.5331
▁gregorio	-10.5336
▁poste	-10.5338
▁femminile	-10.5339
▁pianto	-10.534
▁straordinario	-10.5342
mpi	-10.5344
▁scrittore	-10.5345
▁carità	-10.5347
▁profughi	-10.5347
▁sindaco	-10.5348
▁faremo	-10.536
▁riprende	-10.5363
▁assicura	-10.5363
▁ecc	-10.5364
ris	-10.5368
▁belli	-10.5369
▁volevano	-10.5373
▁richiama	-10.5382
line	-10.5383
▁cellule	-10.5386
▁scienze	-10.539
▁praticamente	-10.5391
▁ppe	-10.5399
▁cogliere	-10.54
▁enrico	-10.54
▁rapido	-10.5404
▁mettendo	-10.5406
▁venuti	-10.5412
▁creduto	-10.5416
▁passeggeri	-10.542
▁crediamo	-10.5422
▁sali	-10.5431
mu	-10.5434
▁uffici	-10.5435
▁consenta	-10.5435
▁fumo	-10.5436
▁j	-10.5449
bra	-10.5453
▁applica	-10.5453
ki	-10.5456
▁indicazioni	-10.5458
▁energetica	-10.5459
▁petrolio	-10.5459
▁socialista	-10.5462
▁individuare	-10.5462
▁familiare	-10.5468
▁online	-10.5468
▁ix	-10.547
▁esistenza	-10.5472
▁implica	-10.5476
15	-10.5481
▁babbo	-10.5486
▁sostituire	-10.5489
▁intenzioni	-10.549
11	-10.549
▁pescatori	-10.5493
▁giova	-10.5493
▁frutti	-10.5495
▁palestinese	-10.5503
nico	-10.5505
▁assenza	-10.5508
▁tutelare	-10.5511
▁chiudere	-10.5514
▁organizzato	-10.5517
▁piè	-10.5518
mp	-10.5522
▁rifiuto	-10.553
▁piglia	-10.553
▁citato	-10.5532
▁area	-10.5535
▁attivo	-10.5537
▁degno	-10.5539
▁negativo	-10.5546
▁flotta	-10.5547
ffi	-10.5547
agenda	-10.5549
▁culto	-10.5552
▁cappello	-10.5554
▁saluto	-10.5554
▁nata	-10.5555
▁dirò	-10.5561
cchia	-10.557
eremo	-10.5571
▁vittima	-10.5572
▁costantinopoli	-10.5572
▁notevoli	-10.5573
▁barbari	-10.5577
iraq	-10.5578
mar	-10.5579
africa	-10.5581
▁scrittori	-10.5584
dia	-10.5586
▁amato	-10.5587
▁seriamente	-10.559
▁globalizzazione	-10.5603
▁materie	-10.5608
▁figure	-10.5612
▁muove	-10.5612
▁assoluto	-10.5612
ppe	-10.5613
▁lezione	-10.5614
▁alternative	-10.5621
▁basa	-10.5627
▁blu	-10.5629
▁veicoli	-10.5629
▁cattivo	-10.5631
▁alberto	-10.5638
▁valida	-10.5638
▁pubblicità	-10.5644
▁ritornare	-10.5644
evoluzione	-10.5645
ari	-10.5648
▁accolgo	-10.5656
▁costoro	-10.5672
▁classi	-10.5673
▁considerata	-10.5674
▁riva	-10.5676
▁naso	-10.5681
▁provvedimento	-10.5682
▁salire	-10.5682
▁concesso	-10.5688
▁produce	-10.5688
▁cristiano	-10.5688
▁cattiva	-10.5699
▁essenzialmente	-10.57
▁romania	-10.5703
▁curiosità	-10.5705
▁cala	-10.5707
▁ratifica	-10.5707
▁bandiera	-10.5709
▁offerte	-10.5713
▁schiera	-10.5717
▁conduce	-10.5718
▁tragedia	-10.5722
aumento	-10.5723
▁pubblicazione	-10.5723
▁aveano	-10.5733
▁promesso	-10.5736
▁ampliamento	-10.5741
▁soggiorno	-10.5741
▁tenta	-10.5748
▁cifre	-10.5749
▁quote	-10.575
▁tengo	-10.5751
▁chiude	-10.5756
▁balcani	-10.5758
▁hu	-10.5758
▁concordo	-10.5762
▁papà	-10.5762
rino	-10.5768
▁lagrime	-10.5775
▁biblioteca	-10.5788
ul	-10.5789
ssu	-10.579
▁duro	-10.579
▁provato	-10.5791
▁dovete	-10.5792
▁tornato	-10.5795
▁utilizzo	-10.5799
▁trasformazione	-10.5805
▁comprensione	-10.5807
▁artisti	-10.5808
40	-10.5808
▁evento	-10.5808
▁rimedio	-10.581
▁&-	-10.5813
▁fissare	-10.5817
▁incoraggiare	-10.5819
▁avviato	-10.5822
uri	-10.5826
▁quanta	-10.5826
▁latino	-10.5827
▁grossi	-10.583
▁prevenire	-10.583
▁americano	-10.5833
▁credeva	-10.5836
▁vestito	-10.5838
▁nizza	-10.5842
▁scritti	-10.5844
▁consegna	-10.5844
▁bio	-10.5846
▁padova	-10.5847
▁pagamenti	-10.5849
▁monta	-10.5852
rete	-10.5856
▁pò	-10.5858
▁interessate	-10.5859
▁tornata	-10.586
▁legislativa	-10.5861
zie	-10.5861
▁dono	-10.5861
▁consapevole	-10.5863
▁perfetto	-10.5864
lino	-10.5866
iva	-10.5867
▁vissuto	-10.587
▁musulmani	-10.5874
▁sacro	-10.5876
▁efficiente	-10.5879
mila	-10.5881
▁scia	-10.5882
▁mobilità	-10.5891
▁affetto	-10.5893
▁risoluzioni	-10.5901
▁ascoltato	-10.5911
▁deboli	-10.5912
fer	-10.592
▁percentuale	-10.5928
▁trasparente	-10.5929
▁regolamenti	-10.5932
▁teoria	-10.5933
▁seco	-10.5934
▁solenne	-10.5943
▁leva	-10.5946
▁giudica	-10.5948
▁cruciale	-10.5955
▁fui	-10.5957
▁protesta	-10.5961
pu	-10.5961
▁pensò	-10.5969
▁corpi	-10.5971
rei	-10.5972
▁zucchero	-10.5974
▁preciso	-10.5974
▁canta	-10.5975
autore	-10.5976
oso	-10.5977
▁ju	-10.5978
▁mobili	-10.5979
▁♫	-10.5993
▁acp	-10.5993
▁rimasta	-10.5997
▁campagne	-10.6001
▁offerta	-10.6001
▁sogni	-10.6005
▁scientifico	-10.6006
▁simbolo	-10.6011
▁interne	-10.6013
▁riguardanti	-10.6018
▁preparare	-10.6025
!"	-10.603
▁sti	-10.6032
▁termina	-10.6036
▁interrogazione	-10.6044
▁contenta	-10.6045
▁giocare	-10.6047
▁religiosa	-10.6051
▁conoscenze	-10.6053
▁km	-10.6053
▁consapevoli	-10.6056
▁dimenticato	-10.6062
▁vedremo	-10.6066
uta	-10.6068
▁ridere	-10.6081
▁vedono	-10.6083
ffa	-10.6087
gua	-10.6088
▁concluso	-10.6088
▁suolo	-10.6089
▁rossi	-10.609
▁costretti	-10.6093
▁uscì	-10.6093
▁‘	-10.6094
uto	-10.6096
▁op	-10.6096
▁tiro	-10.61
▁minoranze	-10.6102
▁batte	-10.6105
▁poeti	-10.6106
▁lombardia	-10.6112
▁conformità	-10.6116
▁generalmente	-10.6117
▁lasciar	-10.6124
▁cliente	-10.6129
▁dimora	-10.6129
▁software	-10.613
▁contratti	-10.613
iti	-10.6134
▁amare	-10.6135
▁comunica	-10.6137
▁bosco	-10.6141
▁visitare	-10.6147
▁bisognava	-10.6148
▁mostrato	-10.6151
▁piemonte	-10.6152
▁congratulo	-10.6153
▁entrata	-10.6153
▁ut	-10.6153
gge	-10.6155
▁nega	-10.6155
▁potenti	-10.6156
▁vien	-10.6165
▁regolare	-10.6168
ndole	-10.6179
▁marina	-10.6181
mme	-10.6186
▁addio	-10.6188
▁scrittura	-10.6195
▁donde	-10.6199
mina	-10.6206
cri	-10.6208
▁bagno	-10.6211
▁affrontato	-10.6211
▁ripetere	-10.6212
▁entrato	-10.6216
▁individui	-10.6218
▁palestinesi	-10.6222
▁vasto	-10.6227
▁angolo	-10.6231
▁xii	-10.6231
lmente	-10.6236
▁coerenza	-10.6236
▁raggi	-10.6238
▁bere	-10.624
▁tedesca	-10.6241
▁zero	-10.6242
▁saluta	-10.6248
▁montagne	-10.6256
▁/	-10.6259
ts	-10.6265
rico	-10.6266
▁costantemente	-10.6269
▁arrivati	-10.6273
▁medesimi	-10.6274
▁finestre	-10.628
▁corrisponde	-10.6283
▁strasburgo	-10.6288
▁imparato	-10.6288
▁cresce	-10.629
spo	-10.631
▁polonia	-10.6312
come	-10.6316
▁convinzione	-10.6316
▁presidenti	-10.6317
▁condividere	-10.6317
▁vitale	-10.6319
▁disco	-10.6319
▁frattempo	-10.633
▁interamente	-10.6332
▁accettabile	-10.6337
▁indipendenti	-10.634
▁arrivo	-10.6341
▁marmo	-10.6342
ine	-10.6343
▁impone	-10.6349
▁sapendo	-10.635
▁divisione	-10.635
impresa	-10.6352
▁michele	-10.6355
▁fedele	-10.6355
▁navigazione	-10.6361
▁giunge	-10.6362
▁componenti	-10.637
▁varietà	-10.6372
▁ebrei	-10.6378
▁mancano	-10.6379
▁tentare	-10.6385
erano	-10.6393
▁indicare	-10.6393
▁cinquanta	-10.6396
▁agricolo	-10.6401
▁fallimento	-10.6407
▁resi	-10.6408
▁sostanzialmente	-10.6411
▁laddove	-10.6411
mpo	-10.6413
▁cade	-10.6413
▁signoria	-10.6415
▁debbono	-10.6417
▁votazioni	-10.6422
▁titoli	-10.6426
▁finanziare	-10.6428
▁lavorando	-10.6432
▁valido	-10.6435
▁decisamente	-10.6438
▁pericoloso	-10.6444
mus	-10.6444
res	-10.6446
▁messe	-10.645
▁fedeli	-10.645
▁divenne	-10.6451
▁interessanti	-10.6451
▁formula	-10.6455
▁passioni	-10.6456
▁affronta	-10.6458
▁difende	-10.6459
▁temo	-10.6461
▁parlo	-10.6463
tz	-10.6466
▁stella	-10.6466
▁tradizionale	-10.6468
menta	-10.6469
▁condannato	-10.6472
▁attende	-10.6473
▁mor	-10.6474
oro	-10.6477
▁essersi	-10.6477
▁contatti	-10.6481
▁liberamente	-10.6482
▁vecchie	-10.6483
cò	-10.6486
▁sessione	-10.6486
▁cre	-10.6488
▁trovi	-10.6494
▁tradizioni	-10.6499
▁sorti	-10.6501
ndoli	-10.6501
▁riprendere	-10.6503
▁rimasti	-10.6505
tor	-10.6506
▁avvicina	-10.6516
▁tesoro	-10.6518
stiche	-10.6523
▁1°	-10.6524
▁impa	-10.6525
▁zo	-10.6525
▁continui	-10.6526
mmi	-10.6526
▁irlandese	-10.6535
▁sfruttamento	-10.6541
▁rilevare	-10.6547
12	-10.6551
▁priva	-10.6553
▁medicina	-10.6555
▁servono	-10.6557
▁finita	-10.6562
▁dormire	-10.6562
▁rileva	-10.6562
▁rischia	-10.6564
esame	-10.657
▁procede	-10.657
▁fortezza	-10.6573
▁resa	-10.6577
▁concede	-10.6581
▁tesi	-10.6585
▁rotta	-10.6585
ndone	-10.6586
▁quarta	-10.6589
▁meta	-10.659
▁farci	-10.6591
▁vorremmo	-10.6593
▁scopri	-10.6594
▁abusi	-10.6595
▁generazioni	-10.6595
▁abbraccia	-10.6602
▁categorie	-10.6603
▁cava	-10.6609
▁guardate	-10.661
▁seria	-10.6611
▁acquista	-10.6617
▁seppe	-10.6617
innovazione	-10.662
▁svolgimento	-10.6632
▁macchine	-10.6637
ven	-10.6638
ori	-10.6648
▁sbagliato	-10.6648
▁impegnati	-10.6653
▁prudenza	-10.6656
▁sensazione	-10.6656
▁credibilità	-10.6662
▁cristiana	-10.6662
▁supporto	-10.6663
▁sesso	-10.6665
▁ambiti	-10.6667
▁tasse	-10.6667
▁amo	-10.6668
▁vescovi	-10.6671
▁spinge	-10.6674
▁cittadinanza	-10.6676
▁2005	-10.6694
▁congiunta	-10.6695
▁calabria	-10.6695
▁raggio	-10.6696
▁cassa	-10.6701
▁grossa	-10.6706
▁raggiunge	-10.6707
▁formulare	-10.6708
▁potessero	-10.6709
▁concreta	-10.671
▁espresse	-10.671
▁incredibile	-10.6711
▁im	-10.6716
▁eletti	-10.6718
▁chiamava	-10.6729
▁banda	-10.673
▁giacchè	-10.673
▁giu	-10.6732
▁sovvenzioni	-10.6735
▁sacra	-10.6738
▁200	-10.675
▁citare	-10.6752
▁veloce	-10.6755
etti	-10.6763
▁indipendenza	-10.6778
▁strana	-10.6778
▁franchi	-10.6779
▁york	-10.6779
▁cenno	-10.6784
▁compresi	-10.6787
▁esterna	-10.6788
▁greca	-10.6797
▁paziente	-10.6798
▁bru	-10.6798
▁richiamare	-10.6799
▁aumenta	-10.68
▁limita	-10.6801
▁udito	-10.6803
▁agricole	-10.6804
▁probabilità	-10.6809
▁contrari	-10.6818
▁stazione	-10.6821
▁minima	-10.683
▁gola	-10.6834
▁polvere	-10.6838
▁stor	-10.6839
▁caratteri	-10.684
▁spazi	-10.684
nzia	-10.6844
▁ampiamente	-10.6852
▁scale	-10.6852
▁dolci	-10.6852
▁manifestazione	-10.6852
▁portano	-10.6853
▁governatore	-10.6859
▁butta	-10.6862
▁mancato	-10.6863
▁bando	-10.6863
▁pac	-10.6866
▁confine	-10.687
▁sorge	-10.688
▁ginevra	-10.6883
14	-10.6886
unanimità	-10.6886
▁improvvisamente	-10.6887
▁roba	-10.6888
▁territori	-10.6889
▁feste	-10.6895
▁giunse	-10.6895
lità	-10.6896
▁accompagna	-10.6897
▁cookie	-10.6897
▁concorso	-10.6898
▁aperte	-10.6899
▁offerto	-10.6903
▁rose	-10.6905
▁diversamente	-10.6907
▁piega	-10.6907
▁paradiso	-10.6908
▁turba	-10.6909
▁esistente	-10.6911
▁precedenza	-10.6919
▁scriveva	-10.6923
▁somme	-10.6937
▁fri	-10.694
▁can	-10.6943
▁doppia	-10.6946
▁wi	-10.6946
▁cerchio	-10.6947
▁concernente	-10.6948
▁pesante	-10.695
▁grosse	-10.6951
16	-10.6952
▁transizione	-10.6953
▁potendo	-10.6955
97	-10.6955
▁andavano	-10.6955
▁introdotto	-10.6958
▁berlino	-10.6961
▁periodi	-10.6965
▁getta	-10.6967
▁competenti	-10.6969
▁ong	-10.6969
▁profitto	-10.697
▁obbligo	-10.6977
▁vienna	-10.6982
▁strategie	-10.6983
▁degna	-10.6983
▁suona	-10.6986
▁droga	-10.6993
▁allontana	-10.6997
▁scarsa	-10.7
▁lasci	-10.7001
nò	-10.7006
▁papi	-10.7008
wa	-10.7016
▁vent	-10.7019
▁comunicare	-10.7022
▁pmi	-10.7023
▁codecisione	-10.7024
▁dimostrano	-10.7031
▁cha	-10.7032
▁coda	-10.7037
▁visti	-10.7038
▁stasera	-10.7039
▁minacce	-10.7039
ante	-10.7041
▁organizzare	-10.7042
▁ripeto	-10.7042
▁dottor	-10.7044
▁riunioni	-10.7049
▁abbandonare	-10.705
▁vivamente	-10.7052
▁3,	-10.7059
▁90	-10.7061
irlanda	-10.7063
▁piangere	-10.7065
▁bri	-10.7066
▁cum	-10.7072
▁noti	-10.7077
▁attentamente	-10.7078
men	-10.7085
▁ritrova	-10.7087
▁lungi	-10.709
▁guai	-10.7094
▁traduzione	-10.7094
▁costume	-10.7105
▁imperiale	-10.7105
▁determinati	-10.7108
▁pura	-10.711
▁attendere	-10.7112
▁complessiva	-10.7113
▁accosta	-10.7113
▁inviato	-10.7115
▁limitato	-10.7115
▁strettamente	-10.712
▁brevemente	-10.7121
▁volse	-10.7125
▁basti	-10.7127
▁tortura	-10.7131
▁scende	-10.7133
▁fornisce	-10.7136
▁gua	-10.7138
▁abbandona	-10.7138
▁accompagnato	-10.714
je	-10.7143
▁principessa	-10.7146
▁inghilterra	-10.7147
▁treno	-10.7147
▁adunque	-10.7148
▁pene	-10.715
▁restano	-10.7153
▁lasciate	-10.7155
▁probabile	-10.7156
▁xi	-10.7156
▁emilia	-10.7159
▁agricoltura	-10.7159
▁negoziato	-10.716
▁entrate	-10.7161
ger	-10.7162
▁farmi	-10.7163
olo	-10.7163
▁calore	-10.7164
▁fondazione	-10.7165
▁discarico	-10.7166
▁adeguate	-10.7168
▁ko	-10.7171
▁ghi	-10.7174
▁preoccupa	-10.7175
▁farmaci	-10.7181
▁deserto	-10.7181
▁lacrime	-10.7181
▁rivedere	-10.7182
ner	-10.7185
em	-10.7189
▁digitale	-10.7194
▁novella	-10.7196
▁valuta	-10.7199
ello	-10.7201
▁passata	-10.7204
▁tentato	-10.7204
ko	-10.7211
▁mistero	-10.7212
▁2018	-10.7217
impressione	-10.7217
▁ammettere	-10.7219
▁miracolo	-10.7226
▁elenco	-10.7228
▁lezioni	-10.7231
ffe	-10.7232
▁vergine	-10.7233
▁1.	-10.7234
▁preda	-10.7235
æ	-10.7235
▁rendono	-10.7237
▁viaggi	-10.7238
▁guglielmo	-10.7238
▁carrozza	-10.7239
▁continuerà	-10.7245
▁ristrutturazion	-10.7247
▁incontrato	-10.7247
▁partecipa	-10.7253
▁raccolto	-10.7254
▁inglesi	-10.7254
importante	-10.7258
▁agenzie	-10.7259
▁esterno	-10.726
▁scendere	-10.7261
ux	-10.7262
zzata	-10.7262
▁tentativi	-10.7269
▁preti	-10.727
erebbe	-10.7275
▁dimentica	-10.7276
▁canzone	-10.7279
▁spirituale	-10.7279
▁rabbia	-10.728
▁esportazioni	-10.7285
▁debolezza	-10.7287
▁scadenza	-10.729
▁riflette	-10.7295
ai	-10.7304
▁sdegno	-10.7305
▁continuò	-10.7305
▁decisionale	-10.7305
▁razza	-10.7307
▁cardinali	-10.731
▁feci	-10.7311
▁commesso	-10.7311
13	-10.7314
▁inserito	-10.7317
▁buio	-10.7327
▁godere	-10.7334
oli	-10.7338
▁prestare	-10.7341
▁segna	-10.7345
cha	-10.7347
▁---	-10.7347
▁elevati	-10.7349
▁ciao	-10.7352
▁tradizionali	-10.7358
▁uscita	-10.7358
lini	-10.736
▁mediatore	-10.7362
udi	-10.7364
▁respinto	-10.7368
▁concerto	-10.7371
▁ria	-10.7372
▁corea	-10.7373
▁avanza	-10.7373
▁gioca	-10.7373
anima	-10.7377
▁sollevato	-10.7378
▁orale	-10.7379
▁tempesta	-10.7379
▁descrizione	-10.738
rini	-10.7382
▁dovuta	-10.7384
▁perfetta	-10.7389
▁stando	-10.739
▁35	-10.7396
▁bontà	-10.7396
▁cuba	-10.7398
rdo	-10.7401
▁compra	-10.7401
▁diretti	-10.7405
hai	-10.7406
09	-10.7406
rs	-10.7406
▁sesto	-10.7406
incontro	-10.7408
▁gravità	-10.7412
▁oramai	-10.7414
▁tro	-10.7414
▁lucia	-10.7417
sione	-10.7418
endo	-10.742
▁manzoni	-10.742
▁elegante	-10.7421
▁sovrano	-10.7426
▁indubbiamente	-10.7426
▁commenti	-10.7426
▁assistere	-10.7427
▁angelo	-10.7428
▁andati	-10.7428
▁uscito	-10.7429
▁soddisfatto	-10.7432
▁conosciamo	-10.7433
nus	-10.7437
zzati	-10.7438
▁elettori	-10.7438
▁insistere	-10.7441
▁elaborato	-10.7443
▁legate	-10.7447
▁carriera	-10.7447
▁intellettuale	-10.7452
nati	-10.7452
▁giá	-10.7453
nare	-10.7455
▁verona	-10.7458
▁consigliere	-10.746
▁aspettative	-10.7463
▁app	-10.7464
▁borsa	-10.7465
▁sicchè	-10.7465
▁cambiato	-10.7465
25	-10.7465
▁iraq	-10.7465
▁appoggiare	-10.747
▁moderni	-10.747
▁fia	-10.7471
▁cammina	-10.7472
▁sovente	-10.7473
▁tenuti	-10.7473
▁guido	-10.7478
▁capita	-10.7481
▁bon	-10.7481
▁pilastro	-10.7484
▁prosperità	-10.7484
▁consapevolezza	-10.7486
▁chiedono	-10.7487
▁prendendo	-10.7489
▁agricoli	-10.7489
▁mari	-10.7489
ottima	-10.7489
▁liberale	-10.7497
▁monitoraggio	-10.75
fu	-10.75
▁bacia	-10.75
etta	-10.7509
▁lavorano	-10.7513
▁accedere	-10.7515
▁istituzionali	-10.7516
▁sostituito	-10.7516
▁secondi	-10.7517
▁rifiuta	-10.7519
▁partecipanti	-10.752
▁eccetera	-10.7526
▁esserci	-10.7528
temi	-10.7529
▁70	-10.753
ore	-10.7531
temporaneamente	-10.7532
▁frutta	-10.7535
%	-10.7544
▁giulio	-10.7545
▁procura	-10.7556
▁perche	-10.7556
▁contenute	-10.7558
▁prof	-10.7559
▁tono	-10.7567
▁parma	-10.7569
▁celebre	-10.7569
▁prendiamo	-10.7573
vamo	-10.7574
▁passava	-10.7574
armonizzazione	-10.7578
esigenza	-10.7578
▁respiro	-10.7579
▁sveglia	-10.758
▁entusiasmo	-10.7581
▁coinvolgimento	-10.7585
▁pia	-10.7586
inquinamento	-10.7589
▁amicizia	-10.7589
▁informato	-10.759
▁ride	-10.759
▁professionali	-10.7595
▁prepara	-10.7601
▁danaro	-10.7607
isola	-10.7615
▁personaggio	-10.7618
▁funzionare	-10.7621
▁talmente	-10.7622
▁dir	-10.7624
gre	-10.7628
tezza	-10.7628
▁criminali	-10.7631
▁derivanti	-10.7634
▁scar	-10.7645
▁tagli	-10.7645
▁moda	-10.7646
▁fida	-10.7647
▁coste	-10.7648
▁alza	-10.765
▁scor	-10.7659
▁cifra	-10.7663
▁elena	-10.7664
▁foglie	-10.7667
▁canti	-10.767
▁energetico	-10.7671
▁ritenuto	-10.7671
▁́	-10.7671
▁religioso	-10.7671
▁complessivo	-10.7673
▁inviare	-10.7674
▁vende	-10.7681
▁milione	-10.7682
▁sedere	-10.7684
smi	-10.7692
▁opposizione	-10.7693
efficacia	-10.7695
▁dramma	-10.7696
approccio	-10.7697
▁inutili	-10.77
▁rimangono	-10.7707
▁luca	-10.7709
▁armata	-10.7715
▁bellissima	-10.7715
▁infelice	-10.772
▁aperti	-10.7721
▁rinnovabili	-10.7723
▁consiglia	-10.7724
▁precisione	-10.7725
▁conservare	-10.7726
▁trionfo	-10.7731
▁brucia	-10.7734
▁fior	-10.7735
▁spagnolo	-10.7736
▁sur	-10.7738
▁energie	-10.7746
arco	-10.7752
▁basato	-10.7756
▁meridionale	-10.7757
▁motore	-10.7763
▁normative	-10.7763
▁arma	-10.7765
▁pioggia	-10.7769
▁dica	-10.7769
▁direi	-10.7769
▁rigore	-10.7773
▁margine	-10.7774
▁mario	-10.7778
▁precisamente	-10.7781
▁sal	-10.7782
▁destinata	-10.7782
▁giulia	-10.779
▁cosiddett	-10.779
▁collegamento	-10.7792
▁andrà	-10.7796
▁preme	-10.7797
▁ferrara	-10.7802
▁lettore	-10.7803
▁riferisce	-10.7807
usa	-10.7811
▁campanella	-10.7813
▁notato	-10.7814
▁taglio	-10.7818
▁obbliga	-10.7827
▁immigrati	-10.7828
▁mori	-10.7828
▁siti	-10.7829
▁apri	-10.783
▁versa	-10.7832
▁immigrazione	-10.7833
▁servo	-10.7833
▁esterni	-10.7834
▁unita	-10.7836
▁desideri	-10.7839
▁perduta	-10.7841
▁coinvolti	-10.7845
ffo	-10.7845
▁povere	-10.7846
▁ottima	-10.7846
▁dedicata	-10.7847
▁volontari	-10.7847
effetto	-10.7849
▁distinzione	-10.785
▁fiamma	-10.7851
▁straniero	-10.7856
▁fredda	-10.7862
▁barca	-10.7863
umanità	-10.7872
▁risparmio	-10.7874
▁sfruttare	-10.7875
nica	-10.7875
▁puro	-10.7876
▁tassa	-10.7878
▁perch	-10.7879
▁tetto	-10.788
oggi	-10.7883
▁4,	-10.7884
▁fissato	-10.7884
▁abbandonato	-10.7885
▁irlanda	-10.7885
▁ridotta	-10.7889
▁fondata	-10.7894
▁difetto	-10.7894
▁compresa	-10.7895
▁mettersi	-10.7898
▁raccomanda	-10.7898
▁teme	-10.7899
ute	-10.7901
▁ospiti	-10.7911
▁ritiro	-10.7913
lina	-10.7919
▁comunicazioni	-10.7919
▁0	-10.792
▁trovarsi	-10.7922
col	-10.7924
▁asse	-10.7932
▁recita	-10.7937
▁finanze	-10.7939
▁criterio	-10.7941
ola	-10.7941
▁lunedì	-10.7944
▁canale	-10.7944
▁dimostrazione	-10.7957
▁benvenuto	-10.7961
▁quadri	-10.7962
▁prezioso	-10.7966
▁maraviglia	-10.7966
▁evidenza	-10.7967
▁iddio	-10.7972
▁attacchi	-10.7972
▁pen	-10.7978
▁disabili	-10.7982
▁cerchiamo	-10.7986
▁varia	-10.7988
▁serva	-10.799
▁identità	-10.7998
▁schi	-10.8
▁lussemburgo	-10.8
▁lottare	-10.8
0.000	-10.8005
▁osservato	-10.8006
▁sentiero	-10.8006
19	-10.8007
▁programmazione	-10.8009
▁critico	-10.8011
▁conseguente	-10.8012
▁lasciava	-10.8013
▁giudicare	-10.8014
▁pas	-10.8015
▁settentrionale	-10.8016
▁eccezione	-10.802
▁penna	-10.8021
▁cerchi	-10.8022
▁brescia	-10.8022
▁resistere	-10.8023
▁evoluzione	-10.8024
▁cadde	-10.8026
▁sappia	-10.8031
▁farla	-10.8032
▁imposta	-10.8032
▁tolto	-10.8033
▁sanitaria	-10.8038
▁ducati	-10.8043
▁vorrà	-10.8046
giu	-10.8047
▁nati	-10.8047
▁lettori	-10.8051
▁maestà	-10.8055
▁blocco	-10.8056
▁frodi	-10.8057
▁dibattiti	-10.8061
▁usando	-10.8068
rd	-10.807
▁azienda	-10.807
▁auspica	-10.8073
▁maestri	-10.8074
▁gerusalemme	-10.8078
▁chiedendo	-10.8082
▁dettaglio	-10.8083
ct	-10.8083
▁genera	-10.8097
cchio	-10.8102
▁applicato	-10.8103
ffer	-10.8103
▁averlo	-10.8103
▁britannica	-10.8106
xi	-10.8106
▁alternativa	-10.8108
▁saggio	-10.8118
▁combatte	-10.8118
▁precipita	-10.8119
▁camere	-10.812
▁fili	-10.8122
rina	-10.8127
▁clausola	-10.8129
▁moderno	-10.8129
▁esce	-10.8133
▁gen	-10.8135
▁portò	-10.8135
land	-10.8143
up	-10.8145
▁schiavi	-10.8146
▁vel	-10.8146
80	-10.8153
▁segreti	-10.8157
▁avventura	-10.8159
▁vere	-10.816
▁franco	-10.8161
▁affi	-10.8166
▁testimonianza	-10.8169
▁miglioramenti	-10.8169
▁pesanti	-10.8171
elaborazione	-10.8172
▁uccide	-10.8174
▁raccoglie	-10.8176
▁avvi	-10.8178
▁epoca	-10.818
▁concetti	-10.8181
gri	-10.8184
▁diventata	-10.8185
▁ipotesi	-10.8188
▁turno	-10.819
▁tranquillo	-10.8191
▁giuridici	-10.8197
07	-10.8197
▁banco	-10.8201
▁laboratorio	-10.8204
▁parlano	-10.8204
▁rifugiati	-10.8205
▁operato	-10.8207
▁vene	-10.8209
op	-10.8217
equilibrio	-10.8225
▁gratitudine	-10.8225
▁multi	-10.8229
▁divide	-10.8241
▁quod	-10.8245
▁giornalisti	-10.8247
▁condivide	-10.8251
▁eserciti	-10.8252
▁familiari	-10.8252
▁musicale	-10.8254
▁espressa	-10.8254
▁preparato	-10.8254
▁elettronica	-10.8256
▁comandante	-10.8258
▁chilometri	-10.8259
▁contraria	-10.8269
▁svedese	-10.8271
▁espressi	-10.8275
▁han	-10.828
▁tristi	-10.8284
▁bari	-10.8286
▁mettiamo	-10.8289
▁intraprendere	-10.829
▁sensibilità	-10.8291
▁bada	-10.8291
▁attacca	-10.8292
▁ritmo	-10.8295
▁credi	-10.83
▁color	-10.8302
▁serba	-10.8304
espressione	-10.8304
▁disperazione	-10.8312
▁pensione	-10.8312
▁spiaggia	-10.8317
▁trattava	-10.832
▁mettono	-10.832
ista	-10.8323
▁individuale	-10.8325
elenco	-10.8328
▁segnali	-10.8328
im	-10.8329
▁marca	-10.833
▁siena	-10.833
▁conclude	-10.8332
▁calcolo	-10.8334
▁falsa	-10.8335
▁acquistare	-10.8336
▁fondamento	-10.8338
▁divisa	-10.8338
▁seduto	-10.834
▁finisce	-10.8345
▁fenomeni	-10.8345
▁licenza	-10.8351
▁soddisfacente	-10.8351
ona	-10.8354
efficienza	-10.8356
▁raccolti	-10.8357
▁sostanziale	-10.8357
▁assi	-10.8357
▁comprese	-10.8358
unità	-10.8361
ude	-10.8361
▁appieno	-10.8363
▁eccellenza	-10.8364
▁utilizzando	-10.8369
▁fiera	-10.8374
▁limitata	-10.8375
▁singolare	-10.8377
▁popolari	-10.838
▁composta	-10.838
nio	-10.8384
▁fan	-10.8388
▁design	-10.8389
▁tar	-10.8393
▁selezione	-10.8393
ud	-10.8397
▁leggermente	-10.8398
▁ripete	-10.84
▁rami	-10.8406
rato	-10.8408
▁farebbe	-10.8409
▁alzò	-10.8415
▁faranno	-10.8415
▁stanze	-10.8416
bb	-10.8419
▁denuncia	-10.8419
▁dona	-10.8421
▁scudi	-10.8422
▁legame	-10.8422
▁0,	-10.8423
▁isola	-10.8428
▁bulgaria	-10.8428
▁vendere	-10.8431
▁confessa	-10.8433
▁bacio	-10.8433
nelli	-10.8434
▁spia	-10.8438
▁ved	-10.8441
▁rivolge	-10.8443
▁lieve	-10.8444
▁500	-10.8451
ulteriore	-10.8455
▁interroga	-10.8456
▁indagini	-10.8461
▁aerei	-10.8463
▁correttamente	-10.8464
▁bro	-10.8469
▁rivolte	-10.8473
▁cristianesimo	-10.8473
ya	-10.8474
▁determinate	-10.8479
gnano	-10.8484
▁olandese	-10.8485
▁tenga	-10.8486
▁bre	-10.8491
▁cio	-10.8492
▁ricchezze	-10.8497
▁odierna	-10.8498
▁austria	-10.8501
▁educazione	-10.8502
▁stavo	-10.8503
▁cercano	-10.8508
▁contadini	-10.8509
nca	-10.851
▁zu	-10.8513
▁monetari	-10.8515
▁presentano	-10.852
▁stringe	-10.852
▁conviene	-10.8525
▁avanzata	-10.8525
▁salvaguardia	-10.8526
▁gri	-10.8526
▁vigilanza	-10.8526
):	-10.8528
▁giallo	-10.8528
▁metteva	-10.8533
▁amica	-10.8538
uro	-10.854
▁private	-10.8541
▁kyoto	-10.8544
▁permetta	-10.8545
▁impedi	-10.8549
▁chiamano	-10.8552
▁dovette	-10.8552
▁rese	-10.8554
▁patti	-10.8555
▁stabile	-10.8555
▁2007	-10.8557
▁registrato	-10.8557
les	-10.856
esecuzione	-10.8561
▁danza	-10.8562
▁vini	-10.8563
▁pieni	-10.8564
sì	-10.8564
▁armati	-10.8565
▁mandare	-10.8567
▁occupato	-10.8567
▁padroni	-10.8569
▁nasconde	-10.857
ton	-10.8571
▁recupero	-10.8573
06	-10.8576
▁sudditi	-10.8585
▁modena	-10.8586
▁cri	-10.8587
▁prender	-10.8587
▁agenda	-10.8588
▁giove	-10.859
▁misericordia	-10.8591
▁aspettava	-10.8592
▁crudele	-10.8594
dor	-10.8596
▁eccita	-10.8598
▁sommo	-10.8602
feri	-10.8603
▁trans	-10.8608
▁rappresentanza	-10.8617
▁collaborare	-10.8619
▁tenne	-10.8621
▁rivolgere	-10.8622
▁rompe	-10.8624
▁rurali	-10.8626
▁delicato	-10.8627
▁prossime	-10.863
▁sar	-10.8634
▁fasi	-10.8636
▁determinare	-10.8638
▁mena	-10.8646
▁attacco	-10.8647
dis	-10.8647
▁ammira	-10.8648
▁grato	-10.8649
▁cinese	-10.8649
▁falso	-10.8657
▁capitoli	-10.8659
▁imposto	-10.8662
▁marino	-10.8662
▁impressione	-10.8663
▁illegale	-10.8668
▁censura	-10.8674
▁intelligente	-10.868
▁quaranta	-10.8687
▁metti	-10.8687
▁darà	-10.8692
▁esito	-10.8695
▁negozio	-10.8697
▁benedetto	-10.8699
▁strutturale	-10.8701
fica	-10.8703
▁riusciremo	-10.8711
▁nascere	-10.8711
▁quartiere	-10.8713
▁retro	-10.8714
▁attivamente	-10.8715
▁sessuale	-10.8716
▁<	-10.8716
▁pietre	-10.8716
▁considerati	-10.8721
▁confermato	-10.8721
▁frode	-10.8723
▁monarchia	-10.8725
▁coro	-10.8725
▁capitani	-10.8727
▁stabilisce	-10.8729
mm	-10.873
atto	-10.8731
▁baroni	-10.8734
▁cinema	-10.8735
pri	-10.8735
▁vela	-10.8737
▁specchio	-10.8739
esterno	-10.8739
▁statistiche	-10.8742
▁esercita	-10.8744
▁allorchè	-10.8744
▁barcellona	-10.8746
▁occidentali	-10.8746
▁ferito	-10.8747
cina	-10.8756
▁attivi	-10.8759
ens	-10.8763
▁comanda	-10.8765
▁regimi	-10.8767
anzi	-10.8769
txt	-10.877
▁assistito	-10.877
▁1997	-10.8771
▁2010	-10.8776
ucci	-10.8776
▁sara	-10.8778
▁frontiera	-10.8782
▁fuggire	-10.8784
▁gesti	-10.8785
▁belgio	-10.8786
▁profonde	-10.8788
▁diviso	-10.8788
▁domina	-10.8789
▁foglio	-10.8792
▁compassione	-10.8793
▁attraversa	-10.8798
▁supera	-10.8798
offerta	-10.8799
▁2015	-10.8801
estate	-10.8805
▁darsi	-10.8806
▁maschera	-10.8806
▁tassi	-10.8807
rj	-10.8808
▁castel	-10.8808
▁amava	-10.8809
▁accento	-10.8811
bbi	-10.8811
▁industrie	-10.8812
▁ostacolo	-10.8812
▁mantova	-10.8813
sen	-10.8817
▁frequenti	-10.8818
▁merc	-10.8818
▁parecchie	-10.882
▁estero	-10.8822
▁cer	-10.8822
▁forni	-10.8825
▁convinti	-10.883
▁2016	-10.8831
▁team	-10.8834
▁esposto	-10.8836
▁parli	-10.8837
▁debbo	-10.8848
▁americana	-10.8849
▁soffrire	-10.8854
▁economie	-10.8854
▁sottile	-10.886
▁pratico	-10.8863
▁fiamme	-10.8865
▁carni	-10.8869
abbiamo	-10.8872
▁impero	-10.8873
▁gar	-10.8874
cto	-10.8878
▁intesa	-10.888
▁richiamo	-10.888
▁facili	-10.8881
otto	-10.8883
▁peggiore	-10.8884
▁iscritto	-10.8887
▁formulazione	-10.8889
▁spedizione	-10.8893
▁dicevano	-10.8895
▁attimo	-10.8895
▁osa	-10.8898
bat	-10.8903
den	-10.8903
▁comp	-10.8903
nella	-10.8903
▁colonne	-10.8904
▁pacifica	-10.8907
▁visite	-10.8907
▁nozze	-10.8915
▁trasforma	-10.8915
▁supremo	-10.8915
▁we	-10.8916
▁cancro	-10.8916
▁riporta	-10.8918
istituto	-10.8921
▁amante	-10.8923
dra	-10.8924
▁xiii	-10.8925
▁stefano	-10.8927
▁uguali	-10.893
▁premi	-10.8931
▁tarda	-10.8938
▁circostanza	-10.894
▁democratiche	-10.894
▁ravenna	-10.894
▁macchia	-10.894
▁sintesi	-10.8941
▁alleati	-10.8943
▁pri	-10.8943
▁undici	-10.8948
▁sosta	-10.8948
▁alte	-10.895
rica	-10.8952
▁spiegazione	-10.8955
lico	-10.8955
▁estendere	-10.8957
▁stette	-10.8959
▁firmato	-10.896
▁salta	-10.896
estero	-10.896
▁messaggi	-10.8964
nate	-10.8964
▁convergenza	-10.8964
▁pareri	-10.8968
▁ecu	-10.897
▁ger	-10.8972
▁minimi	-10.8975
ingresso	-10.8976
▁catastrofe	-10.8976
▁portando	-10.8979
▁raccontare	-10.898
▁formare	-10.8985
▁conosceva	-10.8991
▁conforme	-10.8997
▁pesci	-10.9003
mia	-10.9005
▁mono	-10.9006
▁mondiali	-10.9008
▁furia	-10.9011
▁fer	-10.9019
stici	-10.902
▁convento	-10.902
▁uccelli	-10.902
cola	-10.902
▁legali	-10.9021
▁piange	-10.9022
▁alpi	-10.9023
▁fanciullo	-10.9032
▁scienziati	-10.9032
▁seguì	-10.9032
▁liberazione	-10.9033
▁stu	-10.9037
mer	-10.9037
▁calo	-10.904
▁agenti	-10.9043
▁scandalo	-10.9046
▁orgoglio	-10.9047
▁manifestazioni	-10.9048
▁vengo	-10.905
▁informa	-10.9051
▁brutto	-10.9052
▁personalità	-10.9057
▁rammenta	-10.9063
▁edifici	-10.9068
▁2017	-10.907
▁circolo	-10.9071
▁complessa	-10.9075
▁sapevo	-10.9081
▁cosiddetto	-10.9084
rse	-10.9085
▁les	-10.9088
▁contempla	-10.9088
ran	-10.9088
▁attori	-10.9092
▁affetti	-10.9094
stu	-10.9095
▁suscita	-10.9096
▁annunciato	-10.9098
▁diventi	-10.9101
▁tranne	-10.9105
▁solitudine	-10.9107
▁terribili	-10.9109
nese	-10.9111
inter	-10.9111
ten	-10.9113
▁vicende	-10.9113
▁conforta	-10.9113
▁lord	-10.9115
ler	-10.9117
letto	-10.9119
▁massime	-10.9119
▁vederlo	-10.9119
▁importo	-10.9125
▁giuridiche	-10.9125
▁muore	-10.9126
▁den	-10.9127
▁consulta	-10.9129
fini	-10.913
▁eseguire	-10.9131
▁cinquecento	-10.9133
21	-10.9134
ismo	-10.9135
▁sana	-10.9137
▁efficienza	-10.9138
▁costruito	-10.9145
▁successi	-10.9146
▁tasca	-10.9147
▁gre	-10.9148
▁stradale	-10.915
▁nominato	-10.9152
tate	-10.9154
▁borgo	-10.9159
veni	-10.9162
▁schengen	-10.9162
▁disastro	-10.9166
▁volumi	-10.9167
▁razzismo	-10.9175
▁contraddizione	-10.9176
▁trascina	-10.9176
▁territoriale	-10.9176
▁legata	-10.9176
▁prendo	-10.9177
▁laggiù	-10.9181
▁rispondeva	-10.9182
▁2008	-10.9184
▁beve	-10.9186
teristituzionale	-10.9188
▁fresco	-10.9188
ac	-10.9193
▁sà	-10.9193
▁respingere	-10.9194
▁veduta	-10.9194
▁affermazioni	-10.9195
▁includere	-10.9197
sque	-10.9202
▁descrive	-10.9203
▁morali	-10.9207
▁tranquilla	-10.9207
▁lunghezza	-10.9215
▁testimoni	-10.9219
entrata	-10.9221
▁lieti	-10.9223
▁pil	-10.9224
▁pericolosa	-10.9224
▁consola	-10.9225
▁ispira	-10.9227
▁giovanna	-10.9227
▁status	-10.9232
▁urgenza	-10.9236
opposizione	-10.9238
▁trasformare	-10.9241
24	-10.9243
▁cappella	-10.925
▁spiriti	-10.9257
▁reati	-10.9258
ld	-10.9263
▁glielo	-10.9266
▁vola	-10.9269
▁leonardo	-10.9272
▁altamente	-10.9272
ele	-10.9276
▁2013	-10.9277
▁lusso	-10.9284
▁riguardante	-10.9284
▁destinate	-10.9287
▁chiusi	-10.9287
▁cosiddetta	-10.9292
▁prestazioni	-10.9298
▁2000,	-10.9301
▁sospetti	-10.9302
▁giappone	-10.9303
▁fisico	-10.9309
▁ki	-10.9313
▁esige	-10.9315
nali	-10.9316
▁vittorio	-10.932
▁affretta	-10.9323
▁interessato	-10.9328
enza	-10.9329
▁core	-10.9331
▁colloqui	-10.9333
▁equo	-10.9336
▁temere	-10.9338
▁catastrofi	-10.9339
▁legislative	-10.9339
iche	-10.9343
▁sviluppato	-10.9343
▁istituti	-10.9346
▁denari	-10.9348
▁investire	-10.9351
▁loco	-10.9352
▁negare	-10.9358
▁riuscì	-10.9358
▁divino	-10.9359
▁austriaca	-10.9362
▁gian	-10.9363
del	-10.9367
▁trovata	-10.9367
▁gui	-10.9368
▁auguriamo	-10.9369
▁decine	-10.9369
â	-10.937
>	-10.9371
▁vicerè	-10.9371
99	-10.9374
▁giornate	-10.9378
▁spagnuoli	-10.9378
▁soci	-10.9378
▁contrastare	-10.9383
▁memorie	-10.9384
▁resti	-10.9392
rre	-10.9396
▁ritardi	-10.9397
▁quo	-10.9398
bilmente	-10.9406
▁ami	-10.9413
▁finlandia	-10.9416
▁attiene	-10.9417
▁ballo	-10.9419
▁negativi	-10.9423
▁piacevole	-10.9424
▁rassegna	-10.9424
▁insegnanti	-10.9429
▁perseguire	-10.943
▁)	-10.943
▁au	-10.9432
nni	-10.9433
▁adeguatamente	-10.9437
▁comunicato	-10.944
▁disprezzo	-10.9442
▁mozione	-10.9443
▁radicale	-10.945
ide	-10.945
▁geo	-10.9451
▁togliere	-10.9456
▁micro	-10.9459
▁richiedono	-10.9461
▁temporale	-10.9461
▁riescono	-10.9461
▁organo	-10.9464
▁ordina	-10.9464
▁pittore	-10.9467
▁coperto	-10.9468
lato	-10.9469
▁allargamento	-10.9473
▁disponiamo	-10.9474
▁segnalare	-10.9475
▁velo	-10.9476
▁rilevante	-10.948
▁scappa	-10.9486
▁condotti	-10.9489
▁saluti	-10.9493
▁rammarico	-10.9493
▁trasmettere	-10.9496
▁spendere	-10.9498
▁legittima	-10.9498
▁stabili	-10.9501
▁omaggio	-10.9502
▁stacca	-10.9503
▁distruggere	-10.9503
▁evita	-10.9504
nale	-10.9505
▁stadio	-10.9513
eccellente	-10.9513
▁foreste	-10.9513
▁misero	-10.9519
▁ritratto	-10.952
▁china	-10.9523
▁radici	-10.9527
▁sieno	-10.9531
▁move	-10.9536
▁inferiori	-10.9539
insieme	-10.9539
▁soddisfatti	-10.954
▁orientamento	-10.9543
▁usi	-10.9544
▁ingresso	-10.9546
▁frati	-10.955
▁lungamente	-10.9552
▁fargli	-10.9558
▁prosegue	-10.9558
▁uniforme	-10.9565
▁dipendenza	-10.9568
ndoci	-10.9568
▁guardie	-10.9569
▁asso	-10.9571
▁regolarmente	-10.9571
▁piatto	-10.9576
▁timori	-10.9577
▁ber	-10.9577
▁religiose	-10.9578
esempio	-10.9584
▁meriti	-10.9585
▁applicata	-10.9588
isti	-10.959
▁raggiungimento	-10.9591
▁disputa	-10.9591
▁sorveglianza	-10.9591
▁impulso	-10.9592
▁umanitari	-10.9595
▁sessanta	-10.9597
▁costruttivo	-10.9597
rt	-10.9598
▁riesco	-10.9598
cla	-10.9599
▁stanca	-10.96
▁uccidere	-10.9603
▁espressamente	-10.9604
▁battaglie	-10.9604
▁menti	-10.9604
▁creando	-10.9609
▁adulti	-10.9611
▁ugualmente	-10.9611
▁apertamente	-10.9615
ps	-10.9619
▁mica	-10.962
▁invano	-10.9621
bro	-10.9622
▁virgilio	-10.9624
▁feroce	-10.9625
nzio	-10.9627
sono	-10.9633
▁timor	-10.9635
▁brutta	-10.964
▁capisce	-10.9643
▁rinunciare	-10.9648
▁biglietto	-10.965
▁accuse	-10.965
▁pareti	-10.965
▁colonnello	-10.9651
▁coppia	-10.9657
▁religiosi	-10.9663
▁riveste	-10.9665
▁governa	-10.9673
▁attribuire	-10.9676
▁domenico	-10.9676
▁distingue	-10.9684
▁ke	-10.969
▁colonia	-10.9691
▁sollevare	-10.9697
iran	-10.9697
▁desta	-10.9697
▁serata	-10.9702
▁quotidiana	-10.9704
▁potea	-10.9706
ol	-10.9709
▁cuori	-10.971
▁cercava	-10.9713
▁ripercussioni	-10.9716
▁creature	-10.9717
▁amministrative	-10.9723
▁disposta	-10.9724
▁emozioni	-10.9724
▁provocato	-10.9727
asse	-10.973
▁arresta	-10.9732
bre	-10.9733
▁cedere	-10.9734
▁club	-10.9736
▁pensavo	-10.9736
▁vestiti	-10.9736
▁rilevato	-10.9738
▁russa	-10.9739
▁reputa	-10.9739
pp	-10.974
▁bor	-10.9741
▁farle	-10.9745
▁avvenne	-10.9746
cro	-10.9754
▁tv	-10.9755
▁nobiltà	-10.9756
▁acco	-10.9763
▁superato	-10.9763
▁dolori	-10.9764
▁scarica	-10.9768
▁importazioni	-10.9768
▁dolcezza	-10.9774
▁accenna	-10.9776
▁potrai	-10.9776
▁pensioni	-10.9776
▁consideriamo	-10.9777
tter	-10.978
▁dedica	-10.9782
▁decisivo	-10.9784
▁incontrare	-10.9788
▁invidia	-10.9792
▁definita	-10.9794
▁protegge	-10.9795
▁cattolica	-10.9796
▁angeli	-10.9796
▁animi	-10.9798
▁cad	-10.98
▁provvedere	-10.9801
▁bretagna	-10.9802
▁trasmissione	-10.9802
▁tribunali	-10.9804
▁telefono	-10.9816
▁talun	-10.9822
▁ordinato	-10.9825
▁tradimento	-10.9827
05	-10.9831
▁bellissimo	-10.9832
cre	-10.9833
▁affinchè	-10.9836
▁retta	-10.9836
▁zia	-10.9838
▁torri	-10.9839
▁alfonso	-10.9842
▁austriaci	-10.9847
for	-10.9848
▁splendida	-10.9849
▁cavalleria	-10.985
▁sventura	-10.9852
▁esistere	-10.9857
ono	-10.9857
hanno	-10.9858
03	-10.9859
▁2006	-10.9862
▁racconti	-10.9862
▁am	-10.9866
▁cur	-10.9867
▁disgrazia	-10.987
ngono	-10.9876
▁conversazione	-10.9877
▁clemente	-10.9883
samente	-10.9887
rbi	-10.9888
▁predica	-10.9889
▁genovesi	-10.9889
▁laurea	-10.9889
▁sensibile	-10.989
▁informare	-10.9894
▁ossa	-10.9895
gue	-10.9896
▁nascosto	-10.9898
▁45	-10.9901
▁grandissima	-10.9901
▁elettrica	-10.9903
▁organismo	-10.9908
▁definiti	-10.9909
letti	-10.9911
▁doveri	-10.9912
▁bianche	-10.9917
isce	-10.9918
▁rocca	-10.9921
▁appartiene	-10.9923
▁maestra	-10.9924
▁pubblicata	-10.9932
▁coinvolgere	-10.9932
ó	-10.9934
▁sostenibilità	-10.9937
▁sollecita	-10.9938
▁aggiunse	-10.9939
▁diventano	-10.9939
▁invitato	-10.9941
▁farvi	-10.9941
▁offrono	-10.9942
▁introduzione	-10.9947
▁guardi	-10.9949
▁fanti	-10.995
▁consuma	-10.995
▁ruota	-10.995
▁intendono	-10.995
ese	-10.9952
▁informati	-10.9953
▁lanciare	-10.9955
▁attento	-10.9957
▁minor	-10.9958
▁intento	-10.9961
▁profeta	-10.9964
▁sfera	-10.9966
▁disegna	-10.9966
ah	-10.9966
cra	-10.997
▁medicinali	-10.997
▁spoglia	-10.9971
▁avrete	-10.9971
tera	-10.9972
▁radice	-10.9972
▁confermare	-10.9974
▁ritira	-10.9976
uda	-10.9977
the	-10.9981
▁guadagna	-10.9981
▁marchio	-10.9981
▁aderire	-10.9985
▁indirizzo	-10.9987
▁oneri	-10.9988
▁tonnellate	-10.9991
▁xiv	-10.9996
▁barone	-10.9996
▁sp	-11.0002
▁preferito	-11.0003
▁colpevole	-11.0005
▁z	-11.0005
acco	-11.0005
▁aspettiamo	-11.0007
▁fermò	-11.0011
▁segui	-11.0012
▁scorta	-11.0016
▁caduto	-11.0019
▁sor	-11.0025
esercito	-11.0025
▁abiti	-11.0026
mò	-11.0027
)]	-11.0028
▁decenni	-11.0032
▁visibile	-11.0033
▁svizzera	-11.0045
▁salotto	-11.0046
▁dama	-11.0048
▁valere	-11.0049
▁vizio	-11.0052
▁colloca	-11.0053
tine	-11.0056
▁gravemente	-11.0056
ario	-11.0059
▁bielorussia	-11.006
▁formale	-11.0064
▁studente	-11.0066
tino	-11.0068
▁ringraziamento	-11.0068
01	-11.0069
▁hi	-11.007
18	-11.0073
▁successiva	-11.0075
▁velocemente	-11.008
rge	-11.0083
▁tele	-11.0084
▁pra	-11.0084
por	-11.0085
▁doge	-11.0085
▁conformemente	-11.0086
▁bestia	-11.0087
17	-11.0089
▁oscura	-11.01
▁diminuzione	-11.0101
pia	-11.0102
uccio	-11.0104
▁rallegra	-11.0106
sioni	-11.0109
▁mortale	-11.011
▁applicazioni	-11.0111
▁tristezza	-11.0111
▁restrizioni	-11.0114
▁marocco	-11.0114
▁dovessero	-11.0116
▁fol	-11.0117
08	-11.0118
▁ò	-11.0127
▁danimarca	-11.0128
▁vicepresidente	-11.0128
▁gamma	-11.0129
▁curva	-11.013
▁adopera	-11.013
▁fortunatamente	-11.0132
▁5,	-11.0132
▁menzionato	-11.0133
nco	-11.0135
▁medica	-11.0135
▁andarono	-11.0135
scio	-11.0136
▁feriti	-11.0137
▁pericolose	-11.0138
▁giudiziaria	-11.014
▁sostengo	-11.0143
▁aspettando	-11.0144
▁precisare	-11.0145
▁zelo	-11.0147
▁300	-11.0147
▁saggi	-11.0148
▁risolve	-11.0148
cli	-11.0153
▁integrare	-11.016
▁colazione	-11.016
▁bimbo	-11.0164
▁gitta	-11.0165
▁concittadini	-11.0166
▁stri	-11.017
▁incidente	-11.0173
▁rotto	-11.0176
▁rispetta	-11.0176
▁immobile	-11.0177
ampia	-11.0177
▁enti	-11.0177
▁apportare	-11.0178
▁fermamente	-11.0179
▁sensibili	-11.0181
▁canali	-11.0184
04	-11.0186
▁facciano	-11.0188
▁fermezza	-11.0191
▁2012	-11.0191
▁opposto	-11.0192
mine	-11.0194
▁discutendo	-11.0195
▁temperatura	-11.0197
▁spiegato	-11.0202
assenza	-11.0204
▁corrispondenza	-11.0206
▁individuali	-11.0207
▁parziale	-11.0211
▁potevo	-11.0211
▁positive	-11.0211
▁troppi	-11.0211
▁segnala	-11.0213
▁comodo	-11.0213
▁tour	-11.0213
▁armate	-11.0217
▁perpetua	-11.0218
▁credono	-11.0218
▁registra	-11.022
▁malta	-11.0222
▁stretti	-11.0226
▁artista	-11.0226
▁luci	-11.0229
▁connessi	-11.0231
▁veneto	-11.0231
	-11.0232
▁finalità	-11.0233
▁forum	-11.0244
▁addietro	-11.0246
▁manfredi	-11.0246
▁sguardi	-11.0247
rone	-11.0248
▁erasi	-11.0248
nesi	-11.0249
▁riduce	-11.0251
▁convegno	-11.0253
▁registro	-11.0255
▁leggenda	-11.0256
▁sedia	-11.0258
▁equilibrata	-11.026
▁ugo	-11.0264
impiego	-11.0267
ìo	-11.0268
▁calda	-11.0272
▁giustificare	-11.0272
▁danari	-11.0274
▁compiace	-11.0276
▁nacque	-11.0277
▁accennato	-11.0277
▁riflessioni	-11.0281
▁legami	-11.0285
▁interpretazione	-11.0288
▁2019	-11.0289
▁avvocato	-11.0296
▁pericolosi	-11.0298
▁intra	-11.0298
▁considero	-11.0298
▁pretende	-11.0301
dice	-11.0302
▁garantisce	-11.0302
▁ter	-11.0303
▁divertente	-11.031
bia	-11.031
+	-11.0311
▁costanza	-11.0313
▁profondità	-11.0317
▁commento	-11.0318
▁padrona	-11.0318
▁nascondere	-11.0321
▁copertura	-11.0323
▁dispetto	-11.0323
▁mobile	-11.0326
turi	-11.0326
▁ospita	-11.0329
▁lasciata	-11.0331
▁lucca	-11.0332
▁80	-11.0334
▁neo	-11.0336
▁tomba	-11.0337
▁incomincia	-11.034
▁dovea	-11.0341
▁tommaso	-11.0344
▁federale	-11.0344
▁offri	-11.0348
cle	-11.035
▁avanzate	-11.0355
▁pensano	-11.0356
▁nido	-11.0363
mb	-11.0367
▁intelligenza	-11.0367
▁potenze	-11.0372
▁arrivò	-11.0373
▁rivolgo	-11.0373
▁fiumi	-11.0379
▁amministrativa	-11.038
▁sembrare	-11.038
▁elevata	-11.0381
ure	-11.0385
▁realizzati	-11.0385
▁mezzogiorno	-11.0387
▁professionisti	-11.0388
▁madri	-11.039
wi	-11.0392
▁rapidità	-11.0395
rit	-11.0396
▁orecchie	-11.0398
tano	-11.0399
▁filosofo	-11.04
▁flessibile	-11.04
▁minoranza	-11.04
gg	-11.0402
▁pagato	-11.0402
▁veni	-11.0403
▁xvi	-11.0406
▁convincere	-11.0407
▁cotesto	-11.0408
alta	-11.0413
▁duchessa	-11.0415
▁fantastico	-11.0415
mpa	-11.0415
▁contribuenti	-11.0415
▁dinamica	-11.0415
▁occuparsi	-11.0416
▁corda	-11.0417
ngi	-11.0419
▁adora	-11.0419
▁conoscono	-11.042
▁ebbi	-11.0422
▁affaccia	-11.0423
▁modificato	-11.0424
bil	-11.0428
▁sacerdote	-11.0429
▁svolgono	-11.0429
▁piero	-11.0429
▁tela	-11.043
▁levò	-11.0437
nghi	-11.0448
▁sig	-11.0453
▁gatto	-11.0455
▁pie	-11.0455
▁emergenza	-11.0456
▁arrivano	-11.0458
▁amministrazioni	-11.0458
▁giardini	-11.046
ira	-11.046
▁baci	-11.0461
pie	-11.0463
▁lasciamo	-11.0464
▁preghiere	-11.0464
▁colloquio	-11.0467
elli	-11.0468
▁registrazione	-11.0468
▁distinti	-11.047
▁bosnia	-11.0472
▁ten	-11.0475
▁evidenzia	-11.0476
nis	-11.0477
▁possiede	-11.0479
▁chiamò	-11.0479
mpe	-11.0486
▁concernenti	-11.0487
▁armonizzazione	-11.0488
▁separa	-11.0492
▁libere	-11.0492
▁carenze	-11.0494
cer	-11.0494
ella	-11.0498
▁egualmente	-11.0501
▁pugno	-11.0502
▁ideali	-11.0507
▁suprema	-11.0507
▁dotazione	-11.0508
▁pausa	-11.0509
ble	-11.0512
▁volge	-11.0512
▁01	-11.0512
▁legittimo	-11.0514
▁reciproco	-11.0514
lare	-11.0514
▁matteo	-11.0516
▁suoni	-11.052
tis	-11.0523
▁siria	-11.0524
▁guasta	-11.0528
▁dichiarare	-11.0529
▁convenzioni	-11.0529
▁fornitura	-11.053
▁separazione	-11.0532
▁ducato	-11.0534
▁applausi	-11.0536
▁curato	-11.0538
▁lanciato	-11.0538
té	-11.0542
▁annunzia	-11.0543
▁brava	-11.0549
▁sistematica	-11.0549
▁cessa	-11.0549
▁richiedere	-11.0552
▁argento	-11.0552
▁nol	-11.0557
▁tessuto	-11.0557
▁generoso	-11.0558
▁wa	-11.0559
nes	-11.056
▁compi	-11.0563
▁famosa	-11.0565
cta	-11.0567
▁soldo	-11.0571
▁successivi	-11.0576
▁sasso	-11.058
▁pazzo	-11.0582
▁ritenere	-11.0589
▁striscia	-11.0594
▁ricordiamo	-11.0595
▁classico	-11.0598
▁gentili	-11.06
▁cominciava	-11.0608
▁clero	-11.0608
▁costantino	-11.061
▁severo	-11.0611
▁illustra	-11.0612
▁strappa	-11.0613
▁operano	-11.0615
▁conosci	-11.0615
influenza	-11.0616
▁sha	-11.0622
fra	-11.0622
▁motivazione	-11.0623
▁secca	-11.0626
▁cela	-11.0628
regolamentazione	-11.0629
▁paesaggio	-11.0629
▁puglia	-11.0632
▁prendi	-11.0636
▁sospesa	-11.0637
▁magnifico	-11.0638
▁geneticamente	-11.064
▁rilevanza	-11.0646
▁corti	-11.065
45	-11.0655
sc	-11.0656
▁persuade	-11.0656
▁salita	-11.0656
▁miss	-11.0658
▁venticinque	-11.0659
▁negozi	-11.0659
▁peccati	-11.0661
die	-11.0662
▁prato	-11.0665
▁sosteniamo	-11.0666
san	-11.0666
▁dargli	-11.0667
▁provoca	-11.0672
▁condividiamo	-11.0673
▁considerevole	-11.0673
▁bur	-11.0675
▁rifugio	-11.0676
▁cortesia	-11.0676
▁adozione	-11.0677
▁motori	-11.0679
ic	-11.0681
bio	-11.0682
▁restò	-11.0684
▁fondato	-11.0689
scia	-11.0691
▁tengono	-11.0695
▁ambedue	-11.0695
▁avvenga	-11.0702
▁integrato	-11.0703
ü	-11.0705
▁operai	-11.0705
▁plus	-11.0707
▁dritto	-11.071
▁boschi	-11.0711
▁studia	-11.0714
lis	-11.0715
▁mostrò	-11.0717
▁rivista	-11.0718
▁vanità	-11.0719
▁ripartizione	-11.0719
▁vanta	-11.0719
▁ombre	-11.072
▁presero	-11.0721
▁precise	-11.0726
vit	-11.0726
▁accorge	-11.0728
vansi	-11.0729
▁cantare	-11.0733
▁coperta	-11.0739
ane	-11.0741
▁privo	-11.0743
▁tecnologico	-11.0746
▁inevitabile	-11.0747
▁vangelo	-11.0747
dem	-11.0748
▁esalta	-11.0752
▁problematica	-11.0752
▁balla	-11.0754
▁costituzionali	-11.0754
▁determina	-11.0756
▁terreni	-11.0757
▁magistrati	-11.0761
can	-11.0761
▁cancelliere	-11.0761
▁grandissimo	-11.0763
▁plebe	-11.0763
▁mescola	-11.0765
▁impegnarsi	-11.0773
▁mosca	-11.0775
▁rinvio	-11.0776
▁parlò	-11.0777
▁riguardi	-11.0777
▁averne	-11.0777
▁muovere	-11.0779
▁rientrano	-11.0784
▁salvezza	-11.0784
▁potersi	-11.0786
coli	-11.0789
▁comunista	-11.0791
▁2014	-11.0792
▁russo	-11.0792
▁pala	-11.0794
▁annuncia	-11.0795
▁muri	-11.0798
▁colpiti	-11.0798
▁classifica	-11.0798
operazione	-11.0799
▁semplificazione	-11.08
▁doria	-11.08
▁diedero	-11.08
▁improvvisa	-11.08
▁sanitari	-11.0802
▁penetra	-11.0802
▁spalla	-11.0804
▁prendono	-11.0806
tina	-11.0807
▁adeguati	-11.0809
▁estremo	-11.0809
▁comprare	-11.081
▁rito	-11.0817
▁nutri	-11.0817
▁adatto	-11.0817
▁maurizio	-11.082
nk	-11.0824
▁associati	-11.0826
▁distinguere	-11.0826
▁britannici	-11.0827
▁portoghese	-11.0827
▁avuta	-11.0828
indipendenza	-11.0828
▁incendi	-11.0828
▁impiego	-11.0829
▁dirige	-11.083
dere	-11.0831
cor	-11.0832
▁frasi	-11.0839
▁risolto	-11.0842
▁originali	-11.0842
▁tenore	-11.0843
dire	-11.0844
▁occupati	-11.0851
▁toccare	-11.0856
▁petizioni	-11.0857
▁vincenzo	-11.0857
▁rimette	-11.0858
▁mossa	-11.0858
altezza	-11.0859
ley	-11.086
▁sorprendente	-11.0861
▁utilizzate	-11.0863
▁quinta	-11.0863
sch	-11.0866
▁appuntamento	-11.0867
▁accrescere	-11.0869
▁significativa	-11.087
▁crimini	-11.0872
▁pittura	-11.0872
▁segnatamente	-11.0873
▁extra	-11.0875
▁arca	-11.0875
▁residenza	-11.0879
▁rei	-11.0881
torio	-11.0881
▁attesta	-11.0883
▁sedi	-11.0883
▁furore	-11.0884
tosi	-11.0885
tato	-11.0889
▁importi	-11.0894
▁umanità	-11.0895
esito	-11.0896
▁cal	-11.0897
▁impegnato	-11.0899
23	-11.09
▁2009	-11.09
▁sospeso	-11.0902
▁effettuato	-11.0906
▁muoversi	-11.0906
35	-11.0907
▁ribadito	-11.0909
diamo	-11.0909
▁reciproca	-11.0911
▁incremento	-11.0911
num	-11.0912
▁divenuto	-11.0913
▁considerate	-11.0915
▁scritte	-11.0915
▁inde	-11.0916
▁cattura	-11.0917
▁avvia	-11.0919
▁semplicità	-11.0921
universo	-11.0925
▁eterna	-11.0928
▁cortese	-11.0928
pra	-11.093
▁ordinò	-11.0931
▁singole	-11.0939
▁causato	-11.094
▁udire	-11.0943
▁agi	-11.0944
▁dotato	-11.0945
ule	-11.0946
▁rinnova	-11.0951
▁talora	-11.0952
▁rientrare	-11.0952
ab	-11.0953
▁consentono	-11.0954
▁accorda	-11.0957
▁lasciano	-11.0958
▁metto	-11.096
▁mancata	-11.0962
▁analizzare	-11.0962
▁fatale	-11.0963
▁progressiva	-11.0964
▁mestiere	-11.0964
▁sostengono	-11.0968
▁gertrude	-11.0969
▁troppe	-11.0969
▁approvati	-11.097
▁trasporta	-11.0972
▁usati	-11.0972
▁viviamo	-11.0974
▁federazione	-11.0976
▁tribù	-11.0976
▁immenso	-11.0977
▁ridotti	-11.0978
▁vedova	-11.0982
▁eventualmente	-11.0984
▁spagnola	-11.0984
▁tendenze	-11.0986
gola	-11.0986
gh	-11.0987
▁xv	-11.0987
▁impegnata	-11.0988
▁lodi	-11.0988
▁lode	-11.099
▁camminare	-11.0992
▁concentrazione	-11.0994
▁sottoposto	-11.0994
▁contenti	-11.0994
▁mostrava	-11.0995
▁dici	-11.0996
▁estremi	-11.0999
▁cera	-11.1005
č	-11.1007
▁abito	-11.1009
telli	-11.101
▁trovavano	-11.101
▁ferita	-11.1013
▁febbre	-11.1014
▁perdite	-11.1016
▁diffusa	-11.1016
▁auspicabile	-11.1016
▁senno	-11.1021
▁chiedeva	-11.1021
▁ribelli	-11.1022
▁consentirà	-11.1023
▁occorrono	-11.1024
▁permetterà	-11.1026
▁bagna	-11.1027
▁desiderano	-11.1029
▁spinto	-11.103
▁beatrice	-11.1037
▁traverso	-11.1041
br	-11.1041
▁operazione	-11.1041
▁equivale	-11.1041
▁ser	-11.1043
▁cavalca	-11.1043
▁vincitore	-11.1045
▁convinta	-11.1052
▁francesca	-11.1058
▁biglietti	-11.1059
▁equilibrato	-11.1059
▁sardegna	-11.1059
▁vieta	-11.106
▁frequenta	-11.1065
▁ottenne	-11.1067
▁conforto	-11.1067
▁care	-11.1068
stor	-11.107
▁positivamente	-11.1073
▁cra	-11.1075
▁gamba	-11.1075
26	-11.1076
▁2000.	-11.108
▁lamenta	-11.108
asilo	-11.1081
▁passano	-11.1081
osservazione	-11.1084
▁lento	-11.1086
▁decimo	-11.1089
▁trecento	-11.1089
▁sentivo	-11.1093
▁assunti	-11.1097
▁incoraggia	-11.1097
ag	-11.11
▁verte	-11.1103
▁assiste	-11.1104
dico	-11.1104
▁sofferenza	-11.1105
▁fresca	-11.1106
▁teste	-11.1108
▁olio	-11.1108
▁voli	-11.111
▁face	-11.1113
segui	-11.1114
▁india	-11.1117
▁culture	-11.112
▁applicate	-11.1123
▁more	-11.1125
▁rimaneva	-11.1127
▁scientifici	-11.1128
▁vice	-11.1128
▁ascolto	-11.1129
▁avanzare	-11.113
▁passate	-11.1139
▁bce	-11.1142
▁scientifiche	-11.1143
▁sostenuta	-11.1143
▁tenebre	-11.1143
▁ambienti	-11.1143
meri	-11.1149
tene	-11.1153
▁spavento	-11.1155
ï	-11.1158
▁celebra	-11.1158
mor	-11.1162
▁ruba	-11.1164
▁severi	-11.1166
▁masse	-11.1166
▁sussidi	-11.1168
▁terroristi	-11.1171
▁ottenuti	-11.1173
▁matematica	-11.1173
▁rapidi	-11.1174
▁trattative	-11.1174
▁alfredo	-11.1175
▁venite	-11.1175
app	-11.1176
▁trovate	-11.1177
▁eroi	-11.1179
▁provinciale	-11.118
▁accelerare	-11.1181
▁pati	-11.1184
▁concezione	-11.1189
▁campione	-11.1192
▁permettono	-11.1193
mica	-11.1193
vidi	-11.1197
▁moltitudine	-11.1198
▁mostro	-11.1199
▁credete	-11.1201
▁discute	-11.1202
▁respinge	-11.1203
▁mercoledì	-11.1204
▁guari	-11.1206
▁meritano	-11.1207
▁sentiamo	-11.1209
▁repubblicani	-11.1212
▁fascia	-11.1216
▁deplorevole	-11.1219
▁innocenti	-11.122
▁sinceramente	-11.1223
▁32	-11.1224
▁arco	-11.1224
▁copenaghen	-11.1227
▁soffermarmi	-11.1229
▁innovazione	-11.123
▁veleno	-11.1232
▁privilegio	-11.1234
▁lodovico	-11.1235
▁contenere	-11.1235
enorme	-11.1236
▁scene	-11.1236
▁scopi	-11.1238
▁1995	-11.1239
▁sentirsi	-11.124
▁giustifica	-11.1241
▁burocrazia	-11.1242
▁notevolmente	-11.1243
▁bottega	-11.1243
▁custodi	-11.1244
▁escludere	-11.1246
▁pilota	-11.125
geni	-11.1251
▁sorridendo	-11.1252
▁porterà	-11.1254
▁ferroviario	-11.1256
▁vicine	-11.1256
▁esposti	-11.1258
nie	-11.1258
ucraina	-11.1259
▁gelosia	-11.126
▁fanciulli	-11.1266
▁televisione	-11.1266
ara	-11.1266
▁mentale	-11.1268
▁tollera	-11.1277
▁creata	-11.1277
▁intese	-11.128
▁citata	-11.1282
boli	-11.1284
esi	-11.1286
▁rom	-11.1292
▁dee	-11.1294
▁google	-11.1297
▁ribellione	-11.1297
zzate	-11.1303
▁virus	-11.1304
▁ottiene	-11.1304
▁barriere	-11.1304
▁dovrei	-11.1305
▁urbano	-11.1308
▁illustri	-11.131
▁bona	-11.1311
▁quotidiano	-11.1312
▁canzoni	-11.1312
▁recarsi	-11.1317
▁carro	-11.1317
▁sentono	-11.1327
cc	-11.1327
▁continuava	-11.1328
▁complimenti	-11.1335
▁barroso	-11.1336
▁replica	-11.1339
▁investimento	-11.134
rati	-11.1341
dri	-11.1344
▁rico	-11.1347
▁onori	-11.1348
▁congratulazioni	-11.1352
cus	-11.1354
▁definitivo	-11.1355
ncia	-11.1355
▁qualificata	-11.1356
▁scorre	-11.1356
▁prigioni	-11.1357
▁spinta	-11.1358
▁solida	-11.1358
▁colpisce	-11.1361
▁regna	-11.1362
▁ambizione	-11.1363
▁deficit	-11.1367
▁proponiamo	-11.1367
▁località	-11.1368
▁spicca	-11.1371
▁evidenziato	-11.1374
▁rame	-11.1379
▁mancare	-11.1386
▁rimasero	-11.1388
▁insufficiente	-11.1393
▁concordato	-11.1393
▁cortile	-11.1397
▁fla	-11.1397
▁washington	-11.1398
dò	-11.1401
spa	-11.1401
▁dubita	-11.1402
▁sostitui	-11.1402
▁spo	-11.1403
▁vendite	-11.1404
▁circonda	-11.1404
▁giudiziario	-11.1411
▁sanitario	-11.1412
▁balza	-11.1413
▁battere	-11.1413
ard	-11.1416
▁lascio	-11.1417
▁sconfitta	-11.1421
▁contribuisce	-11.1421
▁piene	-11.1423
▁correggere	-11.1424
▁immediata	-11.1425
▁avversari	-11.1428
▁xx	-11.1429
▁tolleranza	-11.143
▁rispettivi	-11.1432
▁decise	-11.1433
▁osservatori	-11.1433
▁poc	-11.1436
▁giovinezza	-11.144
rgo	-11.1441
shi	-11.1442
▁dispositivo	-11.1445
▁delibera	-11.1446
mani	-11.1448
▁trovarono	-11.145
▁ricercatori	-11.1451
22	-11.1452
▁frequenza	-11.1453
cula	-11.1457
▁folle	-11.1464
▁ammoni	-11.1469
ggiare	-11.147
uli	-11.147
lin	-11.1472
▁salto	-11.1472
▁contrasta	-11.1476
▁commedia	-11.1477
▁istituito	-11.1479
▁logico	-11.1481
accento	-11.1486
anche	-11.1487
▁martino	-11.1487
▁raccolte	-11.1492
▁generi	-11.1496
▁andrebbe	-11.1499
▁interruppe	-11.15
▁aeree	-11.1501
rî	-11.1502
almente	-11.1502
▁determinata	-11.1503
▁continuità	-11.1503
▁fre	-11.1504
▁mostrano	-11.1505
▁scambia	-11.1506
▁descritto	-11.1506
▁2.	-11.1507
venti	-11.1507
▁abilità	-11.1507
▁abbassa	-11.1508
▁dapprima	-11.1508
▁altezza	-11.1509
▁1994	-11.1511
▁mormorò	-11.1516
▁troppa	-11.1517
8.	-11.1522
▁ferrovie	-11.1524
ap	-11.1527
▁definitivamente	-11.1529
▁ridicolo	-11.1532
dano	-11.1532
▁congiura	-11.1533
▁profitti	-11.1536
▁chiamate	-11.1536
60	-11.1536
nici	-11.1536
chino	-11.1538
▁protagonista	-11.154
verso	-11.154
▁predi	-11.1542
▁diffuso	-11.1548
▁dimmi	-11.1549
▁nicola	-11.1555
▁preliminare	-11.1556
▁innocente	-11.1556
▁discriminazioni	-11.1557
▁bir	-11.156
▁brevetti	-11.156
▁privilegi	-11.1561
▁lassù	-11.1564
▁strategico	-11.1564
▁regni	-11.1565
asia	-11.1565
▁puni	-11.1566
▁simpatia	-11.1572
▁tiranno	-11.1573
▁comme	-11.1575
▁restitui	-11.1576
▁livorno	-11.1579
▁realizza	-11.1582
▁dacchè	-11.1586
▁continue	-11.1589
▁compensazione	-11.159
▁componente	-11.159
▁collegati	-11.1592
rici	-11.1594
▁regge	-11.1602
esa	-11.1605
▁tornando	-11.1606
▁austriaco	-11.1607
▁propongo	-11.1608
▁12.00.	-11.1609
▁milizie	-11.1611
▁crudeltà	-11.1612
dipendentemente	-11.1612
▁spari	-11.1613
use	-11.1615
▁costituita	-11.1615
ama	-11.162
▁ignorare	-11.1622
atteggiamento	-11.1623
▁precede	-11.1626
▁sorpreso	-11.1627
▁giuoco	-11.1627
lò	-11.1628
▁espressioni	-11.1628
▁sostituzione	-11.1629
▁ac	-11.1629
▁desideriamo	-11.1631
▁cieco	-11.1633
▁domando	-11.1637
▁afferra	-11.1639
ici	-11.1641
▁crimine	-11.1644
▁esaminato	-11.1644
celli	-11.1644
▁bandiere	-11.1644
▁destinazione	-11.1645
▁oppone	-11.1645
▁rivelato	-11.1646
▁tornava	-11.1648
▁vano	-11.1649
gga	-11.1649
▁studiato	-11.1651
▁marittima	-11.1651
▁sopravvivenza	-11.1652
▁bravi	-11.1652
▁trasse	-11.1657
▁ospite	-11.166
▁sottoscritto	-11.1662
▁naviga	-11.1666
▁agenzia	-11.1668
▁problematiche	-11.167
▁stabiliti	-11.1671
ot	-11.1675
▁sospensione	-11.1676
▁annuncio	-11.1677
▁cadavere	-11.1684
▁nancy	-11.1684
▁mancava	-11.1685
pote	-11.1688
acquisto	-11.1689
▁critici	-11.169
▁sacri	-11.1692
▁membra	-11.1693
▁puo	-11.1699
▁dovuti	-11.1701
▁legittimità	-11.1701
▁furon	-11.1702
▁attenta	-11.1702
▁costringe	-11.1706
▁obbligatoria	-11.1707
▁ambasciatori	-11.1708
▁rinuncia	-11.1709
▁cecenia	-11.171
▁rendendo	-11.1713
we	-11.1718
▁illustrato	-11.172
unt	-11.172
▁sacrificio	-11.1724
▁savoia	-11.1724
▁transito	-11.1724
▁regolari	-11.1725
▁sceglie	-11.1728
▁ritengono	-11.1731
▁villani	-11.1732
▁allunga	-11.1738
▁vacanza	-11.174
▁inizialmente	-11.1741
▁compie	-11.1741
▁sofferenze	-11.1748
▁castelli	-11.1749
▁como	-11.175
▁negativa	-11.1752
▁condusse	-11.1752
▁riservato	-11.1754
▁dicevo	-11.1755
▁riconosciuta	-11.1756
▁impara	-11.1757
▁solita	-11.1759
▁beneficiari	-11.1763
▁squadre	-11.1768
net	-11.1772
▁emerso	-11.1773
▁veda	-11.1774
▁sano	-11.1775
▁sentite	-11.1777
▁link	-11.1778
▁rosse	-11.178
▁insegnato	-11.1781
▁medesime	-11.1781
intenzione	-11.1783
questo	-11.1783
▁colli	-11.1783
▁ghe	-11.1784
▁tacere	-11.179
▁sentir	-11.1795
▁attentati	-11.1795
▁atte	-11.1797
▁socialisti	-11.18
▁normali	-11.1801
▁include	-11.1801
car	-11.1802
▁inizi	-11.1805
▁collera	-11.1805
▁definisce	-11.1806
▁approfondire	-11.1807
▁difese	-11.1807
▁riga	-11.181
▁parete	-11.1812
▁invoca	-11.1812
▁coprire	-11.1813
▁scolastico	-11.1813
▁sg	-11.1814
nz	-11.1816
▁saremmo	-11.1816
▁manifesto	-11.1822
▁illustre	-11.1824
▁venissero	-11.1827
▁stanco	-11.1828
▁commessi	-11.1832
▁appar	-11.1832
▁moltiplica	-11.1835
▁iscritti	-11.1836
▁quadrato	-11.1838
▁casca	-11.1839
▁minime	-11.184
▁servito	-11.1841
▁rio	-11.1843
▁vetro	-11.185
▁albero	-11.185
▁abita	-11.185
▁cuor	-11.1852
▁energetiche	-11.1854
▁augura	-11.1854
sp	-11.1855
▁pubblicamente	-11.1856
▁tappa	-11.1856
▁valutazioni	-11.1858
▁estende	-11.1858
▁riciclaggio	-11.1863
▁apparire	-11.187
▁preceduto	-11.1871
-0	-11.1872
▁vota	-11.1873
▁ferite	-11.1874
▁operativo	-11.1875
▁utilizzata	-11.1878
▁rappresentata	-11.1878
▁perdona	-11.188
identità	-11.1881
▁metter	-11.1884
▁venera	-11.1885
▁amanti	-11.1885
▁tregua	-11.1888
▁intima	-11.1888
▁decisa	-11.189
▁motto	-11.1893
▁at	-11.1895
▁istituto	-11.1896
▁facilità	-11.1898
▁bicchiere	-11.1899
▁davano	-11.1899
vola	-11.19
▁inclusi	-11.1903
▁illumina	-11.1903
▁imperciocchè	-11.1904
▁correva	-11.1906
▁opzioni	-11.1907
▁reato	-11.1908
▁molteplici	-11.191
▁sed	-11.1911
▁pavimento	-11.1912
inchiesta	-11.1914
27	-11.1917
▁caratterizzato	-11.1918
▁cattolici	-11.1919
▁palestina	-11.192
▁eterno	-11.1923
▁innamorato	-11.1929
▁sospetta	-11.1932
▁fedeltà	-11.1937
▁2011	-11.1938
▁talento	-11.194
▁egitto	-11.194
▁ribadisco	-11.1945
▁manovra	-11.1946
▁giuste	-11.1949
▁avverti	-11.1949
▁belga	-11.1949
▁parametri	-11.1954
▁tematiche	-11.1957
▁#	-11.1957
29	-11.1957
uni	-11.1958
tati	-11.1959
▁procedimento	-11.1961
▁ridendo	-11.1963
▁permettetemi	-11.1963
▁palco	-11.1963
utente	-11.1965
▁matura	-11.1971
▁fuma	-11.1975
▁settimo	-11.1978
▁proroga	-11.1981
▁revoca	-11.1983
▁sviluppati	-11.1986
▁festival	-11.1987
tare	-11.1991
ent	-11.1992
▁accadere	-11.1992
▁sublime	-11.1995
▁abitudini	-11.2003
▁confuso	-11.2003
logia	-11.2005
▁assegnato	-11.2006
▁europol	-11.2009
orario	-11.201
▁gro	-11.2013
▁gino	-11.2014
▁diploma	-11.2018
gen	-11.2021
▁von	-11.2022
▁guardiamo	-11.2023
▁maastricht	-11.2036
▁sacerdoti	-11.2036
▁bronzo	-11.2037
gie	-11.204
cella	-11.2041
ui	-11.2044
▁detenuti	-11.2044
▁serena	-11.2047
aia	-11.205
▁chiamiamo	-11.2055
▁estate	-11.2055
▁delicata	-11.2056
▁risparmia	-11.2056
▁tavole	-11.2063
ula	-11.2063
▁vizi	-11.2069
▁pronunzia	-11.207
▁strategica	-11.207
▁insiste	-11.2071
amento	-11.2073
▁soave	-11.2073
▁condur	-11.2073
▁piatti	-11.2075
▁soffre	-11.2078
▁impedisce	-11.2079
▁efficacemente	-11.208
▁giornalista	-11.2083
nello	-11.2085
▁raggiunti	-11.2086
▁azzurro	-11.2087
mbri	-11.2088
ddi	-11.2088
▁consultazioni	-11.2089
▁cig	-11.2089
▁condannati	-11.209
▁spira	-11.2093
▁john	-11.2094
cee	-11.2098
▁attenti	-11.21
dy	-11.21
▁vaga	-11.2103
▁presupposto	-11.2103
▁sch	-11.2109
▁apprezza	-11.2112
lone	-11.2112
▁modificati	-11.2114
▁danese	-11.2116
▁autonomia	-11.2116
lecomunicazioni	-11.2119
ene	-11.212
▁sabbia	-11.2121
cato	-11.2122
ls	-11.2122
▁mantenuto	-11.2128
▁monastero	-11.2128
▁salvaguardare	-11.2129
▁orribile	-11.2129
▁impeto	-11.2132
▁santità	-11.2133
ena	-11.2136
▁inf	-11.2137
▁6,	-11.2138
▁ceca	-11.2144
rc	-11.2144
▁piattaforma	-11.2145
▁ogm	-11.2145
▁elettronico	-11.2146
▁bimbi	-11.2147
▁riempi	-11.2147
▁xxi	-11.2147
▁cede	-11.2147
▁impiegati	-11.2148
▁freno	-11.215
▁videro	-11.2151
▁geni	-11.2151
▁tolse	-11.2151
mbro	-11.2151
▁precisi	-11.2153
▁violenze	-11.2154
▁guidare	-11.2157
asi	-11.2159
▁riscontra	-11.216
▁giura	-11.2161
▁auspichiamo	-11.2162
▁stupore	-11.2162
▁assunta	-11.2162
▁tensione	-11.2162
▁ambizioni	-11.2164
▁eccessivo	-11.2165
▁adottati	-11.2165
▁comportamenti	-11.2167
▁percorrere	-11.2169
▁patten	-11.2171
▁strinse	-11.2175
arma	-11.2176
▁mostri	-11.2177
▁istruzioni	-11.2179
▁cotesta	-11.2179
▁strette	-11.2181
▁classica	-11.2183
▁riferito	-11.2183
▁empi	-11.2184
▁confida	-11.2184
▁rimanda	-11.2184
▁intervenuti	-11.2187
▁rubrica	-11.2188
▁ambizioso	-11.2188
▁dimanda	-11.219
▁magnifica	-11.219
▁menzione	-11.2191
▁reazioni	-11.2193
▁accoglienza	-11.2193
▁alimenta	-11.2196
▁cd	-11.2196
▁grano	-11.2197
▁bruno	-11.2197
▁apprezzamento	-11.2199
▁catene	-11.2199
▁alleanza	-11.22
▁socio	-11.2203
▁150	-11.2206
▁ramo	-11.2208
▁uh	-11.2209
▁seta	-11.2209
▁edificio	-11.221
▁sapienza	-11.2213
▁governative	-11.2214
▁serietà	-11.2215
▁meco	-11.2218
▁metta	-11.2219
▁fiato	-11.2222
▁urgenti	-11.2223
▁usano	-11.2223
▁esclusi	-11.2223
sità	-11.2223
▁av	-11.2226
▁dirigenti	-11.2226
▁subire	-11.223
▁multinazionali	-11.223
▁dormi	-11.2231
dica	-11.2237
▁usate	-11.2238
▁apparecchia	-11.2239
▁vedrà	-11.2243
mann	-11.2247
▁producono	-11.2247
▁evidenziare	-11.2256
▁invitare	-11.2257
▁sce	-11.2257
▁prestito	-11.2258
▁divario	-11.2259
▁aggrava	-11.2261
▁usata	-11.2264
▁spezza	-11.2265
▁sofferto	-11.2269
▁riposa	-11.227
▁cambiate	-11.2271
dono	-11.2272
rì	-11.2273
▁risale	-11.2274
▁q	-11.2276
▁tace	-11.2277
▁descrivere	-11.2278
▁foresta	-11.228
▁pianura	-11.2281
▁completare	-11.2286
▁incentivi	-11.229
▁circolare	-11.2291
▁rafforza	-11.2295
▁persia	-11.2298
▁provincie	-11.2298
▁scomparsa	-11.2298
educazione	-11.23
▁ricordate	-11.2301
▁significativi	-11.2301
oh	-11.2302
▁schema	-11.2304
▁difetti	-11.2307
▁rompere	-11.2307
▁risa	-11.2307
▁flusso	-11.2307
▁salvatore	-11.2309
▁ladro	-11.231
▁esporre	-11.2313
▁impedito	-11.2314
▁omc	-11.2314
▁fermare	-11.2318
grafia	-11.2324
▁immediato	-11.2326
scano	-11.2327
▁seguono	-11.2328
▁visi	-11.2329
▁esorta	-11.233
▁deroga	-11.233
▁garantito	-11.2331
▁verrebbe	-11.2331
▁quiete	-11.2331
▁bus	-11.2333
▁automaticamente	-11.2334
▁regalo	-11.2339
remmo	-11.234
▁redditi	-11.234
▁giurisdizione	-11.2341
▁ripreso	-11.2341
▁accolta	-11.2341
▁suggerimenti	-11.2342
urgenza	-11.2344
▁schiaccia	-11.2345
▁indicati	-11.2347
gono	-11.2349
▁indispensabili	-11.235
essi	-11.235
▁suonare	-11.2351
terà	-11.2352
▁tenerezza	-11.2353
▁vederla	-11.2354
dro	-11.2356
▁somministra	-11.2359
▁vigilia	-11.2363
▁intendeva	-11.2363
▁chimiche	-11.2364
▁siate	-11.2366
▁ponti	-11.2368
centi	-11.2369
▁simboli	-11.2369
▁dott	-11.2371
▁vincolante	-11.2377
▁contengono	-11.2378
▁organizza	-11.238
▁cinesi	-11.2381
▁hoc	-11.2383
▁elezione	-11.2383
▁rimprovera	-11.2391
▁previsioni	-11.2393
▁sorelle	-11.2394
▁bimba	-11.2395
▁cominciarono	-11.2395
▁trent	-11.2401
▁nucleo	-11.2402
▁massimi	-11.2403
▁sarai	-11.2404
▁consultare	-11.2405
▁amministrativo	-11.241
▁partendo	-11.2415
▁vuota	-11.2415
▁auguri	-11.2417
▁ritirarsi	-11.2418
avvio	-11.242
▁sviluppa	-11.2425
gare	-11.2425
▁validi	-11.2426
▁ms	-11.2427
▁intenso	-11.2428
▁vadano	-11.243
▁tratte	-11.243
▁proprietari	-11.2434
▁subi	-11.2435
▁cerimonia	-11.2436
▁fissati	-11.244
▁ghiaccio	-11.244
▁diventando	-11.2441
▁rendersi	-11.2442
▁psico	-11.2444
▁appartenenti	-11.2445
▁coinvolte	-11.2445
▁referendum	-11.2445
▁disparità	-11.2445
▁distrutto	-11.2446
tani	-11.2447
▁archi	-11.2448
▁complessi	-11.245
cità	-11.2452
▁malati	-11.2453
dino	-11.2454
flu	-11.246
ite	-11.2461
lda	-11.2461
▁integrata	-11.2464
▁asia	-11.2466
▁avvisa	-11.2469
▁usciva	-11.247
▁droghe	-11.2471
▁1992	-11.2471
▁bande	-11.2472
eventuale	-11.2473
▁conferenze	-11.2478
▁castella	-11.248
▁argomentazioni	-11.248
▁documentazione	-11.2482
ottica	-11.2482
▁occupano	-11.2486
▁maddalena	-11.2488
lly	-11.249
▁leggero	-11.249
▁cata	-11.2492
▁riferire	-11.2494
▁averla	-11.2495
▁tenda	-11.2499
▁mosso	-11.2501
▁invia	-11.2501
▁bilaterali	-11.2506
▁geografica	-11.2506
▁viveva	-11.2507
▁vincitori	-11.2507
▁complessità	-11.2508
▁codici	-11.2508
▁successore	-11.2513
▁repressione	-11.2515
▁veloci	-11.2515
▁curioso	-11.2515
▁passiamo	-11.2518
▁respira	-11.2518
▁vittorie	-11.2524
▁you	-11.2529
▁suddetto	-11.2533
▁forniti	-11.2534
▁globali	-11.2537
mino	-11.2538
▁lasciati	-11.2539
▁profumo	-11.2541
▁franzesi	-11.2541
▁caratteristica	-11.2542
▁fornite	-11.2544
▁esplicitamente	-11.2544
▁ritirata	-11.2544
▁esami	-11.2545
▁cito	-11.2547
▁provvede	-11.2549
▁36	-11.2549
▁assurdo	-11.2551
▁concretamente	-11.2551
▁testamento	-11.2555
▁esamina	-11.2556
▁toccato	-11.2558
▁unanime	-11.2558
▁evidenti	-11.2559
▁splendore	-11.256
▁acc	-11.2562
▁autorizzazione	-11.2568
▁convince	-11.2569
▁corto	-11.2569
▁pavia	-11.2569
▁delitti	-11.257
▁ragion	-11.257
▁panni	-11.2571
33	-11.2573
relli	-11.2576
▁eccezionale	-11.2577
austria	-11.2579
▁individuo	-11.2579
ìa	-11.2579
38	-11.258
evento	-11.258
▁soffoca	-11.2581
▁abbiate	-11.2583
▁colpite	-11.2585
▁percorsi	-11.2586
▁novelle	-11.2587
▁flussi	-11.2588
▁galli	-11.2593
llu	-11.2595
▁abbandonata	-11.2597
▁avanzato	-11.2599
▁volontario	-11.2599
▁sogna	-11.2602
▁laura	-11.2602
▁schiavo	-11.2603
▁cercò	-11.2603
▁bisognerebbe	-11.2603
▁portate	-11.2604
▁tiranni	-11.2605
▁vivente	-11.261
▁registrati	-11.2612
rat	-11.2615
▁bolla	-11.2615
▁veglia	-11.2619
▁fotografia	-11.2621
▁politicamente	-11.2623
▁implicazioni	-11.2625
▁rovescia	-11.2628
▁dispositivi	-11.2629
▁tariffe	-11.2629
▁gatti	-11.2629
▁marchi	-11.2633
▁letteraria	-11.2636
▁giovanile	-11.2637
▁farina	-11.2637
▁37	-11.2638
▁frattanto	-11.2638
▁promuove	-11.264
▁pregiudizi	-11.2642
▁esercizi	-11.2643
▁bush	-11.2644
▁golfo	-11.2644
▁carbone	-11.2645
▁giacché	-11.2647
▁consentitemi	-11.2648
▁ringraziamenti	-11.2648
▁monaco	-11.2649
appoggio	-11.2649
onore	-11.2651
▁archivio	-11.2654
▁archivi	-11.2654
▁sussistono	-11.2656
▁conquiste	-11.2656
▁affida	-11.2659
▁augusto	-11.266
▁perseguita	-11.2662
▁presenterà	-11.2662
▁calamità	-11.2665
▁pesa	-11.2665
rta	-11.2665
ace	-11.2667
interpretazione	-11.2667
▁assumersi	-11.2669
▁risiede	-11.2673
▁compenso	-11.2674
▁colpe	-11.2675
▁tese	-11.2676
▁affermazione	-11.2678
▁amata	-11.268
versa	-11.2681
▁cugino	-11.2682
▁debiti	-11.2682
▁arri	-11.2683
▁impiegato	-11.2686
▁pregare	-11.2688
▁riusciva	-11.2691
▁pacifico	-11.2691
▁distrugge	-11.2693
▁trovar	-11.2693
alleanza	-11.2694
▁moltissimi	-11.2695
▁arme	-11.2696
▁sorprende	-11.2697
▁assicurato	-11.2699
▁tranquillamente	-11.2699
lata	-11.27
sal	-11.2703
nghe	-11.2706
▁fes	-11.2706
▁origini	-11.2709
36	-11.2711
▁giace	-11.2711
▁regio	-11.2711
▁luisa	-11.2712
▁ob	-11.2712
▁determinante	-11.2715
▁salve	-11.2715
▁violenta	-11.2719
▁saprà	-11.272
estensione	-11.2721
▁aggiunta	-11.2721
▁temporanea	-11.2722
▁proprietario	-11.2724
▁irrita	-11.2726
▁uccisi	-11.2726
▁porge	-11.2726
▁potrete	-11.2727
▁chiamo	-11.2735
▁tracce	-11.2735
▁potresti	-11.2736
▁modesto	-11.2736
▁rilascio	-11.2737
▁climatico	-11.2738
▁arrivata	-11.274
▁salerno	-11.2745
vent	-11.2749
▁girare	-11.2752
amente	-11.2752
96	-11.2757
▁severe	-11.2764
eliminazione	-11.2765
▁manifestare	-11.2766
▁rispettato	-11.2767
▁pompa	-11.2768
▁ringrazia	-11.2768
lì	-11.277
▁sfuggire	-11.2771
▁colpevoli	-11.2772
▁russi	-11.2772
rella	-11.2773
▁appoggiato	-11.2774
▁stupi	-11.2775
goni	-11.2776
▁venendo	-11.2776
ami	-11.2778
▁rilevanti	-11.2779
▁monumenti	-11.2781
▁ricevuta	-11.2781
▁uova	-11.2781
▁spaventa	-11.2781
▁comprendo	-11.2784
▁fatiche	-11.2785
▁sarete	-11.2788
▁rovine	-11.2794
ling	-11.2794
▁claudio	-11.2799
▁ammette	-11.2799
▁eccezioni	-11.28
▁cm	-11.2802
▁martin	-11.2804
▁immobili	-11.2805
▁controlla	-11.281
iano	-11.2811
▁diana	-11.2813
▁protagonisti	-11.2817
▁sottoposti	-11.2817
▁voteremo	-11.2817
▁differenzia	-11.2817
▁tappeto	-11.2817
eli	-11.2818
sina	-11.2819
▁terapia	-11.2819
▁caterina	-11.2826
ker	-11.2828
roni	-11.283
gò	-11.283
▁attribuisce	-11.2835
▁erra	-11.2836
▁singola	-11.2836
▁elaborazione	-11.2837
▁slancio	-11.2839
▁continuiamo	-11.2839
▁tormenta	-11.284
▁promette	-11.2841
av	-11.2842
▁ciononostante	-11.2844
▁progettazione	-11.2846
rna	-11.2849
▁polo	-11.285
▁cattolico	-11.2853
▁episodio	-11.2858
▁seg	-11.2859
▁compare	-11.2866
▁ignora	-11.2869
▁sapevano	-11.287
▁reputo	-11.2871
▁frequente	-11.2875
▁ripro	-11.288
▁prigioniero	-11.2881
▁sereno	-11.2882
india	-11.2888
▁appariva	-11.2889
▁tradurre	-11.289
▁tavolino	-11.289
▁regia	-11.2892
▁batti	-11.2892
▁fisso	-11.2893
rde	-11.2894
▁ricusa	-11.2898
▁attirare	-11.29
▁continuato	-11.2904
ny	-11.2907
▁ospedali	-11.2907
▁onesto	-11.2908
▁sapore	-11.2908
▁gl	-11.2909
▁giuramento	-11.291
▁business	-11.2916
▁altera	-11.2917
▁macedonia	-11.2919
▁prevedono	-11.292
▁celeste	-11.2926
▁perfezione	-11.2926
▁assente	-11.2926
▁fossa	-11.2931
▁33	-11.2932
▁ciel	-11.2934
▁accolti	-11.2935
▁progredire	-11.2937
atmosfera	-11.2937
▁goti	-11.2938
tale	-11.2938
▁notti	-11.2938
'11	-11.2939
▁madrid	-11.2939
▁finali	-11.294
▁chimica	-11.2943
▁accorse	-11.2943
▁schermo	-11.2944
▁reagire	-11.2946
▁credette	-11.2948
▁mini	-11.295
▁bandi	-11.2951
28	-11.2952
tini	-11.2953
▁cautela	-11.2953
▁poema	-11.2953
▁romagna	-11.2953
▁penali	-11.2957
▁david	-11.2958
▁rise	-11.2959
▁accomoda	-11.2959
▁fallo	-11.2961
▁it	-11.2962
▁consulenza	-11.2962
▁brillante	-11.2965
▁fermi	-11.2966
tissimo	-11.2967
▁nonna	-11.2972
▁puramente	-11.2974
uo	-11.298
▁ginocchia	-11.2985
par	-11.2988
▁sorrise	-11.299
▁lontane	-11.299
▁partì	-11.2991
▁calcola	-11.2992
▁collettiva	-11.2993
▁concludo	-11.2997
▁fro	-11.2998
han	-11.2998
▁eziandio	-11.2999
▁scozia	-11.3
dici	-11.3001
▁infra	-11.3001
▁pasto	-11.3005
▁tirare	-11.3007
▁discutiamo	-11.3008
▁preziosi	-11.3008
▁negative	-11.3009
▁divora	-11.301
▁fle	-11.3011
▁viste	-11.3011
angolo	-11.3014
▁capua	-11.3018
▁deco	-11.3021
▁lecito	-11.3021
▁lacune	-11.3027
▁disperato	-11.3028
▁avrò	-11.3028
▁imprenditori	-11.3029
indagine	-11.3029
cidi	-11.303
▁fazioni	-11.303
▁mine	-11.3032
▁compensare	-11.3033
rata	-11.3033
▁persecuzione	-11.3036
▁penisola	-11.3036
▁discesa	-11.3036
▁eventuale	-11.3042
▁formano	-11.3043
▁scatola	-11.3045
val	-11.3047
lica	-11.3049
cur	-11.3049
▁piacerebbe	-11.3049
▁maschi	-11.305
▁sposta	-11.305
▁fantastica	-11.3054
▁difficilmente	-11.3054
▁legislatura	-11.3054
▁leggendo	-11.3061
▁garanti	-11.3063
▁eccessivamente	-11.3068
▁dimostrata	-11.3069
pos	-11.3069
▁doni	-11.3071
▁agita	-11.3071
▁pse	-11.3072
▁borse	-11.3073
▁graduale	-11.3074
lie	-11.3075
▁sentenze	-11.3075
▁episodi	-11.3078
▁coglie	-11.3078
▁grigio	-11.3081
▁riportato	-11.3081
▁storiche	-11.3083
fr	-11.3085
▁sposo	-11.3085
▁rallegro	-11.3085
▁prenda	-11.3087
▁rima	-11.3088
▁torno	-11.3088
▁ripara	-11.3088
▁quattordici	-11.3091
nel	-11.3092
scu	-11.3095
▁formulate	-11.3102
▁pianificazione	-11.3102
▁rispetti	-11.311
▁meraviglioso	-11.311
▁bara	-11.3111
▁gallo	-11.3112
logica	-11.3114
vvi	-11.3115
▁divenire	-11.3116
▁negoziare	-11.3117
▁trovati	-11.3119
▁cotone	-11.3121
▁metallo	-11.3122
▁ris	-11.3126
▁colombia	-11.313
ye	-11.313
impostazione	-11.3135
mio	-11.3138
▁confessione	-11.3138
▁notifica	-11.314
dal	-11.3142
▁capite	-11.3142
▁preoccupante	-11.3146
▁ragiona	-11.3146
ö	-11.3146
▁sindacati	-11.3147
▁scan	-11.3148
importo	-11.315
▁fusione	-11.3152
▁parto	-11.3153
▁portati	-11.3156
90	-11.3156
▁riusciamo	-11.3157
▁intenda	-11.3158
▁obbedi	-11.3163
affari	-11.3164
▁quam	-11.3165
▁hotel	-11.3167
zzò	-11.317
usi	-11.3171
olio	-11.3172
▁lacera	-11.3174
▁coinvolto	-11.3175
▁1993	-11.3175
-20	-11.3178
▁infinito	-11.3178
▁cru	-11.3179
▁pensionati	-11.3184
▁girolamo	-11.3184
▁condannare	-11.3186
▁aspirazioni	-11.3186
▁auspico	-11.3187
▁dipartimento	-11.3194
▁famosi	-11.3194
▁erba	-11.3195
▁identifica	-11.3195
cum	-11.3196
▁contemporanea	-11.32
▁guadagnare	-11.3202
nder	-11.3203
▁obbligato	-11.3204
▁superbia	-11.3205
▁doc	-11.3206
autorizzazione	-11.3206
▁scoppia	-11.3206
▁acquisto	-11.3208
▁desiderare	-11.3209
▁pian	-11.321
▁francamente	-11.3216
▁netto	-11.3217
lismo	-11.3219
mone	-11.3219
▁villaggi	-11.3219
▁seminario	-11.322
▁profondi	-11.3221
▁vigenti	-11.3221
▁cannoni	-11.3223
▁pregio	-11.3224
▁accende	-11.3224
▁fissi	-11.3227
ins	-11.323
▁entità	-11.3231
▁pallido	-11.3231
▁creano	-11.3233
ak	-11.3234
▁semina	-11.3237
▁estensione	-11.3238
▁conosciuta	-11.3241
▁miracoli	-11.3241
▁parente	-11.3247
▁manifestato	-11.3247
▁ardente	-11.3248
ada	-11.3248
ction	-11.3249
▁requisito	-11.325
▁infantile	-11.325
▁sospiro	-11.325
▁scal	-11.325
▁sorgere	-11.3251
▁ventura	-11.3251
▁ginocchio	-11.3252
▁galee	-11.3255
▁ram	-11.3257
32	-11.3258
▁pretendere	-11.3258
▁giurisprudenza	-11.3259
▁avv	-11.3262
▁paul	-11.3263
▁facea	-11.3267
▁malato	-11.3268
▁virtú	-11.3269
▁disagio	-11.3269
▁salvi	-11.3269
▁stabilimento	-11.3273
▁sott	-11.3273
pio	-11.3273
▁nervi	-11.3276
▁approfondito	-11.3277
nsa	-11.3278
▁misera	-11.3278
▁manutenzione	-11.3278
▁degni	-11.3284
▁andasse	-11.3284
▁corrispondente	-11.3287
▁statue	-11.3288
▁piove	-11.3289
;/	-11.3289
denti	-11.3289
gan	-11.329
▁alba	-11.329
▁fascino	-11.329
belli	-11.3292
▁africani	-11.3292
▁incaricato	-11.3295
▁carceri	-11.3296
▁avvenuta	-11.3297
▁residenti	-11.3297
▁restava	-11.3298
bbia	-11.3301
bor	-11.3306
▁parevano	-11.331
ua	-11.3313
▁esperimenti	-11.3317
▁lupo	-11.3318
berto	-11.3318
sol	-11.3318
abolizione	-11.3319
cip	-11.3321
▁splendido	-11.3326
▁trascorso	-11.3326
azioni	-11.3329
essa	-11.333
cari	-11.3334
▁pier	-11.3334
▁vicario	-11.3335
▁rondini	-11.3335
arrivo	-11.3336
infanzia	-11.3338
▁giudizi	-11.3341
▁salutare	-11.3342
▁istanze	-11.3345
▁ripa	-11.3346
▁barche	-11.3347
▁nino	-11.3349
▁sperando	-11.335
▁3.	-11.3351
▁rai	-11.3351
▁cancella	-11.3355
▁niuno	-11.3355
▁utilità	-11.3355
▁monetario	-11.3357
▁basse	-11.3359
▁ricevono	-11.336
▁contegno	-11.3361
▁accorto	-11.3363
▁negoziale	-11.3366
▁dolorosa	-11.3368
▁calci	-11.3368
▁approfondita	-11.3369
▁rime	-11.3371
▁arabo	-11.3371
′	-11.3373
▁schiena	-11.3374
▁professor	-11.3375
▁pour	-11.3376
▁controversie	-11.3377
▁volgare	-11.3378
▁ricche	-11.338
▁eccellenti	-11.3383
▁realizzata	-11.3383
toria	-11.3383
▁flo	-11.3383
▁cittá	-11.3383
▁ampie	-11.3383
esportazione	-11.3386
▁pag	-11.3388
▁preoccupati	-11.339
retto	-11.3391
▁teresa	-11.3393
comp	-11.3393
31	-11.3394
▁verificato	-11.3394
▁armato	-11.3395
▁statali	-11.3397
dda	-11.3397
▁incluso	-11.3402
▁carri	-11.3404
▁primaria	-11.3405
▁7,	-11.3405
▁mm	-11.3406
gene	-11.3409
▁48	-11.3409
▁domini	-11.341
▁legislativi	-11.3411
▁marittimo	-11.3411
▁vincoli	-11.3411
▁martedì	-11.3412
▁distanze	-11.3412
▁federigo	-11.3412
ave	-11.3417
▁inquina	-11.342
▁onora	-11.342
▁eroe	-11.3423
▁robot	-11.3423
▁consolidare	-11.3425
▁mostrando	-11.3426
▁parlar	-11.3427
▁durò	-11.3428
▁indole	-11.3428
des	-11.3429
▁conveniente	-11.3431
▁guadagno	-11.3431
▁armonia	-11.3432
▁effettivo	-11.3434
▁incarico	-11.3435
▁arre	-11.3438
chiamo	-11.3439
▁contenuta	-11.344
▁recuperare	-11.3442
98	-11.3443
▁socialismo	-11.3443
▁mandava	-11.3444
gnò	-11.3446
▁scontro	-11.3446
telo	-11.3446
▁esemplare	-11.345
▁sepolcro	-11.345
▁valide	-11.3451
▁immensa	-11.3455
▁noia	-11.3457
▁loda	-11.3458
▁proporzioni	-11.3459
▁eugenio	-11.3459
▁digitali	-11.346
▁vedevano	-11.346
▁consiglieri	-11.3463
▁innalza	-11.3465
▁solare	-11.3467
▁disordine	-11.3472
cchè	-11.3473
▁toni	-11.3477
▁duri	-11.3478
▁camicia	-11.3479
48	-11.3479
▁femmine	-11.3488
▁lancio	-11.3489
▁fiero	-11.3495
▁+/	-11.3498
▁ragionamento	-11.3501
▁occupare	-11.3502
▁prudente	-11.3502
▁fuggi	-11.3504
▁romanzi	-11.3505
▁ira	-11.3507
▁raccomando	-11.3508
▁statunitense	-11.3508
▁soffia	-11.3508
▁straniera	-11.3509
▁cita	-11.3515
▁vani	-11.3516
▁riscontro	-11.3517
mare	-11.3518
▁normativo	-11.3519
due	-11.352
▁rado	-11.3522
▁reggio	-11.3524
▁400	-11.3526
▁fischler	-11.3527
▁acceso	-11.3527
▁latini	-11.3528
▁moltissimo	-11.3528
ombra	-11.3529
▁nodo	-11.3535
▁qualifica	-11.3535
▁porgo	-11.3536
emocratizzazione	-11.3537
▁ricompensa	-11.3537
imposta	-11.3537
▁peste	-11.3537
▁consolidamento	-11.3538
▁ritirare	-11.3538
▁combinazione	-11.354
▁afghanistan	-11.3542
39	-11.3542
▁mela	-11.3544
▁sopporta	-11.3544
▁aspira	-11.3548
▁sudafrica	-11.3548
▁ripetutamente	-11.3548
▁quae	-11.3549
▁big	-11.355
▁confronta	-11.3551
▁prosa	-11.3551
diti	-11.3552
▁appella	-11.3555
▁unici	-11.3556
▁pul	-11.3556
▁percioché	-11.3556
▁resiste	-11.356
▁artistica	-11.3565
▁combattimento	-11.3566
▁scenario	-11.3569
▁letteralmente	-11.3569
▁inquinamento	-11.357
▁ammirazione	-11.3572
▁tassazione	-11.3572
abili	-11.3574
▁cambi	-11.3575
▁diventerà	-11.3576
▁doloroso	-11.3576
▁socialdemocrati	-11.3577
pla	-11.3578
▁soddisfa	-11.3579
▁campa	-11.3584
▁comitati	-11.3585
▁poltrona	-11.3585
▁nuvole	-11.3586
▁vana	-11.3587
▁seppur	-11.3589
▁lotte	-11.359
▁risparmiare	-11.3592
▁sussiste	-11.3592
▁inanzi	-11.3592
occhio	-11.3592
▁affidato	-11.3594
▁provocare	-11.3595
▁competitiva	-11.3595
▁potreste	-11.3595
▁dovunque	-11.3595
▁pugna	-11.3598
▁dispongono	-11.3599
▁usci	-11.3605
▁finì	-11.3605
▁diminuire	-11.3609
▁ville	-11.3609
▁ampliare	-11.3612
▁grava	-11.3613
mail	-11.3613
▁calde	-11.3615
▁aiutato	-11.3619
▁dirvi	-11.3619
▁fammi	-11.362
▁leggera	-11.3621
▁tormento	-11.3621
▁urbani	-11.3622
▁dappertutto	-11.3624
▁abba	-11.3627
▁vile	-11.3629
▁appartengono	-11.3631
▁fanciulle	-11.3633
pol	-11.3634
mbra	-11.3634
▁amministrativi	-11.3634
▁sincero	-11.3634
oggetto	-11.3635
▁favori	-11.3635
▁risultano	-11.3643
▁accumula	-11.3643
vis	-11.3643
▁agevolare	-11.3643
▁essendosi	-11.3643
▁innumerevoli	-11.3644
▁disprezza	-11.3644
▁scapito	-11.3644
▁potenziali	-11.3644
cino	-11.3645
▁prestiti	-11.3645
▁impostazione	-11.3647
▁trento	-11.3648
▁formulato	-11.3649
▁citati	-11.3651
▁dovevo	-11.3652
ete	-11.3653
▁ap	-11.3653
▁potestà	-11.3654
▁figlie	-11.3654
▁tranquillità	-11.3655
▁vorrebbero	-11.3656
▁patriarca	-11.3664
▁equi	-11.3665
messa	-11.3665
▁apparentemente	-11.3666
▁comparire	-11.3669
▁nec	-11.367
▁mirano	-11.367
▁scosse	-11.367
▁allegato	-11.367
rè	-11.3673
▁anticipo	-11.3674
alimentazione	-11.3677
▁pronuncia	-11.3679
▁metro	-11.3681
▁letti	-11.3683
▁supplementari	-11.3683
▁apparve	-11.3684
etichettatura	-11.3687
▁preparativi	-11.3687
▁gliene	-11.3688
▁duplice	-11.3693
▁chiavi	-11.3694
dè	-11.3694
▁collezione	-11.3694
▁aspettano	-11.3695
▁loris	-11.3696
versi	-11.3696
▁gare	-11.3697
▁strage	-11.3697
▁allargata	-11.3698
55	-11.3699
elemento	-11.3701
parti	-11.3701
▁schiavitù	-11.3703
▁motivazioni	-11.3704
▁milanese	-11.3704
▁caratterizza	-11.3705
▁ristorante	-11.3705
od	-11.3707
vir	-11.3712
▁troverà	-11.3713
▁avrai	-11.3714
cos	-11.3715
enne	-11.3716
▁effettuati	-11.3716
▁modificata	-11.3717
▁rovescio	-11.3718
▁radicali	-11.3719
▁entrano	-11.372
▁completamento	-11.3723
▁normalmente	-11.3723
▁conversione	-11.3724
▁soffer	-11.3725
pul	-11.3726
70	-11.3726
▁improvviso	-11.3727
▁scorsi	-11.3728
ficazione	-11.3728
▁monumento	-11.3733
▁appreso	-11.3733
▁by	-11.3733
▁catalogo	-11.3735
ndu	-11.3736
▁diverti	-11.3737
▁cau	-11.3737
bbero	-11.3737
▁hist	-11.374
▁meravigliosa	-11.374
▁vedersi	-11.3741
▁appo	-11.3742
▁diletto	-11.3743
▁creati	-11.3744
▁diventati	-11.3745
▁rimettere	-11.375
▁dé	-11.375
▁udi	-11.3751
▁carabinieri	-11.3752
▁ricordava	-11.3753
eu	-11.3753
▁interrompe	-11.3754
lette	-11.3757
uma	-11.3758
▁xviii	-11.3758
▁odia	-11.376
▁donatori	-11.376
▁comprensibile	-11.3762
▁generosità	-11.3764
▁tesori	-11.3766
▁fango	-11.377
▁avvocati	-11.3772
▁spende	-11.3773
▁seme	-11.3774
▁mestieri	-11.3776
▁eccessiva	-11.3777
▁traversa	-11.378
▁appalti	-11.3782
▁risposi	-11.3782
▁catania	-11.3783
▁orrore	-11.3784
ting	-11.3784
▁divertimento	-11.3785
▁ottimi	-11.3785
▁(19	-11.3785
▁dirlo	-11.3785
49	-11.3786
▁levante	-11.3788
▁selva	-11.3789
▁beneficiare	-11.3791
▁vivace	-11.3792
▁straniere	-11.3793
▁angoli	-11.3793
▁consumi	-11.3794
affermazione	-11.3797
▁apparenza	-11.3798
▁follia	-11.3799
tario	-11.38
▁esprimo	-11.3802
▁moderne	-11.3803
▁render	-11.3804
▁insegnamento	-11.3804
▁vivendo	-11.3805
▁stomaco	-11.3805
▁usciti	-11.3806
▁mortali	-11.3806
▁purchè	-11.381
▁complementare	-11.3812
▁agevole	-11.3812
▁femmina	-11.3812
▁dovute	-11.3813
▁seggio	-11.3813
▁plastica	-11.3813
▁esperto	-11.3813
▁affare	-11.3814
▁€	-11.3815
tone	-11.3815
▁evitando	-11.3815
▁successive	-11.3815
▁stimola	-11.3817
▁pakistan	-11.3822
▁sottili	-11.3822
▁peggiori	-11.3824
▁millennio	-11.3826
▁ur	-11.3831
▁serenità	-11.3833
▁limitazione	-11.3833
▁vece	-11.3833
▁75	-11.3834
▁cattivi	-11.3836
▁piaceri	-11.3836
▁contamina	-11.3837
▁lumi	-11.3837
▁pagano	-11.3838
▁th	-11.384
dini	-11.384
▁gentiluomo	-11.3843
▁pelo	-11.3846
▁privi	-11.385
▁analizza	-11.385
lici	-11.3851
▁chron	-11.3852
▁compromessi	-11.3852
▁creatività	-11.3853
▁continueremo	-11.3853
tello	-11.3854
▁pol	-11.3855
esse	-11.3855
▁picchia	-11.3855
▁infinita	-11.3858
▁corri	-11.386
mbe	-11.3862
▁confonde	-11.3863
▁redazione	-11.3863
--	-11.3868
▁donato	-11.3868
▁guidato	-11.3871
▁scon	-11.3871
▁inevitabilmente	-11.3872
▁vole	-11.3872
▁imita	-11.3877
▁risorsa	-11.3882
▁indice	-11.3883
▁premia	-11.3884
▁dettagliata	-11.3884
▁colline	-11.3885
▁acquistato	-11.3888
▁tabella	-11.3892
▁fiorentino	-11.3892
▁entrando	-11.3894
▁applicati	-11.39
▁invitati	-11.39
▁facilitare	-11.3902
gano	-11.3903
▁potrò	-11.3903
▁semplificare	-11.3907
▁nazionalità	-11.3909
▁ricava	-11.3913
iscono	-11.3914
▁affermando	-11.3914
▁fazione	-11.3918
▁lione	-11.392
▁produzioni	-11.3922
▁ultra	-11.3923
▁tumulto	-11.3926
▁severa	-11.3926
▁compiuta	-11.3927
▁qu	-11.3928
▁riscalda	-11.393
dotti	-11.393
▁trista	-11.3931
▁mandati	-11.3931
▁indirizzi	-11.3932
▁her	-11.3933
▁palle	-11.3938
▁ya	-11.394
▁dipendono	-11.3941
▁vinci	-11.3943
▁compiaccio	-11.3943
▁bilancia	-11.3944
▁autunno	-11.3946
▁esecutivo	-11.3946
▁illegali	-11.3951
▁coltura	-11.3952
▁moro	-11.3953
▁bestie	-11.3953
▁gru	-11.3954
▁sottoposta	-11.3957
▁acquisti	-11.3957
▁spedi	-11.3957
▁propaganda	-11.3963
▁supplica	-11.3963
▁pat	-11.3966
▁rapi	-11.3968
▁divisi	-11.3972
▁disoccupati	-11.3973
▁svolte	-11.3976
amoci	-11.3976
▁trasmette	-11.3977
▁giuda	-11.3977
▁produttività	-11.3984
▁proclama	-11.3984
▁guardo	-11.3985
▁netta	-11.3987
cosa	-11.3988
▁4.	-11.3988
▁presidio	-11.399
▁esita	-11.399
▁incapace	-11.3993
▁scherzo	-11.3993
▁esteso	-11.3994
▁impu	-11.3994
▁pin	-11.3999
ggine	-11.4001
▁bovina	-11.4003
▁faccende	-11.4003
▁colto	-11.4004
logico	-11.4004
nc	-11.4006
▁falli	-11.4007
▁ven	-11.4007
▁squa	-11.4009
▁gratuito	-11.4013
▁magistrato	-11.4013
▁pazza	-11.4014
▁accusato	-11.4015
▁gabriele	-11.4016
▁cieca	-11.4019
▁nere	-11.4022
▁conferire	-11.4023
stanti	-11.4023
▁zimbabwe	-11.4023
▁cresciuto	-11.4023
▁concessa	-11.4024
▁collaboratori	-11.4027
▁seri	-11.4032
▁libra	-11.4032
▁margini	-11.4034
fici	-11.4034
▁sam	-11.4035
▁serbia	-11.4037
▁gue	-11.404
dit	-11.404
▁sedici	-11.4042
▁42	-11.4042
▁stamattina	-11.4044
▁umile	-11.4044
▁rimorso	-11.4044
▁violento	-11.4044
▁valli	-11.4048
▁visitatori	-11.4049
▁rassicura	-11.4054
▁professori	-11.4054
▁spalanca	-11.4054
▁prendeva	-11.4056
uscita	-11.4059
▁confidenza	-11.4064
▁gonzaga	-11.4064
▁istanza	-11.4067
logiche	-11.4069
▁musicali	-11.4071
▁miele	-11.4074
▁campionato	-11.4074
▁reggimento	-11.4075
▁connessione	-11.4075
▁entrati	-11.4079
1,	-11.4081
▁aut	-11.4082
eni	-11.4084
▁cardinal	-11.4084
▁inutilmente	-11.4085
▁scadenze	-11.4085
late	-11.4087
▁calca	-11.4088
▁pasta	-11.4089
▁riportare	-11.409
rno	-11.4092
▁criminale	-11.4095
by	-11.4095
rosa	-11.4098
▁vollero	-11.4098
▁tagliare	-11.4099
sum	-11.4103
▁dichiarò	-11.4105
▁false	-11.4108
▁rispettati	-11.4109
▁sincera	-11.411
▁risoluto	-11.4115
▁semestre	-11.4116
▁esorto	-11.4116
alba	-11.4116
▁integrati	-11.4117
▁esposizione	-11.4122
retti	-11.4124
▁aeroporti	-11.4126
▁cronica	-11.4126
▁dittatura	-11.4126
▁smettere	-11.4128
▁amori	-11.413
▁nudo	-11.4133
▁conciliare	-11.4136
▁claudia	-11.4136
▁combattuto	-11.4136
▁defini	-11.4138
34	-11.4139
eh	-11.414
▁fornitori	-11.4142
▁manco	-11.4143
▁filosofi	-11.4144
▁impegna	-11.4145
▁ammesso	-11.4147
▁bibbia	-11.4147
▁validità	-11.4148
rme	-11.4149
uguaglianza	-11.415
37	-11.415
tutto	-11.4151
▁tentazione	-11.4154
▁giammai	-11.4157
▁tampere	-11.4157
▁modulo	-11.4157
▁campana	-11.4157
▁coltivazione	-11.4159
▁avvio	-11.4161
▁vetri	-11.4161
▁mont	-11.4161
▁vendica	-11.4164
▁delinea	-11.4165
▁vedrai	-11.4168
▁dipinto	-11.4168
▁attira	-11.4169
▁conservatori	-11.4169
▁capriccio	-11.4169
▁bastone	-11.417
▁piombo	-11.4172
▁panorama	-11.4177
▁scoperte	-11.4177
▁tramonto	-11.4177
▁prefetto	-11.4178
▁concessioni	-11.4178
▁stimolare	-11.4179
▁copre	-11.4179
▁vinta	-11.4181
▁sant	-11.4181
erei	-11.4182
bar	-11.4184
▁galere	-11.4186
fondamentalmente	-11.4186
▁pescherecci	-11.4188
▁opposta	-11.4188
lan	-11.4188
▁desiderava	-11.4189
erai	-11.419
▁occupata	-11.4191
llino	-11.4193
▁merce	-11.4194
▁somiglia	-11.4194
▁segreta	-11.4195
▁rilassa	-11.4198
▁apprezzato	-11.4198
▁esservi	-11.4199
▁desiderato	-11.4201
▁sposi	-11.4204
▁aldo	-11.4207
▁attua	-11.4207
▁righe	-11.4208
▁visconti	-11.4208
▁sedute	-11.4209
▁congiuntamente	-11.4209
▁sponda	-11.4209
udo	-11.421
▁ordinaria	-11.421
▁liste	-11.4211
▁credibile	-11.4211
ossi	-11.4215
▁bastava	-11.4215
lf	-11.4216
▁esigere	-11.4217
▁secco	-11.4218
▁ricorre	-11.422
otti	-11.422
▁riesca	-11.4222
▁rep	-11.4225
▁garantita	-11.4226
▁sollevata	-11.4226
▁sinora	-11.4226
tella	-11.4228
▁emanuele	-11.4229
▁ecclesiastici	-11.4229
▁allarga	-11.4232
mari	-11.4237
▁stre	-11.4237
▁rendeva	-11.4238
▁aziendale	-11.4239
▁favella	-11.4241
▁commette	-11.4241
▁pasqua	-11.4244
59	-11.4252
▁intesi	-11.4257
▁specificamente	-11.4259
▁illustrare	-11.426
▁pallida	-11.426
▁repubbliche	-11.426
▁ripetè	-11.426
▁vigente	-11.4262
▁cariche	-11.4265
▁appartamento	-11.4272
rk	-11.4275
▁verbo	-11.4276
mas	-11.4277
▁intere	-11.4279
▁dominante	-11.4279
▁saperlo	-11.4279
▁mantiene	-11.4281
▁condotte	-11.4281
▁faccenda	-11.4282
▁costanzo	-11.4283
▁rinnovo	-11.4287
▁domestico	-11.4292
▁voluttà	-11.4292
▁battuta	-11.4292
▁2004.	-11.4292
▁elettorali	-11.4292
ms	-11.4297
▁richiesti	-11.4302
▁interpreta	-11.4304
▁collina	-11.4304
▁sbagliata	-11.4305
▁accresce	-11.4306
▁gioie	-11.4307
▁giocatori	-11.4307
▁interi	-11.4308
▁fornita	-11.4308
▁veneti	-11.4309
▁vago	-11.4312
▁fianchi	-11.4313
▁costruttiva	-11.4313
▁ec	-11.4315
▁dividere	-11.4315
inclusione	-11.4317
▁mole	-11.4321
▁indicatori	-11.4321
▁gravidanza	-11.4323
▁previsione	-11.4323
▁servitù	-11.4323
▁gettò	-11.4324
▁esaminando	-11.4324
▁successione	-11.4324
zzu	-11.4327
▁settanta	-11.4329
▁propriamente	-11.433
▁cerco	-11.4332
▁cittadina	-11.4332
ottimo	-11.4332
▁proporzione	-11.4334
▁formidabile	-11.4334
id	-11.4336
esclusione	-11.4338
▁stock	-11.434
▁paragrafi	-11.4344
▁razionale	-11.4345
▁riuscirà	-11.4346
▁preoccupato	-11.4346
▁mosè	-11.4347
▁continuando	-11.4351
▁gabinetto	-11.4355
cte	-11.4357
▁diciotto	-11.4358
▁oratore	-11.4359
emo	-11.4363
vio	-11.4363
▁dirette	-11.4364
▁bla	-11.4364
▁mastro	-11.4364
▁sfondo	-11.4366
▁scusi	-11.4366
▁stento	-11.4367
▁risparmi	-11.437
gui	-11.4371
▁concentra	-11.4372
▁ann	-11.4374
▁paragone	-11.4376
bit	-11.4377
▁indurre	-11.4378
/01	-11.4378
▁battista	-11.4378
▁particolar	-11.4382
ità	-11.4386
▁saddam	-11.4386
▁entrava	-11.4387
▁conquistare	-11.4387
▁godono	-11.4387
▁coinvolge	-11.439
▁savi	-11.4392
▁operativa	-11.4393
▁vasi	-11.4394
loni	-11.4394
▁indicano	-11.4394
▁gridare	-11.4395
▁penti	-11.4395
▁niccolò	-11.4397
▁repentaglio	-11.4397
▁vacanze	-11.4397
▁necessita	-11.4401
ttò	-11.4402
▁ammirato	-11.4402
mon	-11.4403
lum	-11.4403
▁soffri	-11.4407
▁riconosciuti	-11.4407
▁irregolarità	-11.4408
▁accompagnata	-11.4408
▁divinità	-11.4408
dì	-11.441
dori	-11.4412
▁pubblicati	-11.4414
▁flu	-11.4417
▁preparati	-11.4418
forme	-11.442
▁ripiglia	-11.4422
▁scarso	-11.4423
aids	-11.4424
▁prati	-11.4425
▁elementare	-11.4429
▁ringraziando	-11.4432
▁dans	-11.4432
▁aggiornamento	-11.4433
▁xix	-11.4433
▁spettatori	-11.4435
▁sessi	-11.4435
▁brano	-11.4436
▁divenuta	-11.4439
▁occupazionale	-11.4439
ther	-11.444
▁danneggia	-11.4442
▁brama	-11.4445
▁trasformato	-11.4447
▁rispettive	-11.4452
▁sec	-11.4455
▁migliora	-11.4457
▁recato	-11.4459
▁domestici	-11.446
▁insegnare	-11.4462
▁pp	-11.4463
▁supporre	-11.4463
▁atene	-11.4466
▁pervenire	-11.4467
rare	-11.447
▁concentrarsi	-11.4477
▁lampo	-11.4478
▁mora	-11.448
▁38	-11.4481
▁poesie	-11.4482
▁coppie	-11.4482
▁piaceva	-11.4483
▁munizioni	-11.4484
tru	-11.4485
▁bernardo	-11.4486
▁commettere	-11.4487
missione	-11.4487
▁sperava	-11.4489
▁paglia	-11.4489
▁prae	-11.4491
rm	-11.4492
▁gor	-11.4494
zionale	-11.4496
▁partite	-11.4498
▁copri	-11.45
▁preservare	-11.4501
▁pastore	-11.4501
lazione	-11.4501
▁palese	-11.4501
ft	-11.4502
▁chissà	-11.4503
▁promosso	-11.4503
vin	-11.4503
▁parea	-11.4504
▁confesso	-11.4504
ette	-11.4505
ntur	-11.4506
▁torni	-11.4508
▁34	-11.4509
▁piacenza	-11.4511
▁crediti	-11.4512
▁sintomi	-11.4514
▁seduti	-11.4514
evole	-11.4515
▁comportano	-11.4518
▁esatto	-11.4518
mai	-11.4521
nno	-11.4524
▁vedrete	-11.4525
▁grasso	-11.4526
▁riconciliazione	-11.4526
▁scudo	-11.4527
▁americane	-11.4528
hu	-11.4528
▁rare	-11.4528
▁diffondere	-11.453
▁succedere	-11.4531
▁vena	-11.4531
▁facilita	-11.4533
▁effettiva	-11.4534
▁accogliamo	-11.4535
▁oscuro	-11.4536
▁ple	-11.454
▁abbi	-11.4541
▁ambiziosi	-11.4546
▁apprezzo	-11.4546
▁guelfi	-11.4546
▁sparse	-11.4548
▁mangiato	-11.4549
▁vous	-11.455
▁tieni	-11.4552
▁sma	-11.4553
▁ingredienti	-11.4556
▁scheda	-11.4559
formi	-11.4561
▁torrente	-11.4564
▁artistico	-11.4564
▁alterna	-11.4565
▁femminili	-11.4567
▁principato	-11.4567
▁adeguamento	-11.4572
▁raro	-11.4573
lib	-11.4574
▁molle	-11.4578
miche	-11.4579
▁aggira	-11.4579
▁tirannide	-11.4581
▁buco	-11.4581
▁integrante	-11.4582
▁mus	-11.4583
▁scrivo	-11.4584
▁eccolo	-11.4584
▁portar	-11.4584
▁feroci	-11.4586
▁mensa	-11.4587
▁statale	-11.4588
▁spiegazioni	-11.4588
▁ridotte	-11.4589
psi	-11.4589
▁cavour	-11.459
41	-11.459
▁viaggiare	-11.4592
▁ragionevoli	-11.4595
▁dí	-11.4595
mico	-11.4595
▁tolta	-11.4597
▁perlomeno	-11.4599
▁ruote	-11.46
▁commosso	-11.46
▁asciuga	-11.46
▁rappresentati	-11.46
rano	-11.46
▁esauri	-11.4601
intesa	-11.4605
▁potessi	-11.4607
▁indifferente	-11.4609
▁spingere	-11.461
▁deroghe	-11.461
▁ministeriale	-11.4611
▁pratici	-11.4611
▁commozione	-11.4612
▁off	-11.4612
▁eccesso	-11.4613
▁sopravvivere	-11.4614
▁raffi	-11.4614
▁elaborata	-11.4617
▁candida	-11.4618
▁apposta	-11.462
▁cavi	-11.4621
▁miliardo	-11.4621
▁tenute	-11.4621
▁uolta	-11.4622
▁rinviato	-11.4625
▁stabilite	-11.4625
▁spunta	-11.4625
▁tocco	-11.4628
▁automobili	-11.4628
simo	-11.463
▁mera	-11.4631
▁appoggiamo	-11.4632
mici	-11.4632
▁banane	-11.4632
▁idro	-11.4633
▁doti	-11.4634
▁campioni	-11.4635
▁giustificazione	-11.4637
▁palazzi	-11.4638
ttare	-11.4638
▁passeggiata	-11.4639
▁deposito	-11.4643
▁eleganti	-11.4643
▁1990	-11.4644
▁gridando	-11.4645
▁ignoranza	-11.4646
▁creda	-11.4647
▁legna	-11.4648
▁impe	-11.4648
▁partecipano	-11.4651
▁savio	-11.4651
▁contemporanei	-11.4654
▁preziosa	-11.4654
▁giuro	-11.4654
▁simula	-11.4658
000	-11.4666
gro	-11.4669
▁passarono	-11.467
▁rari	-11.467
▁prestigio	-11.4671
▁messina	-11.4672
▁armonizzare	-11.4673
ô	-11.4674
▁protetti	-11.4675
▁tenevano	-11.4676
▁mappa	-11.4678
▁effettua	-11.4679
▁disturba	-11.4679
▁successori	-11.4681
▁credendo	-11.4682
▁carbonio	-11.4682
▁lasciarono	-11.4682
▁fieri	-11.4684
▁ahimè	-11.4686
▁viaggiatori	-11.4689
▁sopportare	-11.4689
▁gettare	-11.4689
▁restituire	-11.4689
▁generosa	-11.4693
▁maniere	-11.4693
▁cieli	-11.4697
▁concerti	-11.4697
▁drammatica	-11.4698
veri	-11.4699
sul	-11.4699
cod	-11.4699
▁diamo	-11.47
▁opporsi	-11.4706
▁pozzo	-11.4707
▁vaticano	-11.4708
▁stesura	-11.4708
▁ida	-11.4709
▁gustavo	-11.471
▁oli	-11.4713
ndovi	-11.4717
▁sovrani	-11.4717
▁mazzini	-11.4719
▁connesse	-11.4721
▁esclude	-11.4721
▁sete	-11.4724
▁lenta	-11.4725
▁fastidio	-11.4726
▁grata	-11.4727
▁sicure	-11.473
▁brasile	-11.473
▁diffuse	-11.473
▁crudeli	-11.473
▁rimarrà	-11.473
ronsi	-11.4732
▁cattive	-11.4732
▁rappresenti	-11.4732
▁sopratutto	-11.4733
▁poterono	-11.4734
apprendimento	-11.4734
▁gaza	-11.4737
ν	-11.4738
▁liberare	-11.474
▁significare	-11.474
▁dame	-11.4742
▁iniziali	-11.4743
▁analogamente	-11.4744
▁arrivi	-11.4745
▁onesta	-11.4747
inc	-11.4749
▁converti	-11.4749
▁risultare	-11.4751
▁cosimo	-11.4755
▁purché	-11.4757
ung	-11.4758
▁confina	-11.4761
▁spiace	-11.4762
▁coperte	-11.4763
▁ufficialmente	-11.4763
▁trasparenti	-11.4763
▁ricordando	-11.4766
▁religioni	-11.4769
▁comparve	-11.4771
▁tessile	-11.4774
acce	-11.4775
▁potenzialità	-11.4776
tione	-11.4777
▁libano	-11.4777
▁incertezza	-11.4777
bis	-11.4778
▁misurare	-11.4783
▁attrezzature	-11.4784
▁diligenza	-11.4784
▁contribuiscono	-11.4785
▁sottoporre	-11.4785
▁emilio	-11.4785
▁galleria	-11.4785
▁adotta	-11.4785
▁neuro	-11.4786
▁compimento	-11.4788
ssione	-11.4788
▁provo	-11.479
▁dote	-11.4791
▁dottrine	-11.4795
▁bisognerà	-11.4796
▁udì	-11.4797
▁mostre	-11.4797
▁cazzo	-11.4797
▁metalli	-11.4798
logici	-11.4798
▁amano	-11.4799
▁pecca	-11.4801
ordina	-11.4802
▁laboratori	-11.4804
▁fugge	-11.4806
▁tredici	-11.4812
▁preparando	-11.4814
▁consistente	-11.4815
▁derivano	-11.4815
▁escluso	-11.4817
▁apostoli	-11.4818
▁acquisire	-11.4818
▁scese	-11.4818
▁crescendo	-11.4818
▁trovai	-11.4818
▁kong	-11.4821
▁cancellare	-11.4823
▁temeva	-11.4824
▁ehi	-11.4829
▁spettacoli	-11.4829
▁orecchi	-11.483
▁succedendo	-11.4832
▁paragona	-11.4833
▁stabilita	-11.4833
idi	-11.4833
▁rigorosa	-11.4834
▁medi	-11.4837
▁sorride	-11.4837
▁illusioni	-11.484
▁pilastri	-11.484
▁parimente	-11.484
▁avvenimento	-11.484
▁abb	-11.4845
▁der	-11.4846
off	-11.4846
ok	-11.4848
▁croazia	-11.4851
▁custode	-11.4851
▁allor	-11.4852
forma	-11.4853
▁definite	-11.4856
▁puri	-11.4858
▁diagnosi	-11.4862
▁accarezza	-11.4862
▁tragico	-11.4862
▁romane	-11.4863
▁intensificare	-11.4863
▁plu	-11.4865
▁band	-11.4867
▁fortifica	-11.4869
asso	-11.4871
5/	-11.4872
▁clandestina	-11.4873
▁rivoluzioni	-11.4873
▁battuto	-11.4873
▁•	-11.4873
▁profeti	-11.4873
▁registrare	-11.4874
▁volea	-11.4874
▁seppelli	-11.4875
▁circo	-11.4877
▁limitazioni	-11.4878
▁suscitato	-11.4879
▁stress	-11.4882
▁clo	-11.4883
▁domandare	-11.4884
▁longobardi	-11.4884
▁proveniente	-11.4884
▁veicolo	-11.4884
43	-11.4884
▁produttore	-11.4884
▁vestita	-11.4887
▁obbligati	-11.4888
▁social	-11.4889
▁decisionali	-11.4895
▁finlandese	-11.4895
▁rigida	-11.4895
▁maometto	-11.4895
▁calcoli	-11.4895
▁punte	-11.4896
▁doganali	-11.4896
▁dicesse	-11.4896
▁limitarsi	-11.4898
▁elevate	-11.4899
▁out	-11.4902
▁vario	-11.4902
▁portavano	-11.4906
▁renda	-11.4906
▁rivolgersi	-11.4907
▁concilia	-11.4908
▁identificare	-11.4909
attiva	-11.491
▁pubblicare	-11.4911
▁desse	-11.4911
▁concepi	-11.4912
▁tirato	-11.4914
▁ricon	-11.4914
▁attribuito	-11.4916
▁messico	-11.4916
▁precauzione	-11.4917
▁preferenza	-11.4917
▁god	-11.4918
▁strani	-11.4918
▁imperiali	-11.4918
▁ingenti	-11.4918
▁constatato	-11.4921
▁stro	-11.4921
▁decennio	-11.4928
▁occorra	-11.4928
▁israeliano	-11.4928
▁condivisione	-11.4929
▁trasferire	-11.4929
▁falsi	-11.4929
ntino	-11.4929
▁fascio	-11.493
▁segnato	-11.4932
met	-11.4935
▁prestazione	-11.4938
ges	-11.4938
▁raimondo	-11.4939
▁offesa	-11.494
▁brevetto	-11.4942
46	-11.4942
▁rispecchia	-11.4942
gar	-11.4945
llini	-11.4946
▁gonfia	-11.4947
▁pulizia	-11.4951
▁canada	-11.4952
▁riferi	-11.4952
▁giri	-11.4952
▁equa	-11.4957
▁gil	-11.4961
▁difensori	-11.4962
▁infinite	-11.4962
▁normanni	-11.4962
▁intervengo	-11.4964
▁umanitario	-11.4965
▁neppur	-11.4965
▁vicinato	-11.4967
▁dubitare	-11.497
▁israeliani	-11.4973
▁silvio	-11.4973
riche	-11.4974
ago	-11.4974
▁pop	-11.4975
▁ponendo	-11.4976
▁immaginate	-11.4977
▁decreti	-11.498
▁introduce	-11.4981
ku	-11.4981
▁contribuirà	-11.4984
▁onesti	-11.4985
▁agevola	-11.4985
▁violenti	-11.4986
▁udienza	-11.4986
▁differente	-11.4986
▁farti	-11.4989
▁tristo	-11.4989
▁mel	-11.499
fal	-11.4991
▁aduna	-11.4992
▁marketing	-11.4995
▁richiedenti	-11.4995
▁venere	-11.4996
▁riferimenti	-11.4997
sola	-11.4997
▁inferno	-11.4998
▁hong	-11.5
▁genetica	-11.5002
▁ghibellini	-11.5007
▁condiviso	-11.5007
▁sic	-11.5007
utf	-11.501
▁orientali	-11.5011
▁precedentemente	-11.5012
▁xvii	-11.5012
44	-11.5013
▁console	-11.5015
▁martiri	-11.5016
▁docenti	-11.502
▁dedicare	-11.502
▁chiarito	-11.5021
cone	-11.5023
erete	-11.5024
insegnamento	-11.5024
▁suggerito	-11.5025
▁mais	-11.5026
eco	-11.5027
▁rock	-11.5028
▁costretta	-11.5029
▁transeuropee	-11.5029
▁redatto	-11.5031
▁tributo	-11.5033
▁arrestato	-11.5033
▁risenti	-11.5034
tari	-11.5034
▁rota	-11.5035
▁ferri	-11.5036
▁separati	-11.504
▁sostanziali	-11.504
▁proteste	-11.504
▁viventi	-11.5041
ldo	-11.5041
▁coordinare	-11.5042
▁topo	-11.5042
cello	-11.5043
▁fortunato	-11.5046
▁ospedale	-11.5047
▁dirigente	-11.5047
▁professa	-11.5052
▁95	-11.5053
rali	-11.5053
▁propositi	-11.5054
*	-11.5055
▁orario	-11.5055
done	-11.5056
▁cominciano	-11.5056
▁muoiono	-11.5056
▁55	-11.506
▁2001,	-11.5061
▁spettro	-11.5063
▁cooperare	-11.5066
▁titolare	-11.5067
▁calpesta	-11.5068
▁record	-11.5069
▁quand	-11.5069
▁turca	-11.5074
▁aerea	-11.5077
▁collegamenti	-11.5077
tas	-11.5078
orum	-11.5078
onda	-11.5079
▁sorgente	-11.5085
▁obiezioni	-11.5085
▁saggezza	-11.5085
▁deplora	-11.5087
▁vinti	-11.5087
▁missioni	-11.5089
▁saliva	-11.509
▁8,	-11.5091
▁ahi	-11.5093
▁orari	-11.5094
▁rafforzata	-11.5094
▁informale	-11.5095
▁aumentato	-11.5098
▁ottanta	-11.51
allegato	-11.5102
▁effettuata	-11.5102
▁ognuna	-11.5104
▁fermarsi	-11.5107
▁compia	-11.5107
▁viceversa	-11.5108
▁accadde	-11.5109
▁sen	-11.5109
▁avanzi	-11.5109
▁lasciarsi	-11.5115
▁coperti	-11.5115
▁quartieri	-11.5115
▁chiedersi	-11.5118
▁piazze	-11.5119
▁persuaso	-11.512
▁residui	-11.512
▁ritornò	-11.5121
▁segnalato	-11.5122
gione	-11.5125
▁guide	-11.5128
▁ucraina	-11.5129
inserimento	-11.5131
▁sconosciuto	-11.5131
▁superbo	-11.5134
▁scoppio	-11.5136
▁sfo	-11.5138
▁credenza	-11.5138
▁visitato	-11.514
▁impiega	-11.514
ju	-11.5141
▁accettata	-11.5141
▁fantasma	-11.5142
▁nigeria	-11.5142
▁servigio	-11.5143
▁suggeri	-11.5144
▁artiglierie	-11.5144
▁certificazione	-11.5145
▁giogo	-11.5146
▁setta	-11.5147
▁davide	-11.5149
occhi	-11.515
▁scema	-11.515
▁superba	-11.5157
▁regala	-11.5161
▁regali	-11.5162
▁cessare	-11.5163
messo	-11.5163
▁evoca	-11.5165
▁divisioni	-11.5167
▁emana	-11.5169
sten	-11.5169
▁disperata	-11.5172
▁palma	-11.5173
▁65	-11.5175
▁registri	-11.5175
▁helsinki	-11.5176
tì	-11.5177
▁guerrieri	-11.5177
▁riesci	-11.5177
▁soppressione	-11.5178
▁pianoforte	-11.5178
▁culla	-11.5183
▁dipendente	-11.5185
ttico	-11.5187
▁nipoti	-11.5188
▁mina	-11.5188
▁cupo	-11.5192
▁monopoli	-11.5198
▁imp	-11.5199
▁dimentichiamo	-11.5199
▁aumenti	-11.5202
▁investiga	-11.5204
▁demo	-11.5209
▁attese	-11.521
▁discende	-11.5212
cs	-11.5213
▁marche	-11.5213
▁riuniti	-11.5214
sero	-11.5215
ospedale	-11.5216
▁feri	-11.5218
▁intimo	-11.5221
▁classici	-11.5222
▁fattispecie	-11.5222
▁tacque	-11.5223
▁fogli	-11.5225
rate	-11.5226
▁guidata	-11.5227
▁fermato	-11.5231
▁opportuni	-11.5231
▁pc	-11.5233
▁provvidenza	-11.5234
▁balena	-11.5234
▁presentò	-11.5235
▁nebbia	-11.5235
▁barbaro	-11.5236
▁torniamo	-11.5238
ius	-11.5238
tero	-11.5238
▁durare	-11.5238
▁dea	-11.5239
▁levato	-11.5241
▁stupefacenti	-11.5245
▁preferenze	-11.5245
▁riproduzione	-11.5246
▁vedute	-11.5246
▁cospetto	-11.5246
▁congo	-11.5248
▁cellulare	-11.5248
▁scatena	-11.5249
approvvigiona	-11.525
▁vinse	-11.5251
▁trovandosi	-11.5253
▁brani	-11.5256
▁autentico	-11.5257
▁piacciono	-11.5257
sin	-11.5257
ione	-11.5264
ces	-11.5267
duci	-11.5268
▁ecologica	-11.5268
▁aprì	-11.5269
.1	-11.5271
▁testimone	-11.5271
acquis	-11.5272
poni	-11.5274
▁nettamente	-11.5275
▁rimborso	-11.5276
▁foro	-11.5278
▁avessimo	-11.5278
▁gala	-11.5279
▁(1	-11.528
▁milanesi	-11.5281
▁morbo	-11.5283
ggono	-11.5283
▁considerano	-11.5284
▁maschio	-11.5285
lati	-11.5288
▁occorrerà	-11.529
▁robert	-11.529
▁immaginazione	-11.5291
▁conseguito	-11.5291
▁malizia	-11.5293
▁cangia	-11.5294
▁invero	-11.5294
▁acca	-11.5295
▁api	-11.5299
gari	-11.53
▁ridi	-11.53
▁calunnia	-11.5303
▁riducendo	-11.5306
▁offrendo	-11.5306
▁teo	-11.5306
ardo	-11.5306
▁esplora	-11.5315
▁incrementare	-11.5316
▁formata	-11.5317
▁duello	-11.5318
▁soliti	-11.532
▁vigilare	-11.5322
▁selvaggia	-11.5324
▁2002,	-11.5326
▁comportare	-11.5327
▁accese	-11.5328
▁inventa	-11.5328
▁ros	-11.5328
cini	-11.5331
▁attendono	-11.5332
▁consolazione	-11.5332
▁sapesse	-11.5333
▁garantendo	-11.5333
▁cia	-11.5335
▁approvate	-11.5335
▁inganna	-11.5337
▁clausole	-11.5338
▁discussa	-11.5338
▁amiche	-11.5339
▁ruina	-11.534
sis	-11.534
▁armamenti	-11.5341
cho	-11.5341
47	-11.5341
▁inverno	-11.5344
▁regi	-11.5345
sson	-11.5346
▁strane	-11.5347
mato	-11.5348
▁eseguito	-11.535
▁porsi	-11.5356
▁moti	-11.5357
abile	-11.5357
▁addetti	-11.5358
▁ispirato	-11.5359
nger	-11.5359
▁spaziale	-11.5365
▁batteri	-11.5366
gnolo	-11.5369
▁speso	-11.5371
▁servitore	-11.5373
▁bergamo	-11.5374
▁albergo	-11.5375
▁salda	-11.5375
▁unire	-11.5377
▁varii	-11.5377
▁ansia	-11.5378
▁st	-11.538
▁pig	-11.5381
gor	-11.5381
▁investito	-11.5384
▁aggiungendo	-11.5385
▁testimonianze	-11.5385
▁doganale	-11.5386
▁vincolanti	-11.5386
ς	-11.5391
▁rivale	-11.5391
▁concorda	-11.5394
▁aderenti	-11.5396
▁my	-11.54
dato	-11.5402
▁abolire	-11.5403
▁opportuna	-11.5404
▁prevale	-11.5404
▁prospero	-11.5408
esb	-11.5408
▁fisiche	-11.5408
▁angoscia	-11.5409
▁spedito	-11.5411
^2	-11.5412
▁telefonare	-11.5414
rga	-11.5414
▁provenza	-11.5415
▁corretti	-11.5417
cal	-11.5417
▁attendiamo	-11.5419
▁mento	-11.5419
▁biologica	-11.542
▁mantello	-11.542
▁rivesti	-11.542
git	-11.5422
▁accadendo	-11.543
▁legislazioni	-11.5431
▁ambasciatore	-11.5433
▁compagna	-11.5433
▁spina	-11.5437
▁devozione	-11.5438
▁esista	-11.5441
▁curare	-11.5442
▁crolla	-11.5442
▁margherita	-11.5443
▁sensazioni	-11.5443
▁sottolineo	-11.5443
▁solana	-11.5443
▁concentrare	-11.5443
▁atleti	-11.5443
▁correnti	-11.545
▁dotata	-11.545
▁siede	-11.5452
▁dieta	-11.5454
mmer	-11.5454
▁guardato	-11.5455
▁climatici	-11.5456
cata	-11.5457
▁esigenza	-11.5459
▁raramente	-11.546
▁investitori	-11.546
▁mandar	-11.5462
▁modesta	-11.5462
▁procedimenti	-11.5466
▁sostenitori	-11.5466
▁interrogativi	-11.5467
▁logo	-11.5467
▁riformare	-11.5468
▁rimanga	-11.547
▁forno	-11.5471
▁dose	-11.5473
▁andranno	-11.5474
orientamento	-11.5478
▁diffidenza	-11.5478
▁9,	-11.5478
▁delusione	-11.5478
▁marte	-11.548
▁larghe	-11.548
▁avermi	-11.5482
▁parrocchia	-11.5484
▁assomiglia	-11.5486
▁dure	-11.5486
tes	-11.5488
▁scontra	-11.5489
▁richiamato	-11.5489
▁riti	-11.549
▁vapore	-11.549
▁territoriali	-11.5491
▁veritá	-11.5492
tua	-11.5493
▁diviene	-11.5494
▁real	-11.5495
▁terroristici	-11.5496
mont	-11.5496
▁consacra	-11.55
▁spara	-11.55
▁tecnologica	-11.5502
ez	-11.5502
▁♪	-11.5502
▁interrotta	-11.5503
▁datori	-11.5503
▁senatore	-11.5508
▁grassi	-11.5509
▁gigante	-11.5511
▁album	-11.5512
▁farli	-11.5513
▁abbandono	-11.5516
▁sperimentazione	-11.5517
▁pale	-11.5518
impianto	-11.5518
▁dr	-11.5519
▁facessero	-11.5519
▁impianto	-11.552
▁have	-11.552
▁colonie	-11.5521
▁concordia	-11.5522
▁annuali	-11.5522
▁2005,	-11.5523
▁prossimità	-11.5523
▁up	-11.5523
▁frega	-11.5523
▁aziendali	-11.5524
▁sorprese	-11.5525
▁renderà	-11.5529
▁1999.	-11.5529
▁scrivendo	-11.553
▁panno	-11.5534
▁darò	-11.5535
▁muni	-11.5536
cente	-11.5537
▁milosevic	-11.5537
▁umore	-11.5539
▁imbarcazioni	-11.5539
▁salari	-11.5542
▁marine	-11.5545
▁pochino	-11.5546
▁strato	-11.5546
▁bacino	-11.5547
▁sostenendo	-11.5547
zu	-11.5548
▁set	-11.5548
▁===	-11.5549
▁disordini	-11.5549
▁distrutti	-11.5549
care	-11.5551
▁correndo	-11.5551
▁riscaldamento	-11.5552
▁commi	-11.5552
▁assegna	-11.5552
▁www	-11.5553
▁costituisca	-11.5553
▁ammirare	-11.5556
▁tesa	-11.556
▁iran	-11.556
llare	-11.556
▁complicato	-11.5561
▁raffigura	-11.5561
▁scritture	-11.5561
▁pal	-11.5562
▁docente	-11.5562
▁mantenendo	-11.5567
▁matto	-11.557
▁migratori	-11.557
▁temendo	-11.5571
▁rendo	-11.5573
▁cristalli	-11.5573
▁rigoroso	-11.5573
α	-11.5574
▁esponenti	-11.5576
▁qualifiche	-11.5578
▁riservata	-11.5579
anda	-11.5579
▁divise	-11.5584
▁detenzione	-11.5584
▁circondato	-11.5586
▁simone	-11.5587
▁benedizione	-11.5587
ipotesi	-11.559
▁rie	-11.5597
▁bomba	-11.5599
▁banchi	-11.5599
▁ammazza	-11.5599
▁tentò	-11.56
▁diego	-11.56
▁passavano	-11.5601
▁free	-11.5603
▁articola	-11.5604
aco	-11.5608
▁provenienza	-11.5608
▁andarsene	-11.5609
▁proviene	-11.5609
▁rara	-11.561
▁sb	-11.5611
▁carenza	-11.5611
▁tenersi	-11.5612
▁ferra	-11.5614
▁foggia	-11.5615
▁colpire	-11.5618
▁multilaterale	-11.562
▁destinare	-11.562
▁decisiva	-11.5621
▁rimaste	-11.5622
▁continueranno	-11.5623
▁salone	-11.5626
▁bloccare	-11.5628
▁oste	-11.5629
▁conservato	-11.563
▁mercanti	-11.5631
▁rivolti	-11.5632
▁esposte	-11.5632
▁agostino	-11.5633
▁michel	-11.5639
/2003	-11.5642
▁biodiversità	-11.5644
▁farmaco	-11.5644
▁visibili	-11.5644
spor	-11.5644
▁imbarca	-11.5647
▁accessori	-11.5648
▁doversi	-11.5649
▁44	-11.5652
▁accessibili	-11.5655
▁bombe	-11.5655
rmene	-11.5656
▁galileo	-11.5656
▁intrapreso	-11.5656
▁incorpora	-11.5656
dite	-11.5658
▁scuse	-11.566
▁copie	-11.566
▁scioglie	-11.5663
▁commenta	-11.5663
rità	-11.5665
▁sanitarie	-11.5666
▁infelici	-11.5666
ä	-11.5668
▁fontana	-11.5668
▁1991	-11.5669
▁percezione	-11.5669
▁dubito	-11.5669
▁limitati	-11.5669
ttene	-11.567
mis	-11.5672
▁provi	-11.5673
▁ultimamente	-11.5676
▁insino	-11.5679
▁affermano	-11.5679
posta	-11.568
▁cotesti	-11.568
▁visse	-11.568
ccie	-11.5681
ller	-11.5682
altronde	-11.5685
▁maschile	-11.5687
/02	-11.5688
▁sche	-11.5689
▁tunisi	-11.5691
▁previdenza	-11.5692
▁milizia	-11.5692
▁lampada	-11.5692
ban	-11.5693
▁dirle	-11.5695
▁chiederle	-11.5695
▁applicano	-11.5699
▁estesa	-11.5701
▁ces	-11.5701
gestione	-11.5702
mes	-11.5703
▁ist	-11.5703
▁darle	-11.5704
▁accessibile	-11.5705
▁contadino	-11.5705
▁provvisorio	-11.5708
▁tru	-11.5708
▁bocche	-11.5709
▁anello	-11.571
▁aumentando	-11.571
▁approvvigiona	-11.5711
▁consentano	-11.5711
▁vulnerabili	-11.5714
▁inalbor	-11.5715
▁istituisce	-11.5716
▁negato	-11.5717
▁conformi	-11.5717
▁concessi	-11.5718
▁proibi	-11.5724
▁rinvia	-11.5726
▁riconosco	-11.5733
▁agito	-11.5733
▁attive	-11.5736
scie	-11.5736
▁custodia	-11.5738
▁nova	-11.5738
ngui	-11.5739
▁proteine	-11.574
▁retorica	-11.574
▁birmania	-11.574
lus	-11.5741
ring	-11.5741
▁odierno	-11.5741
glione	-11.5743
▁temp	-11.5744
gel	-11.5744
▁cop	-11.5745
▁poterlo	-11.5746
cher	-11.5748
▁sfa	-11.5751
▁ripristinare	-11.5751
▁alessandria	-11.5752
▁pių	-11.5753
ub	-11.5754
▁esprimersi	-11.5754
▁pulita	-11.5758
vero	-11.5759
▁contrariamente	-11.5764
▁solenni	-11.5766
▁assedio	-11.5766
▁concorrenti	-11.5767
▁bestiame	-11.5768
▁attuate	-11.5769
imposizione	-11.577
▁obbligatorio	-11.5772
▁acciò	-11.5773
▁morde	-11.5773
▁nominare	-11.5774
▁poggia	-11.5774
▁volontaria	-11.5775
ug	-11.5775
age	-11.5776
▁email	-11.5776
▁elementari	-11.5777
▁situato	-11.5777
▁parlerò	-11.5777
▁presentarsi	-11.5779
▁preserva	-11.578
▁ruppe	-11.5781
ccò	-11.5781
bru	-11.5782
▁coltello	-11.5783
mano	-11.5783
▁dra	-11.5786
▁dossier	-11.5789
▁prodotta	-11.5789
▁credevo	-11.5791
▁riparare	-11.5793
pr	-11.5794
▁volare	-11.5798
▁protetto	-11.5799
▁assassini	-11.5801
`	-11.5801
▁trasmesso	-11.5801
▁mappamondo	-11.5801
là	-11.5801
▁incerto	-11.5801
▁percepi	-11.5804
▁giustificato	-11.5804
▁quant	-11.5806
▁troverete	-11.5807
oceano	-11.5807
rni	-11.5811
▁strati	-11.5811
▁presupposti	-11.5813
▁urla	-11.5814
▁disegnare	-11.5815
▁brok	-11.5816
▁monaci	-11.5816
▁intensità	-11.5816
▁cam	-11.5816
▁odore	-11.5816
ade	-11.5818
▁livia	-11.5819
▁dna	-11.582
▁trovando	-11.5821
▁server	-11.5822
▁sentii	-11.5825
▁allievi	-11.5825
▁tensioni	-11.5826
▁compatibile	-11.5826
grandi	-11.5827
pide	-11.5828
▁corde	-11.5829
▁imminente	-11.5829
▁salvato	-11.583
▁capri	-11.5833
42	-11.5834
▁cent	-11.5835
▁cit	-11.5836
▁vietare	-11.5837
▁tendono	-11.5838
▁suggerimento	-11.584
▁chiamavano	-11.5843
▁confessare	-11.5847
▁rimanente	-11.5849
▁vibra	-11.585
▁sostenuti	-11.585
▁dorme	-11.585
▁affolla	-11.585
▁spagnoli	-11.585
▁cali	-11.5852
▁burro	-11.5853
▁orecchio	-11.5853
▁attuata	-11.5855
▁illustrazione	-11.5856
clu	-11.5857
▁largamente	-11.5857
▁pronunciato	-11.5858
▁corridoio	-11.5858
▁teatri	-11.5862
▁saltare	-11.5867
▁disturbi	-11.5874
▁mancò	-11.5875
▁cereali	-11.5876
cita	-11.5877
▁stabilizzazione	-11.5878
▁avevan	-11.5878
▁cadenza	-11.5878
assi	-11.5879
▁grafico	-11.588
esposizione	-11.588
▁operativi	-11.5881
▁sentendo	-11.5881
▁seguiva	-11.5881
▁blog	-11.5883
fin	-11.5886
▁arrigo	-11.5887
▁suggerisce	-11.5887
▁chris	-11.5888
▁prendete	-11.589
▁sacre	-11.5892
▁riuni	-11.5895
▁paoli	-11.5896
presso	-11.5898
▁narrazione	-11.59
▁delegazioni	-11.5901
▁acuto	-11.5901
cti	-11.5901
▁mangimi	-11.5901
▁roccia	-11.5902
yer	-11.5902
▁applicabile	-11.5903
▁regolamentare	-11.5903
▁sacrifica	-11.5904
vel	-11.5908
▁utilizzano	-11.5909
▁vaso	-11.5911
▁spegne	-11.5912
▁vettura	-11.5912
▁cile	-11.5913
▁esclama	-11.5914
camente	-11.5914
▁pista	-11.5915
▁legalità	-11.5916
▁frena	-11.5918
ham	-11.5918
▁intitolato	-11.592
▁esserlo	-11.5921
▁tam	-11.5922
▁larghi	-11.5924
▁indovina	-11.5927
▁avvicinarsi	-11.5927
▁inquinanti	-11.5928
▁green	-11.5935
▁composti	-11.5936
▁tradotto	-11.5936
▁potenziare	-11.5936
▁trama	-11.5941
▁finta	-11.5941
ben	-11.5942
▁soffio	-11.5945
▁sultano	-11.5945
▁compone	-11.5946
52	-11.5947
▁bottiglia	-11.5948
ers	-11.5949
▁continuazione	-11.5952
▁formalmente	-11.5954
▁nutro	-11.5954
▁grati	-11.5954
▁scava	-11.5956
▁serviva	-11.5959
▁intermedia	-11.596
▁condivisa	-11.596
▁siffatta	-11.596
▁eccezionali	-11.596
▁partigiani	-11.5961
▁wo	-11.5961
▁umanitaria	-11.5962
▁abbiam	-11.5962
▁espansione	-11.5963
▁medita	-11.5964
arsi	-11.5964
▁autentica	-11.5965
▁architettura	-11.5965
▁riconoscenza	-11.5966
▁etichettatura	-11.5969
▁favorito	-11.597
▁dotti	-11.597
▁ster	-11.5972
▁prerogative	-11.5973
53	-11.5974
▁soddisfatta	-11.5975
▁0.	-11.5976
▁fio	-11.5976
▁colture	-11.5976
▁bell	-11.5983
▁trovavasi	-11.5983
▁nozione	-11.5983
▁spirituali	-11.5983
ultraperiferiche	-11.5985
▁distorsioni	-11.5985
▁sorridere	-11.5992
▁pecore	-11.5994
▁tene	-11.5995
▁calza	-11.5996
▁oppressi	-11.5997
ville	-11.5997
▁dotto	-11.5999
▁ted	-11.6
mette	-11.6002
▁atteso	-11.6002
ncio	-11.6008
▁inspira	-11.6009
▁lusinga	-11.601
▁rialza	-11.6012
▁effettuate	-11.6014
▁assicurarsi	-11.6016
▁entrarono	-11.6018
▁infino	-11.602
▁solitamente	-11.602
ep	-11.6021
▁affianca	-11.6022
▁scomunica	-11.6022
▁divergenze	-11.6022
▁sbarca	-11.6022
▁santuario	-11.6024
▁niuna	-11.6024
▁gomma	-11.6024
rbo	-11.6028
nziale	-11.603
▁pazzi	-11.6031
▁eco	-11.6032
▁concordi	-11.6033
▁annulla	-11.6033
▁legni	-11.6034
▁apparecchi	-11.6034
▁gradualmente	-11.6035
▁diffonde	-11.6035
▁interiore	-11.6035
▁seguaci	-11.6036
bal	-11.6039
reste	-11.6041
▁angola	-11.6042
▁benevento	-11.6043
▁staff	-11.6044
▁cassi	-11.6044
▁misto	-11.6045
▁umili	-11.6045
▁vietnam	-11.6047
▁constata	-11.6047
▁comandi	-11.6048
▁viti	-11.6049
metri	-11.6054
▁coppa	-11.6054
entità	-11.6055
▁attualità	-11.6059
▁insufficienti	-11.606
▁podestà	-11.606
▁intraprese	-11.606
atore	-11.6061
▁sincerità	-11.6061
▁saccheggia	-11.6061
▁indossa	-11.6062
▁offende	-11.6063
▁illusione	-11.6063
▁soleva	-11.6066
▁gusti	-11.6068
▁parso	-11.607
▁autonomi	-11.6071
vul	-11.6071
nn	-11.6072
▁gettato	-11.6072
▁birra	-11.6072
▁rivelazione	-11.6072
▁strepito	-11.6072
▁sospira	-11.6072
▁forniscono	-11.6073
▁complesse	-11.6074
▁rimessa	-11.6077
▁attuato	-11.6077
▁nubi	-11.6078
▁portale	-11.608
▁indagine	-11.6081
iii	-11.6081
▁menzogna	-11.6085
▁instaurare	-11.6085
▁sbaglia	-11.6085
▁leale	-11.6087
▁magia	-11.6087
▁demonio	-11.6089
▁ordinario	-11.6093
▁dotati	-11.6096
▁vieusseux	-11.6097
▁collettivo	-11.6097
▁riccardo	-11.6098
▁funzionano	-11.6098
▁edizioni	-11.6099
▁10,	-11.61
▁unitaria	-11.6101
6-0	-11.6102
gato	-11.6105
▁gel	-11.6106
▁salito	-11.6108
▁darmi	-11.6109
▁fiorini	-11.611
▁dispensa	-11.611
▁stanchezza	-11.611
pt	-11.6113
▁guarino	-11.6117
logo	-11.6121
▁combina	-11.6121
▁esemplari	-11.6122
▁pigliare	-11.6123
▁contraddizioni	-11.6123
▁pesc	-11.6123
sone	-11.6124
▁rimprovero	-11.6125
▁generosi	-11.6125
▁fortezze	-11.6125
▁compensa	-11.6127
▁atterra	-11.6128
adeguata	-11.6129
▁salì	-11.6131
▁sassi	-11.6131
▁2005.	-11.6133
▁separate	-11.6133
▁attaccato	-11.6135
▁intelligenti	-11.6135
sei	-11.6135
▁ss	-11.6136
▁procuratore	-11.6136
▁terminato	-11.6137
▁esclusiva	-11.6138
▁conclusi	-11.6142
▁veniamo	-11.6142
terra	-11.6147
▁cristoforo	-11.6147
▁didattica	-11.6147
▁teso	-11.6151
▁presti	-11.6152
▁osservando	-11.6153
▁usiamo	-11.6154
▁indicata	-11.6155
▁combattenti	-11.6156
appello	-11.6156
sciu	-11.6158
gere	-11.6159
▁risalto	-11.616
▁inerenti	-11.616
▁manuale	-11.6161
▁contrade	-11.6162
▁misteri	-11.6162
▁fonde	-11.6162
▁ricomp	-11.6166
▁batteria	-11.6167
▁dottori	-11.6167
▁postali	-11.6169
▁scorgere	-11.6169
mettere	-11.617
▁trasportare	-11.6171
vu	-11.6171
▁rinnovare	-11.6171
▁consenti	-11.6172
▁proseguì	-11.6172
▁indifferenza	-11.6174
mere	-11.6175
▁collabora	-11.6175
▁tempera	-11.6176
stato	-11.6177
7/	-11.6178
▁cattedra	-11.618
dina	-11.618
ndere	-11.6181
tch	-11.6183
▁fabrizio	-11.6185
▁gazzetta	-11.6185
▁proliferazione	-11.6186
▁rifiutare	-11.6186
▁fel	-11.6188
▁causare	-11.6189
mene	-11.6192
▁segrete	-11.6195
▁gol	-11.6196
▁versante	-11.6196
visi	-11.6196
▁preziose	-11.6198
▁misterioso	-11.6198
▁decadenza	-11.6199
▁rifiutato	-11.6199
▁favorevolmente	-11.62
▁mutato	-11.6202
▁acciaio	-11.6202
▁fondamenta	-11.6203
quo	-11.6206
▁viale	-11.6206
▁prioritario	-11.6208
▁affa	-11.6209
▁alice	-11.621
▁scaglia	-11.621
▁gla	-11.621
▁friuli	-11.6211
▁dormiva	-11.6211
▁vegetali	-11.6214
▁direzioni	-11.6215
▁pongono	-11.6218
▁esclusione	-11.6219
celle	-11.6219
▁candela	-11.6221
▁sigarette	-11.6223
▁riconobbe	-11.6223
▁osservò	-11.6224
▁anniversario	-11.6224
▁applicabili	-11.6224
▁frazione	-11.6224
▁comparsa	-11.6224
▁ritirato	-11.6224
▁trae	-11.6225
▁distante	-11.6227
▁papato	-11.6227
▁nemica	-11.6229
emergenza	-11.6229
▁stampe	-11.6232
▁conteneva	-11.6235
▁pensionistici	-11.6236
▁incominciò	-11.6237
▁affidata	-11.624
▁lavoratore	-11.624
▁disarmo	-11.6243
▁orazio	-11.6244
▁edifica	-11.6246
▁sollevate	-11.6247
▁collegato	-11.6248
▁entri	-11.6248
▁affrontati	-11.6248
▁cronaca	-11.6248
▁aribert	-11.6251
anco	-11.6252
▁passaggi	-11.6253
▁giudicato	-11.6254
▁vigili	-11.6254
▁cori	-11.6256
▁pensai	-11.6256
▁dolcemente	-11.6258
▁creatore	-11.6259
▁economicamente	-11.6261
▁ottime	-11.6261
▁comunali	-11.6261
▁cornice	-11.6264
▁raccontato	-11.6265
▁persuadere	-11.6266
▁sospendere	-11.6267
ré	-11.6268
▁passar	-11.6269
atori	-11.627
▁rinviare	-11.6271
▁quarant	-11.6271
▁provengono	-11.6273
2,	-11.6274
▁affonda	-11.6274
▁curiosi	-11.6274
▁misteriosa	-11.6274
▁casse	-11.6275
▁ventre	-11.6277
▁esb	-11.6277
vità	-11.6278
▁riconoscendo	-11.6279
=	-11.628
▁cameriera	-11.6287
▁gloriosa	-11.6287
▁associa	-11.6288
▁monopolio	-11.6289
▁circuito	-11.629
▁investi	-11.6291
▁occhiali	-11.6293
▁caos	-11.6293
▁liberato	-11.6293
▁barbarie	-11.6294
▁terremoto	-11.6295
geri	-11.6296
▁certificato	-11.6298
▁attribuita	-11.6298
▁geografo	-11.63
▁medaglia	-11.63
olaf	-11.6302
2005	-11.6303
▁elimina	-11.6305
▁blocca	-11.6306
▁ribella	-11.6307
▁croci	-11.6311
▁amplia	-11.6311
▁network	-11.6312
▁sindacali	-11.6312
▁cimitero	-11.6312
ds	-11.6314
▁sentita	-11.6316
▁accor	-11.6317
rb	-11.6318
▁ampi	-11.632
▁39	-11.6321
▁consegnato	-11.6321
▁bartolomeo	-11.6325
▁coalizione	-11.6325
▁emergere	-11.6327
atura	-11.6328
▁tuono	-11.633
▁line	-11.633
▁torn	-11.6331
▁busto	-11.6332
uem	-11.6332
▁urta	-11.6333
▁cel	-11.6335
▁quotidianamente	-11.6336
▁insinua	-11.6336
▁respinta	-11.6338
▁dichiaro	-11.6338
▁baltico	-11.634
▁originaria	-11.6341
▁scintilla	-11.6341
▁conoscendo	-11.6345
cate	-11.6346
▁apporta	-11.6346
▁250	-11.6348
▁pregiudizio	-11.6348
▁editori	-11.6348
fonda	-11.6349
riani	-11.6349
▁hussein	-11.6351
▁interpretare	-11.6351
▁rim	-11.6352
stina	-11.6352
▁santer	-11.6352
▁avviata	-11.6353
/1	-11.6354
▁vicinanza	-11.6355
▁lenti	-11.6355
▁imperatori	-11.6355
▁soffrono	-11.6356
▁pesi	-11.6357
gon	-11.6358
▁campane	-11.6359
▁poetica	-11.6361
▁onu	-11.6362
▁unilaterale	-11.6364
▁soccorsi	-11.6364
▁balcone	-11.6364
▁meccanica	-11.6365
▁avverrà	-11.6365
▁individua	-11.6367
▁configura	-11.6369
afghanistan	-11.637
▁ambi	-11.6376
▁43	-11.6377
▁corro	-11.6378
▁slovacchia	-11.6378
▁valeria	-11.6379
▁bionda	-11.638
▁delicati	-11.638
▁stradali	-11.6382
▁variazioni	-11.6383
rello	-11.6388
▁contenente	-11.6389
▁penalizza	-11.639
▁vele	-11.6392
1999	-11.6395
▁bagni	-11.6397
▁esisteva	-11.6397
▁ricercare	-11.6399
▁generato	-11.6399
▁appaiono	-11.6402
▁glorioso	-11.6402
▁marittimi	-11.6402
▁esercitato	-11.6404
▁mucca	-11.6406
▁tremante	-11.6406
▁preveda	-11.6409
▁turche	-11.6411
vennero	-11.6414
fan	-11.6416
▁eldr	-11.6417
solo	-11.6418
▁dipoi	-11.6419
▁governare	-11.6419
▁sani	-11.642
▁superiorità	-11.6421
▁bolle	-11.6421
▁esilio	-11.6423
▁pr	-11.6424
▁generare	-11.6425
urs	-11.6426
ph	-11.6427
▁competizione	-11.6428
▁metropoli	-11.6428
▁induce	-11.6429
▁char	-11.6429
▁2003.	-11.643
▁indotto	-11.643
▁ritrovare	-11.6431
▁crema	-11.6432
▁falco	-11.6435
▁costrui	-11.6438
▁fisonomi	-11.6441
▁alunni	-11.6441
▁allah	-11.6442
▁aggiusta	-11.6442
▁possedere	-11.6444
▁svela	-11.6444
▁progetta	-11.6444
▁navale	-11.6445
▁guardano	-11.6445
▁difendersi	-11.6445
▁eguale	-11.6445
ning	-11.6446
volta	-11.645
▁stende	-11.6452
▁nominati	-11.6452
▁mirabile	-11.6453
ji	-11.6453
▁conoscete	-11.6454
▁pubblicò	-11.6454
▁sf	-11.6455
▁cominci	-11.6455
▁vertici	-11.6456
▁seguite	-11.6457
▁dec	-11.6459
▁scrivi	-11.6463
▁pot	-11.6464
▁quarti	-11.6465
▁portuali	-11.6467
▁svolti	-11.6467
▁siciliani	-11.6467
▁integra	-11.6469
▁glo	-11.647
▁correzione	-11.6471
▁cattedrale	-11.6473
▁indicazione	-11.6473
▁trattamenti	-11.6473
effettiva	-11.6474
▁preventiva	-11.6475
▁tornano	-11.6475
▁scaccia	-11.6476
▁ripigli	-11.6476
perché	-11.6479
▁sessuali	-11.6479
▁immagino	-11.648
▁replicò	-11.648
▁congiunto	-11.648
▁georgia	-11.648
aggio	-11.648
far	-11.6481
gru	-11.6481
▁contrada	-11.6483
▁successe	-11.6483
▁unanimità	-11.6484
▁prontamente	-11.6484
▁grani	-11.6486
▁caratterizzata	-11.6488
▁giuoca	-11.6493
▁rispondo	-11.6499
fia	-11.65
▁permetto	-11.6503
erebbero	-11.6505
▁raduna	-11.6506
▁offeso	-11.6506
▁michelangelo	-11.6506
▁insulta	-11.6507
▁inganno	-11.6507
▁esauriente	-11.6507
▁decisi	-11.6509
▁intenti	-11.651
▁versioni	-11.6511
▁scuro	-11.6511
▁limitate	-11.6512
▁abuso	-11.6514
▁bob	-11.6514
▁vor	-11.6515
▁ostacola	-11.6517
▁top	-11.6519
▁sofferma	-11.652
▁direbbe	-11.6524
6/	-11.6524
▁spu	-11.6524
▁variabile	-11.6524
▁cacciato	-11.6527
▁ku	-11.653
▁mc	-11.6531
▁lievi	-11.6531
▁ripetuto	-11.6532
▁rispettivamente	-11.6532
▁parlate	-11.6532
▁manager	-11.6534
▁crollo	-11.6535
▁finanziato	-11.6536
▁cc	-11.6537
▁espone	-11.6539
▁cuci	-11.654
▁berlusconi	-11.6545
▁cambogia	-11.6545
▁convenuto	-11.6546
▁aperse	-11.6549
▁eredità	-11.6549
▁condiziona	-11.6551
▁sollevati	-11.6551
▁restando	-11.6551
▁sba	-11.6552
▁arresto	-11.6552
▁direttivo	-11.6553
dare	-11.6555
▁manipola	-11.6557
λ	-11.6558
▁browser	-11.6558
▁leopardi	-11.6558
etica	-11.6559
▁ron	-11.6561
▁flora	-11.6564
▁fallito	-11.6567
▁gestito	-11.6568
▁irre	-11.6569
▁cadaveri	-11.6572
▁saprei	-11.6572
▁gialla	-11.6576
▁pretese	-11.6578
▁secondaria	-11.658
▁contatta	-11.6583
▁persecuzioni	-11.6585
▁damiano	-11.6585
▁arcivescovo	-11.6586
▁foco	-11.6588
▁vietato	-11.6588
▁2002.	-11.6589
rma	-11.659
▁contemplare	-11.6591
▁shi	-11.6591
▁mutare	-11.6591
fere	-11.6593
▁attaccare	-11.6594
uccia	-11.6595
▁coll	-11.6596
▁seguiti	-11.6596
▁rapporta	-11.6598
▁corrado	-11.6599
▁formali	-11.66
▁grotta	-11.6601
▁goccia	-11.6601
▁fr	-11.6603
▁levare	-11.6605
▁duo	-11.6606
▁complementari	-11.6609
▁rientro	-11.6611
▁causati	-11.6613
▁torta	-11.6614
▁giovinetta	-11.6619
▁professioni	-11.6619
▁sporge	-11.6625
2.	-11.6625
▁ratificato	-11.6626
▁martirio	-11.6627
▁tipico	-11.6627
netto	-11.6627
▁provò	-11.6629
▁stante	-11.6632
▁splende	-11.6637
▁cominciamo	-11.6637
▁corrono	-11.6638
▁ponga	-11.6639
▁massimamente	-11.6639
▁vegga	-11.664
▁spar	-11.6642
▁faci	-11.6642
ardi	-11.6645
▁solidale	-11.6647
▁iscrizione	-11.665
▁malinconia	-11.6651
▁cognizione	-11.6651
▁tessuti	-11.6651
▁vincolo	-11.6651
▁celesti	-11.6651
▁quesito	-11.6651
▁quattrocento	-11.6656
▁imper	-11.6657
▁ostante	-11.666
▁avversario	-11.6662
▁analogo	-11.6664
▁privacy	-11.6664
▁sorse	-11.6664
▁battesimo	-11.6664
accio	-11.6665
▁riparti	-11.6667
rita	-11.6668
▁porgere	-11.667
▁sfi	-11.6671
▁tronco	-11.6671
▁coincide	-11.6671
nnu	-11.6675
▁muto	-11.6676
▁offerti	-11.6677
▁licenzia	-11.6678
let	-11.6678
▁viltà	-11.6678
▁doha	-11.668
▁impor	-11.668
▁doma	-11.6682
sus	-11.6684
ros	-11.6687
▁vigo	-11.669
▁600	-11.669
▁audace	-11.669
▁monarca	-11.6691
▁ritirò	-11.6692
rus	-11.6693
▁flotte	-11.6693
▁teologia	-11.6693
▁compara	-11.6693
aldo	-11.6694
bel	-11.6694
▁primario	-11.6695
▁bastano	-11.6696
▁rischiano	-11.6698
▁rimini	-11.6699
);	-11.67
▁legittimi	-11.6702
▁pani	-11.6702
▁tribuna	-11.6702
▁sostenute	-11.6704
vre	-11.6705
▁nascosta	-11.6706
▁eretici	-11.6706
▁sembravano	-11.6708
dente	-11.6713
▁intensa	-11.6714
▁fal	-11.6716
▁lombardi	-11.6716
▁cameriere	-11.6717
▁municipio	-11.6717
▁verheugen	-11.6717
▁arrivando	-11.6717
▁amaro	-11.6718
▁teorie	-11.6718
▁tasche	-11.6719
▁gusta	-11.6722
▁peggiora	-11.6723
om	-11.6726
vene	-11.6727
▁realizzate	-11.6729
▁gentiluomini	-11.673
▁porpora	-11.673
▁ton	-11.6731
▁pontefici	-11.6732
95	-11.6735
▁avverte	-11.6738
pen	-11.6739
▁riferiscono	-11.674
▁colmare	-11.674
più	-11.6742
▁combustibili	-11.6744
▁sterline	-11.6744
▁trieste	-11.6744
▁vigne	-11.6746
▁fasce	-11.6746
▁nascono	-11.6746
▁chiami	-11.6753
▁reg	-11.6754
▁centesimi	-11.6757
▁sollievo	-11.6757
▁avventure	-11.6757
▁nodi	-11.6758
▁paiono	-11.6758
▁stimolo	-11.6759
▁rinunzia	-11.6759
▁ripeteva	-11.6764
▁indugio	-11.6765
▁riputa	-11.6767
ala	-11.6771
▁incarna	-11.6771
▁avean	-11.6772
▁abbina	-11.6773
▁vigila	-11.6775
▁omai	-11.6777
▁ferrovia	-11.6777
▁fisici	-11.6777
▁iu	-11.678
▁autorizzato	-11.6783
▁parzialmente	-11.6784
▁presuppone	-11.6784
▁risarcimento	-11.6785
▁sella	-11.6786
85	-11.6786
▁raccolse	-11.6786
▁bol	-11.6787
▁occidente	-11.6789
▁tormenti	-11.679
▁comporre	-11.679
ε	-11.6792
▁consentendo	-11.6797
▁efficienti	-11.6797
▁canna	-11.6798
▁virginia	-11.68
▁formulata	-11.6801
▁gene	-11.6807
▁unirsi	-11.681
▁congiuntura	-11.6811
▁liquido	-11.6811
▁rivolse	-11.6811
▁scolastica	-11.6811
▁impazienza	-11.6812
▁anne	-11.6812
▁schifo	-11.6812
▁troveremo	-11.6812
▁assicurazione	-11.6813
▁duomo	-11.6813
▁lady	-11.6814
▁geme	-11.6816
▁cairo	-11.6816
sk	-11.6817
▁riparo	-11.6817
▁gal	-11.6819
▁rifa	-11.6821
▁difatti	-11.6821
▁distribuito	-11.6821
dura	-11.6822
▁artificiale	-11.6824
▁parallelo	-11.6824
▁sportive	-11.6824
▁ricevuti	-11.6824
▁potenzialmente	-11.6824
▁camion	-11.6825
▁agio	-11.6826
▁pet	-11.6826
▁attendo	-11.6827
▁fig	-11.6827
▁solido	-11.683
▁uscite	-11.6831
vita	-11.6833
▁ispirazione	-11.6834
quis	-11.6834
▁stiano	-11.6836
▁vige	-11.6839
▁vasti	-11.6839
▁compera	-11.6844
aeroporto	-11.6845
▁parlarne	-11.6848
▁cape	-11.6848
▁mary	-11.6849
▁isabella	-11.6851
▁confido	-11.6851
▁pertinenti	-11.6851
▁decoro	-11.6854
▁annovera	-11.6855
▁pisani	-11.6858
stò	-11.6864
▁introdotta	-11.6865
▁irlandesi	-11.6865
▁precoce	-11.6865
▁venduto	-11.6865
▁aloise	-11.6865
berg	-11.6865
▁puntare	-11.6866
▁moderazione	-11.6867
int	-11.6868
▁that	-11.6868
▁pompeo	-11.6872
▁tragica	-11.6873
▁rilasciato	-11.6875
▁partori	-11.6875
▁assalto	-11.6876
▁brigata	-11.6876
ov	-11.6876
▁matilde	-11.6876
▁introdotte	-11.6878
▁risponda	-11.6878
▁inseriti	-11.6879
▁rafforzato	-11.688
bie	-11.688
▁gita	-11.6882
▁fondatore	-11.6882
▁rendiamo	-11.6884
▁esporta	-11.6886
▁repubblicano	-11.6887
▁fummo	-11.6887
invito	-11.6888
▁mutamento	-11.6889
▁master	-11.6895
yn	-11.6897
▁pasquale	-11.6899
sha	-11.6903
▁impera	-11.6904
▁migliorato	-11.6904
▁denominazione	-11.6907
▁importantissimo	-11.6909
ère	-11.691
▁prestato	-11.6911
▁facce	-11.6913
▁barbara	-11.6914
▁discipline	-11.6919
▁maniche	-11.6919
▁imposti	-11.6919
▁conosciuti	-11.692
▁teniamo	-11.692
▁piaga	-11.6922
▁pigli	-11.6923
esimo	-11.6924
▁mutamenti	-11.6925
▁diletta	-11.6925
▁proponendo	-11.6928
pati	-11.6928
▁novi	-11.6928
▁rinnovato	-11.6931
▁prolunga	-11.6932
▁cave	-11.6932
▁sparti	-11.6932
▁kinnock	-11.6933
▁diocesi	-11.6933
▁rubi	-11.6933
cns	-11.6935
ucce	-11.6935
▁ricade	-11.6936
▁finiscono	-11.6938
▁inseri	-11.6942
ole	-11.6943
▁stime	-11.6944
▁legislatore	-11.6946
▁rigido	-11.6946
▁dionisio	-11.6946
▁pittori	-11.6947
▁jean	-11.6948
resti	-11.6949
▁dedicati	-11.695
▁sezioni	-11.695
▁incontrano	-11.695
▁cominciando	-11.6953
ggiò	-11.6953
▁avvertire	-11.6956
▁viaggia	-11.6957
▁atomi	-11.6958
▁orna	-11.6958
▁domestica	-11.696
▁mezzanotte	-11.696
▁trattandosi	-11.696
▁labbro	-11.696
▁turisti	-11.6961
▁oltrepassa	-11.6961
▁danesi	-11.6962
▁canne	-11.6963
▁ecce	-11.6963
affi	-11.6965
arresto	-11.6967
burg	-11.6971
▁discordia	-11.6971
▁olandesi	-11.6973
▁world	-11.6974
▁rotte	-11.6976
cis	-11.6977
▁lavorativa	-11.6977
▁ricordano	-11.6979
▁vedevo	-11.6979
▁classificazione	-11.698
inflazione	-11.6981
▁valga	-11.6981
▁darvi	-11.6983
▁passe	-11.6984
▁acquisito	-11.6984
▁superfluo	-11.6987
▁introdotti	-11.6987
▁clinica	-11.6987
▁fuochi	-11.6988
▁arrestare	-11.6991
▁galera	-11.6991
▁rif	-11.6992
data	-11.6992
▁scoraggia	-11.6993
▁soverchia	-11.6994
ram	-11.6996
▁inserimento	-11.6997
goli	-11.6998
▁verifiche	-11.6998
▁mostrarsi	-11.7001
▁riconosciamo	-11.7001
▁piacque	-11.7001
▁ostilità	-11.7002
▁stupido	-11.7003
ologi	-11.7003
▁beato	-11.7004
▁batteva	-11.7007
▁emozione	-11.7007
▁giustificata	-11.7008
▁curiosa	-11.701
▁tematica	-11.7012
▁celebrare	-11.7012
min	-11.7014
▁prospetta	-11.7015
ggiato	-11.7018
▁approfitta	-11.7018
▁affrontata	-11.7019
▁fotografie	-11.702
▁impre	-11.702
▁palme	-11.7022
▁chimici	-11.7023
erba	-11.7024
▁assali	-11.7026
▁retribuzione	-11.7028
ride	-11.703
▁scomp	-11.7031
▁stupida	-11.7031
scrive	-11.7032
▁dissimula	-11.7034
▁cicli	-11.7035
▁delega	-11.7038
▁avanzati	-11.7039
▁consueto	-11.7042
▁supplementare	-11.7042
▁traduce	-11.7042
▁perugia	-11.7042
▁impressioni	-11.7042
▁capriola	-11.7042
▁sbarra	-11.7042
▁cale	-11.7046
edificio	-11.7049
▁casta	-11.7051
▁card	-11.7053
▁flessibili	-11.7054
▁finanzia	-11.7055
▁risulti	-11.7056
▁posteriore	-11.7056
▁comitatologia	-11.7057
▁xenofobia	-11.7057
▁udiva	-11.7058
▁soglio	-11.706
rch	-11.7061
▁aggiungo	-11.7064
▁anticipa	-11.7064
▁confusa	-11.7064
▁atque	-11.7066
▁domin	-11.7067
onere	-11.7067
▁favola	-11.7068
▁cioccolato	-11.707
▁sportivo	-11.707
▁fucile	-11.707
▁tradito	-11.707
▁paterna	-11.707
▁raggiunta	-11.707
▁delegato	-11.7072
▁possede	-11.7073
▁cibi	-11.7074
▁ricomincia	-11.7075
▁controversia	-11.7075
pola	-11.7076
▁appropriato	-11.7078
▁attraversando	-11.708
▁suppone	-11.7081
ë	-11.7083
▁scu	-11.7084
▁numerosa	-11.7084
▁yo	-11.7085
▁tralascia	-11.7087
lui	-11.7087
▁ricordati	-11.7088
▁disabilità	-11.7088
ulo	-11.7089
▁göteborg	-11.7097
▁bambine	-11.7097
▁umilia	-11.7098
▁cime	-11.7099
ι	-11.71
▁allegro	-11.7101
▁coltiva	-11.7101
▁allinea	-11.7103
▁accerta	-11.7104
▁regolamenta	-11.7104
▁segg	-11.7104
▁solite	-11.7107
▁disciplinare	-11.7108
▁picco	-11.7108
▁uscir	-11.7109
dar	-11.7111
://	-11.7111
▁disastri	-11.7111
▁difeso	-11.7112
▁costruita	-11.7114
▁schiere	-11.7117
aveva	-11.7117
rsela	-11.7117
siamo	-11.7119
▁comprato	-11.712
▁festeggia	-11.7123
stare	-11.7124
gata	-11.7125
▁unitamente	-11.7126
▁triangolo	-11.7126
▁ironia	-11.7127
▁ricci	-11.7129
▁ragionare	-11.713
rte	-11.7134
▁us	-11.7134
lles	-11.7134
▁ottica	-11.7138
▁pressi	-11.7138
▁unisce	-11.7138
▁manodopera	-11.7139
▁sovietica	-11.7139
▁vitali	-11.7139
▁create	-11.714
tr	-11.714
▁consultato	-11.714
▁lontananza	-11.7143
▁specificità	-11.7146
▁cercar	-11.7147
cano	-11.7147
▁trattenuto	-11.7153
▁guadagni	-11.7153
▁opprime	-11.7153
▁modernizzazione	-11.7155
scritto	-11.7156
▁accompagnare	-11.7157
▁giudiziarie	-11.7163
fino	-11.7164
▁fossimo	-11.7164
▁posse	-11.7165
▁beati	-11.7166
▁interrompere	-11.7167
▁comprendono	-11.7169
▁abitazioni	-11.717
▁arrabbia	-11.7171
▁red	-11.7174
▁decima	-11.7176
▁corrispondenti	-11.7178
▁stampato	-11.718
▁menzionare	-11.7181
▁discepoli	-11.7181
▁selvaggio	-11.7181
▁diplomazia	-11.7181
▁brand	-11.7183
▁rettifica	-11.7194
-1	-11.7194
▁azzurri	-11.7195
▁valoroso	-11.7195
▁allevatori	-11.7197
▁spento	-11.7197
▁reggia	-11.7199
ttero	-11.7202
58	-11.7204
▁magna	-11.7205
▁osato	-11.7205
▁lordo	-11.7206
ccu	-11.7207
▁ovest	-11.7208
▁intelletto	-11.7209
▁facebook	-11.7209
▁trascorsi	-11.7209
ía	-11.7211
▁cagioni	-11.7212
▁mormora	-11.7213
ek	-11.7215
▁dimostrazioni	-11.7215
cole	-11.7216
▁infanzia	-11.7218
▁moltissime	-11.7219
▁stipendio	-11.7219
▁veneta	-11.7219
▁sufficienza	-11.7223
▁avvolge	-11.7223
▁coerenti	-11.7223
▁interrotto	-11.7223
▁resterà	-11.7223
▁scarse	-11.7224
esso	-11.7224
▁laonde	-11.7225
▁ridusse	-11.7225
▁fattura	-11.7225
▁gon	-11.7227
▁blo	-11.7231
▁denunciare	-11.7233
▁scorge	-11.7233
▁concludendo	-11.7233
▁pistola	-11.7237
iana	-11.7237
▁sportivi	-11.7237
▁1989	-11.7237
ib	-11.7241
▁addita	-11.7241
▁apprendere	-11.7241
▁mangi	-11.7241
▁2006.	-11.7243
▁elettricità	-11.7244
▁120	-11.7249
▁scontato	-11.725
▁chiarimento	-11.7251
▁ammessi	-11.7251
▁favorisce	-11.7252
▁postale	-11.726
▁ferme	-11.7261
8/	-11.7262
▁ardore	-11.7266
▁ascoltando	-11.7267
▁rimuovere	-11.7268
▁sottrarsi	-11.7268
▁disarma	-11.7269
▁mondi	-11.7271
plo	-11.7273
▁promise	-11.7275
▁insistito	-11.7276
▁piangeva	-11.7276
▁inaccettabili	-11.7279
▁caduti	-11.728
ney	-11.728
▁fabbriche	-11.7281
▁compila	-11.7281
nam	-11.7282
grafo	-11.7283
▁paure	-11.7291
ciò	-11.7292
▁cella	-11.7292
▁orizzontale	-11.7293
▁jacopo	-11.7293
▁costei	-11.7293
▁mercante	-11.7293
▁palacio	-11.7294
▁trasferimenti	-11.7294
▁esperimento	-11.7297
▁rispondono	-11.73
▁attraversare	-11.7301
▁mediazione	-11.7301
▁priori	-11.7302
▁designato	-11.7304
▁dichiarata	-11.7306
my	-11.7306
operato	-11.7307
▁denunce	-11.7307
▁cofinanziamento	-11.7308
▁raddoppia	-11.7309
▁recò	-11.731
▁interessata	-11.731
▁nico	-11.7311
▁duramente	-11.7312
▁pastori	-11.7313
▁carichi	-11.7313
▁opportunamente	-11.7314
▁accettabili	-11.7315
▁52	-11.7316
▁stimato	-11.7318
▁redigere	-11.7318
▁separato	-11.7319
▁assoggetta	-11.7321
▁accetto	-11.7322
zzano	-11.7323
▁time	-11.7323
ion	-11.7323
▁andai	-11.7324
▁fru	-11.7325
▁rocco	-11.7326
▁bellezze	-11.7327
▁cavo	-11.7333
letta	-11.7334
▁perpetuo	-11.7335
▁ristretto	-11.7335
▁universali	-11.7335
▁fornendo	-11.7336
▁selvaggi	-11.734
▁travaglia	-11.7341
▁reputazione	-11.7343
niche	-11.7347
▁facciata	-11.7347
▁compromettere	-11.7348
▁licenze	-11.735
▁colombo	-11.735
▁automatico	-11.735
▁peter	-11.7351
▁onestà	-11.7351
▁manu	-11.7353
▁scaricare	-11.7353
▁istrui	-11.7353
▁leggeva	-11.7355
▁vili	-11.7357
▁firmare	-11.7358
▁ph	-11.736
▁dua	-11.7361
▁tollerare	-11.7361
▁prov	-11.7362
time	-11.7364
▁autonomo	-11.7364
▁vettori	-11.7364
▁consoli	-11.7364
▁declina	-11.7364
▁blair	-11.7364
▁mentalità	-11.7365
▁approvo	-11.7365
▁prevalentemente	-11.7366
lm	-11.7366
▁gianni	-11.7367
▁commercializza	-11.7368
▁stringendo	-11.7368
▁leoni	-11.7369
▁tè	-11.737
▁deliberazione	-11.7371
▁apprezzare	-11.7372
▁prenderà	-11.7375
sette	-11.7376
tela	-11.7377
▁pellegrino	-11.7378
▁accampa	-11.7378
▁trovasse	-11.7378
▁paesaggi	-11.7379
messe	-11.7379
▁adottando	-11.738
▁restituzione	-11.7381
▁aprendo	-11.7383
▁gentilezza	-11.7384
▁ardi	-11.7386
▁2006,	-11.7386
roma	-11.7386
▁conobbe	-11.7388
▁sciagura	-11.7388
▁rideva	-11.739
▁produttivo	-11.7392
▁invisibile	-11.7392
▁sponde	-11.7393
▁trascura	-11.7394
▁perduti	-11.7394
▁cagion	-11.7395
▁nesso	-11.7395
75	-11.7395
▁lavorazione	-11.7395
▁parcheggio	-11.7397
▁presentava	-11.7397
▁dor	-11.7398
▁esercitata	-11.74
51	-11.7404
▁dirgli	-11.7405
▁democrazie	-11.7406
▁jugoslavia	-11.7406
▁scelti	-11.7406
▁gallia	-11.7409
▁paghe	-11.7409
▁sacrifici	-11.7412
attacco	-11.7415
▁forca	-11.7416
▁paro	-11.7417
▁implora	-11.7417
▁mito	-11.7418
▁allorquando	-11.7421
▁riviste	-11.7422
▁intervista	-11.7425
▁esclusivo	-11.7426
▁colgo	-11.7427
▁allarme	-11.7428
▁greche	-11.7431
▁rivelarsi	-11.7432
▁borghese	-11.7435
▁istinto	-11.7435
▁meda	-11.7437
▁codesto	-11.7442
▁box	-11.7443
mal	-11.7445
▁5.	-11.7446
▁prelati	-11.7451
▁blocchi	-11.7451
▁dá	-11.7451
▁milita	-11.7451
▁inserita	-11.7451
▁abbigliamento	-11.7454
▁indirizza	-11.7455
bello	-11.7458
▁analoghe	-11.7464
▁opportune	-11.7464
▁dovresti	-11.7464
▁scampa	-11.7465
▁riputazione	-11.7467
volmente	-11.7468
▁min	-11.7469
▁propongono	-11.747
▁magno	-11.7471
▁scarsi	-11.7472
▁ladri	-11.7474
▁brilla	-11.7477
▁consuetudine	-11.7478
▁feconda	-11.7478
▁cresciuta	-11.7478
▁ricevute	-11.7478
▁perocchè	-11.7478
▁dimissioni	-11.7478
▁pulito	-11.7479
▁ritra	-11.748
▁privatizzazione	-11.7481
▁ediz	-11.7485
autonomia	-11.7486
▁traditore	-11.7487
ntò	-11.7487
▁autonoma	-11.7487
▁dogma	-11.7492
ρ	-11.7493
▁senta	-11.7495
▁prosegui	-11.7496
▁etichetta	-11.7498
▁ingannato	-11.7502
▁11,	-11.7504
▁elle	-11.7507
▁uscendo	-11.7507
vale	-11.7507
▁brutale	-11.7507
▁aderito	-11.7507
▁perplessità	-11.7507
▁volevamo	-11.7507
▁pria	-11.7508
ttato	-11.7509
▁tronca	-11.751
▁raccomandato	-11.751
▁bugia	-11.7512
▁carezza	-11.752
▁scalda	-11.7524
▁(2	-11.7526
▁ripi	-11.7527
▁idio	-11.7528
▁supporta	-11.753
▁teologi	-11.7532
▁fissata	-11.7533
▁pense	-11.7534
▁versare	-11.7535
▁laeken	-11.7536
▁sfortunatamente	-11.7536
gente	-11.7536
▁incomprensibile	-11.7536
▁duecento	-11.7538
▁autobus	-11.7541
▁scontri	-11.7542
gina	-11.7545
▁siciliano	-11.7546
▁sperimenta	-11.7548
▁imperocch	-11.7549
▁rivede	-11.7549
▁sorrideva	-11.755
▁lussemburghese	-11.755
َ	-11.755
▁perciocchè	-11.755
▁cremona	-11.755
▁andremo	-11.7557
?!	-11.7561
vò	-11.7561
▁onorato	-11.7563
sino	-11.7564
▁comfort	-11.7565
▁auspicato	-11.7566
▁curia	-11.7568
▁consegue	-11.7569
▁convien	-11.7569
rida	-11.7571
▁avvicinare	-11.7572
▁intreccia	-11.7577
▁tazza	-11.7577
▁adoperarsi	-11.7578
▁dazi	-11.7578
ioni	-11.758
▁miseri	-11.7582
▁vocazione	-11.7582
▁posiziona	-11.7584
antica	-11.7584
▁morir	-11.7585
▁diventava	-11.7593
▁guerriero	-11.7594
▁comprenda	-11.7594
▁principii	-11.7597
dera	-11.7599
▁organizzati	-11.7599
out	-11.76
▁andrò	-11.7602
▁giunte	-11.7603
▁dominazione	-11.7604
▁grafica	-11.7605
▁informatica	-11.7606
▁reggere	-11.7607
▁trema	-11.7608
attesa	-11.7608
▁tranquilli	-11.7608
▁quattrini	-11.7608
▁ecologico	-11.7609
▁durevole	-11.7609
▁confuse	-11.7609
▁letizia	-11.7609
▁cotanto	-11.7609
▁ricrea	-11.761
strada	-11.7611
▁12,	-11.7614
▁muso	-11.7615
▁trattata	-11.7619
▁sanzione	-11.762
▁stanziati	-11.762
▁parentesi	-11.7621
▁monsignor	-11.7624
nera	-11.7625
▁semplifica	-11.7626
▁insegnamenti	-11.7628
▁facendosi	-11.763
▁melo	-11.763
xxx	-11.763
▁cambiata	-11.7633
▁tariffa	-11.7633
lari	-11.7633
▁vul	-11.7635
mena	-11.7636
▁ottimale	-11.7637
▁biblioteche	-11.7638
▁adagio	-11.7638
▁possedeva	-11.7642
▁pubblicate	-11.7642
▁proferi	-11.7644
cura	-11.7645
alternativa	-11.7646
▁sper	-11.7646
▁emissione	-11.7648
▁duchi	-11.7648
ngue	-11.765
▁lá	-11.7652
▁riduzioni	-11.7652
▁diventò	-11.7652
▁suddetti	-11.7653
▁totalità	-11.7654
▁definizioni	-11.7655
▁terrazza	-11.7655
▁scopre	-11.7656
▁part	-11.7661
▁volgo	-11.7661
▁garantisca	-11.7663
▁saldo	-11.7664
▁dispiacere	-11.7665
▁impiegare	-11.7665
▁clandestini	-11.7667
▁parleremo	-11.7667
▁invitiamo	-11.7668
▁gridava	-11.7668
cker	-11.7669
▁barbe	-11.7669
ldi	-11.767
▁sollecito	-11.767
ctus	-11.767
▁commesse	-11.767
zionali	-11.7671
▁comunemente	-11.7672
▁significative	-11.7673
▁arche	-11.7673
▁corna	-11.7675
▁associato	-11.7676
▁freme	-11.7678
▁accompagnati	-11.7679
▁obbligatorie	-11.7681
▁qualcun	-11.7681
▁strategici	-11.7681
▁consorte	-11.7682
▁distinto	-11.7682
▁miserabile	-11.7684
▁trovasi	-11.7684
▁eccetto	-11.7685
▁meditazione	-11.7686
▁ricupera	-11.7687
▁segretamente	-11.7689
improvviso	-11.769
intento	-11.769
▁foglia	-11.7691
▁migliorata	-11.7692
▁sfrutta	-11.7692
▁servigi	-11.7692
▁petrarca	-11.7696
▁conseguimento	-11.7696
▁transazioni	-11.7696
▁autorizzati	-11.7699
▁avventa	-11.77
▁abilitante	-11.77
▁sentieri	-11.7701
dd	-11.7704
▁colpita	-11.7705
▁competere	-11.7707
▁avvili	-11.7709
▁cercate	-11.7709
▁46	-11.771
▁preparata	-11.771
▁esplicito	-11.7711
▁denominatore	-11.7712
▁visibilità	-11.7714
▁dispera	-11.7714
▁talenti	-11.7714
▁fortunata	-11.7716
indirizzo	-11.7719
▁prussia	-11.772
▁giunga	-11.7721
▁alzando	-11.7722
▁proto	-11.7722
▁colora	-11.7724
ortensia	-11.7726
▁annal	-11.7726
▁affatica	-11.7726
▁distacca	-11.7726
▁scatta	-11.7727
▁larghezza	-11.7727
nas	-11.7728
riano	-11.7729
▁cinquant	-11.7729
▁mq	-11.773
▁fog	-11.773
▁life	-11.773
▁forestale	-11.7735
▁dominato	-11.7735
▁risveglia	-11.7737
▁niun	-11.7738
▁universo	-11.7739
▁inquadra	-11.774
▁ribelle	-11.774
▁vetta	-11.7741
▁orbene	-11.7741
▁cartagine	-11.7741
▁aspettato	-11.7742
▁affascinante	-11.7743
▁41	-11.7744
▁valutato	-11.7745
ngl	-11.7745
ndra	-11.7745
▁giovinetto	-11.7747
▁concepito	-11.7748
▁seguirono	-11.7749
▁specialisti	-11.7753
▁formati	-11.7754
▁insegui	-11.7754
▁fulmine	-11.7755
▁fragile	-11.7755
▁punire	-11.7755
▁radicalmente	-11.7755
corre	-11.7756
▁drammatico	-11.7757
▁piaccia	-11.7757
▁domandava	-11.7757
▁bancario	-11.7757
uc	-11.7758
lta	-11.7758
▁calcolare	-11.776
▁giocatore	-11.7761
ssimamente	-11.7764
▁castro	-11.7765
ndre	-11.7767
▁tornarono	-11.7767
amico	-11.7769
▁lituania	-11.777
▁terze	-11.7771
▁smaltimento	-11.7771
▁comunione	-11.7777
▁disaccordo	-11.7778
▁spostare	-11.7778
▁statistica	-11.7779
▁marmi	-11.7782
▁ottenuta	-11.7785
▁deploro	-11.7785
▁dintorni	-11.7785
▁inclusa	-11.7785
▁testimonia	-11.7786
▁parallelamente	-11.7787
pica	-11.7787
ennesima	-11.7787
▁particelle	-11.7788
▁capiva	-11.7793
▁1997,	-11.7793
▁rabbi	-11.7794
dj	-11.7795
▁spre	-11.7797
avanguardia	-11.78
▁napoletano	-11.78
▁sciopero	-11.78
▁opposti	-11.78
▁tullio	-11.78
monte	-11.78
▁invecchia	-11.78
clo	-11.7802
opzione	-11.7802
▁consorzio	-11.7803
▁deliberato	-11.7804
▁passeggio	-11.7806
inverno	-11.7808
▁certificati	-11.7809
▁sudan	-11.7809
pedi	-11.7809
▁sordi	-11.7809
▁sudore	-11.781
tola	-11.7811
▁bicicletta	-11.7814
▁toscani	-11.7814
▁incrocia	-11.7815
▁black	-11.7815
▁nunzio	-11.7816
▁gabbia	-11.7816
▁nutre	-11.7816
▁deposita	-11.7816
▁$	-11.7817
▁tunisia	-11.7817
▁abitudine	-11.7818
▁gratuitamente	-11.782
▁punizione	-11.7821
▁tornati	-11.7822
▁addormenta	-11.7822
▁anticipare	-11.7823
▁lutto	-11.7824
▁riconoscono	-11.7824
65	-11.7826
▁tan	-11.7827
▁tiri	-11.7827
▁riflessi	-11.7828
▁peda	-11.7828
▁analoghi	-11.7829
▁avresti	-11.7829
▁ruggiero	-11.783
▁maglia	-11.7831
tali	-11.7831
▁mamme	-11.7832
▁dovessi	-11.7833
▁trattate	-11.7834
▁verun	-11.7835
islam	-11.7841
▁sará	-11.7841
▁etica	-11.7841
▁47	-11.7842
54	-11.7843
▁appresta	-11.7843
▁war	-11.7847
▁roth	-11.7849
▁rigetta	-11.785
▁rispettate	-11.7851
▁capitan	-11.7854
▁nilo	-11.7854
▁premesse	-11.7855
▁giovi	-11.7858
▁2001.	-11.7858
▁penetrare	-11.7858
▁guardavano	-11.7858
▁disturbo	-11.7859
▁prodotte	-11.7859
▁ricetta	-11.7859
▁invenzioni	-11.7859
▁george	-11.7859
▁carezze	-11.786
▁erede	-11.7861
▁derivati	-11.7863
▁xxiii	-11.7865
▁rigorosamente	-11.7866
▁parlavano	-11.7871
▁sostenibili	-11.7872
▁ispettori	-11.7874
▁posteriori	-11.7874
▁sopprimere	-11.7875
▁solennità	-11.7876
▁indicate	-11.7878
▁arresti	-11.7878
▁rinnovamento	-11.7879
▁avvertito	-11.7881
tiamo	-11.7881
^	-11.7883
▁apprendimento	-11.7883
▁visioni	-11.7885
▁annoia	-11.7886
▁fiere	-11.7886
tissima	-11.7886
messi	-11.7887
▁sottoposte	-11.7889
▁pellegrini	-11.7889
▁verificarsi	-11.789
?”	-11.7891
stante	-11.7892
▁laghi	-11.7892
▁credevano	-11.7897
'1	-11.7898
▁chiederci	-11.79
▁marchesi	-11.79
▁propose	-11.79
▁capisci	-11.79
▁impi	-11.7902
▁dole	-11.7902
▁carburante	-11.7904
▁comporterebbe	-11.7904
56	-11.7904
▁xxii	-11.7904
▁procaccia	-11.7905
▁insegne	-11.7908
▁sidrac	-11.791
▁integrale	-11.791
▁fondate	-11.7911
▁ottener	-11.7913
▁trattasse	-11.7913
▁modella	-11.7915
▁rica	-11.7916
▁buonarroti	-11.7916
▁cotal	-11.7917
▁confisca	-11.7919
▁nissun	-11.792
sani	-11.7922
▁camminava	-11.7925
▁studiosi	-11.7925
▁affidamento	-11.7926
▁accada	-11.7929
▁celebri	-11.7929
▁equipaggi	-11.793
▁concordare	-11.7932
η	-11.7934
▁portavoce	-11.7934
▁scolastici	-11.7934
gl	-11.7938
▁sy	-11.7939
gliano	-11.7942
▁palesa	-11.7943
-19	-11.7945
mos	-11.7946
▁arrivava	-11.7946
▁liquida	-11.7946
▁macchie	-11.7946
▁inoltra	-11.7949
▁costruzioni	-11.7949
▁ran	-11.7949
▁fabio	-11.795
▁solennemente	-11.7952
▁parmi	-11.7952
▁apriva	-11.7953
▁basate	-11.7954
▁cat	-11.7955
▁inviati	-11.7957
bert	-11.796
▁clonazione	-11.7964
▁mediterranea	-11.7964
▁bevande	-11.7964
▁galeazzo	-11.7965
▁insisto	-11.7965
▁avevi	-11.7966
▁agisce	-11.7966
▁mogli	-11.7969
▁duratura	-11.797
pad	-11.7972
llato	-11.7973
▁vaglia	-11.7973
▁ricostruire	-11.7973
▁affrontando	-11.7974
▁zitto	-11.7974
ight	-11.7975
▁leggerezza	-11.7976
▁pronte	-11.7976
▁compatibili	-11.7979
▁assicuro	-11.7979
▁cosė	-11.798
▁grembo	-11.798
▁accesa	-11.798
▁appassionati	-11.798
▁erbe	-11.7984
▁facevo	-11.7985
▁aggrega	-11.7987
gn	-11.7988
▁rap	-11.7989
▁infiamma	-11.7991
..."	-11.7993
▁elettrico	-11.7994
▁linguistica	-11.7994
▁riflesso	-11.7994
▁firme	-11.7996
▁educa	-11.7997
▁um	-11.7997
▁posi	-11.7998
▁liber	-11.7998
▁psicologia	-11.7999
▁proc	-11.8003
▁ottone	-11.8003
acci	-11.8004
albero	-11.8004
▁uccise	-11.8005
lfo	-11.8008
▁cerimonie	-11.801
▁contemporaneo	-11.801
▁muscoli	-11.801
▁attendeva	-11.801
▁appari	-11.8012
▁indirettamente	-11.8013
▁br	-11.8013
zz	-11.8016
▁gr	-11.8018
▁permettendo	-11.802
▁fie	-11.8022
▁attentato	-11.8023
▁innovazioni	-11.8025
▁bottiglie	-11.8025
▁toccò	-11.8026
andamento	-11.8029
▁toccava	-11.8029
▁magi	-11.8033
68	-11.8033
▁consolida	-11.8038
▁sve	-11.8038
▁costituente	-11.804
▁inammissibile	-11.804
▁congiunti	-11.804
▁basterebbe	-11.804
cht	-11.8041
▁id	-11.8042
organismo	-11.8042
▁contorni	-11.8044
vera	-11.8045
soli	-11.8045
▁documenta	-11.8046
ο	-11.8046
▁russe	-11.8046
▁mancavano	-11.805
▁assalta	-11.805
▁ordinamento	-11.805
▁istor	-11.8051
[...]
